#version: 0.2
à ¦
à §
Ġ à¦
à¦ ¾
à§ ĩ
à¦ °
à§ į
à¦ ¿
à¦ ¨
à¦ ¤
à¦ ķ
à¦ ²
à§ Ł
à¦ ¬
à¦ ®
à§ ģ
Ġà¦ ķ
Ġà¦ ¸
à¦ ¸
Ġà¦ ¬
Ġà¦ ª
à¦ ¦
à§ ĭ
à¦ Ł
à¦ ¯
à¦ ª
à§ Ģ
Ġà¦ Ĩ
Ġà¦ ®
Ġà¦ ı
à¦ ĩ
à¦ ľ
Ġà¦ ¹
à¦ ¶
à¦ Ľ
Ġà¦ ¨
à¦ Ĺ
Ġà¦ ¦
Ġà¦ķ à¦°
à¦ ·
Ġà¦ ¤
à¦ ¹
Ġà¦ ħ
Ġà¦ ľ
à¦ §
Ġ à§
à¦ ļ
à¦ Ĥ
à¦ ¥
Ġà¦ °
Ġà¦ ¶
à¦ ĸ
à¦ Ń
à¦ £
à¦ ĵ
Ġà¦ ¯
Ġà¦ Ĺ
à§ ľ
Ġà¦ ļ
Ġà¦ ĵ
Ġà¦ Ń
Ġà¦¹ à§Ł
Ġà¦ ī
à¦ ¡
Ġà¦ª à¦°
Ġà¦ı à¦ķ
Ġà¦ ¥
Ġà¦ ²
§ à§
Ġà¦¸ à¦®
Ġà¦ Ľ
Ġà¦ ĩ
à§ ĥ
Ġà¦ «
à¦ «
à¦° à¦¤
Ġà¦¬ à¦²
Ġ Ġ
Ġà¦ ĸ
à§ Ĥ
à§ ¦
à¦ Ļ
à¦ ł
à¦ ģ
Ġà¦ħ à¦¨
Ġà¦Ĩ à¦®
à¦ ī
à¦ĵ à§Ł
Ġà¦ Ł
à¦° à¦ķ
Ġà¦ľ à¦¨
Ġà§ ¨
Ġà§ §à§
à¦° à¦£
Ġà¦ı à¦¬
à¦ľ à¦¨
Ġà¦ı à¦ĩ
à¦¾ à¦Ĥ
Ġà¦Ĩ à¦°
à¦¾ à¦ģ
à¦¬ à¦°
Ġà¦ ĺ
Ġà¦ ¡
à¦® à¦¨
à¦ ı
Ġà¦ §
à¦ ŀ
à¦ª à¦°
Ġà¦ıà¦ķ à¦Ł
à¦¤ à¦°
Ġà¦ī à¦ª
à¦¬ à¦¨
à¦¬ à¦¸
Ġà¦¹ à¦¬
à¦ª à¦¨
à§ Į
Ġà¦ı à¦°
à¦ĸ à¦¨
à¦° à¦®
à§ Ī
Ġà§¨ à§¦
à¦ķ à¦°
Ġà¦Ĩ à¦¸
Ġà¦® à¦¨
Ġà¦ħ à¦Ń
à¦¶ à¦¨
à§Ł à¦¨
Ġà¦ķà¦° à¦¤
à¦ Ĩ
Ġà¦Ĩ à¦Ĺ
à¦¿ à¦Ĥ
Ġà¦Ĩ à¦²
à§ İ
à§ ¨
Ġà¦® à¦§
Ġà¦¹ à¦²
à¦° à¦¸
Ġà¦Ĩ à¦¬
à¦ª à¦¤
à¦ĩ à¦¨
Ġà¦¸ à¦¬
à¦° à¦¬
Ġà¦¸à¦® à§Ł
Ġà¦ķ à¦®
à§ §à§
à¦² à¦ķ
Ġà¦§ à¦°
Ġà§¨ à§
à¦ ĺ
Ġà§ ©
Ġà¦ļ à¦²
à¦Ł à¦¨
à¦² à¦¨
Ġà¦ª à§ľ
Ġà¦¸ à¦Ļ
Ġà¦ī à¦¦
à¦ī à¦¨
à¦ļ à¦¨
à¦Ľ à¦°
à¦· à¦£
Ġà¦ı à¦¸
Ġà¦¹ à¦¤
Ġà¦ķ à¦¥
Ġà¦Ĩ à¦¨
à¦¦ à¦¨
à¦° à¦¦
à¦² à§Ł
Ġà¦¬ à¦Ľà¦°
à¦¥ à¦®
à¦· à§Ł
Ġà¦¸ à¦°à¦ķ
Ġà¦¬ à¦°
Ġà§ «
à¦¸ à¦²
Ġà¦¸ à¦¹
Ġà¦¦ à¦²
¯ à§
à¦¹ à¦®
Ġà¦¬ à¦¨
Ġà§ ª
à¦° à¦¹
Ġà¦® à¦¹
à¦ķ à¦²
Ġà¦ħ à¦¬
à¦¤ à¦¨
à¦¦ à¦°
à¦¯ à¦ķ
Ġà¦ħ à¦°
à¦² à¦¤
à¦° à¦§
à¦¯ à¦®
à¦° à¦¶
Ġà¦° à§Ł
Ġà¦ħ à¦§
à¦® à¦²
Ġà¦¤ à¦¬
Ġà¦® à¦¤
Ġà¦Ĩ à¦Ľ
à¦¯ à¦¬
Ġà¦ı à¦²
Ġà¦Ĩ à¦ªà¦¨
Ġà¦Ĺ à¦¤
à¦° à¦¥à¦®
à¦ Ŀ
Ġà¦ı à¦ĸà¦¨
à¦ª à¦ķ
à¦¯ à¦¨
Ġà¦¹ à¦ļ
à¦¦ à¦ķ
à¦¨ à¦¤
à¦¬ à¦²
Ġà¦ķà¦° à¦Ľ
Ġà¦ħ à¦¸
à¦ķ à¦Ł
Ġà¦ ¢
Ġà¦ı à¦Ł
Ġà§¨à§¦ à§§à§
à¦® à¦¤
à¦¤ à¦¬
à¦ĩ à¦²
à¦¤ à¦®
Ġà¦Ĩ à¦ľ
Ġà¦ĩ à¦¨
Ġà¦¸ à¦°
à§ §
Ġà¦ĺ à¦Łà¦¨
Ġà¦Ĩ à¦ķ
Ġà¦ĵ à§Ł
à¦Ĺ à¦¤
Ġà¦Ĩà¦® à¦°
à¦¯ à¦¬à¦¸
Ġà¦īà¦ª à¦ľ
à¦° à¦¨
à¦· à¦ķ
à¦ĩ à¦ķ
à¦¬ à¦¬
Ġà¦ħ à¦¬à¦¸
à¦¸ à¦¬
à§ «
Ġà¦¸ à¦Ń
Ġà¦¸ à¦¨
à¦Ĺ à¦°
Ġà¦ı à¦®à¦¨
à¦¹ à¦¤
à¦¸ à¦¨
Ġà¦ķ à¦²
à¦ĩ à¦°
Ġà¦Ľ à¦¬
Ġà§ ¬
Ġà¦¹ à¦ĵà§Ł
Ġà¦Ĩ à¦¦
à¦¸ à¦ª
à¦ ĥ
Ġà§§à§ ¦
Ġà¦ĵ à¦ĩ
Ġà¦¨ à§Ł
Ġà¦ĩ à¦¸à¦²
à¦² à¦¬
à¦ĩ à¦Ł
à¦Ł à¦ķ
à¦¦ à¦¸
à¦¹ à¦°
Ġà¦ķà¦° à¦¬
à§İ à¦¸
à¦ķ à¦¤
Ġà¦¨ à¦¤
Ġà¦Ĩ à¦¶
à§ ©
Ġà§ Ń
à¦° à§Ł
Ġà¦ħ à¦¤
Ġà¦¸ à¦ķ
à¦¸ à¦¹
à§ ª
à¦® à¦°
Ġà§§à§ ¯à§
à¦® à¦ķ
Ġà¦ī à¦¤
à§ ®
Ġà¦¸ à¦¦à¦¸
Ġà§ §
à¦¸ à¦®
Ġà¦¬ à§ľ
à§ Ń
Ġà¦ķà¦° à¦²
Ġà¦ ł
Ġà¦ĩ à¦īà¦¨
Ġà§ ®
à¦° à¦ļ
à§ ¬
Ġà¦¯ à¦¦
à¦¨ à¦Ł
Ġà¦« à¦²
à¦° à¦ª
à¦¬ à¦ķ
Ġà¦ı à¦¤
à¦¨ à¦¬
Ġà¦Ĩ à¦ĩà¦¨
Ġà¦ķ à§Ł
à¦ĩ à§Ł
Ġà¦ī à¦¨
Ġà¦ª à¦¦
Ġà¦ī à¦ł
à¦° à¦ĵ
à¦¯à¦¬ à¦¹
Ġà¦¶ à¦¤
Ġà¦° à¦¹à¦®
ĠĠ Ġ
Ġà¦ıà¦ķ à¦ľà¦¨
à¦ķ à¦¦
à¦¨ à¦¨
à¦ķ à¦¬
à¦ĸ à¦¤
Ġà¦² à¦ķ
Ġà§ ¦
à¦ļ à¦²
Ġà¦ Ŀ
Ġà¦¬ à¦¸
Ġà¦¤ à¦¥
Ġà¦Ĩ à§Ł
Ġà¦Ĩà¦° à¦ĵ
à¦¨ à¦ķ
à¦° à¦Ń
Ġà¦ĩ à¦¤
à¦® à¦¸
à¦ ħ
à¦® à¦¬
à¦¶ à¦ķ
à¦ı à¦¨
à¦° à¦²
à¦Ĺ à¦ŀ
Ġà¦ħ à¦ª
à¦ı à¦¸
à¦°à¦¹ à¦£
à§ ¯
Ġà¦° à¦ķ
à¦® à¦¦
à¦¸ à¦°
à¦® à¦ķà¦°
Ġà¦¤ à¦ĸà¦¨
Ġà¦ī à¦ļ
à¦¤ à¦ķ
à§Ł à¦ķ
à¦¨ à¦®à¦¨
à§ģ à¦ģ
à¦¨ à¦¸
Ġà§¨à§¦ à§¨
Ġà¦ħ à¦«
Ġà¦ĩ à¦ī
Ġà¦ĺ à¦Ł
à¦ĩ à¦¸
Ġà¦ī à¦²
Ġà¦¶ à¦°
à¦§ à¦¨
Ġà¦Ĺ à¦£
Ġà§§à§ ¨
à¦¹ à¦²
à¦¹ à¦¸
à§Ł à¦¸
Ġà¦¸à¦® à¦¸
à¦¬ à¦ª
Ġà¦Ĩ à¦ĵà§Ł
Ġà¦Ĩ à¦¤
à¦ł à¦¨
à§Ł à¦¤
à§Ł à¦°
à¦¨ à¦ĵ
Ġà¦ľ à¦®
Ġà¦¬ à¦ķ
Ġà¦ħ à¦ķ
à¦¸ à¦ķ
Ġà¦ĸ à¦¬à¦°
Ġà¦ı à¦®
Ġà¦ª à¦ķ
à¦Ł à¦°
Ġà¦īà¦ª à¦¸
à¦ĸ à¦²
Ġà¦ı à¦¨
à¦® à§Ł
Ġà§§à§ «
Ġà§ ¯
à¦° à¦Ł
à§¦ à§¦
Ġà¦ī à¦ªà¦°
à¦· à¦¦
à¦· à¦¤
à¦Ĺ à¦²
Ġà§§à§ ¯
Ġà¦ľ à§Ł
Ġà¦¦ à¦ķ
Ġà¦ħ à¦ªà¦°
Ġà¦¶ à¦¹à¦°
à¦¯ à¦¤
Ġà¦¶ à¦¨
à¦¨ à§Łà¦¨
Ġà¦ķ à¦¬
Ġà¦¹ à¦¨
à¦¬ à¦¤
à¦¸ à¦¦
Ġà¦ı à¦Ĺ
Ġà¦ĵ à¦ªà¦°
Ġà§§à§ §
ĠĠ ĠĠ
à¦§ à¦¬
Ġà¦¸ à¦¤
à¦° à¦«
Ġà¦ıà¦¸ à¦¬
Ġà¦ĺ à¦°
Ġà¦ª à¦¥
à¦ıà¦¨ à¦ª
Ġà¦¬ à¦¹
à¦° à¦ĩ
à¦°à¦® à¦£
Ġà¦¯ à¦ĸà¦¨
à¦ī à¦Ł
Ġà¦Ń à¦°
Ġà¦§à¦° à¦¨
Ġà§§à§ ®
à¦¥ à¦¨
Ġà¦Ĩ à¦¹à¦®
Ġà¦ı à¦¦
à¦Ł à¦Ĺ
Ġà¦Ĩ à¦ĩ
à¦Ĩ à¦ĩ
à¦Ľ à¦¨
Ġà¦ıà¦ķ à¦ĩ
à¦ķ à¦¸
à¦ª à¦¦
à¦« à¦²
Ġà¦Ĺ à§ľ
à¦¦ à¦²
à§Ł à¦®
Ġà¦¦ à¦°
à¦¯ à¦¦
Ġà¦ī à§İ
à¦·à§Ł à¦Ł
Ġà¦¨ à¦®
Ġà¦ Ĳ
Ġà¦Ĩ à¦ª
Ġà¦ı à¦ĸ
Ġà¦ıà¦° à¦ªà¦°
Ġà¦¬ à§Łà¦¸
à¦ı à¦®
Ġà¦¹à§Ł à¦¨
à¦² à¦Ĺ
Ġà§§à§ ª
à¦Ń à¦¬
Ġà¦¬ à¦Ļ
à§Ł à¦Ĺ
à¦¨ à¦°
à§ĩ à¦ģ
Ġà¦Ĩ à¦Łà¦ķ
Ġà§¨à§¦ à§¦
Ġà¦Ĺ à¦²
à¦ľ à¦°
Ġà¦¸ à¦ķà¦²
à¦¨ à¦¦
à§ľ à¦ķ
Ġà§¨à§ ª
Ġà¦¬à¦² à¦²
à¦· à¦®à¦¤
à§Ł à¦¦
Ġà§© à§¦
Ġà¦ħà¦¬ à¦¶
à¦¬ à¦¹
Ġà¦¸ à¦ļ
à§ĭ à¦ģ
Ġà§§à§ ¬
à¦ī à¦ľ
Ġà¦° à¦¬
à¦« à¦°
à¦ķ à¦Ń
Ġà¦¨ à¦¦
Ġà¦ļ à¦Ł
Ġà¦¤ à¦¦à¦¨
à¦Ĺ à¦£
à¦° à¦ªà¦°
à¦¯ à¦°
Ġà§§à§ ©
à¦° à¦¯
Ġà¦ª à¦¶
Ġà¦¹ à¦ķ
à¦ł à¦ķ
Ġà§¨à§¦à§¨ à§§
à¦ĩ à¦¬
Ġà¦ľ à¦°
Ġà¦ľ à¦²
Ġà§§à§ Ń
à¦Ĺ à¦łà¦¨
Ġà¦ķ à¦ĸà¦¨
à¦Ĺ à¦¬à¦¨
Ġà§¨à§ «
Ġà¦¬à¦² à¦Ľ
à¦¬ à¦¶
à¦« à¦¤
Ġà¦® à¦Ļ
Ġà¦Ĩà¦² à¦®
Ġà¦ķ à¦¨
Ġà¦Ĩ à¦¹
à¦° à¦Ĺ
Ġà¦¸à¦¬ à¦ļ
Ġà¦Ĺà¦¤ à¦ķ
Ġà¦ļà¦² à¦Ľ
à¦ķ à¦ľà¦¨
à¦¤ à¦¤
Ġà¦Ń à§Ł
Ġà¦¨ à¦Ń
Ġà¦¬à¦² à¦¤
à¦Ĺ à¦²à¦¬
à¦ĩ à¦ľ
Ġà¦ı à¦Ľ
à¦ı à¦ĩ
Ġà¦ī à¦ĩà¦ķ
Ġà¦® à¦°
Ġà¦ı à¦ª
à¦¨ à§Ł
à¦ī à¦²
à¦° à¦ľ
Ġà¦¶ à¦ķ
Ġà¦Ĩ à¦«
Ġà¦ħ à¦¥
Ġà¦Ĺ à¦¬
Ġà§¨à§ §
à¦ľ à§Ł
à¦Ĩ à¦°
Ġà¦¸ à¦¦à¦°
à¦Ĺ à¦®
à¦ľ à¦§
à¦ĩ à¦¡
à¦¶ à¦Ł
Ġà¦ķ à¦¤
à¦ķ à¦¨
à¦Ĺ à¦¨
à¦¦ à¦ª
Ġà¦ļ à¦°
à¦¥ à¦²
Ġà¦ļà¦² à¦ļ
Ġà¦¨ à¦¬
à¦ĩ à¦¤
à¦°à¦ķ à¦²
à§Į à¦ģ
à¦£ à¦®
Ġà¦ħ à¦²
à¦¯ à¦¸
à¦ľ à¦¸
à¦² à¦®
à§İ à¦ķ
à¦¤ à¦¦
à¦® à¦§
à¦¬ à¦¦
Ġà¦¸ à¦ª
Ġà¦ Ī
à¦ª à¦Ł
Ġà¦Ĩà¦¸ à¦²
Ġà¦ľ à§ľ
Ġà¦ħ à¦ŀ
Ġà¦« à¦°
à¦ļ à§Ł
à¦² à¦¸
Ġà¦ĺ à¦£
Ġà¦ĵ à¦ł
Ġà¦Ľ à§ľ
à¦ľ à¦®
Ġà¦® à¦¸
Ġà¦Ĩà¦¬ à¦¦
Ġà§¨ à§¨
Ġà¦¤ à¦°
à¦¶ à¦Ĺ
Ġà¦ľ à¦¬
Ġà¦ĩ à§Ł
Ġà¦ħ à¦Ĺ
Ġà¦Ĩà¦¸ à¦¨
Ġà¦¶ à¦¹
à¦¨ à¦®
à¦¤ à¦²
Ġà¦Ĩà¦¸ à¦Ľ
à¦ľà¦¨ à¦ķ
Ġà¦ª à¦¤
Ġà¦Ĩ à¦§
à¦ķ à¦ķ
Ġà¦ªà¦° à¦¬à¦°
à¦ĺ à¦°
à¦° à¦Ľ
à¦Ĩ à¦®
à¦ĩ à¦®
à¦¯ à¦ĩ
Ġà¦¸à¦® à¦°
Ġà§« à§¦
Ġà¦¸ à§ľà¦ķ
Ġà¦¸à¦¹ à¦¯
Ġà¦Ĩà¦Ĺ à¦¸
à¦° à¦°
Ġà¦¦ à¦¶
à¦° à¦ªà¦¤
à¦ļ à¦ķ
Ġà§¨à§ ©
Ġà¦Ĺ à¦°
à¦§ à¦¤
Ġà¦Ĩ à¦¹à¦¤
Ġà¦ķ à¦²à¦ķ
Ġà¦ıà¦ķ à¦¦
Ġà¦® à¦ľ
à¦® à¦Ĺ
à¦· à¦®
Ġà¦¯ à¦¥
à¦¹ à¦¬
Ġà§ ¯à§
à§¨ à§¦
Ġà¦ķ à¦ł
Ġà¦ľà¦¨ à¦ª
à¦¯ à¦®à¦¨
à¦¯ à¦ª
Ġ à§į
Ġà§¨à§¦à§§à§ ¯
Ġà¦¹à§Ł à¦¤
Ġà¦ıà¦ĸà¦¨ à¦ĵ
Ġà¦¸à¦¹ à¦ľ
à¦¶ à¦²
à¦® à¦ª
Ġà§¨à§¦à§¨ à§¦
à¦¯ à¦¤à¦®
à¦² à¦ª
à¦¨ à¦Ĺà¦°
Ġà¦¯ à¦¤
Ġà¦ħà¦¨ à¦²
à¦ī à¦¦
à¦¸ à¦°à¦ķ
Ġà¦ĩ à¦¸
à¦¯ à¦ķà¦°
à¦Ł à¦¬à¦²
Ġà¦Ľ à§Ł
à¦¬ à¦ĩ
à¦ľ à¦²
Ġà¦ª à¦²
Ġà§¨à§ ¬
à¦ĺ à¦Łà¦¨
Ġà¦ļà¦² à¦¤
à¦¸ à¦Ł
Ġà¦¶ à¦¬
à¦ı à¦²
Ġà¦Ĺ à¦łà¦¨
à¦ī à¦°
Ġà§¨à§ ®
Ġà¦² à§ľ
Ġà¦Ń à¦¬à¦¨
à¦¹ à¦¨
Ġà¦ĵ à¦°
à¦² à¦Ł
à¦¨ à¦Ĺ
à¦Ĩ à¦ª
Ġà¦Ĩà¦¸ à¦¤
Ġà§¨à§ Ń
Ġà¦¸à¦¹ à¦ķ
Ġà¦ı à¦¡
Ġà¦¬ à¦¦à¦²
à¦¸ à¦Ń
à¦ķ à¦°à¦£
à¦ĩ à¦«
Ġà¦ª à¦£
à¦ª à¦¸
à¦ĩ à¦Ń
Ġà¦ķ à¦ķ
Ġà¦¦ à¦«
à¦°à¦¸ à¦Ļ
Ġà¦ª à¦¦à¦ķ
à¦ľ à¦ķ
à¦£ à¦¤
Ġà¦®à¦¸ à¦ľ
à¦·à§Ł à¦ķ
Ġà§ª à§¦
à¦ľ à¦¶
Ġà¦ª à¦ŀ
à§ľ à¦¤
Ġà¦Ĩà¦¨ à¦¨
Ġà¦ ĭ
à¦² à¦¦
à¦ħ à¦¨
à¦Ł à¦¸
Ġà¦Ĺ à¦Ń
à¦°à¦ķ à¦®
Ġà¦īà§İ à¦ª
Ġà¦¨ à¦ľà¦°
à¦ı à¦«
à¦ĵ à¦¤
à¦® à¦ļ
Ġà¦ľà¦¨ à¦Ĺà¦£
à¦ī à¦¡
Ġà¦ĩ à¦²
à¦ļ à¦Ł
à¦¶ à¦°
Ġà§§à§¯à§ Ń
à¦¯ à§Ł
à¦ķ à¦¶
Ġà¦ħ à¦®
à¦¤ à¦°à¦£
à¦°à¦¸ à¦Ń
Ġà¦¬ à¦ĩ
à¦ª à¦¥
Ġà¦ı à¦Ń
Ġà¦ľ à¦Ļ
Ġà¦Ĩ à¦Ł
Ġà¦ĩ à¦®
Ġà¦Ĩ à¦ļ
Ġà¦ļ à¦ķ
à¦ķ à¦®
à¦¥ à¦ķ
Ġà¦ĩ à¦ļ
à¦§ à¦°
Ġà¦ħà¦¥ à¦¬
Ġà¦§ à¦¨
Ġà¦ĵ à¦¸
Ġà¦ĵ à¦Ń
Ġà¦Ĩà¦° à¦¬
à¦« à¦Ł
à¦ľ à¦¤
à¦ı à¦°
à¦¦ à¦¶
Ġà¦īà¦ª à¦²à¦ķ
à¦ª à§ľ
Ġà¦Ĩà¦¸ à¦¬
à¦¯ à¦¥
à¦ª à¦£
à¦ĸ à¦¬
Ġà¦Ĩ à¦ĩà¦¸
Ġà¦ĺ à¦¨
Ġà¦Ī à¦¦
à¦² à¦Ń
à¦Ĺ à¦¦
Ġà§¨à§¦à§§à§ ®
Ġà¦ª à§Ł
à¦Ł à¦®
Ġà¦ľà¦¨ à¦¸
à¦Ł à¦²
Ġà¦ĩà¦ī à¦°
Ġà¦Ĩà¦ľ à¦ķ
à¦¤ à¦Ń
à¦ī à¦ķ
Ġà¦°à¦ķ à¦®
Ġà¦ļ à¦¤
à¦ĵ à¦²
à¦ľ à¦Ł
à¦ľ à¦¬
Ġà¦ħ à¦Ļ
Ġà¦¨ à¦Ĺà¦°
à¦° à¦ĸ
à¦ļ à¦°
à¦· à¦°
Ġà¦¦ à¦°à¦ķ
à¦¶ à¦¬
Ġà¦ĩà¦¨ à¦¸
Ġà¦¡ à¦²
à§İà¦¸ à¦ķ
Ġà¦ ·
à¦ª à¦²
à¦¡ à¦²
Ġà¦ķ à¦·
Ġà¦¦à¦¶ à¦®
Ġà¦ħ à¦ľ
à§ĭ à¦ĥ
Ġà¦® à¦ŀ
Ġà¦ī à§İà¦¸
à¦¨ à¦Ń
Ġà¦® à¦¡
Ġà¦ıà¦®à¦¨ à¦ķ
à¦ĸ à¦Ľ
à¦Ĺ à¦¬
Ġà¦ıà¦ķ à¦¬
à¦Ŀ à¦¤
Ġà¦Ń à¦¬
Ġà¦Ĳ à¦¤
Ġà¦ĸ à¦°à¦ļ
à¦¿ à¦ĥ
à¦ ¢
à¦¡ à¦¨
Ġà¦¦ à¦ĸà¦²
Ġà§¨à§ ¯
à¦¸ à¦¤
à¦ı à¦¦
Ġà¦ľà¦¨ à¦ķ
à¦¬à¦¹ à¦¨
Ġà¦ªà§ľ à¦¤
Ġà§© à§«
Ġà¦¤ à¦¤
à¦¦ à¦®
à¦² à¦²
Ġà¦¸ à¦«à¦°
Ġà¦īà§İ à¦¸à¦¬
à¦² à¦°
à§ģ à¦ĥ
à¦ľ à¦ª
à¦ı à¦ķ
à¦ıà¦¸ à¦¸
Ġà¦ĩ à¦°
à¦£ à¦¬
Ġà¦īà¦ª à¦ķ
Ġà¦ļ à¦¨
Ġà§§à§¯à§ ¯à§
à¦ŀ à¦¤
Ġà¦ħ à¦¶
Ġà¦¨ à¦¨
à¦Ĩ à¦ľ
Ġà¦ª à¦Ľà¦¨
Ġà¦® à¦®à¦¤
Ġà§© à§§
à¦° à¦®à¦¨
Ġà¦¸ à¦ł
à¦¨ à¦ĩ
à¦ Ī
à¦Ĩ à¦¨
Ġà§¨à§¦à§§à§ ¬
à¦° à¦ľà¦¨
à¦Ĺ à§ľ
à¦§ à¦ķ
à¦°à¦¦ à¦°
à¦ĵ à¦¨
à¦¸à¦® à§Ł
Ġà¦Ĩà¦ĩà¦¨ à¦ľ
à¦¨ à¦¹
à¦·à¦ķ à¦¦
à¦² à¦Ľ
Ġà§¨à§¦à§§à§ Ń
Ġà¦¸ à¦¤à¦°
Ġà¦ıà¦ķ à¦®
à¦¬ à§Ł
à§Ł à¦£
Ġà¦ıà¦® à¦ª
Ġà¦¤ à¦²
à¦¨ à¦¬à¦¨
à¦ĩ à¦¦
à¦® à¦¹
Ġà§¨à§¦à§§à§ «
Ġà¦¹ à¦ł
à¦Ĩà¦ª à¦¡
à¦Ń à§Ł
à¦® à¦ľ
Ġà¦ı à¦¶
Ġà§§à§¯à§ ®
Ġà¦²à¦ķ à¦¡
Ġà¦ĩ à¦ŀ
à¦· à¦ľ
à¦ŀ à¦ª
à¦¸ à¦ļ
Ġà¦Ĩ à¦ĵà¦¤
Ġà¦¨ à¦°
Ġà¦ªà§ľ à¦²
Ġà§ª à§«
à¦Ł à¦¤
à¦ĩ à¦ª
à¦ĸ à¦°
à¦¹ à¦ķ
à¦¬ à¦Ľà¦°
à¦¨ à¦²
à§ľ à¦Ľ
Ġà¦Ĩ à¦ĺ
à¦¶ à¦¤
à¦ĸ à¦ķ
à¦ĵ à¦°
à¦ª à¦·
Ġà¦Ĺà¦£ à¦®
Ġà¦ĭ à¦£
à¦¨ à¦¡
Ġà¦¸ à¦ŀ
Ġà¦¸à¦® à¦¨
Ġà¦° à¦Ļ
Ġà§§à§¦ à§¦
Ġà§© à§¨
Ġà¦Ĩà¦¶ à¦Ļ
à¦ĺ à¦¦
à¦² à¦ľ
Ġà¦¬à¦² à¦¬
Ġà¦° à¦¸
à¦Ń à¦°
à¦Ĩ à¦°à¦ĵ
à¦ĩ à¦Ľ
à¦ķ à¦¶à¦¨
à¦¨ à¦ľ
Ġà¦ħà¦¥ à¦ļ
Ġà¦Ĩà¦¹à¦® à¦¦
Ġà¦® à§Ł
Ġà§¬ à§¦
Ġà¦ī à§ľ
à¦Ł à¦¬
à§¨à§¦ à§§à§
à¦Ĺ à¦ķ
à§ ¯à§
Ġà¦Ĩ à§ľ
Ġà¦¦ à¦¶à¦ķ
Ġà¦¸ à¦«à¦²
Ġà¦° à¦¶
Ġà¦¬ à¦¸à¦¬
Ġà¦Ĩà¦ª à¦¡
Ġà¦ĵ à¦·
Ġà¦Ĩà¦« à¦Ĺ
Ġà¦¬ à¦ľ
à¦¡ à¦¸
à¦· à¦¨
à¦¨à¦¸ à¦Ń
à¦® à¦¶
à¦ķ à¦Ľ
à§§à§ ¯à§
à¦¥ à¦¤
à¦¦ à§Ł
Ġà¦ķ à¦£
Ġà¦¸à¦° à¦¬à¦°
à¦¥ à¦°
Ġà¦ķà¦ĸà¦¨ à¦ĵ
à¦ª à¦®
à¦¸ à¦Ļ
Ġà¦ī à¦Ńà§Ł
Ġà¦¬ à§Ł
Ġà§§à§¯à§ ¬
à¦ī à¦¸
Ġà¦ı à¦«
Ġà¦ķ à¦ª
Ġà¦ĵ à¦ª
à¦¤ à¦ª
Ġà¦¹ à¦¸
Ġà§¨à§¦à§§à§ ª
Ġà¦¹ à¦°
Ġà¦ı à¦ľ
à¦² à¦Ļ
à¦¦ à¦£
Ġà¦ĩà¦ī à¦ª
à¦Ł à¦¸à¦®
Ġà§¨à§¦à§§à§ ©
Ġà¦ıà¦° à¦ĩ
à¦¹ à¦°à¦£
à¦Ł à¦ª
Ġà¦¯ à¦¨
à¦ı à¦¬
à¦ķ à¦Ĺ
à¦¬ à¦§
Ġà¦īà¦ª à¦¨
Ġà¦Ĩ à¦¦à¦°
à¦Ń à¦ķ
Ġà¦ıà¦ĩ à¦ļ
Ġà¦¦ à¦ª
à¦ĩ à¦Ĺ
à¦£ à¦¨
à¦° à¦¬à¦°
Ġà¦ħ à¦Ł
à¦Ł à¦Ł
Ġà§© à§©
à¦® à¦Ł
à¦¬ à¦ľà¦¨
ĠĠ ĠĠĠ
à¦Ĺ à¦ľ
Ġà¦Ĺ à¦¨
à¦ĩ à¦ī
à¦¹ à¦ľ
à¦· à¦ķà¦°
Ġà¦Ĩà¦¬ à¦¹
Ġà¦ıà¦¸ à¦®à§Ł
à¦ļ à¦®
Ġà¦® à¦£
à¦ĺ à¦¨
Ġà§Ń à§¦
à¦¥ à¦Ĺ
Ġà§© à§ª
Ġà§© à§¬
Ġà¦ĵ à¦¬
Ġà¦ªà¦° à¦°
Ġà¦Ĩ à¦ķà¦°
Ġà¦ĸ à¦¨
à¦°à¦¸ à¦¹
à¦® à¦£
Ġà¦ľ à¦Ł
à¦°à¦£ à¦¤
Ġà¦ı à§Ł
Ġà¦Ĩ à¦īà¦Ł
à¦¸à¦² à¦®
Ġà¦Ĩà¦® à¦²
à¦ī à¦¬
à¦¬ à¦ľ
à¦®à¦¨ à¦¸
Ġà¦¨ à¦·
Ġà¦ļà¦² à¦¬
Ġà§§à§¯à§ «
à¦¡ à¦Ń
Ġà¦Ĳ à¦ķ
à¦² à¦«
Ġà¦ī à¦ķ
Ġà¦ļ à¦°à¦®
Ġà¦Ĩà¦ļ à¦°à¦£
à¦ķ à¦ª
à¦¡ à¦¬
à¦¨ à¦ª
Ġà§§à§ §à§
Ġà¦ī à¦ľ
Ġà¦ı à¦¨à¦Ł
à¦¬ à¦°à¦£
à¦ļ à¦¤
à¦¨ à¦ļ
Ġà¦¸ à¦«
Ġà¦° à¦¹
Ġà§© à§Ń
à¦® à¦°à¦£
à¦°à¦¸ à¦¨
Ġà¦ı à§ľ
Ġà¦īà¦ª à¦¦
à¦Ĩ à¦²
à¦°à¦¥à¦® à¦¬
Ġà¦īà¦ł à¦²
Ġà¦¤ à¦°à¦«
Ġà¦Ĩà¦® à¦¦
à¦®à¦¬ à¦Ļ
Ġà¦ħà¦¬ à¦¦
à¦¾ à¦ĥ
à§§à§ ¦
Ġà¦¸à¦¬ à¦ķ
à¦Ĺ à¦Ľ
à¦¯à¦¬ à¦§
Ġà¦¦à¦² à¦Ł
Ġà¦Ń à¦ķ
Ġà¦ķà¦° à¦ª
à¦° à¦Ĩà¦¨
Ġà§« à§«
à¦¬ à¦¤à¦¨
Ġà¦īà¦ł à¦¤
Ġà¦īà¦ª à¦¹
Ġà¦Ĺ à¦°à¦®
Ġà¦® à¦¦
Ġà§® à§¦
Ġà¦ħ à¦¦
Ġà¦Ĩà¦¨ à¦¤
Ġà§© à§®
Ġà¦Ĺ à¦ł
Ġà¦Ĩà¦ĩ à¦ª
Ġà¦ĵ à¦¦
à¦² à¦ĵà§Ł
à¦¬ à¦Ń
à¦Ĩ à¦Ĺ
Ġà¦ª à¦¬
Ġà§ª à§®
Ġà¦ħà¦¸ à¦®
à¦¤ à¦«
Ġà¦¶ à¦«
à§ Ŀ
Ġà¦¸ à¦¦
Ġà¦ķà¦¤ à¦Ł
Ġà§ª à§¨
à¦¡ à¦ķ
à¦ĩ à¦¹
à¦Ł à¦«
Ġà§§à§¯à§ ª
à¦¸ à¦«
Ġà¦ıà¦®à¦¨ à¦Ł
à§ľ à¦¬
Ġà¦ĩ à¦Ń
Ġà¦ªà¦° à¦ĩ
à¦¬ à¦®
à¦¿ à¦ģ
Ġà¦ħà¦¸ à¦¹
à¦¦ à¦Ł
à¦¨ à¦ľà¦¨
Ġà¦ĩ à¦¸à¦°
Ġà¦ªà¦° à¦ĵ
à§Łà¦£ à¦Ĺà¦ŀ
Ġà§¨à§¦à§§à§ ¨
Ġà¦Ŀ à§ľ
Ġà¦ªà§ľ à¦Ľ
Ġà¦īà¦¦ à¦¯
à¦¸ à§ľà¦ķ
à¦ıà¦ĩ à¦ļ
Ġà¦¦ à¦®
à¦Ĩ à¦ªà¦¨
à¦¯ à¦°à¦¤
Ġà¦¯ à¦¶
à¦ľ à¦Ĺ
à¦¸ à¦¸
à¦° à¦Ĺà¦¤
Ġà¦Ĩà¦¤ à¦Ļ
Ġà¦®à¦¹ à¦²
Ġà¦Ĩà¦¸ à¦°
Ġà§¨à§¦à§§à§ §
Ġà¦ķà¦® à¦ª
Ġà¦ĩ à¦®à¦°
Ġà¦¨ à¦ľ
Ġà¦¦à¦° à¦ľ
Ġà¦° à¦ª
Ġà¦² à¦¨
à¦® à§ľ
à¦Ł à¦°à¦¸
à¦¨à¦¬ à¦¬à¦¨
Ġà¦ļà¦² à¦®
à¦ī à¦¤
Ġà¦° à¦«
à¦¬à¦¸ à¦®à§Ł
à¦° à¦Ĺà¦ŀ
Ġà¦ĩ à¦ķà¦¬
à¦ĸ à¦¯
Ġà§ª à§©
Ġà¦¸ à¦¬à¦¸à¦®à§Ł
à¦¤ à¦Ł
Ġà¦¦ à¦²à¦ķ
Ġà¦®à§Ł à¦®à¦¨à¦¸
Ġà¦Ĺà¦£ à¦¤à¦¨
à¦¶ à¦ª
à¦® à¦¹à¦¤
Ġà¦ªà§ľ à¦¬
Ġà¦ĩ à¦¬
Ġà§¦ à§¦
Ġà¦Ĩ à¦ĸ
à¦¯ à¦Ł
Ġà¦ı à¦°à¦ķà¦®
Ġà¦ī à¦°
Ġà¦ Ĭ
Ġà¦Ĩ à¦Ļ
à¦Ł à¦¦
Ġà¦¬ à¦Ĺ
Ġà¦ª à¦Ł
Ġà§ª à§ª
à¦¦ à¦¦
Ġà§« à§¨
Ġà¦ķ à¦Ł
Ġà§ª à§Ń
à¦¨ à¦¸à¦¹
Ġà§¯ à§¦
Ġà¦īà¦ª à¦¯
à§Ł à¦¬
à¦¦ à¦¬
Ġà¦ı à¦ľà¦¨
à¦¤ à¦ľ
Ġà¦¤ à§İà¦ķ
Ġà§ª à§¬
à¦°à¦§ à¦°
Ġà¦ķ à§ľ
Ġà§¨à§¦à§§à§ ¦
à¦¬ à¦Ł
Ġà¦¦ à¦®à¦¨
Ġà§« à§¦à§¦
à§§à§ ¨
à¦ī à§Ł
à§§à§ ®
Ġà§Ń à§«
Ġà¦ĵ à¦ľà¦¨
Ġà¦ķ à¦¨à¦¸
à¦¨ à¦¶
Ġà¦ħ à¦¬à¦°
à¦Ń à¦¬à¦¤
Ġà¦ķà¦® à¦²
Ġà¦ª à¦¨
à§§à§ Ń
à¦¸ à¦°à¦£
à¦¯ à¦Ĺ
Ġà¦¦à¦« à¦¤à¦°
Ġà¦ĩ à¦¬à¦¨
à¦§ à¦®
Ġà¦ķ à¦¬à¦°
à¦ķ à¦ļ
Ġà§« à§ª
Ġà¦ª à¦ľ
Ġà¦ıà¦ķ à¦¸à¦Ļ
Ġà¦« à¦ľà¦²
à¦¶ à¦ĩ
Ġà¦ļ à§ľ
Ġà¦§ à¦°à¦£
à¦Ĺ à¦Ĺ
Ġà¦ħà¦¨ à¦¨
Ġà¦® à¦°à¦¦
à¦Ĺ à¦ł
à¦¯ à¦ĵ
Ġà¦° à¦ļà¦¨
Ġà¦® à§Łà¦¨
à¦¶ à¦«
Ġà§« à§¬
à¦ī à¦®
Ġà¦Ĩà¦¶ à¦°
à§§à§ ¯
à¦ļ à¦¬
Ġà¦® à¦¶
à¦Ł à¦ĵà§Ł
à¦ķ à§ľ
à§ľ à¦²
à¦¬ à¦Ļ
Ġà§ª à§§
à§§à§ «
Ġà§© à§¯
Ġà¦Ī à¦¶
à¦¬ à¦£
à¦² à¦¶
Ġà¦Ĩà¦²à¦® à¦Ĺ
à¦Ĩ à¦¬
Ġà§« à§Ń
Ġà¦ħà¦¬ à¦¹
à¦ĺ à¦Ł
à¦Ľ à§ľ
à¦® à¦°à¦¤
Ġà§« à§©
à¦¬ à¦¬à¦°
Ġà¦Ł à¦¨
Ġà¦° à¦¹à¦¸
Ġà¦· à§ľ
à¦ħ à¦Ń
Ġà¦² à¦®
Ġà¦ľ à¦Ĺà¦¤
Ġà¦Ĩ à¦¹à¦¸
Ġà¦Ĩà¦® à¦¨
à¦¹ à¦«
Ġà§¬ à§«
Ġà¦« à¦¸à¦²
Ġà§¨à§¦à§¦ à§¯
à¦¡ à¦®
à¦ı à¦¨à¦¬
Ġà§« à§®
Ġà¦ıà¦ķ à¦ķ
Ġà§¦ à§¦à§¦
Ġà¦·à§ľ à¦¯à¦¨
Ġà¦ĩ à¦Ł
Ġà¦¤à¦ĸà¦¨ à¦ĩ
Ġà¦Ĩà¦ĩ à¦¡
Ġà¦« à¦Ł
à¦ķ à¦ĩ
Ġà¦¶à¦¤ à¦ķ
à§Ł à¦ĩ
Ġà¦¹ à¦ľ
Ġà¦Ĩ à¦ŀ
à¦ľ à¦¦
Ġà§¦ à§§
Ġà¦ľà¦¨ à¦¤
Ġà¦ļ à¦®
Ġà§¦ à§¯
à¦¶ à¦®
Ġà¦§ à¦°à¦¤
Ġà§ª à§¯
Ġà¦² à¦ľ
Ġà¦¸ à¦«à¦Ł
Ġà§¦ à§¨
à¦ı à¦ķà¦Ł
Ġà§§à§¯à§ ©
à¦ķà¦¸ à¦Ń
Ġà¦Ĭ à¦°
Ġà¦¬à¦¸ à¦¤
à§Ł à¦Ń
à¦¤ à¦ĩ
Ġà¦« à¦°à¦®
Ġà¦® à¦²
à¦« à¦¸
à§§à§ ©
à¦° à¦¥
Ġà¦¸ à¦²
Ġà¦« à¦ĸà¦°
Ġà¦ªà¦° à¦ªà¦°
à§¨ à§ª
à¦¤à¦¨ à¦¤
à§§à§ ª
à¦ĵ à§ľ
Ġà¦¶ à¦Ļ
à§§à§ §
Ġà¦ªà¦° à¦®
Ġà¦ħà¦¬à¦¸ à¦°
Ġà¦ĵ à¦°à¦«
Ġà¦ĵ à¦ķ
Ġà§« à§§
à¦® à¦Ĺà¦ŀ
Ġà¦² à¦Ļ
Ġà¦¦ à¦¤
Ġà¦ĸ à¦¤
Ġà¦¸à¦® à¦ķ
à¦® à¦Ļ
à¦¥ à¦¬
Ġà¦Ĩà¦¹ à¦¬
à§ľ à¦¨
à§§à§ ¬
Ġà¦ĵ à¦®
à§İ à¦ª
Ġà¦® à§İà¦¸
à¦Ī à¦¦
à¦°à¦ļ à¦²
Ġà¦¬ à¦ĩà§Ł
à¦¯ à¦Łà¦¨
Ġà¦ĩà¦ī à¦Ł
à¦ĸ à¦ª
à¦Ľ à¦¬
à¦ī à¦ĩ
à¦¶ à¦¸
à¦°à¦¬ à¦²
Ġà¦ķà¦² à¦®
Ġà¦ķà¦¨ à¦«
Ġà§« à§¯
à¦¥ à¦¬à¦Ľà¦°
à¦« à¦¨
Ġà¦ªà¦¦ à¦¤
Ġà¦ĩà¦ī à¦ıà¦¨à¦¬
Ġà§¨à§¦à§¦ à§®
Ġà¦ľ à¦¹
Ġà¦ıà¦¸ à¦Ĩà¦ĩ
à¦£ à¦ķ
Ġà¦īà¦ł à¦Ľ
Ġà¦¸ à¦ľ
à¦¯ à¦ľ
à¦¤ à¦¦à¦¨
Ġà¦¶ à¦ªà¦¥
à¦¬ à¦ļ
à¦ı à¦Ľ
Ġà¦Ĩ à¦ªà¦¤
à¦¬ à¦Ĺà¦ŀ
Ġà¦ħà¦¬ à¦ķ
à¦¬ à¦Ľ
Ġà¦¸à¦«à¦Ł à¦ĵà§Ł
Ġà¦¬ à¦Ł
Ġà§¦ à§®
Ġà§¦ à§©
Ġà¦ī à¦®
Ġà§© à§¦à§¦
Ġà¦° à¦ĩà¦²
à¦ª à¦ļ
Ġà¦ª à§Łà¦¸
à¦Ł à¦«à¦°
à¦Ĺà¦¤ à¦ķ
à¦Ĺ à¦Ł
à¦¯ à¦Ń
Ġà¦ Ķ
à§¨ à§¦à§¦
Ġà¦ļ à¦®à¦ķ
Ġà¦¸à¦¬ à¦ľ
Ġà¦¸à¦® à¦¬
à¦¦ à¦¤
Ġà¦ıà¦ķ à¦°
à¦¡ à¦ª
Ġà¦¹ à¦¯à¦°à¦¤
à¦Ŀ à§ľ
à§¨ à§§
à¦· à¦Ń
à¦ħ à¦°
Ġà¦ī à¦ĩà¦²
Ġà¦Ľ à¦ķ
à¦¶ à¦¦
à¦· à¦Ł
à¦ª à¦ľ
Ġà¦Ĩà¦ĩà¦¨ à¦¶
Ġà¦ľ à¦²à¦¬
Ġà¦īà¦ª à¦Ń
Ġà¦¨ à¦ĵ
Ġà¦ıà¦ķ à¦¤
à¦ľ à¦Ĺà¦ŀ
Ġà¦ĩ à¦¹
Ġà§¦ à§ª
Ġà¦¨ à¦Ĺà¦¦
Ġà¦ĩà¦ī à¦ıà¦¨
à¦Ĩà¦ĩ à¦¡
Ġà¦ıà¦®à¦¨ à¦ĩ
Ġà¦² à¦ŀ
Ġà¦Ĺ à¦Ļ
à¦¯ à¦Łà¦ķ
à¦ª à¦Ĺ
Ġà§¦ à§«
à¦² à¦ļ
Ġà§¬ à§ª
Ġà¦®à¦¤ à¦¬
à¦® à¦®
à¦Ĺ à¦ª
Ġà¦ħ à¦¬à¦¨
Ġà¦īà¦ª à¦¸à¦°
à¦°à¦« à¦°à¦®
à¦¥ à¦®à¦¨
à¦Ĩ à¦°à¦¸
Ġà§¦ à§Ń
Ġà¦ĩ à¦Ļ
Ġà¦¨ à¦¥
Ġà¦¬ à¦ŀ
Ġà¦¬à¦¹ à¦¨
Ġà§§à§¯à§Ń à§§
à¦¬ à¦Ĺ
à¦® à¦Ľ
à¦ı à¦ĸà¦¨
Ġà¦ıà¦ķ à¦¸à¦®à§Ł
Ġà¦ħ à¦·
à¦ı à¦°à¦ªà¦°
Ġà¦ĩ à¦ķ
Ġà¦¶ à¦Ł
Ġà¦ľ à§Łà¦¨
Ġà¦ĩ à¦ľ
Ġà¦¤ à¦¨
Ġà¦ıà¦¤ à¦Ł
Ġà¦ıà¦° à¦¶
à¦® à¦£à¦¬
à¦² à¦ĩ
à¦Ń à¦¨
à¦§ à¦Ń
à¦ķ à¦¥
à§© à§¦
Ġà¦Ŀ à¦°
Ġà¦Ĩà¦¶ à¦ª
à¦ı à¦Ł
Ġà¦¨ à§ľ
Ġà¦¹ à¦ĩà¦¬
Ġà¦¬ à¦ĩà¦Ł
à¦¤à¦° à¦ª
à¦ĩà¦¸ à¦Ļ
Ġà¦ĸ à¦²
Ġà¦¸à¦¨ à¦¦
Ġà¦¹à§Ł à¦°
Ġà¦ľà¦¨ à¦Ĺ
Ġà¦Ń à¦Ļ
à¦° à¦¬à¦¨
à¦¨ à¦¶à¦¨
Ġà§Ń à§¨
Ġà¦ħà¦ª à¦¹à¦°à¦£
Ġà¦Ĺà¦Ń à¦°
Ġà¦¶ à¦°à¦£
à¦²à¦¨ à¦ķ
Ġà¦¤ à¦®
Ġà§¦ à§¬
à¦¬à¦² à¦®
à¦ıà¦® à¦ª
à¦ŀ à¦°
à¦¤ à¦¶
à¦¦à¦° à¦¬à¦¨
à¦Ļ à¦ļ
à¦ĩ à¦ĵ
à¦ĸ à¦£
à¦Ń à¦¬à¦¨
à¦°à¦ªà¦° à¦ĵ
ĠĠĠĠ ĠĠĠĠ
Ġà¦ĵ à¦¸à¦®
Ġà¦ıà¦ķà¦¦ à¦®
Ġà¦ıà¦¸ à¦ıà¦¸à¦¸
à¦Ĺ à¦¸
à¦° à¦¡
Ġà¦ħ à¦¡
à¦Ł à¦Ľ
Ġà¦¤ à¦¹à¦¬
Ġà¦¨ à¦ķà¦¶
Ġà¦ķà¦® à¦ªà¦ķ
Ġà¦ĵ à¦®à¦°
Ġà¦ī à¦ĩà¦¨
à§¨ à§«
à§Ł à¦²
Ġà¦Ĩà¦ľ à¦ĵ
à¦¸ à¦Ĺ
à¦¨à¦¤ à¦®
Ġà¦¹ à¦ĩà¦¤
Ġà¦ıà¦¤ à¦¦
à¦¶ à§Ł
à¦ĩ à¦¶
Ġà¦ļà¦® à§İà¦ķ
Ġà¦° à¦¨
à¦·à§Ł à¦Ĺ
Ġà¦Ĩà¦ĩ à¦ıà¦¸
à¦¨ à¦Ľ
à¦° à¦ĵà§Ł
à¦°à¦¦ à¦²
à¦°à¦£ à§Łà¦¨
à¦¦ à¦Ĺ
à¦¦ à¦«
à¦°à¦¹à¦£ à¦ķ
Ġà¦ħà¦¬ à¦²à¦®
Ġà¦Ĩ à¦¬à¦°
Ġà¦ĩà¦ī à¦¸
à¦ĩ à¦®à¦¸
Ġà¦īà¦ł à¦¬
Ġà¦Ĺà¦£ à¦¤
Ġà§® à§«
Ġà¦ķ à¦Ń
à¦Ĩ à¦®à¦°
Ġà§§à§¯à§ ¯
à¦ĩ à¦ľà¦¨
à¦ķ à¦ľ
Ġà¦¬ à¦¦
Ġà¦¸à¦« à¦²à¦¤
Ġà§¬ à§¬
Ġà¦ĩ à¦«à¦¤
Ġà¦¸à¦¬ à¦ĩ
à¦· à¦¸
Ġà¦¯à¦¤ à¦Ł
à¦ĵ à¦Ł
à§Ł à¦¤à¦¨
à¦¯ à¦¶
à¦£ à¦Ń
à§¨ à§¨
Ġà¦¦ à¦£
à¦² à¦¥
à¦¨à¦¬ à¦¤
Ġà§Ń à§§
Ġà¦ī à¦ĩ
Ġà¦¹ à¦ĩà¦²
à§Ł à¦ĵ
Ġà¦° à¦®à¦ľ
à¦¹à¦¬ à¦§
à¦¤à¦ķ à¦°à¦£
Ġà¦¹ à¦ĩ
Ġà¦¸à¦®à§Ł à¦Ł
Ġà¦Ń à¦Ł
Ġà¦¦à¦² à¦Ĺ
à¦ī à¦¥
à¦Ĺ à¦ĩ
Ġà¦ĩà¦ī à¦ľ
à¦īà¦¨ à¦²
à¦ĸ à¦¬à¦°
Ġà§¨à§¦à§¦ à§§
à¦ļ à¦¶
à¦² à¦Ĺà¦ŀ
Ġà¦ıà¦ĸà¦¨ à¦ĩ
à¦ī à¦¶à¦¨
à¦£ à¦¦
à¦¬ à¦¦à¦¨
à¦¶ à¦ķà¦¦
à¦ı à¦¸à¦ª
à¦° à¦·
Ġà§¨à§¦à§¦ à§Ń
Ġà¦Ľà§Ł à¦Ł
à§¨ à§¬
à¦ĩ à¦ĵà§Ł
à¦¡ à¦°
Ġà¦ĩà¦¨ à¦ļ
Ġà¦ķ à¦«
Ġà¦® à§Łà¦¦
à¦¸ à§ľ
à§İà¦¸ à¦ķà¦°
à¦ĩà¦² à¦Ł
à¦¬ à¦¦à¦²
Ġà§¬ à§®
à¦Ń à¦¸
à¦· à¦ª
Ġà§¯à§ «
à§¨ à§Ń
Ġà¦² à¦¤
à¦¥ à¦ķà¦¦
à¦ĵ à¦¸
Ġà¦Ĩà¦² à¦¹
Ġà¦¸à¦®à§Ł à¦ĩ
à¦¦à¦« à¦¤à¦°
à¦® à¦ĵ
Ġà¦ħ à¦¯
Ġà¦ķà¦° à¦£
à§¨ à§©
à¦¤à¦¬ à¦¤
à§ĭ à¦Ĥ
Ġà§Ń à§®
à¦² à¦ĵ
Ġà¦Ĩ à¦¡
Ġà¦² à¦°
Ġà¦ıà¦ķ à¦¸
à¦Ľ à¦²
Ġà¦ĵ à¦Ł
Ġà¦ī à¦¹
à¦ĩà¦¨ à¦¬
à¦¸ à¦ĵà§Ł
Ġà¦ıà¦ķ à¦¦à¦²
Ġà§¬ à§©
Ġà¦ıà¦¸ à¦ıà¦®
Ġà¦ľ à¦ľ
à¦¨ à¦¸à¦®
à¦¤ à¦¸
à¦Ľ à¦¤
à§¨ à§®
Ġà§¬ à§Ń
Ġà¦ħ à¦ļ
Ġà¦Ł à¦®
à¦¯ à§İ
à¦ļ à§ľ
Ġà¦¸à¦® à¦Ĺ
Ġà¦« à¦ķ
Ġà¦ªà¦° à¦¦
à¦Ń à¦Ļ
à¦ķ à§Ł
Ġà¦² à¦¬à¦£
à¦ĵ à¦®
à¦Ĺà¦¤ à¦Ń
à¦² à¦®à¦¨
à¦ļ à¦ľà¦¨
à¦¤ à¦Ĺ
à¦°à¦¹ à¦¨
Ġà¦Ĩà¦Ł à¦Ł
Ġà§¨à§¦à§¦ à§¬
Ġà¦¨ à¦ķ
Ġà¦ª à¦¤à¦¨
Ġà§® à§®
à¦Ĩ à¦ĩà¦¨
Ġà§Ń à§©
Ġà¦ħà¦¬à¦¨ à¦¤
à¦¬à¦ķ à¦ķ
Ġà¦ĩà¦¨ à¦«
Ġà¦¸à¦®à§Ł à¦ķ
Ġà§Ń à§ª
à¦ķ à¦²à¦ķ
à¦¬à¦¨ à¦¯
à¦ĵ à¦ĩ
Ġà¦Ĩà¦ľ à¦®
Ġà¦¨à¦ľ à¦°à¦¦
Ġà¦ķ à¦Ļ
Ġà¦ħà¦ª à¦¸
Ġà¦Ĩà¦ķ à¦¬à¦°
à¦¦à¦¨ à¦ķ
à¦ļà§Ł à¦ĩ
Ġà§Ń à§Ń
Ġà§Ń à§¬
à¦² à¦ĺ
à¦ī à§ľ
Ġà¦ıà¦°à¦ªà¦° à¦ĩ
à¦¬ à§ľ
Ġà¦ľ à¦¸
Ġà¦¡ à¦ķ
Ġà§ª à§¦à§¦
Ġà¦· à¦·
à¦ĩà¦¦ à¦¹
Ġà¦Ĺ à¦®
Ġà¦¬à¦° à¦ĸ
à§İà¦ª à¦°à¦¤
à¦®à¦ķ à¦°à¦£
à¦ľ à¦Ń
Ġà¦° à¦®
Ġà¦¸ à¦¶à¦¸
à¦ª à¦¶
à¦ıà¦¨ à¦ľ
à¦ľ à¦ķà¦°
Ġà¦ķ à¦ļ
à¦Ł à¦ĵ
Ġà¦ħ à¦¹
à§Ł à¦¹
à§Łà¦¨ à¦¶
Ġà¦ħà¦ª à¦®
à¦¡ à¦Ł
à¦¹ à§İ
à¦Ī à¦®
Ġà¦ıà¦ķ à¦¥
Ġà¦®à¦¨ à¦¸
Ġà¦Ĩà¦¨ à¦¸
à¦· à¦°à¦¤
Ġà§¨à§¦ à§¦à§¦
Ġà¦° à¦ĵà¦¨
Ġà§¨à§¦à§¨ à§¨
Ġà¦ħà¦² à¦°
à¦ĩà¦¨ à¦ķ
à¦ª à¦¬
Ġà¦Ľ à¦¨
Ġà¦ĵ à¦ĸ
à¦² à¦¸à¦¹
à§İ à¦ªà¦°
Ġà¦ıà¦ĩ à¦¸à¦¬
à¦² à¦¹
Ġà¦¡ à¦Łà¦ķ
Ġà¦¦ à§Ł
Ġà¦Ń à¦¦
à¦ĩ à¦¸à¦¬
Ġà§§à§« à§¦
à¦ľ à¦Ľ
à¦ħ à¦¸
à¦ī à¦ĩà§Ł
Ġà¦ıà¦ĩà¦ļ à¦ıà¦¸à¦¸
à¦ı à¦¤
Ġà¦Ĩ à¦ĩà§Ł
Ġà¦¨à¦¬ à¦®
à¦ī à¦ļ
Ġà§§à§¯ à§¦
Ġà¦¨ à¦Ĺ
Ġà¦® à¦ķ
à¦¦ à¦ªà¦¤
à¦Ĺ à¦ĵ
Ġà¦ĩ à¦¦
à¦ıà¦¸ à¦ľ
Ġà¦Ń à¦°à¦¸
Ġà¦Ĩà¦Ĺ à¦®à¦¨
Ġà¦Ĩ à¦Ń
Ġà¦ĵ à¦¨
à¦ĵ à¦Ń
à¦¬à¦ķ à¦¦
à¦īà¦ĩà§Ł à¦°
Ġà§® à§ª
Ġà¦ĵ à¦²
Ġà¦ĩà¦īà¦ıà¦¨ à¦ĵ
Ġà¦§ à¦¸
à¦¬ à¦²à¦¤
à¦Ł à¦Ń
à¦·à¦ķ à¦ķ
à¦°à¦¬ à¦£à¦¤
à¦ļ à§Łà¦¤
Ġà¦¸à¦ķ à¦²à¦ķ
Ġà¦¸à¦® à¦¤
Ġà¦ıà¦ķà¦ľà¦¨ à¦ķ
Ġà¦Ĩ à¦ĸà¦¤
à§Ĥ à¦ģ
Ġà¦¸à¦¹ à¦ķà¦°
à¦¯ à¦¹
à§¨ à§¯
à¦¶ à¦ĵ
à¦¸à¦Ń à¦¬à¦¨
à¦ıà¦¸ à¦ıà¦«
à¦¯ à§Łà¦¨
Ġà¦ĺà¦Ł à¦²
à¦ķ à¦Ĺà¦ŀ
Ġà¦ĩà¦¨ à¦ľ
à¦°à¦¨ à¦Ĺà¦°
Ġà¦¶ à¦ª
à¦ķ à¦Ĩà¦ª
Ġà¦¸à¦® à¦Ŀ
Ġà¦° à¦ļ
à§ľ à¦¦
Ġà¦« à¦¤
à¦ĸ à¦®
Ġà¦¤ à§İà¦ªà¦°à¦¤
à¦°à¦ļ à¦°
Ġà¦¶ à¦¯
Ġà¦Ĺ à¦ľ
à¦¯à¦® à¦ķ
Ġà¦ľà¦¨ à¦¨
à¦¸ à¦ĵ
Ġà¦¹ à¦ĩà§Ł
à¦² à¦Łà¦¨
Ġà¦¸à¦° à¦ŀ
à¦°à¦¸ à¦°
à¦¤ à¦ļ
à¦¸à¦¨ à¦ķ
à¦ı à¦®à¦¨
ĠĠĠĠ ĠĠ
à¦· à¦Ĺ
à¦·à¦ķ à¦¤
à¦ª à¦ª
Ġà¦ı à¦®à¦¬
Ġà¦ķà¦® à¦¬
à¦Ĺ à¦ªà¦¤
à¦¤ à¦ĵ
Ġà¦ıà¦ĩ à¦Ł
à¦Ļ à¦¨
Ġà¦ĩ à§Łà¦°
à¦¶ à¦ľ
Ġà§® à§¬
Ġà¦Ĩ à¦ĩà¦Ł
à¦°à¦¤ à¦ķ
Ġà¦°à§Ł à¦Ł
Ġà§® à§Ń
Ġà¦¸à¦¬ à¦Ĺ
Ġà¦¬ à¦¸à¦¨
Ġà¦¤ à¦¦
à¦ĵ à¦¬
à¦¦ à¦°à¦¬
Ġà§¬ à§¨
à¦°à¦® à¦¶
Ġà§® à§©
à¦Ĩ à¦ĩà§Ł
à¦°à¦ķ à¦°
à¦² à¦ĸ
à¦°à¦ļ à¦£
à¦£ à¦ª
à¦¬ à¦ĩà§Ł
Ġà§¯à§ ¬
Ġà¦ľ à¦Ĺà¦¨
à¦¡ à¦«
à¦ķ à¦ĵ
à¦°à¦¹ à¦°
Ġà¦¨ à§Łà¦¨
à¦¶à¦¨ à¦ķ
Ġà¦¸ à¦°à¦¬
Ġà¦¸à¦¹ à¦¸à¦Ń
à¦°à¦¤ à¦²
à¦¹ à§Ł
Ġà¦¯ à¦®
Ġà¦īà¦ª à¦ķà¦°à¦£
Ġà§¯à§ ®
Ġà¦¨ à¦ķà¦²
Ġà¦¨à¦ĵ à¦Ĺ
à¦¥ à¦ª
à¦¶ à¦ķà¦°
Ġà¦Ĩà¦ľ à¦¹
à§ĩ à¦Ĥ
à¦¨ à¦ľà¦¨à¦ķ
Ġà¦² à¦Ĺ
Ġà¦ĭ à¦¤
à¦· à¦¦à¦°
à¦® à¦ĺà¦Ł
à¦¬ à¦ªà¦¨
à¦¬à¦¸ à¦®
Ġà§¨à§¦à§¦ à§ª
Ġà¦ªà¦°à¦ªà¦° à¦ĩ
à¦° à¦°à¦«
à¦ķà¦ľà¦¨ à¦ķ
Ġà¦¬ à¦ļ
Ġà¦¬ à¦¸à¦²
à¦¯à¦¬ à¦¦
Ġà¦¨ à¦ĩ
à¦¥ à¦ķà¦°
à¦¨à§Łà¦¨ à¦ªà¦¤
à¦¤à¦° à¦¬à¦Ļ
Ġà¦Ĺà¦£ à¦¨
Ġà§¨à§« à§¦
Ġà¦° à¦ŀ
à¦°à¦¹à¦£ à¦¯
à¦¹ à¦ķà¦¦
Ġà¦ľà¦¨à¦Ĺà¦£ à¦ķ
Ġà¦ķ à¦¨à¦Ł
Ġà§¯à§ Ń
à¦®à¦¨ à¦ĩ
à¦¬ à¦¯
à¦ľ à¦ĵ
Ġà¦¨ à¦°à¦¸
Ġà¦ĵ à§ľ
à¦· à¦§
Ġà¦ħà¦¬ à¦§
Ġà¦¸à¦®à§Ł à¦¸
Ġà¦¤ à¦«à¦¸
Ġà§¬ à§¯
Ġà¦¸ à§İ
Ġà§¨à§¦à§¦ à§«
Ġà¦īà¦ª à¦ªà¦°
Ġà¦īà¦ª à¦²à¦¬
Ġà¦ħ à¦®à¦°
Ġà¦ħà¦¬ à¦®
à¦¨ à¦¯
à¦Ĺà¦ł à¦¨à¦Ł
Ġà¦ķà§Ł à¦²
Ġà¦ķ à¦¬à¦²
Ġà¦¬à¦° à¦Ĺ
à¦ķ à¦¯
Ġà¦ıà¦¨ à¦ľ
à¦· à¦ĩ
à¦¹ à¦ķà¦°
à¦Ĩ à¦¦
à¦ĵ à¦¦
à¦¨ à¦ľà¦Ł
Ġà¦ªà¦° à¦Ĺà¦¨
à¦¬ à¦ĵ
à¦ĵ à¦ª
Ġà¦« à§Ł
à¦¥ à¦Ń
Ġà¦ħà¦ª à¦¬
Ġà¦¬ à¦¶
Ġà§¯à§ ¯
à¦Ĩ à¦¸
à¦Ĩ à¦ĵà§Ł
Ġà¦ľ à¦ĸà¦®
Ġà¦ĺà¦Ł à¦¤
à¦£ à¦°
Ġà¦ī à¦·
Ġà§¯à§ ©
Ġà¦¬ à¦¦à¦°
à¦ªà¦Ł à¦ª
Ġà¦ĺà¦Ł à¦Ľ
à¦Ī à¦¨
Ġà¦Ĺà¦£ à¦¹à¦¤
Ġà¦ıà¦ķ à¦ªà¦°
Ġà¦¬ à¦¡
à¦°à¦£ à¦ķ
à¦ĵ à¦ķ
Ġà¦ļà¦² à¦²
à¦ļ à¦²à¦¤
à¦ł à¦¤
à¦²à¦ª à¦¥
Ġà¦ı à¦ıà¦«
Ġà§¬ à§§
à¦¹à¦¤ à¦¦
Ġà¦ī à¦Ĺ
à¦Ĺà¦ľ à¦ªà¦¤
Ġà¦ľà¦² à¦ª
Ġà¦Ĩà§Ł à¦¤à¦¨
Ġà¦ķà¦® à¦¤
Ġà¦ĩ à¦¶
Ġà¦Ĺà¦£ à¦ª
à¦¹ à¦Ń
Ġà¦ıà¦ķ à¦ĩà¦¸à¦Ļ
à¦²à§Ł à¦Ĺ
à¦¸ à¦°à¦¤
Ġà¦Ľ à¦¤
Ġà¦°à¦¹à¦® à¦¤
Ġà¦ĩ à¦¡
à¦ı à¦¸à¦¬
Ġà¦§à¦° à¦²
à§ģ à¦Ĥ
Ġà¦° à¦£à¦¬
Ġà¦ı à¦¨à¦¸
à¦® à¦ŀ
Ġà§¯à§ ª
Ġà¦® à¦¹à¦®
Ġà¦ªà¦° à¦¸
à¦¬ à¦ķà¦°
Ġà¦ıà¦ķà¦ĩ à¦Ń
à¦§ à¦°à¦¨
à¦² à¦¡
Ġà¦¦ à¦°à¦¬
à¦ŀ à¦¦
à¦Ĩ à¦ĩà¦¸
Ġà¦¸ à¦°à¦¦
à§§à§¯à§ Ń
Ġà§§à§¯à§¯à§ ¬
à¦ļà§Ł à¦ªà¦¤
à¦ħ à¦§
à¦Ĩ à¦īà¦Ł
Ġà¦ĩ à¦¸à¦®
Ġà¦Ĩà¦¹à¦¤ à¦¦
à¦ı à¦ĸ
Ġà§§à§¨ à§¦
à¦ł à¦¦
à¦· à¦¬
à¦¡ à¦Ĺ
Ġà¦Ķ à¦·à¦§
Ġà¦ıà¦¨ à¦¡
à¦ª à¦¶à¦¨
Ġà¦° à¦¤
à¦ĩà¦ķ à¦®
à¦° à¦ªà¦ķ
Ġà¦ıà¦ķ à¦¶
Ġà§¬ à§¦à§¦
Ġà¦¬à¦° à¦«
Ġà¦īà§İ à¦ķ
à¦¬à¦¨ à¦ķ
Ġà¦¹ à¦¨à¦¨
Ġà¦Ĩà¦ĩà¦¨ à¦Ĺà¦¤
Ġà¦ķ à¦¦
Ġà¦ī à¦¸
à¦²à¦ª à¦®
à¦ħ à¦¬à¦¶
à¦ĩ à¦ļ
Ġà¦ľ à¦ĵà§Ł
Ġà¦¬ à¦ī
à¦®à¦¸ à¦®à¦°
Ġà¦Ł à¦¸
Ġà¦¨ à¦°à¦®
à¦ķ à¦«
à¦ľà¦¨ à¦¶
à¦ļà¦¨ à¦ķ
Ġà¦¤à¦ĸà¦¨ à¦ĵ
Ġà¦¶à¦¤ à¦Ń
Ġà¦¬ à¦£
Ġà¦¸ à¦¸
Ġà¦ħà¦ªà¦° à¦¦
Ġà¦² à¦¸
à¦® à¦«
Ġà¦¸à¦« à¦°à¦ķ
Ġà¦ķà¦¬à¦° à¦¸
à¦Ŀ à¦ĸ
Ġà¦¨ à¦¬à¦¨
Ġà¦Ĺà¦£ à¦¸
Ġà¦ĸ à¦£
à¦² à¦°à¦ķ
à¦Ĺ à¦«
Ġà¦ĸ à¦¨à¦¨
Ġà¦Ĩà¦° à¦®
Ġà¦ľà¦¨ à¦¸à¦Ń
à¦ħ à¦¤
à¦£ à¦¹
à¦ĺ à¦²
à¦·à§Ł à¦¬à¦¸
à¦Ĩà¦ĩ à¦ª
Ġà§¨à§¦à§¦ à§©
à¦® à¦Ń
Ġà¦ľà§Ł à¦ª
Ġ à§Ł
à§İà¦¸ à¦ķà¦¦
à§Ł à¦Ł
à¦²à§Ł à¦Ł
à¦¤ à¦°à¦ķ
à¦ª à¦ķà¦²
à¦® à¦ĺ
Ġà¦īà¦ª à¦®à¦¹
à¦ıà¦¸ à¦ĩ
Ġà¦ľ à¦Ĺ
Ġà¦Ł à¦²
Ġà¦¬ à¦ĩà¦®
à¦ľ à§Łà¦¨
Ġà¦¶à¦¹à¦° à¦Ł
Ġà¦¸ à¦ĩ
Ġà¦īà¦ª à¦¤
à¦ł à¦ª
Ġà¦Ŀ à¦Ĺà§ľ
Ġà¦Ĳ à¦¶
à¦°à¦¦ à¦¤
à¦Ĩ à¦¤
Ġà¦Ĺà¦£ à¦ªà¦°
à§Ł à¦¦à¦°
Ġà¦ĩà¦ī à¦ıà¦¸
à¦Ŀ à¦²
Ġà§§à§® à§®
Ġà¦« à§Łà¦¸
Ġà¦ıà¦ķ à¦¨
à¦Łà¦¸ à¦ħ
Ġà¦¹ à¦Ł
à¦Ł à¦ĸ
à¦ķ à¦¸à¦¹
à¦® à¦ĩ
à¦¬ à¦°à¦¤
à¦£ à¦ĺ
à¦¤ à¦ľà¦¨
Ġà¦ıà¦° à¦®à¦§
Ġà¦¡ à¦¬
à¦ķ à¦®à¦¤
à¦ī à¦ªà¦ľ
à¦ļ à¦Ĺà§ľ
Ġà¦° à¦¤à¦¨
Ġà¦¦ à¦¶à¦Ł
à§İà¦¸ à¦°
à¦§ à¦ķà¦¤
Ġà¦Ĩà¦ĩ à¦ľ
à¦ĩ à¦ĸ
Ġà¦¸à¦® à¦®
à¦ª à¦¯
à¦° à¦Ļ
Ġà¦Ł à¦ª
à¦¨ à¦ªà¦¤
à¦¯à¦® à¦¤
à¦®à¦¨ à¦Ł
Ġà§¨à§¦à§¦ à§¨
Ġà¦ıà¦ķ à¦®à¦¤
Ġà¦ĩà¦¨ à¦Ń
Ġà§® à§¨
Ġà¦Ńà§Ł à¦Ļ
à¦° à¦ŀ
Ġà§§à§¯à§Ń à§«
Ġà¦ĸ à¦¸à§ľ
à¦£ à¦«
à¦¸ à¦ķà¦¦
à¦Ĩ à¦¶
à¦ļ à¦°à¦£
Ġà¦ĩà¦ī à¦ķ
Ġà¦ıà¦¸ à¦ª
Ġà¦®à§Ł à¦²
à¦ıà¦¸ à¦Ĩà¦ĩ
Ġà§Ń à§¯
à¦Ł à¦ķà¦Ł
à¦Ĩ à¦«
Ġà§® à§¯
Ġà¦¸à¦° à¦²
à§ľ à¦ªà¦¤
Ġà§® à§§
Ġà§§à§¯à§Ń à§¨
Ġà¦¬ à¦®
Ġà¦¯à¦¤ à¦ĩ
Ġà¦ĩà¦¨ à¦ķ
Ġà¦« à¦°à¦¹
à¦® à¦¸à¦¹
Ġà¦ªà¦° à¦¤
Ġà¦ĩ à¦ª
Ġà¦ªà¦° à¦ķ
Ġà¦ª à¦ª
Ġà¦¤ à¦¤à¦ķ
Ġà¦Ĩà¦ª à¦²
à¦¸à¦ķ à¦·
Ġà¦Ĩ à¦«à¦°
Ġà¦ħà¦¬ à¦¤
Ġà¦¹ à¦ľà¦®
Ġà¦®à¦¹ à¦ķ
Ġà¦Ī à¦®
Ġà¦Ĩà¦¨ à¦²
à¦¬ à§Łà¦ķ
à¦£ à§Ł
à¦ªà¦ķ à¦Ń
à¦¯ à¦ľà¦¨
à¦¬à¦° à¦ĩ
à¦¦ à¦īà¦²
à§¦ à§ª
à¦ľ à¦īà¦¦
à¦¦à¦ķ à¦¦
à¦ĺ à¦®
Ġà¦¹ à¦°à¦¤
Ġà¦ĺ à§ľ
à¦¯à¦Łà¦ķ à¦¦
à§¦ à§¨
Ġà§§à§¯à§¯ à§¦
à¦Ĩà¦ĩ à¦ľ
à¦ĩ à¦¸à¦²
Ġà¦® à¦®
Ġà¦® à¦«
à¦° à¦ļà¦¨
Ġà¦ľà§Ł à¦²
à¦ĸ à¦¸
Ġà¦Ł à¦ķ
à¦ıà¦¨ à¦ı
à¦¦à¦¸ à¦¹
à¦¤ à¦Ľ
Ġà¦Ĩà¦ļ à¦®à¦ķ
à¦ķà¦¸ à¦ĩ
Ġà¦® à¦°à¦¹
Ġà¦¨ à¦ĵà§Ł
à¦²à¦ķ à¦ķ
à¦Ĩ à¦ľà¦ķ
à¦ĩà¦¨ à¦¸
Ġà¦¯ à¦¤à¦¦
à¦²à¦ķ à¦Ń
à§Ł à¦ª
Ġà¦ķ à¦®à¦¨
à§¦ à§©
Ġà¦¡ à¦Ł
à¦¥ à¦¦
Ġà¦ıà¦ķ à¦ª
à§¦ à§Ń
Ġà¦¸ à¦ļà¦²
Ġà¦¤ à§ľ
à¦¶ à¦ĸ
Ġà¦ĸ à¦°
à§¦ à§«
à¦Ĩ à¦°à¦Ł
Ġà§¯ à§¨
à§¦ à§¬
Ġà¦®à¦¤ à¦ĩ
à¦« à¦ķ
Ġà¦Ľà§Ł à¦ľà¦¨
à¦°à¦¬ à¦£
Ġà§® à§¦à§¦
Ġà¦Ĩ à§Łà¦¨
Ġà¦¸à¦¹ à¦¸
Ġà¦Ł à¦¹à¦²
Ġà¦ķ à¦¸
à¦¨ à¦«
à¦ķ à¦ł
à¦¬à¦° à¦¦
Ġà¦ĩ à¦®à¦¨
Ġà¦¬à¦Ľà¦° à¦ĩ
Ġà¦ª à¦Ļ
à¦¯ à¦ķà¦²
Ġà¦Ĩà¦² à¦¤
à¦Ł à¦¸à¦¹
à¦Ń à¦°à¦¶
à¦¹ à¦Ł
Ġà¦¡à¦Łà¦ķ à¦®
à¦¯ à¦°à¦ķà¦®
à¦¹ à¦¹
à¦¯ à¦¯
Ġà¦Ĩà¦« à¦¸
Ġà¦ĸ à§ľ
à¦°à¦« à¦°
Ġà¦¢ à¦²
à¦¶à¦¨ à¦Ł
à¦Ł à¦¹
à¦ķà¦Ł à¦ķ
Ġà§§à§¯à§¯à§ ¯
Ġà¦¸à¦¬ à¦¶
Ġà§§à§¯à§¯à§ §
Ġà¦¬ à¦°à¦£
Ġà§¨à§ ¯à§
à§ĩ à¦ĥ
à§Ł à¦Ĺà¦ŀ
à¦° à¦ĺ
à§¦ à§®
à¦ħ à¦ķ
Ġà¦Ĩà¦ĩ à¦«
à¦¯à¦® à§Ł
à¦² à¦ķà¦°
à§Łà¦¤ à¦ª
à¦ĩ à¦īà¦°
Ġà§¯à§ §
Ġà¦¬ à¦¬
à¦ĸ à¦Ł
à¦¦ à¦ĵ
à¦ľ à¦ªà¦¥
à¦¶ à¦¸à¦¹
à¦Ľ à¦ª
Ġà¦Ĺà§ľ à¦¤
Ġà¦Ń à¦²
à¦¤ à¦¬à¦°
Ġà¦® à¦Īà¦¨
à¦§ à¦Ł
à¦ĵ à¦ķà¦¤
Ġà¦ĵ à¦¹
Ġà¦¶ à¦¸
Ġà§Ń à§¦à§¦
Ġà¦Ĩà¦ķ à¦¸
à¦Ľ à¦Ł
Ġà¦Ĩà¦² à¦¬
à¦ĩà¦Ł à¦¸
Ġà¦ľà¦¨ à¦¬à¦²
Ġà¦ıà¦ķ à¦¯
à§¦ à§§
à¦Ĩ à¦ķ
Ġà¦ķà¦ĸà¦¨ à¦ĩ
à¦¹ à¦¦
Ġà§§à§ª à§ª
à§§à§¯à§ ¯à§
à¦ľ à¦¹
Ġà¦ķ à¦ĩ
à¦°à¦¶ à¦¸
à¦®à¦¦ à¦ª
Ġà¦° à¦¥
à¦¬à¦ľà¦¨ à¦°
à¦°à¦¬ à¦¤
Ġà¦« à¦²à¦¨
à§¦ à§¯
Ġà¦ħà¦¸ à¦¨
à¦ıà¦¨ à¦¸
Ġà¦Ĺà¦£ à¦Ńà¦¬à¦¨
Ġà¦¶ à¦ĵà¦ķà¦¤
Ġà¦Ł à¦Ļ
à¦Ł à¦ĩ
à¦ľà¦¨ à¦ĩ
à§© à§§
à¦ıà¦¸ à¦ıà¦¸
à¦¬à¦ľà¦¨ à¦¦
Ġà¦¬ à¦§
Ġà¦īà§İ à¦ªà¦¤
Ġà¦Ĺà¦£ à¦¶
à¦ıà¦ķ à¦ĩ
Ġà¦ıà¦¬ à¦Ľà¦°
à¦²à¦¤ à¦²
à¦Ĺà¦łà¦¨ à¦Ĺ
Ġà¦ħà¦¬à¦¸ à¦°à¦ª
Ġà§§à§® à§Ń
Ġà¦¤ à¦²à¦¬
Ġà¦¹à¦ľ à¦°à¦¤
Ġà¦ķ à¦ĩà¦°
à¦§ à¦¹à§Ł
à¦ľ à¦ĩ
Ġà¦¶à¦¤ à¦ķà¦°
Ġà¦Ĩà¦° à¦ľ
à¦¬à¦¸ à¦Ł
à¦Ń à¦®
Ġà¦Ńà¦¬à¦¨ à¦Ł
à¦²à¦ķ à¦¦
à¦ĺ à¦ķ
à¦¶ à¦¹à¦°
à¦¤ à¦¥
Ġà¦¶ à¦¶
Ġà§§à§¯à§¯à§ ®
à¦¬à¦¹ à¦£
Ġà§§à§® à§¯à§
à¦ħ à¦ªà¦°
Ġà¦° à¦ĵ
Ġà¦Ĩà¦¸ à¦ķ
à¦¸ à¦¡
Ġà¦ħà¦¬ à¦¤à¦°à¦£
Ġà¦¸ à¦ĸ
Ġà¦ľà¦¨ à¦¸à¦®
à¦ı à¦¸à¦®à§Ł
Ġà¦¨à§Ł à¦Ł
Ġà¦¬à§ľ à¦¦
Ġà¦¸à¦² à¦®à¦¨
à¦Ŀ à¦¬
à¦¯ à¦«
à¦ĵ à¦Ĺ
Ġà§§à§® à§¬
Ġà§§à§¯à§Ń à§¦
à¦ľ à¦ĵà§Ł
Ġà¦ħà¦¨ à¦¶à¦¨
Ġà¦ħà¦ª à¦ª
à¦ĩà¦Ł à¦Ł
à¦ľà¦¨ à¦¸
à¦°à¦¸ à¦¬
à¦°à¦¸ à¦®
Ġà¦Ĩà§Ł à¦ķà¦°
Ġà¦¨à¦¬ à¦ľ
Ġà¦¤ à¦°à¦²
Ġà¦¶ à§Łà¦¤
à¦ļ à¦ĩ
Ġà¦ī à¦¬
Ġà¦īà§İà¦¸ à¦°
à¦ª à§Ł
Ġà¦Ĩà¦¨ à¦¬
Ġà¦¨ à¦¸
à§Ł à¦®à¦¨
à¦¨ à¦ĵà§Ł
à§Łà¦ķ à¦°à¦£
à¦¸ à¦¸à¦¹
à¦· à¦ĵ
à¦¯ à¦ªà¦¦
Ġà§§à§¦ à§¦à§¦
à¦ħ à¦¬à¦¸
à¦Ń à¦²
Ġà¦Ĩà¦Ĺ à¦¤
Ġà¦ªà¦° à¦¶
à¦¯ à¦ļ
Ġà¦ıà¦® à¦¡
à¦ļ à¦ª
Ġà¦ı à¦ĵ
à¦ĸ à¦ľà¦¨à¦ķ
Ġà¦Ĺ à¦¦
à¦Ļ à¦²
à¦ı à¦ķà¦ľà¦¨
Ġà¦ıà¦ıà¦« à¦ª
Ġà¦Ń à¦°à¦¤
à¦°à¦¤ à¦°
Ġà¦ķà¦¨ à¦Ń
Ġà¦ħ à¦£
Ġà§§à§¯à§¯à§ Ń
Ġà¦ħ à§Ł
à¦Ĩ à¦°à¦¬
Ġà§§à§§à§ ¦
à¦ī à¦ª
Ġà¦® à¦¤à¦¨
Ġà¦Ĩà¦¦ à¦®à¦¶
à¦¦à¦¨ à¦Ł
Ġà¦ľà¦¨ à¦¸à¦¨
à¦« à¦²à¦ķ
Ġà¦² à¦Ł
à¦ħ à¦ª
à¦¯ à¦ľà¦¨à¦ķ
à¦§ à¦¦
Ġà¦ī à¦ĸ
Ġà¦®à¦¹ à¦¸
à¦¯ à¦¬à¦°
Ġà¦¨ à¦Ł
Ġà¦¸à¦¬ à¦¥
Ġà¦¦ à¦¸
à¦¥ à¦¸
à¦¶ à¦ķà¦¤
Ġà§§à§¯à§® à§¦
à¦¤ à¦¤à¦®
Ġà¦¯à¦ĸà¦¨ à¦ĩ
à¦ıà¦® à¦ĩ
Ġà¦īà¦ª à¦¬
Ġà¦¯ à¦¤à¦ķ
Ġà¦® à¦°à¦£
à¦¬ à¦¡
à¦° à¦ľà¦¨à¦ķ
Ġà¦ļ à¦¬
à¦ķ à¦¹
Ġà¦® à¦¦à¦¨
Ġà§§à§® à§«
Ġà¦¸à¦¹ à¦ª
Ġà§§à§¯à§¯ à§¨
Ġà¦ıà¦®à¦¨ à¦Ń
à§ľ à¦®
Ġà¦ĩà¦¨ à¦¡
à¦ķ à¦²à¦¨
Ġà¦ĺà¦Ł à¦¬
à¦¯ à¦¸à¦¹
Ġà¦Ĩà¦¬ à¦¶
Ġà¦° à¦«à¦¤
Ġà¦ħà¦¬ à¦Ĺà¦¤
à¦°à¦ļ à¦²à¦¨
Ġà¦¶ à¦ĸ
à¦ª à¦ŀ
à¦ı à¦®à¦¬
à¦ª à¦ĵ
Ġà¦ĸà¦¬à¦° à¦Ł
Ġà¦ī à§Ł
Ġà¦Ĺ à¦®à¦¨
Ġà¦ĩ à¦°à¦«
à¦¦à¦¨ à¦¶
à¦¸ à¦Ľ
Ġà¦¸ à§ľ
à¦¸ à¦ĩ
à¦Ĩà¦« à¦Ĺ
Ġà¦ª à¦ļ
à¦ĩà¦¨ à¦Ł
à§§à§¯à§ ®
Ġà¦ķà¦® à¦Ľ
à¦ł à¦¶
à¦¸ à¦«à¦Ł
à§Ł à¦¶à¦ĩ
Ġà¦¸à¦¤ à¦¤
Ġà¦ħ à¦ļà¦²
Ġà¦¤à¦° à¦Ļ
Ġà¦° à¦£
à¦ı à¦ķà¦¦
Ġà¦ĵà¦ĩ à¦¦
à¦ļ à¦¸
Ġà¦ı à¦¨à¦¬
à¦· à¦ľà¦¨
Ġà¦Ł à§Łà¦²
à¦ıà¦ĩà¦ļ à¦¡
Ġà¦ī à¦¸à¦®
à¦ļ à¦Ĺ
à§İ à¦¸à¦¬
ĠĠĠĠ ĠĠĠ
à§¨à§¦à§§à§ §
Ġà¦ªà¦¥ à¦ļ
Ġà§§à§¯à§ª à§Ń
à¦® à¦ªà¦°
à¦ Ĳ
Ġà¦Ĩà¦¸ à¦®
à¦¸ à¦ªà¦¤
à¦ļ à¦ķà¦°
à¦ĩà¦¨ à¦®
à¦²à§Ł à¦ķ
Ġà¦® à¦ł
à¦ ĭ
à¦¸ à¦¯
à¦® à¦ªà¦¨
à§ľ à¦¶
Ġà¦« à¦ľ
Ġà¦Ĩ à¦ĩà¦²
Ġà¦Ł à¦°
à¦ª à¦Ĺà¦ŀ
Ġà¦®à¦¹ à§ľ
Ġà¦¤à¦¤ à¦Ł
Ġà¦¸ à§Ł
Ġà¦¸ à¦ĵà§Ł
Ġà¦Ĺà¦£ à¦§à¦°
Ġà§§à§¯à§Ń à§©
Ġà¦¹ à¦°à¦®
à¦¹ à¦¨à¦¬
Ġà¦ħà¦¤ à¦ıà¦¬
Ġà¦¬ à¦ķà¦°
Ġà¦ıà¦® à¦ı
à¦ĩà¦ī à¦¤
Ġà¦¦ à¦¨
Ġà¦®à¦¨ à¦ľ
à¦® à¦¡
à¦§ à¦¸
à¦¨ à¦ļà¦°
Ġà¦ħà¦ª à¦¶à¦¨
Ġà¦ı à¦®à¦¸
à¦Ĺ à¦°à¦£
Ġà§§à§¯à§¯à§ ª
à¦ıà¦¸ à¦Ł
Ġà¦® à¦¸à¦²
à¦®à¦¤ à¦²
à§ľ à¦Ĺ
à¦®à¦¨ à¦Ĺà¦°
à¦¯à¦® à¦Ĺ
à¦¤à¦¬ à§Łà¦¸
Ġà¦¤ à¦¤à¦¦
à¦ľà¦¨ à¦¦
Ġà¦¶ à¦ļ
à¦¬ à¦°à¦ķ
Ġà¦ıà¦¡ à¦Ń
à¦Ĩ à¦°à¦ª
à¦¬ à§İ
Ġà¦ĵ à¦¡
Ġà¦ıà¦² à¦ľ
à¦® à¦¸à¦¨
Ġà¦Ĩà¦Ł à¦ľà¦¨
Ġà¦ĩà¦¨ à¦¶
Ġà¦¨à¦¬ à¦¬à¦°
à¦Ł à¦ľ
Ġà¦ħ à¦ľà§Ł
à¦® à¦ĸ
Ġà¦ĭ à¦·
Ġà§§à§¯à§¯à§ «
à§ľ à¦Ł
Ġà¦ªà¦¦ à¦ª
Ġà¦¬ à¦°à¦ķ
à§Łà¦¨ à¦¸
Ġà¦¤ à¦ªà¦¨
Ġà¦ı à¦¹
Ġà¦ĺ à¦°à¦¬
Ġà¦¤ à§İà¦ªà¦°
à¦®à§Ł à¦®à¦¨à¦¸
à¦ķ à¦¡
à¦ķà¦Ł à¦²
à¦°à¦¥à¦® à¦¦
à¦¹ à¦ª
Ġà¦Ĩà¦¦ à¦®
à¦¦ à¦¹
à¦ĩà¦ľ à¦¡
à¦°à¦ªà¦° à¦ĩ
à§Łà¦¦ à¦ª
à¦¶ à¦¯
Ġà¦ıà¦ĩ à¦Ń
à¦°à¦ľà¦¨ à¦¨
Ġà¦¬ à§İà¦¸à¦°
à¦§ à¦¶à¦¤
Ġà¦ķà¦¤ à¦¦
à¦¡ à¦ĵ
à¦£ à¦Ĺ
Ġà¦ľ à¦Ĺà¦¦
à¦°à¦ķ à¦¦
Ġà¦¦ à§ľ
à¦Ĺ à¦łà¦ķ
Ġà¦° à¦®à¦¨
à¦ĺ à¦£
Ġà¦¸à¦® à¦¤à¦²
à¦¡ à¦Łà¦ķ
à¦°à¦¦ à¦ķ
Ġà§¯à§ ¯à§
à¦¶ à¦Ń
Ġà¦ıà¦« à¦¬
à¦ħà¦¨ à¦²
à¦ıà¦¸ à¦ıà¦®
à¦Ĩ à¦¸à¦²
à¦£ à¦¸
à¦¤ à¦ªà¦ķ
à¦°à¦£ à¦¬
Ġà¦ī à¦ĩà¦®
à¦°à¦¥à¦® à¦¤
Ġà¦¸à¦¬à¦¸à¦®à§Ł à¦ĩ
à¦¡ à¦ĵà§Ł
Ġà¦¹ à¦ĩà¦Ľ
Ġà¦ĩ à¦¶à¦¤
à¦² à¦¯
à¦¤à¦¬ à¦ķ
à¦¯à¦¥ à¦Ń
à¦ĺ à§ľ
Ġà¦ħà¦ª à¦ķà¦°
Ġà¦®à¦¨ à¦Ł
à¦Ĺ à¦Ļ
Ġà¦Ĩà¦ķ à¦¤
à§« à§¦
Ġà§§à§¯à§¯à§ ©
Ġà¦ľà¦¨ à¦ªà¦¦
Ġà¦īà§İ à¦ªà¦¨
à¦ı à¦®à¦¸
Ġà§§à§¯à§® à§¬
Ġà¦¸à¦¬ à¦Ł
Ġà¦Īà¦¦ à¦Ĺ
à¦Ł à¦®à¦¸
à¦Ľ à¦Ĺ
à¦¨ à¦°à¦¤
à¦ī à¦«
à¦Ĩà¦ĩ à¦¬
à§¯à§ «
à§¨à§¦à§§à§ ¯
à¦Ŀ à¦°
Ġà¦Ń à¦Ĺ
à¦ī à¦¶
à¦ķ à¦¸à¦¬
Ġà¦ī à¦®à¦°
à¦ıà¦¸ à¦¡
à¦¶ à¦¹
Ġà¦ī à¦¸à¦ķ
Ġà¦ľà¦¨ à¦Ĺà¦¨
Ġà¦¬ à¦ĸ
à¦« à¦²à¦¨
Ġà¦Ĩ à¦ĩà¦ķ
à¦¨à§Łà¦¨ à¦¶
Ġà¦ķ à¦ĵà¦®
à¦°à¦¤ à¦¬à¦°
Ġà¦® à¦ĩà¦¨
Ġà¦Ĩà¦® à¦ľ
à¦ª à¦²à¦¸
Ġà¦¦ à¦Ĺ
Ġà¦¦à¦® à¦ķà¦²
à¦¯à¦¸ à¦Ń
Ġà¦ªà¦° à¦²
Ġà¦Ĩà¦ĩà¦¨ à¦®à¦¨
à¦ı à¦Ń
Ġà¦Ĺà¦¤ à¦¬
à¦®à¦¶ à¦¤à¦¬
Ġà§§à§¯à§Ń à§ª
Ġà¦Ĩà¦¨ à¦Ľ
à¦ĸ à¦Ń
Ġà¦ļ à¦¶à¦®
à¦°à¦¤ à¦®
à¦¬à¦¨ à¦®
à¦īà¦¨ à¦¸
Ġà§§à§¯à§« à§¨
à¦ı à¦¡
Ġà¦ľà¦Ĺ à§İ
à¦²à¦¦ à¦¹
à¦¹ à¦¤à¦°
Ġà¦® à¦°à¦¶
Ġà¦ªà¦¦ à¦¬
Ġà¦¶ à¦®
Ġà¦Ĩ à¦īà§Ł
Ġà¦® à¦Ĺ
Ġà§§à§© à§¦
Ġà¦ı à¦ıà¦¸à¦Ĩà¦ĩ
à¦¯ à¦Ļ
à¦°à¦® à¦¬à¦°
à¦¶ à¦®à¦¨
à¦ľà¦¨ à¦ª
à¦¨ à¦¸à¦¨
Ġà¦¡à¦Łà¦ķ à¦®à¦ķ
à¦ĩà¦² à¦¸
à¦Ĩ à§Ł
à¦ķà¦Ł à¦¤à¦®
à¦¥à¦² à¦¬à¦¨
à¦·à¦£ à¦ķ
à¦Ł à¦ļ
Ġà¦ıà¦« à¦¡
Ġà¦° à¦¡
Ġà¦ħà¦¬ à¦ľ
Ġà§§à§¯à§® à§®
Ġà¦¤à¦¤ à¦ĩ
Ġà¦Ĩ à¦ĩà¦°
Ġà¦¸à¦®à§Ł à¦ĵ
Ġà¦¦à¦° à¦ªà¦¤
Ġà¦¡ à¦¨
Ġà§§à§¯à§® à§ª
Ġà¦Ĩà¦Łà¦ķ à¦ķ
à¦ķ à¦¸à¦¨
Ġà¦ª à¦²à¦ķ
Ġà§§à§¯à§¬ à§¦
à§¯à§ ¯
à¦® à¦¸à¦®
à¦§ à¦¶
à§Ł à¦ĸ
à¦¹ à¦¬à¦¨
à¦ļ à¦¤à¦°
à¦¤ à¦ķà¦°
à¦¸ à¦ķà¦²
Ġà¦« à¦Łà¦ķ
Ġà¦ıà¦°à¦ªà¦° à¦ĵ
Ġà¦« à¦¨
à¦ī à¦Łà¦°
à¦Ĩ à¦ĩà¦Ł
à§¨à§¦à§§à§ ®
Ġà¦ıà¦¸à¦ıà¦® à¦ıà¦¸
Ġà¦¹à¦² à¦¦
à¦°à¦£ à¦Ł
Ġà¦®à¦ľ à¦¬
à¦¯ à¦§
Ġà¦Ľ à¦²
à¦ĩà¦² à¦«à¦²à¦ķ
à¦²à¦¤ à¦ª
à¦« à¦«
à¦¨ à¦·
à¦ķà¦Ł à¦¬à¦°
Ġà¦Ĩà¦ķ à¦¨
Ġà¦Ĩà¦² à¦«
Ġà¦¸à¦«à¦² à¦Ń
Ġà¦Ĩ à¦ł
Ġà¦ıà¦ĸà¦¨ à¦ķ
à¦¥ à¦ªà¦¤
à¦ı à¦¨à¦Ł
à§§à§ §à§
Ġà¦§ à¦°à¦¬
à¦ļ à¦¦
à§¨à§¦à§§à§ ¬
à¦°à¦®à¦£ à¦ķ
Ġà§§à§¯à§¬ à§¯
Ġà§§à§¯à§Ń à§¯
à¦ķ à¦¤à¦°
à¦¬à¦¸ à¦¹
à¦ı à¦ª
à¦¬à¦¨ à¦Ł
Ġà¦¦à¦² à¦ĩ
Ġà¦¹ à¦¦
Ġà¦Ĩà¦« à¦ľ
Ġà¦Ľ à¦Ł
Ġà¦¥ à¦®à¦ķ
à¦¤ à¦Ĺà¦¤
à¦ľ à§ľ
à¦®à§Ł à¦ķà¦°
à§§à§¯à§ ¬
Ġà¦Ľ à¦¦
à§Ł à¦¬à¦¦
à¦² à¦§à¦¨
Ġà¦°à¦ĵ à¦¶à¦¨
Ġà¦Ł à¦ªà¦ķ
à¦£ à¦ľà§Łà¦¨
Ġà¦ħ à¦°à¦¬
à¦Ł à¦°à¦ķ
à¦¨ à¦ĸ
ĠĠĠĠ ĠĠĠĠĠ
à¦ļà¦² à¦Ł
à¦¯ à¦¸à¦®
à¦Ń à¦ľà¦¨à¦ķ
à§¨à§¦ à§¨à§¦
Ġà§§à§¬ à§ª
à¦ĺ à¦¸
Ġà¦ĩ à¦ľà¦¤
Ġà§¦ à§§à§Ń
Ġà¦ıà¦¸ à¦¡
à¦¸ à¦ľ
Ġà§§à§¯à§® à§Ń
Ġà§§à§¯à§ª à§®
à¦¯ à¦ĸà¦¨
Ġà¦¦ à¦²à¦¨
à¦· à¦ªà¦°
Ġà§§à§¯à§® à§¯
Ġà¦ĸ à¦¸à¦°
Ġà¦®à¦ľ à¦²
Ġà¦¦à¦ĸà¦² à¦¦
Ġà¦ķ à¦¨à¦ķ
Ġà¦¶ à¦¤à¦°
à¦Ĩà¦ĩ à¦¡à¦¬
Ġà¦¤à¦ĸà¦¨ à¦ķ
Ġà¦ħ à¦ĸ
à§Ł à¦ķà¦¤
à¦· à¦°à¦£
à¦°à¦® à¦ľ
à¦¤ à¦ĸà¦¨
à¦¥ à¦Ł
Ġà¦ĩà¦Ł à¦Ń
Ġà¦¸à§ľ à¦ķà¦Ł
Ġà¦īà¦ª à¦Ĺ
Ġà¦¸à¦®à§Ł à¦®à¦¤
Ġà¦¬à§ľ à¦¸à§ľ
Ġà¦ħà¦ª à¦°à¦ķ
Ġà§§à§¯à§® à§¨
à¦Ĺ à¦¸à¦¹
Ġà¦ıà¦« à¦¸
à¦°à¦£ à¦Ń
Ġà¦Ķ à¦ªà¦¨
Ġà¦¸à¦¬ à¦ķà¦Ł
Ġà¦ļà¦² à¦¨
Ġà¦Ĩà¦ĩ à¦ĩà¦¡
à¦ĩ à¦īà¦¨
Ġà¦ª à¦¹
Ġà¦Ń à¦°à¦ª
à¦¦ à¦Ĺà¦ŀ
à¦ł à¦¸
à¦¤à¦° à¦¸
Ġà§§à§¯à§® à§©
à¦ª à¦ĩ
Ġà¦¬à¦² à§Ł
Ġà§§à§¯à§¬ à§¨
Ġà§§à§¯à§« à§¦
Ġà¦ī à¦§
à¦Ĺ à¦Ń
Ġà¦Ĩà¦¨ à¦¹
à¦Ĩà¦ĩ à¦Ĩà¦°
Ġà§§à§¨ à§«
à¦° à¦°à¦®
à§¨à§¦à§§à§ «
Ġà¦¸ à¦ªà¦°
à¦ħ à¦¬
à¦¨ à¦Ĺà¦ŀ
Ġà¦ħà¦¬ à¦²
à¦¶ à¦Ĺà¦¤
à¦ľ à¦¸à¦¹
à¦¯à¦¸ à¦ļ
à¦ĺ à¦¬à¦¦
à¦ªà¦ķ à¦¥à¦¨
à§¯à§ ®
Ġà¦ĩ à¦®à¦ª
à§¯à§ ©
Ġà¦Ĩ à¦¯
à¦ĩ à¦ªà¦°
à¦Ĺ à¦²à¦ķ
à§¯à§ ¬
Ġà§¯ à§¦à§¦
Ġà¦ķ à¦¦à¦°
à¦¶ à¦ªà¦¥
à¦ªà¦° à¦¬à¦°
à§¯à§ ª
à¦¶à¦¨ à¦¸
Ġà§§à§¬ à§¦
Ġà¦¨ à¦²
à¦¹ à¦¯
à¦ļ à¦ķà¦¦
à§§à§¯à§ ª
à¦°à§Ł à¦ķ
à§ľ à¦°
Ġà¦Ĩà¦ĩ à¦Ń
Ġà¦Ŀ à¦²à¦ķ
Ġà¦ĩ à¦®à¦¤
Ġà¦¶à¦¤ à¦¬à¦°
Ġà§§à§ª à§¦
Ġà§§à§® à§ª
Ġà¦Ĩà¦¦ à¦²
à§¨à§¦à§§à§ ª
à§¯à§ Ń
Ġà¦Ĩà¦ĩà¦¨ à¦Ł
à§§à§¯à§ «
Ġà¦Ĩà¦° à¦¸
Ġà¦ļ à¦ŀ
Ġà¦ħ à¦°à¦£
Ġà¦ī à¦¡
à¦²à¦ķ à¦¡
à¦¶ à¦Ļ
Ġà¦° à¦ľà¦¨
à¦¨à¦Ń à¦°
Ġà§§à§¯à§® à§«
à¦ħ à¦²
Ġà§§à§¯à§® à§§
Ġà¦¸à¦¬ à¦®
à¦ªà¦£ à¦¨
à¦¸à¦ķà¦¦ à¦²
Ġà¦ľà¦² à¦¸
Ġà¦ıà¦ķ à¦²
Ġà¦¸ à¦°à¦¸
Ġà¦Ĩà¦Ľ à§ľ
Ġà§§à§® à§¦
Ġà¦īà¦² à¦Ł
à¦Ľ à§Ł
à¦ī à¦ĩà¦¨
à¦¨à¦® à¦ľ
Ġà¦ıà¦ķ à¦Ĺ
Ġà§§à§¯à§Ń à§Ń
Ġà¦¥ à¦®
Ġà¦ĩ à¦¥
à¦¹à¦°à¦£ à¦¸
à¦Ľ à¦ķ
à¦¦ à¦ķà¦°
à¦ıà¦¨ à¦ıà¦¨
Ġà¦ļ à¦ķà¦°
à¦Ń à¦°à¦¯
à¦¤à¦° à¦Ł
à¦Ł à¦ķà¦°
à¦ľ à¦ĸà¦¬à¦°
à¦® à¦®à¦¤
Ġà¦¨à§Ł à¦¤
à¦Ļ à¦¤
Ġà¦Ĩà¦ľ à¦ĩ
Ġà§§à§¯à§Ń à§¬
à¦® à¦¹à¦²
Ġà¦ĵà¦ĩ à¦¸à¦¬
à¦ł à¦ķà¦¦
Ġà¦Ń à¦Ĺà¦¬
Ġà¦ı à¦¨à¦ķ
Ġà¦¬à¦¹ à¦¨à¦ķ
à¦ªà¦ķ à¦¥
Ġà¦Ĩà¦¹ à¦°à¦£
Ġà¦¬à¦°à¦ķ à¦¤
à¦ıà¦¸ à¦ķ
Ġà¦ľà§Ł à¦¦
Ġà¦ĩà¦¨à¦« à¦°à¦®
à¦Ĩà¦ĩ à¦ı
Ġà¦ıà¦°à¦ĩ à¦®à¦§
Ġà¦ıà¦ķ à¦ļ
à§İ à¦«à¦°
Ġà¦ķà§Ł à¦Ł
Ġà¦¶à¦¹à¦° à¦Ĺ
à¦ľ à¦¤à¦¨
Ġà¦¹ à¦¸à¦ª
à¦¶à¦¨ à¦Ĺ
Ġà¦® à¦ĵà¦¦
à§¨à§¦à§§à§ Ń
Ġà¦¨ à¦ĸ
Ġà¦ªà¦° à¦¨
Ġà§§à§¯à§Ń à§®
Ġà¦ıà¦° à¦¦
Ġà¦Ĩà¦² à¦ľ
à¦ļ à¦²à¦ķ
à¦·à§Ł à¦¶
Ġà¦īà¦ª à¦ļ
à¦£à¦¬ à¦Ļ
Ġà¦ľ à¦ĺà¦¨
à¦Ń à¦ª
Ġà¦Ĺ à§Ł
Ġà¦ħà¦ª à¦ļà§Ł
Ġà¦ıà¦¤ à¦ķ
Ġà¦¬ à¦ĩà¦¤
Ġà¦«à¦² à¦ª
Ġà§§à§¯à§¬ à§Ń
Ġà¦Ĩà¦° à¦Ł
Ġà¦ıà¦¨ à¦Ĩà¦°à¦¸
Ġà§¨à§¦ à§ª
à¦Ĩ à¦§
à¦¹ à¦īà¦¦
Ġà¦¨à¦° à¦ĵà§Ł
Ġà¦§à¦° à¦Ľ
à¦£ à¦Ĺà¦¤
Ġà¦¬à§Ł à¦ķà¦Ł
à¦¸ à¦¦à¦°
Ġà¦ķà¦² à¦¹
Ġà¦Ĺ à¦¹
à¦¤à¦° à¦¨
Ġà¦ľà¦¨ à¦ĩ
Ġà¦¸ à¦ľà¦²
à§ľ à¦ĸà¦£
Ġà¦¨à¦Ĺ à¦°à¦¬
Ġà¦¹à¦¤ à¦¬
Ġà¦ħ à¦®à¦¨
à¦ĸ à§ľ
à¦¤ à¦¹
à¦ľ à¦ķà¦²
Ġà¦¬à¦Ľà¦° à¦Ĺ
Ġà¦ħà¦Ń à§Ł
à¦Ľ à¦¦
Ġà¦¨ à¦ĩà¦²
à¦¨ à§ľ
Ġà¦īà¦ª à¦®à¦¨
Ġà¦ľà¦¨ à¦ľ
Ġà¦ħ à¦¯à¦¥
Ġà¦Ĺ à§Łà¦¨
Ġà¦² à¦Ń
à¦¨à¦¬ à¦¦
à¦ĵ à¦¹
à¦¨ à¦ķà¦°
Ġà¦ķà¦° à¦¨
Ġà¦ıà¦ĩ à¦¬
Ġà§§à§¦ à§®
à¦¡ à¦¶
à¦Ń à¦°à¦¤
à¦Ĩ à¦ļ
Ġà¦Ĩà§Ł à¦°à¦¨
Ġà¦ķà¦² à¦Ļ
à¦¦à¦¨ à¦ªà¦¤
Ġà¦¡ à¦ľà¦¨
à§Ŀ à¦¤
à¦ĩà¦¡ à¦²
à¦ľ à¦ĺà¦°
à¦ı à¦ı
à¦Ĺ à¦°à¦®
à¦¡à¦Łà¦ķ à¦®à¦ķ
à¦² à¦§
à¦¨à¦¬ à¦ľ
Ġà¦ķ à¦¤à¦ķ
à¦ī à¦ıà¦ĩà¦ļ
Ġà¦¹ à¦ĵ
Ġà§§à§¯à§¬ à§«
à¦¬à¦¨ à¦¬
Ġà¦ħà¦ª à¦¹
Ġà¦¯ à¦ķ
Ġà¦¬à¦¸ à¦Ľ
Ġà¦¦ à¦ĩ
Ġà¦¬ à¦¹à¦°
Ġà¦®à¦¨ à¦ķ
Ġà¦§ à¦®à¦ķ
à¦¹ à¦ł
Ġà¦° à¦īà¦«
à¦ħ à¦«
Ġà¦ħà¦ª à¦ļ
Ġà§§à§¦ à§«
Ġà¦® à¦ĵà¦²
à¦¹ à¦Ĺ
Ġà¦ıà¦ĩ à¦¡
à§İ à¦«
Ġà¦ķà¦® à¦ĩ
à§© à§©
Ġà¦ĩ à¦ĩà¦ī
à¦· à¦Ļ
Ġà§§à§¦ à§§
à¦¸à¦® à¦¸
à¦¬à¦¨ à¦Ĺà¦°
Ġà¦ªà¦° à¦¬
Ġà§§à§¦ à§ª
Ġà¦ıà¦« à¦Ĩà¦ĩà¦Ĩà¦°
Ġà¦¤ à¦ª
à¦§ à¦ª
Ġà¦ıà¦ķ à¦ľ
Ġà¦ľà¦² à¦¦à¦¸
à¦ķ à¦£
Ġà¦ľ à¦ķ
à¦Łà¦¨ à¦®
à¦¦ à¦¬à¦ª
Ġà¦®à¦¤ à¦²à¦¬
Ġà§§à§¯à§¬ à§¬
Ġà§§à§¯à§¬ à§ª
Ġà¦° à¦ľ
à¦¬ à¦ªà¦¤
Ġà¦ħ à¦Ĺà¦£
à¦Ĺ à¦®à¦¨
à¦£ à¦§
à¦¤ à¦¬à¦¸
à¦°à¦® à¦ª
à¦ľ à¦Ļ
Ġà¦ªà¦¥ à¦ļà¦²
Ġà¦ľà¦® à¦ľà¦®
Ġà¦«à¦² à¦¸
à¦ķ à¦·
à¦ļà¦² à¦ļ
Ġà§©à§« à§¦
à§Ł à¦¡
à§Ł à¦ľà¦¨
Ġà¦«à¦² à¦¶
à¦¦à¦ķ à¦ķ
Ġà¦¶à¦¹ à¦°à¦¤à¦²
à¦¶à¦² à¦Ĺà¦¤
à¦ł à¦Ĺà§ľ
à¦¦ à¦ĩ
à¦¸à¦Ł à¦²
Ġà¦ı à¦®à¦¦
Ġà¦¬à§ľ à¦²
à¦¨à¦® à¦£
Ġà¦° à¦¦
à¦°à¦ķ à¦Ł
Ġà¦īà¦ª à¦ķà¦®
à¦¬à¦¤ à¦²
à¦¤ à¦¸à¦¹
à¦§ à¦ĵ
à¦¦ à¦¯
à¦īà¦¨ à¦Ł
à§Łà¦¨ à¦ķ
à§İ à¦ĩ
Ġà§§à§¨ à§®
à¦ķ à¦ĸ
Ġà¦¡ à¦°
à¦¸ à¦ķà¦°
à§ĥ à¦Ĥ
Ġà¦¸à¦® à¦·
Ġà¦Ĺà¦¤ à¦¬à¦Ľà¦°
à¦ķ à¦¬à¦²
à¦¯ à¦ĸ
à¦¬à¦° à¦Ĺ
à¦°à¦® à¦¤
Ġà¦«à§Ł à¦ľ
à¦ļà¦² à¦Ĺ
à¦Ń à¦Ł
à¦® à¦īà¦¦
Ġà¦ľà¦¨ à¦®
à¦° à¦īà¦¦
Ġà¦ĸ à¦¤à¦®
Ġà¦ħà¦§ à¦°
Ġà¦ķà¦¤ à¦Ĺ
à¦²à¦¤ à¦¦
Ġà¦ıà¦² à¦¬
Ġà¦ħà¦² à¦Ĩà¦īà¦Ł
à¦ª à¦Łà¦¨
à¦² à¦¬à¦¨
Ġà¦²à§ľ à¦Ľ
à¦²à¦¨ à¦°à¦¤
Ġà¦Ĩà¦ĩ à¦¬
Ġà¦¬à¦¨ à¦Ĺ
à¦ıà¦® à¦ıà¦¸
Ġà¦¬ à¦ľà¦²
à¦¨à¦ĵ à¦Ń
à¦¨ à¦Ĺà¦¤
Ġà¦¨ à¦¬à¦¬
à§¨à§¦à§§à§ ©
à¦® à¦ļà¦¨
à¦ł à¦®
à¦ľà¦¨ à¦¤
Ġà¦® à¦ľà¦¨
Ġà¦« à¦¸
à¦ķ à¦§
à¦® à¦§à¦¨
Ġà¦ĩ à¦°à¦¶
à¦® à¦°à¦ķ
Ġà§§à§¯à§« à§ª
à¦ķ à¦ĵà§Ł
Ġà¦¤ à¦°à¦®
Ġà§§à§§à§ «
Ġà¦ķ à¦¸à¦¬
Ġà¦Ĩà¦Ĺ à¦°à¦¤à¦²
Ġà¦ªà¦¦ à¦Ł
Ġà¦¤ à¦ķà¦®
Ġà¦Ĺà§ľ à¦²
à§İ à¦ľ
à¦¦ à¦Ľ
Ġà§§à§¯à§¬ à§®
Ġà¦¤ à¦«
à¦Ń à¦¦
Ġà¦¹à¦¤ à¦¦à¦°
à¦² à¦ľà§Ł
Ġà¦īà¦Ńà§Ł à¦ĩ
à¦ĺ à¦¬
à¦°à¦¥à¦® à¦Ł
Ġà¦Ĩà¦Ĺ à¦²
à¦¬à¦¸ à¦¤
à¦¸à¦¬ à¦¹
Ġà¦ı à¦®à¦¤
à¦ī à¦ĩà¦ķ
à¦ı à¦°à¦ĩ
à¦ıà¦® à¦ı
Ġà§§à§¯à§© à§¦
à¦§ à¦Ĺ
Ġà¦Ĩà¦° à¦¶
à¦Ĺ à¦®à¦ķ
Ġà¦Ĩà¦Ĺ à¦·
à¦ĩ à¦¸à¦°
à§Ł à¦ļ
à§Łà¦ķ à¦ķ
Ġà¦ķà¦¤ à¦ľà¦¨
à§© à§«
à§¯à§ §
à¦¯à¦ª à¦£
Ġà¦īà¦¦ à§Ł
Ġà§§à§¦ à§¨
à¦° à¦ªà¦¨
à¦¥ à¦ļ
Ġà¦ıà¦² à¦ª
Ġà¦Ĩà¦ĩà¦ķ à¦¨
Ġà¦ļ à¦ĵà§ľ
à¦ĭ à¦£
Ġà¦¬à¦² à¦Ł
à¦ļ à¦ľà¦¨à¦ķ
à¦¦à¦¨ à¦Ĺà¦°
à§¯ à§¦
Ġà§§à§§à§ ¨
à¦ıà¦¸à¦ıà¦® à¦ıà¦®
Ġà¦ķ à¦ķà¦Ł
à¦ªà¦¨ à¦ķ
à¦£ à¦ĵ
Ġà¦¡ à¦®
Ġà¦® à¦¶à¦²
Ġà§§à§¯à§¬ à§§
à¦·à¦ª à¦ŀ
à§Ģ à¦Ĥ
Ġà¦ı à¦§à¦°à¦¨
Ġà¦ĩ à¦«
Ġà¦ķà¦¨ à¦ľ
à¦ıà¦¸ à¦ıà¦²
Ġà¦ĺ à¦¨à¦¤
Ġà¦¬à¦ĩ à¦Ĺ
à¦Ĩ à¦Łà¦ķ
Ġà¦Ĩà§Ł à¦¤
Ġà¦ĩ à¦ľà¦°
Ġà¦īà¦¦ à¦ĺ
à¦¤à¦¨ à¦ķ
à¦ª à¦Ľ
Ġà¦ı à¦¹à¦¸
Ġà¦ľà¦¨ à¦®à¦¤
à¦ĩà¦Ł à¦Ĺ
Ġà§§à§Ń à§«
à§Ł à¦ķà¦¦
Ġà¦Ń à¦¨
Ġà¦Ĩà¦Ł à¦²
Ġà¦Ĩà¦ļà¦°à¦£ à¦¬
Ġà¦Ĩ à¦¦à¦¨
à¦ıà¦¨ à¦ıà¦¸
Ġà¦¬ à¦¦à¦¨
Ġà¦° à¦ĺ
Ġà¦ļ à¦ķà¦¬
Ġà§§à§¦ à§Ń
Ġà¦ªà¦¦ à¦®à¦°
Ġà¦ķ à¦¸à¦®
Ġà¦ħà¦¨ à¦¬à¦¦
à¦ĩ à¦īà¦ľ
Ġà§§à§¦ à§©
à¦ļ à¦¤à¦²
Ġà¦Ĩà¦¦ à¦¤
Ġà§§à§¯à§« à§¬
à¦¨ à¦¬à¦¸à¦®
Ġà¦² à¦ĺ
à¦¦ à¦®à¦¤
Ġà¦Ŀ à¦ķ
à¦ª à¦ķà¦°
à¦¤ à¦£
à¦¸ à¦ªà¦¨
Ġà¦¬à¦¨ à¦Ń
Ġà¦ªà¦Ł à¦Ń
Ġà¦ªà¦¦ à¦ļ
à¦§ à§ľà¦ķ
Ġà¦ĺ à¦·
Ġà¦ķà¦® à¦°
Ġà§§à§© à§«
à§¨à§¦à§§à§ ¨
à¦¬à¦¸ à¦¨
Ġà¦ķà¦®à¦¨ à¦ĵà§Ł
Ġà§§à§¯à§« à§Ń
à¦ĩ à¦ĩ
Ġà¦ħà¦¥ à¦°
à¦¬ à¦¹à¦¤
Ġà§¯à§¯à§ ¯
à¦¨ à¦®à¦¤
à¦§ à¦²
Ġà¦īà¦ª à¦ª
à¦¨à¦¨ à¦Ĺà¦°
à¦¬à¦² à¦Ľ
Ġà§§à§¦ à§¬
à¦¸ à¦īà¦¦
à¦® à¦Ĺà¦¤
Ġà¦® à¦ķà¦¬
à¦ĵ à¦ľ
Ġà¦ļ à¦£
à¦Ĩà¦° à¦¡
à¦§ à¦ķà¦°
Ġà§¨ à§§à§¦
Ġà¦¬ à¦Ľ
à¦ª à¦Ń
Ġà§§à§§à§ ¬
Ġà§§à§¯à§« à§®
à¦¦à¦° à¦Ń
à¦· à¦ľà¦¨à¦ķ
à¦¬ à¦ĸ
Ġà¦ķà¦° à¦¦
Ġà¦ĵ à§ľà¦¨
Ġà¦ľà¦¨à¦¸ à¦ļ
Ġà¦ļ à¦ķà¦²
à¦° à¦Ĺà¦£
Ġà§§à§§à§ Ń
Ġà¦®à¦¨ à¦®
à¦ĩà¦ĵ à¦Ń
à¦·à¦£ à¦Ń
Ġà¦ıà¦¤ à¦ĩ
à¦Ĩà¦ĩ à¦ıà¦®
à¦ħà¦ªà¦° à¦¦
Ġà¦Ĩà¦® à¦¤à¦²
Ġà¦® à¦ĵà¦ķ
à¦ī à¦ªà¦°
à¦ĸ à¦ķà¦¦
à¦Ĩ à¦¬à¦¦
Ġà§©à§Ń à§¦
à¦§ à¦¨à¦ķ
à¦ĵ à¦«
à¦ħ à¦¥à¦ļ
Ġà¦ıà¦ķ à¦°à¦ķà¦®
à¦®à¦® à¦Ń
à¦¯ à¦Ĺà¦¤
Ġà§§à§Ń à§Ń
à¦ļà¦ª à¦¦à¦¸
Ġà¦¹à¦ķ à¦ķ
à¦¸ à¦ĸ
à§© à§Ń
à¦¹ à¦£
à¦« à¦«à¦°
Ġà¦« à¦°à¦ľ
à¦¸à¦¹ à¦ķ
à¦ıà¦®à¦ĩ à¦ı
à¦¨ à¦¥
à¦¤à¦Ń à¦°
à§§à§¯à§Ń à§§
à¦īà¦ľ à¦ķ
Ġà¦¸à¦¹à¦ľ à¦²à¦Ń
Ġà¦¬à§ľ à¦ĩ
à¦ıà¦« à¦¸
à¦ĸ à¦¦
Ġà¦¬à¦ĩ à¦Ľ
Ġà¦²à§ľ à¦¬
à¦¬ à¦ļà¦°
à¦¸ à¦ĺ
à¦¥ à¦¹
à¦Ĩ à¦¸à¦¨
à¦£à¦ª à¦¦à¦ķ
Ġà¦ħà¦ª à¦Ľà¦¨
Ġà§§à§¯à§ª à§¯
à¦¨ à¦Łà¦¨
Ġà¦¨ à¦¹
Ġà¦² à¦ĩà§Ł
Ġà¦ıà¦®à¦¨ à¦ĵ
à¦Ń à¦¶
à¦ĵà¦² à¦ľ
à¦ĩ à¦®à¦¨
Ġà¦Ĩà¦¸ à¦¨à¦Ł
à¦Ĩ à¦ĩà¦ķ
Ġà¦ı à¦ıà¦¸à¦ª
Ġà¦ī à¦Ł
Ġà¦ıà¦ķ à¦ĩà¦¸
à¦Ĩà¦ĩ à¦ıà¦¸
Ġà§¨à§¦ à§©à§¦
Ġà§§à§§à§ §
à¦°à¦® à¦ķ
Ġà¦®à¦¹ à§İ
Ġà¦ıà¦ķà¦¦à¦® à¦ĩ
à¦¨à¦ĵ à¦°à¦ķà¦®
à¦ª à¦ªà¦¤
Ġà§§à§¯à§ª à§¬
à¦¹ à¦ľà¦¨à¦ķ
Ġà¦¸à¦¹ à¦¨à¦¶
à¦ıà¦¸ à¦ĩà¦¸
à§¨à§¦à§§à§ ¦
Ġà¦¸ à¦ĵà¦¦
Ġà¦¤ à¦ķ
à¦Ŀ à¦ķ
à¦¥à¦° à¦ĺ
Ġà¦ķ à¦¦à¦®
Ġà§§à§¨ à§¬
Ġà§§à§Ń à§¦
Ġà§§à§¯à§¬ à§©
Ġà¦« à¦ľà¦°
à¦· à¦ªà¦¥
à¦§ à¦ľ
à¦° à¦Ŀ
à¦®à¦ķ à¦Ń
à¦īà¦ıà¦ĩà¦ļ à¦ĵ
Ġà¦Ĩ à¦«à¦¤
Ġà§§à§Ń à§®
à¦¬ à¦ªà¦°
à¦¤à¦° à¦Ļ
à¦¨à¦¦ à¦£
Ġà§§à§¨ à§Ń
à§ª à§¦
à¦¦ à¦°à¦ķ
à¦ıà¦® à¦¡
Ġà¦ĩ à¦Ľ
à¦Ŀ à¦ªà¦¥
Ġà§§à§§à§ ®
Ġà§§à§§à§ ª
Ġà¦Ĺ à¦ŀ
à§© à§¬
à¦¦à¦° à¦Ł
à§§à§¯à§ ©
Ġà¦² à¦²
à¦·à¦£ à¦¶
à§¨à§¦ à§¨à§§
à¦¡ à¦¹
Ġà¦ıà¦ĩ à¦ĸ
Ġà¦ĭ à¦¦
Ġà¦ĩ à¦¶à¦°
Ġà¦ıà¦¸ à¦ķ
Ġà¦ıà¦ĩ à¦°à¦ķà¦®
Ġà§§à§Ń à§¬
à¦Ł à¦ķà¦²
Ġà¦ħ à¦®à¦²
Ġà¦Ĩà¦ª à¦¸
Ġà¦Ī à¦°
à¦Ĩ à¦ĩà¦°
Ġà¦Ĩà¦² à¦®à¦ķ
Ġà§§à§§à§ ©
à¦¯ à¦°à¦¸
Ġà¦ıà¦ķ à¦ĸ
à¦Ļ à¦°
à¦¨à¦ĵ à¦Ĺ
Ġà¦ľà¦¨ à¦¶à¦ķ
Ġà¦ļ à¦¸
Ġà¦ħ à¦ķà¦²
Ġà¦Ĩà¦° à¦ıà¦¸à¦ıà¦¸
à§© à§ª
Ġà¦¬à¦¨ à¦¬
Ġà¦īà¦ª à§ľ
à¦¨ à¦¬à¦°
Ġà¦ıà¦¸ à¦ı
à¦ľ à¦īà¦ķ
à¦Ł à¦°à¦¦
à¦ķ à¦¬à¦°
à¦¥ à¦¦à¦£
Ġà¦Ĩ à¦°à¦ķ
à¦¤ à§Ł
à¦²à¦¤ à¦ķ
à¦®à¦¦ à¦®
Ġà¦¦ à¦ĸ
Ġà§§à§¦ à§¯
Ġà¦² à¦¬
Ġà¦Ĺà¦łà¦¨ à¦¤à¦¨
Ġà¦īà¦ĩ à¦¥
à¦¦ à¦ľ
Ġà¦² à¦ĸà¦¨
à¦° à¦¨à¦¤
Ġà¦ıà¦° à¦«à¦²
Ġà¦ħà¦¸ à¦ļ
Ġà¦ĵ à¦ľ
à¦Ł à¦Ĩà¦ª
Ġà¦° à¦Ł
à¦ Ĭ
Ġà¦ı à¦®à¦°
à¦Ĺ à¦ľà¦¨à¦ķ
Ġà¦ĺ à¦°à¦Ł
à¦ªà¦¨ à¦Ĺà¦°
à¦§ à¦ªà¦°
Ġà¦Ĩà¦ĩ à¦ĵ
Ġà¦ıà¦ĩà¦ļ à¦¡
Ġà¦Ńà§Ł à¦Ń
Ġà¦® à¦¥
à¦¬ à¦ŀ
Ġà¦§ à¦²
Ġà¦Ī à¦¸
Ġà§§à§¯à§« à§«
à¦ªà¦° à¦°
Ġà¦ĸ à¦¸
Ġà¦¤ à¦°à¦ķ
Ġà¦ıà¦ķ à¦§
Ġà¦ī à§ľà¦¤
Ġà§§à§¯ à§¨à§¦
Ġà§§à§¯à§« à§©
à¦¶ à¦ļ
à§© à§®
à¦¬à¦¤ à¦ĩ
Ġà¦Ĩà¦ĩà¦¨ à¦¸
Ġà¦® à¦°à¦¤
Ġà¦¹ à¦Łà¦¸
Ġà¦¡ à¦Ĺ
à§Łà¦¨ à¦°
à¦ħ à¦®
Ġà§§à§¯à§« à§§
à¦²à¦¨ à¦Ĺà¦°
Ġà¦ı à¦Ĩà¦ĩ
Ġà§§à§¯à§ª à§«
Ġà¦ª à¦¦à¦¸
à¦¯à§Ł à¦¬à¦¹
à¦ķà¦Ľ à§ľ
à¦ĩ à§ľ
Ġà¦Ł à¦Ł
à¦¨à§Ł à¦¶
à¦¹à¦¨ à¦ª
à¦¦ à¦®à§Ł
Ġà¦Ĩà¦ĩà¦¸ à¦ķ
Ġà¦²à§ľ à¦¤
Ġà¦ı à¦ĸà¦¤
à¦§ à¦¬à¦ª
Ġà¦« à¦²à¦ķ
à¦°à¦¬ à¦§
Ġà¦ħà¦¸ à§İ
à¦ķà¦° à¦¨
Ġà¦ĩà¦ī à¦Ń
à¦ĩà¦² à¦°
Ġà¦¨à¦ĵ à¦¶
à¦¯à¦Ł à¦ķà¦°
Ġà¦¹à¦ĩ à¦ļà¦ĩ
Ġà¦ī à¦Ń
à¦°à¦£ à§Ł
à¦¨à§Łà¦¨ à¦®
à¦ľà§Ł à¦ª
Ġà§§à§¨ à§ª
Ġà§ªà§« à§¦
Ġà¦īà¦ªà¦¸ à¦ļ
Ġà§§à§ª à§«
à§ľ à¦Ļ
à¦ľà¦® à¦¹à¦²
Ġà¦¬à¦ķ à¦¶
à¦¦ à¦¯à¦¨
Ġà¦¬à¦Ľà¦° à¦ĵ
à¦ĩà¦Ł à¦ĵà§Ł
à¦°à¦£ à¦ĵ
à¦¯ à¦ŀ
à¦Ĩ à¦¬à¦¹
à¦¦ à¦Ń
Ġà¦īà¦Ńà§Ł à¦ªà¦ķ
Ġà¦ıà¦ķ à¦§à¦°à¦¨
Ġà¦° à¦£à¦ķ
à¦£ à¦Ł
à¦®à¦¸ à¦ľ
Ġà§§à§¯à§ª à§¦
à¦Ĩà¦° à¦ıà¦¸
à¦® à¦ĵà§Ł
Ġà¦ĭ à¦·à¦Ń
à¦¯ à¦¹à¦¤
à¦ĩà¦¸ à¦Ł
à¦Ĺà¦¤ à¦¦
Ġà¦Ĺ à¦«
à¦°à¦« à¦¤
Ġà¦¡à¦² à¦«
à¦¤ à¦²à¦ķ
Ġà¦¨ à¦°à¦ķ
Ġà¦Ŀ à¦²
à¦ĩ à¦ĺ
à¦¡ à¦¸à¦¹
Ġà¦ĩà¦¨ à¦Ł
Ġà¦Ĺà¦£ à¦¬
Ġà¦ħà¦² à¦¸
Ġà§§à§« à§¦à§¦
à¦¤ à¦ķà¦¤
à¦°à¦ķ à¦¨
Ġà¦Ĩà¦ľ à¦¬
à¦Ĺ à¦ļ
à¦¯à¦® à¦ķà¦°
à¦¨à¦¤ à¦²
Ġà¦Ĩ à¦¹à¦²
Ġà¦ħ à¦ľà¦¸
à¦¬ à¦²à¦¨
Ġà¦ĩ à¦¸à¦¹
à¦¬à¦² à¦ĩ
à¦ī à¦¦à¦ķ
Ġà¦īà§İà¦ķ à¦£
à¦¬ à§Łà¦¸
à¦¨à¦¤ à¦¤
Ġà¦¸à¦ļ à¦°
Ġà¦ĵ à¦Ĺ
Ġà¦¸à¦® à¦ªà¦°
à¦ı à¦¶
Ġà¦§ à¦¨à¦ķ
Ġà¦Ĩà¦² à¦Ń
à¦¬ à¦¤à¦®
Ġà¦¶à¦° à§İ
Ġà¦ħà¦ª à¦Ł
à§ľ à¦¹
Ġà¦ıà¦¡ à¦®
à§¨à§¦à§¦ à§®
à¦ĩ à¦²à¦ķ
à¦ĵ à¦¹à¦°
Ġà¦ħà¦ªà¦¹à¦°à¦£ à¦ķ
Ġà¦¦à¦² à¦¬à¦¦à¦²
à¦² à¦Ŀ
Ġà¦¦ à¦°à¦¦
Ġà§§à§« à§«
Ġà§§à§¯à§« à§¯
à¦ķ à¦ĸà¦¨
Ġà¦Ĩà¦ĩ à¦ıà¦®
à¦ª à¦¸à¦¹
Ġà¦Ĺà¦£ à¦«
à¦ª à¦®à¦¨
Ġà§§à§¨ à§¦à§¦
Ġà¦ªà§Ł à¦²
Ġà¦¸ à¦¶
à¦¦à¦° à¦Ĺà¦ŀ
Ġà¦ħà¦¨ à§ľ
Ġà¦ķ à¦ĩà¦²
Ġà¦¦ à¦®à¦ķ
à¦¤ à¦®à¦¨
à¦¬ à¦¹à¦°
Ġà¦ıà¦¡ à¦ĵà§Ł
Ġà¦ħà¦ª à¦¶à¦ķ
Ġà¦Ŀà¦² à¦®à¦²
à¦°à¦¤ à¦¨
à¦ĺ à¦¶
Ġà¦¦ à¦®à¦¦à¦®
Ġà¦ıà¦¸ à¦¸
Ġà¦ħà¦¨ à¦Ń
Ġà¦¸à¦¬ à¦°à¦ķà¦®
Ġà§§à§© à§ª
à§¨à§¦à§¦ à§¯
à§Ł à¦¶
Ġà§§à§ª à§®
à¦ıà¦¸ à¦ĩà¦¤
Ġà¦¹à¦² à¦«à¦¨
Ġà¦ıà¦² à¦¡
à¦Ĺ à¦¡
à¦¤à¦° à¦«
Ġà¦¯ à¦¬
à¦¶ à¦¬à¦ª
Ġà¦² à§Ł
Ġà¦īà§İ à¦ĸ
Ġà§§à§¬ à§¬
à¦£ à¦¨à¦Ĺà¦°
Ġà§§à§¬ à§«
à¦Ĺà¦® à¦Ĺà¦ŀ
à§Ģ à¦ĥ
Ġà¦¬à§Łà¦¸ à¦¸
Ġà¦ħà¦Ĺ à¦¸
Ġà¦¸ à§İà¦ķ
à¦ĸ à¦ķà¦°
à§Ł à¦Ļ
Ġà¦ķ à¦¹
à¦¬à¦¨ à¦§
Ġà¦¹à¦² à¦Ĺ
Ġà¦ħ à¦¤à¦°
Ġà¦¤ à¦¸à¦²
à¦¥ à¦ĩ
Ġà¦ıà¦ķ à¦ķà¦Ń
Ġà¦ľà¦¨ à¦¬à¦¹
Ġà¦ĩ à¦¬à¦°
à¦ķà¦¸à¦¬ à¦ľ
à¦ł à¦¬
Ġà¦¨à§Ł à¦ľà¦¨
Ġà§§à§© à§®
à¦°à¦¹ à¦ķ
à¦ī à¦ĸ
à¦ı à¦ľ
Ġà¦ĩ à¦ķà¦°
Ġà§§à§© à§Ń
à¦¶ à¦ļà¦¨
à¦Łà¦® à¦¹à¦²
à¦Ĳ à¦¤
à¦¨à¦ĵ à¦¦
Ġà¦ıà¦° à¦ĵ
à¦¨à¦¬ à¦ª
à¦¨ à¦°à¦¸
Ġà¦ı à¦ıà¦¨
Ġà¦ĩ à¦¬à¦¤
Ġà¦ıà¦¤ à¦Ĺ
Ġà§¨à§¦à§¨ à§©
à¦ī à¦Ĺ
à¦Ń à¦§
à¦Ĺ à¦¨à¦¸
Ġà¦¯ à¦ľ
à¦£ à¦¬à¦¨
Ġà§§à§¨ à§©
à¦°à¦¨ à¦¦
à¦ĩ à¦ľà¦¨à¦ķ
Ġà¦īà¦ª à¦®
Ġà¦®à¦¨ à¦¨
Ġà¦Ĩà¦² à¦¸
Ġà¦ıà¦¨ à¦Ĩà¦ĩà¦¡
Ġà¦ĸà§ľ à¦Ĺà¦ª
Ġà¦¸à¦¹ à¦¬
à¦¤ à¦ªà¦°
à¦ľ à¦Ĺà¦¤
Ġà¦ħà¦¨ à¦¸
à¦ıà¦¸à¦ıà¦®à¦ıà¦® à¦ĩà¦ī
Ġà¦® à¦°à¦¸
à¦¨ à¦ªà¦¨
à¦ł à¦°
Ġà¦ĺà¦° à¦¬à¦¨
Ġà¦¬ à¦ĸà¦¤
à¦ª à¦Ļ
à¦¬ à¦¶à¦ķ
à¦ľ à¦ķà¦¦
Ġà¦ħà¦¬ à¦¬
à¦ī à¦Łà¦¨
à¦¹ à¦ªà¦°
Ġà¦° à¦ľà¦¬
Ġà¦ķà¦®à¦² à¦Ĺà¦ŀ
Ġà§§à§¨ à§¨
Ġà¦¸ à¦°à¦£
à¦¹ à¦¶
à¦Ĩà¦ĩ à¦Ń
à¦ľ à¦ªà¦°
Ġà¦¸ à¦¶à¦°
à¦°à¦® à¦§
Ġà¦ħà¦² à¦Ļ
à¦ł à¦Ń
Ġà¦ļà¦ķ à¦ļà¦ķ
Ġà¦ķ à¦ľà¦¨
Ġà§§à§« à§Ń
Ġà¦ı à¦ªà¦°
Ġà¦¬à¦ļ à¦¸
à¦ĵ à¦¡
Ġà¦ħà¦¸ à¦¤
à§Ł à¦ķà¦°
Ġà¦ıà¦ıà¦« à¦¸
Ġà¦¤ à§İà¦¸
Ġà¦Ĩ à¦¯à¦®
Ġà¦ħ à¦Łà¦²
Ġà¦° à¦ĵà§Ł
Ġà§¨à§¨ à§¦
à¦§ à¦§à¦°
à¦°à¦£ à¦Ĺ
à¦² à¦¬à¦°
à¦Ĩà¦° à¦Ĩà¦ĩ
à¦§ à¦¸à¦¹
Ġà¦¨ à¦²à¦ķ
Ġà¦¸à¦¹ à¦§à¦°
Ġà¦ªà¦¥ à¦Ł
à¦¦ à¦§
à¦°à¦¹ à¦Ł
Ġà¦Ĩà¦ĩ à¦ıà¦¸à¦ª
Ġà¦Ĺà¦£ à¦ľ
Ġà¦¨ à¦®à¦¨
à¦²à¦ķ à¦¸à¦¹
à¦ļ à¦ĵ
à¦ıà¦® à¦ĵ
Ġà¦Ĩà¦īà¦Ł à¦²
à¦Ĺ à¦Ńà¦¬à¦¨
Ġà¦ħ à¦²à¦ķ
à¦°à¦® à¦¬
à§İ à¦¶
Ġà¦« à¦£
Ġà¦ħà¦¸à¦¹ à¦¯
Ġà¦¬à¦¨ à¦§
Ġà¦¸à¦° à¦«à¦°
à¦¶à¦¨ à¦ĵ
Ġà¦ħà¦¸ à¦Ļ
Ġà¦Ĩà¦ľ à¦Ĺà¦°
Ġà¦¶à¦¹ à¦°à¦ķ
à§© à§¨
à¦¹ à¦°à¦ķ
Ġà¦ħ à¦¦à¦®
à¦ĩà¦Ľ à§ľ
Ġà§§à§¬ à§Ń
à¦¯ à¦²
Ġà¦ı à¦¥
Ġà¦¬à¦¸ à¦¤à¦¬
Ġà§§à§© à§¬
Ġà¦Ĩà¦® à¦¬
Ġà¦ł à¦ķ
Ġà¦® à¦«à¦¸
à¦Ĺà¦ł à¦¨à¦ķ
à¦²à§Ł à¦¸à¦¹
Ġà¦ħà¦« à¦¸
Ġà§§à§¨ à§§
à¦ª à¦°à¦ķ
à¦§ à¦ĩ
à¦²à¦Ĺ à¦Ł
Ġà§§à§« à§¬
à¦¶ à¦¸à¦®
Ġà¦ıà¦ķ à¦¤à¦°à¦«
Ġà¦Ĩà¦ĩ à¦ı
à¦Ł à¦¸à¦¨
Ġà¦Ĩ à¦¯à¦¹
à¦® à¦¯
Ġà¦Ĩà¦² à¦Ł
Ġà¦īà¦ĩ à¦ĺ
Ġà¦¸à¦¬ à¦ĸ
à¦ıà¦¸ à¦ı
à¦¦à¦¬ à¦¦à¦²
Ġà¦® à¦°à¦ķ
Ġà¦®à¦¤ à¦ª
à¦Ł à¦¶
Ġà¦¤ à¦¦à¦¬
à¦ľ à¦ķà¦¨
à¦¶ à¦§à¦°
Ġà§§à§§à§ ¯
Ġà¦¶ à¦¬à¦¨à¦®
à¦Ł à¦Ĺà¦²
à¦® à¦¦à¦ķ
Ġà¦° à¦¦à¦¬à¦¦à¦²
Ġà¦īà¦ªà¦° à¦¨
Ġà¦ľà¦¨à¦ª à¦¥
Ġà¦ Ļ
Ġà¦ĩ à¦²à¦®
à¦°à§Ł à¦£
à¦¨ à¦Ĺà¦£
à¦¬à¦° à¦Ł
Ġà¦ıà¦² à¦¸
Ġà¦¬à¦² à¦°
à¦ĩ à¦ªà¦²
Ġà¦Ĺ à¦¹à¦¨
à¦¤ à¦ķà¦¦
à¦¥ à¦ķà¦Ń
à¦°à¦ķ à¦ķ
à¦ĩ à¦¥
à¦Ĩ à¦¹à¦¤
Ġà¦ªà¦¥ à¦¸à¦Ń
à¦¨ à¦īà¦¦
Ġà¦ĵà¦ªà¦° à¦ĩ
Ġà§§à§ª à§Ń
à¦¬à¦¶ à¦¤
Ġà¦¸à¦¦à¦° à¦ĺ
à¦Ĩ à¦°à¦ĩ
Ġà§§à§« à§ª
à¦®à¦Ĺ à§ľ
Ġà¦Ĩà¦īà¦Ł à¦¸
Ġà¦ıà¦® à¦ıà¦¸
Ġà§§à§® à§¯
Ġà¦ĩ à¦®à¦¦
à¦Ĩ à¦Ł
à¦« à¦ľ
à§Łà¦¨ à¦¬
Ġà¦īà§İ à¦ķà¦°
Ġà¦ľà¦¨ à¦¶
Ġà§Ńà§« à§¦
à¦¸ à¦¦à¦¸
Ġà§§à§« à§®
à¦ĵ à¦¬à¦¨
à¦¦à¦¨ à¦ĵ
à¦¶à¦ķ à¦ķ
à¦¶ à¦§
Ġà¦ª à¦ł
à¦®à¦¨ à¦ķ
à¦§ à¦ķà¦°à¦£
à¦°à¦Ľ à§ľ
Ġà§¨à§¦à§ª à§§
à¦°à¦®à¦£ à¦Ń
à¦ķà¦Ł à¦ª
Ġà¦ıà¦ķ à¦¹
à¦°à¦² à¦¸
Ġà¦¯ à¦®à¦ľ
à¦²à¦ķ à¦¨
à¦²à¦Ľ à§ľ
à¦ıà¦® à¦ıà¦ĩà¦ļ
Ġà¦ľ à§Łà¦¸
Ġà¦Ĩ à¦·
Ġà¦ļ à¦°à¦«
à¦ī à¦Ľ
Ġà¦°à¦¥ à¦¯
Ġà¦ľà¦¨ à¦¬
à¦ľ à¦¡
Ġà§§à§© à§¨
à¦§ à¦Ĺà¦®
à§Ł à¦®à¦ķ
Ġà¦Ĺà¦£ à¦Ń
Ġà¦Ĺà¦² à¦«
Ġà§§à§Ń à§ª
à¦¨ à¦ĺ
Ġà¦¯ à¦¤à¦¬
Ġà§§à§¯à§ª à§¨
à¦¡ à¦¡
à¦·à¦£ à¦Ĺ
Ġà¦ķà¦² à¦¸
à¦°à¦¤ à¦¬
à¦²à¦ķ à¦ª
à¦Ĩ à¦¹
à¦ıà¦¸ à¦ĩà¦°
à¦ıà¦« à¦Ĩà¦ĩ
à¦¤à¦¨ à¦Ń
à¦°à¦¤ à¦¤
à¦¨ à¦¬à¦¸
Ġà¦īà¦¦ à§Łà¦¨
Ġà¦Ĺ à¦¡
Ġà¦ļ à¦°à¦£
à¦¦à¦ķ à¦¬
à¦ľ à§Łà¦ķ
Ġà¦¤ à¦²à¦¦
Ġà¦ıà¦ĩ à¦°
à¦° à¦²à§Ł
à¦² à¦¸à¦¨
à¦Ĺ à¦¤à¦®
Ġà¦¬ à¦īà§Ł
Ġà¦¬à¦Ł à¦¤à¦²
Ġà§¨à§© à§¦
Ġà¦ļà¦®à¦ķ à¦ª
à¦ĩà¦ķ à¦Ĺ
Ġà§§à§¬ à§®
Ġà¦ĺ à¦Łà¦ķ
Ġà¦ıà¦¨ à¦Ń
Ġà¦Ĩà¦° à¦ª
à¦² à¦ªà¦¤
Ġà¦¸à¦¨à¦¦ à¦ªà¦¤
Ġà¦ħ à¦ĺà¦Łà¦¨
à¦°à¦¹ à¦¸à¦¨
Ġà¦ıà¦ĩ à¦¡à¦¸
à¦ª à¦¦à¦¸
à§§à§¯à§ ¯
à¦Ĺ à¦¹
Ġà¦¨ à¦Łà¦°
Ġà¦¬à§ľ à¦¬
à¦¸à¦® à¦Ĺ
à¦Ł à¦ľà¦¨
à¦ķà¦² à¦®
à¦¹ à¦ĵ
Ġà¦ī à¦ľà¦¬
Ġà¦Ĺà§ľ à¦¬
à¦¸ à¦®à¦¤
Ġà§§à§ª à§¬
à¦ı à¦ķà¦¬
à¦¬ à¦Ĺà¦¤
à¦¨ à¦°à¦ķà¦®
Ġà¦Ĩà¦² à¦Ĺ
Ġà¦īà§İà¦¸à¦¬ à¦®
à¦¨ à¦¶à¦Ł
Ġà¦ª à¦¬à¦¨
à¦¸à¦¬ à¦ļ
Ġà¦ĵ à¦¤
Ġà¦®à¦ł à¦¬
à¦ĩ à¦īà¦¸
à¦ħ à¦Ĺ
Ġà¦ľà¦² à¦¦
Ġà¦Ĩ à¦īà¦²
à¦£ à¦ł
à¦¥ à¦ĵ
Ġà¦ı à¦ĺà¦Łà¦¨
Ġà¦¹à¦² à¦°
à¦Ĩ à§ľ
Ġà¦Ĩà¦¬ à¦Ľ
à¦Ī à¦²
Ġà¦ĵ à¦Ĩà¦ĩà¦¸
à¦§ à¦°à¦£
à¦Ī à¦¶
Ġà¦Ĩà¦¶ à¦«
Ġà¦ļ à§Łà¦¨
Ġà¦ļ à¦°à¦ķ
Ġà¦ªà¦¦ à¦¯
à¦Łà¦¨ à¦ķ
à¦ķ à¦®à¦²
Ġà¦ª à¦®
à¦ĩà¦Ł à¦ķ
à¦£ à¦®à¦¨
Ġà¦Ĩà¦ĩà¦¨ à¦¸à¦Ń
Ġà§¨à§ª à§¦
Ġà¦® à¦Ĺà¦¬
Ġà¦¥ à¦°
à¦¡ à§Łà¦¨
Ġà¦¨à¦¬ à¦Ĺà¦ł
Ġà§§à§¯ à§¨à§§
Ġà¦ıà¦ķà¦¬ à¦Ľà¦°
Ġà§§à§¯à§ª à§ª
Ġà¦Ĩà¦Ĺ à¦°à¦ĵà§Ł
Ġà¦Ŀ à¦²à¦¸
Ġà¦ħà¦ªà¦° à¦Ł
Ġà¦ħ à¦¦à¦ķ
à§© à§¯
à¦§à¦¬ à¦¦
Ġà¦Ĺà¦łà¦¨ à¦®
Ġà¦ļà¦°à¦® à¦ªà¦¨
à§¨à§¦à§¦ à§¬
à¦· à¦¹
à§¨à§¦à§¦ à§Ń
à¦¡ à¦¦
Ġà¦Ĩà¦ĩà¦¨ à¦ķ
Ġà§§à§¯à§© à§¯
Ġà¦ıà¦¸ à¦ķà¦²
Ġà¦ıà¦¸à¦ıà¦® à¦ĩ
Ġà¦Ĩà¦® à¦ľà¦¨à¦¤
Ġà¦¸à¦° à¦Ĺà¦°à¦®
à§İà¦¸ à¦ķà¦ķ
Ġà¦Ĩà§Ł à¦¶
Ġà¦Ĩà¦ªà¦¨ à¦ľà¦¨
à¦¶ à¦ªà¦¤
à¦¯ à¦Ĺà¦£
Ġà¦Ĩà¦ĸ à§ľ
à¦¦à¦ķ à¦¸à¦¹
Ġà§§à§¯à§© à§¬
Ġà¦¹ à¦īà¦ķ
à§¦à§¦ à§¦
Ġà¦Ŀà¦ķ à¦Ŀà¦ķ
Ġà¦Ĩà¦ĩà¦ıà¦¸ à¦ıà¦²
Ġà§©à§¬ à§¦
Ġà¦ľà¦¨ à¦®à¦¨
à¦ıà¦ĩà¦ļ à¦¸
Ġà¦ħà¦¨ à¦§
Ġà¦®à¦¹ à¦¤
Ġà¦ıà¦® à¦Ń
à¦ıà¦ĸà¦¨ à¦ĵ
à¦ĸ à¦ļ
à¦Ĺ à¦¯
à¦ľà§Łà¦¨ à¦Ĺà¦°
à¦² à¦°à¦¦
à¦¡ à¦¸à¦¨
à¦Ĺ à¦°à¦¦
à¦§ à¦¯
à¦ĩà¦¨ à¦«
à¦Ĺ à¦ķà¦°
Ġà¦°à¦® à¦°à¦®
à¦¬ à¦ĺ
à§ľ à¦Ń
à¦ıà¦« à¦¡
Ġà§§à§¯à§© à§®
à¦¯à§Łà¦¨ à¦°à¦¤
Ġà§§à§¨ à§¯
Ġà¦¶ à¦²
Ġà¦Ĩà¦ļ à¦°à¦¨
à§Ŀ à¦Ń
à¦¯à¦ľà¦¨ à¦ķà¦Ń
à¦·à¦£ à¦ĩ
à¦ı à§Ł
à¦°à¦¬ à¦ļ
Ġà¦ľ à§Łà¦ķ
Ġà§§à§« à§©
Ġà§§à§ª à§¨
Ġà¦ıà¦ķà¦ĩ à¦°à¦ķà¦®
à§ľ à¦ª
Ġà¦¸à¦° à¦ĵà§Ł
à§Ł à¦¤à¦®
à¦¡ à¦²à¦¸
à¦¨à§Łà¦¨ à¦ķ
Ġà§§à§© à§§
à¦ķà¦¶ à¦ª
à¦¡ à¦ľ
Ġà¦¤ à¦°à¦ľ
à¦¡ à¦īà¦ĩ
Ġà¦ľà¦¨ à¦ķà¦²
Ġà¦ıà¦¨ à¦Ĺ
Ġà§§à§¯ à§¨à§¯
à¦łà¦ķ à¦ķ
Ġà¦Ĩ à§ľà¦¤
Ġà¦ĵà¦ªà¦° à¦ĵ
à¦¬à¦Ľà¦° à¦ĩ
à¦® à¦°à¦¨
Ġà§§à§¯à§ª à§§
Ġà¦¦à¦ĸ à¦²à¦ķ
Ġà¦® à¦°à¦Ĺ
Ġà¦ľ à¦®à¦ķ
à¦ľà¦¨ à¦ĵ
à¦¥ à¦ĵà§Ł
à¦Ĩ à¦¹à¦®
à¦Łà¦ķ à§Ł
Ġà¦Ĩà¦ĩ à¦¸à¦²
Ġà¦® à¦Ł
Ġà¦®à¦¦ à¦¦
Ġà¦ıà¦¨ à¦ª
Ġà§§à§¯à§ª à§©
à¦°à¦Ń à¦Ļ
à¦¯à¦® à¦Ł
à¦ıà¦¸ à¦Ĩà¦°
à¦ª à¦¡
Ġà¦¦à¦° à¦Ĺ
Ġà¦ıà¦¸ à¦Ł
à¦¨ à¦ľà¦°
Ġà§§à§¯à§© à§Ń
à¦¡ à¦ĩ
à¦¤à¦° à¦ªà¦¤
à¦® à¦®à¦¨
à¦· à¦¬à¦°à¦£
Ġà¦¬à¦²à¦¬ à§İ
Ġà¦¹ à¦°à¦£
Ġà¦ķà¦° à¦®
à¦¯ à¦¯à¦¨
à¦°à¦¬ à¦ķ
à§Ł à¦ľ
à¦ª à§İà¦¸
à¦¹ à¦ĩ
à¦ı à¦®à¦ķ
Ġà¦ªà¦¦ à¦Ĺ
Ġà¦¸à§ľà¦ķ à¦ªà¦¥
à¦°à¦¤ à¦ķà¦°
Ġà¦¦à¦¶ à¦ľà¦¨
Ġà§§à§¯à§© à§«
Ġà§«à§¦à§¦ à§¦
à§ľ à¦ľ
Ġà¦² à¦¬à¦¨
Ġà¦®à¦¨ à¦ª
Ġà¦¦à¦° à¦ĸ
à§® à§¦
à¦ł à¦Ł
Ġà¦ķà§Ł à¦¦
Ġà¦° à¦ļà§Ł
Ġà¦ĵ à¦¸à¦¬
Ġà¦Ĩà¦² à¦ķ
Ġà§¨à§Ń à§¦
Ġà¦ļ à¦ª
à¦²à¦ķ à¦¬
Ġà¦¬à¦¨ à¦¶
à¦ļà¦² à¦®
Ġà§§à§¯à§© à§¨
à¦°à¦£ à¦°
à§¬ à§¦
à¦ĺ à¦¤à¦®
à¦¶à¦Ĺ à§ľ
Ġà¦ıà¦ķ à¦ĺ
à¦ĩà¦« à¦¸
Ġà¦Ĩà¦¤ à¦²
Ġà¦ķà¦¤ à¦ĸ
Ġà¦¬à¦¸à¦¤ à¦ĺà¦°
Ġà¦¶à¦°à¦£ à¦ĸ
à§« à§«
Ġà¦¸à¦¹ à¦®à¦¤
à¦¬à¦° à¦®
à¦¬à¦¶ à¦°
Ġà¦¬à§Ł à¦«
Ġà¦Ĩà¦¬ à¦°à¦£
Ġà¦¬ à¦°à¦¦
Ġà¦ıà¦« à¦ı
Ġà¦ħà¦¨ à¦¤
Ġà¦® à¦Ĺà¦ľ
Ġà¦®à¦¨ à¦¯
à¦¸à¦¨ à¦¦
à¦¯ à¦¦à¦²
à¦ıà¦« à¦ª
Ġà¦¦à¦² à¦ĵ
Ġà¦ıà¦® à¦ıà¦²
à¦ľ à¦²à¦¬
à¦¬à¦ķ à¦¨
Ġà§§à§© à§¯
à¦ĩà¦ī à¦ª
Ġà¦¸ à¦ĩà¦¤
à¦Ł à¦ªà¦°
Ġà¦ħà¦¬ à§Łà¦¬
Ġà¦īà¦ªà¦° à¦ĩ
à¦¬à¦ľà¦¨ à¦ª
à¦Ĺà¦¤ à¦¤
à¦¦ à¦ĸà¦²
à¦Ĺ à¦Ńà¦Ļ
à¦°à¦® à¦°
à¦ĩà¦¨ à¦ļ
à¦£ à¦¶
Ġà¦«à§Ł à¦¸à¦²
Ġà¦ıà¦ĩà¦ļ à¦Ĩà¦ĩà¦Ń
Ġà¦Ĩà¦¹ à¦¤à¦°
à¦ıà¦² à¦¡
à¦¨ à¦§à¦°
Ġà¦¹ à¦ªà¦ķ
Ġà¦¸à¦¹ à¦¨
Ġà§§à§ª à§¯
Ġà¦®à¦¦ à¦¤
Ġà§¬à§« à§¦
Ġà¦® à¦Łà¦°
à§Łà¦¨ à¦Ĺà¦°
Ġà¦Ĩ à¦°à¦¤
Ġà¦ľà¦² à¦ľ
à¦¸ à¦Ĩà¦ª
Ġà¦Ń à¦£
à¦«à¦° à¦Ĺ
à¦ĩ à¦¸à¦¹
Ġà¦¸à¦«à¦° à¦°à¦¤
à§§à§¦ à§¦
à¦¹ à¦ķà¦ķ
à¦®à¦¤ à¦ķ
à¦¸à¦¨ à¦¬
Ġà§§à§¯à§© à§ª
à¦® à§Łà¦ķ
à¦ķà¦° à¦ª
Ġà¦īà§ľ à¦¨
à¦¦ à¦ĵà§Ł
à¦Ł à¦°à¦¬
Ġà¦¤ à¦Ľà¦¨
à¦£ à¦ļ
Ġà¦¹ à¦Łà¦²
Ġà§¨à§¦à§¨ à§ª
à¦²à¦ķ à¦®
Ġà¦Ĩà¦¨ à¦ľ
Ġà§§à§ª à§§
à§Łà¦¨ à¦¦
Ġà¦Ľà¦Ł à¦«à¦Ł
Ġà¦¨ à¦«à¦²
à¦Ĺ à¦¶
à¦« à¦¦
à¦ı à¦Ĺ
à¦ª à¦ľà¦²
à¦¸ à¦ľà¦¨
Ġà§§à§« à§¨
à¦¹ à§Łà¦¤
Ġà¦ľà¦¨à¦¸ à¦®à¦ķ
à¦¸à¦ķ à¦ķ
à¦® à¦¶à¦¤
Ġà¦¸ à¦ĩà¦«
Ġà¦Ł à§Ł
à¦ħ à¦¶
à¦¸ à¦¦à¦ķ
Ġà¦Ĩ à¦ĵà¦°
Ġà¦Ľà§Ł à¦ľà¦¨à¦ķ
Ġà¦ħà¦¸ à¦¦
à¦¨à¦¸ à¦ĩ
à¦¨ à¦īà¦²
Ġà¦¦à¦² à¦¬
à¦ıà¦® à¦ıà¦²
Ġà§§à§ª à§©
à¦ĸ à¦Ĺ
Ġà¦ıà¦² à¦ĩà¦¡
Ġà¦ľ à¦²à¦ķ
à¦°à¦® à¦¹
Ġà¦Ŀ à¦°à¦¨
Ġà¦¬à§ľ à¦ľ
Ġà¦ķ à¦¤à¦¬
Ġà¦¸à¦¬ à¦¦
Ġà¦¤à¦Ľà¦¨ à¦Ľ
à¦ĩ à¦ŀ
Ġà¦ľ à¦ĵà¦¹à¦°
à§Ł à¦°à¦¨
à¦¬à¦¬ à¦Ļ
à¦ĸ à¦ĵ
à¦¶à¦¨ à¦¸à¦¹
Ġà¦Ĺà¦£ à¦ħà¦Ń
à¦Ł à¦¡
Ġà¦ħ à§Łà¦¨
à¦°à¦ª à¦¥
Ġà§§à§¯ à§¨à§ª
à¦ĩà¦¨ à¦°
à¦¯à¦¨ à¦¤
Ġà§¨à§¬ à§¦
Ġà¦ķà¦¦ à¦®à¦¤à¦²
à¦ĵ à¦Ľ
Ġà§§à§¯ à§¨à§®
à¦Ĩà¦° à¦ıà¦«
à¦¦à¦° à¦Ĺ
Ġà¦ı à¦ľà¦²
Ġà¦Ĺà¦£ à¦¯
à¦Ŀ à¦®
Ġà¦ĵ à¦¶
à¦ľà¦¨ à¦Ĺà¦°
Ġà¦²à¦Ĺ à¦ĩà¦¨
Ġà¦¹ à¦°à¦Ń
à¦ª à¦ľà§Ł
Ġà§§à§¯ à§¨à§¬
à¦¥ à¦¯
à§ľ à¦¸
à§ľ à¦¤à¦²
ĠĠĠĠĠĠĠĠ ĠĠĠĠĠĠĠĠ
Ġà¦° à¦®à¦£
Ġà§¨ à§§à§«
Ġà§§à§¯ à§§à§®
à¦®à¦² à¦®à¦¤
à¦° à¦¬à¦¸
Ġà§§à§¯à§© à§©
à¦ľ à¦Ńà¦¬à¦¨
Ġà¦¨ à¦²à¦Ľ
à§İ à¦¬
Ġà§§à§¯ à§§à§¯
à¦ĵ à¦¥
Ġà¦ļ à§Ł
Ġà¦¹à¦ľ à¦¯
à¦² à¦¸à¦®
à¦¯ à¦¶à¦¸
Ġà¦ĩ à¦¸à¦ķ
Ġà¦¸à¦® à¦Ń
à¦Ĩ à¦¸à¦¸
Ġà¦Ĩ à¦ĵà¦²
Ġà¦ı à¦ıà¦ĩà¦ļ
à¦¥ à¦¡
à¦ľà¦¨ à¦ķà¦Ń
Ġà¦¬à¦Ľà¦° à¦Ł
Ġà¦Ĩà¦ĩ à¦ļ
Ġà¦īà¦ª à¦¸à¦¹à¦ķ
Ġà¦ħà¦¤ à¦Ł
à¦¤ à¦ļà¦°
à¦¤à¦° à¦ŀ
Ġà§©à§¦à§¦ à§¦
à§¨à§¦à§¦ à§§
à¦ĩà¦« à¦īà¦¦
à¦ī à¦«à¦²
Ġà§© à§¨à§¦
à¦ĩ à¦Łà¦¨
à¦¬à¦° à¦Ĺà¦ŀ
Ġà¦ī à¦Ĺà¦°
Ġà¦ħà¦¨ à¦Łà¦¨
Ġà¦ıà¦ķ à¦Ŀ
Ġà¦¬à§Łà¦¸ à¦Ń
Ġà§¨à§¨ à§«
Ġà¦Ĩà¦® à¦«
à¦¬à¦° à¦¨
Ġà¦Ĩà¦° à¦¡
Ġà¦ħà¦° à¦«
à§Ń à§§
à¦Ĩ à¦²à¦®
Ġà¦ľà¦¨à¦Ĺà¦£ à¦¨
Ġà§«à§« à§¦
Ġà¦¸à¦¹ à¦®à¦°
Ġà¦Ĩà¦ĩ à¦ıà¦«
à¦§ à¦Ľ
à§ª à§«
Ġà¦¸ à¦Ĺ
Ġà§§à§¯à§© à§§
Ġà§§à§« à§§
Ġà§§à§« à§¯
Ġà¦ħà¦« à¦²
Ġà¦Ĩà¦ĩà¦ıà¦® à¦ıà¦«
à¦ªà¦¨ à¦Ł
à¦°à¦¸ à¦«
à¦° à¦Łà¦¨
Ġà¦ķà§Ł à¦°
à¦£ à¦ĩ
Ġà§§à§¬ à§¨
Ġà¦¨à¦ķ à¦Ĩà¦īà¦Ł
Ġà¦¬ à¦ľà¦°
Ġà¦ħà¦¸ à¦®à§Ł
à¦· à¦¸à¦¹
à§Łà¦¨ à¦Ĺà¦ŀ
à¦ķ à¦¸à¦®
à§Ń à§Ń
Ġà¦Ŀ à¦Ł
à¦¹ à¦¯à¦°à¦¤
à¦Ń à§İà¦¸
à¦ľ à¦¤à¦²
Ġà§¨à§¦à§¨ à§«
Ġà¦Ĺ à¦¤à¦°
à¦£ à¦¸à¦¹
Ġà¦ī à§ľà¦Ľ
Ġà¦ħà¦ķ à¦ªà¦Ł
Ġà¦¬ à¦ĩà¦²
à¦ıà¦®à¦¨ à¦ķ
à¦² à¦ĺà¦°
Ġà¦ıà¦¨ à¦°
Ġà§§à§¬ à§§
à¦·à¦£ à¦®
à¦°à¦² à¦¸à¦Ń
à¦²à¦¨ à¦®
à¦ıà¦® à¦Ĩà¦°
Ġà§§à§© à§©
Ġà¦Ńà¦¬à¦¨ à¦Ĺ
Ġà¦ľà§Ł à¦Ĺ
à¦Ľ à¦²à¦¤
Ġà¦ľà¦¨ à¦¸à¦¹
Ġà¦¨à¦¬à¦¬ à¦§
à¦¨ à¦§
Ġà¦Ń à¦¸
Ġà¦ªà¦¥ à¦¶
Ġà¦Ł à¦¬
Ġà¦Ĺ à¦Ĺ
Ġà¦ĩ à¦¹à¦¸
à¦°à¦ķà¦® à¦ĩ
à¦ļ à¦ªà¦°
à¦Ĺ à¦°à¦ķ
à¦Ĺà¦° à¦ª
Ġà¦ª à¦ļà¦¨
à¦¹ à¦°à¦¨
Ġà¦ıà¦ķà¦ķ à¦¥
Ġà¦¬à¦² à¦ķ
à¦· à¦ķà¦²
Ġà¦¹ à¦ĩà¦¨
Ġà¦ħà¦¨ à¦¬à¦°à¦¤
Ġà¦ľà¦² à¦¢
Ġà¦ħ à¦ĺ
Ġà¦¶ à¦°à¦¬à¦¤
Ġà¦ªà¦° à¦Ľ
à¦ıà¦ĩ à¦¡
Ġà¦¨à¦¬ à¦¦
Ġà§§à§¯à§¦ à§«
à¦² à¦®à¦°
Ġà¦Ĩà¦¨ à¦²à¦ķ
Ġà¦ĩà¦Ń à¦Ł
à¦¬ à¦ªà¦ķ
à¦ª à¦ĸ
à¦Ĺà¦£ à¦ķ
Ġà¦° à¦ľà¦¤
à¦¤à¦¨ à¦¶
à¦·à¦ķ à¦¸à¦¹
Ġà¦«à¦² à¦®
Ġà¦ħà¦ķ à¦¥
Ġà§¨à§® à§¦
Ġà¦ľ à¦¬à¦°
Ġà§§à§¯ à§¦à§¦
à§ª à§ª
à¦ķà¦ľ à¦®à¦ķ
à¦ª à¦§
Ġà¦ªà§ľ à¦¶
à¦ĩ à¦¸à¦®à§Ł
à¦¯ à¦ªà¦ķ
à¦· à¦·
Ġà¦¦à¦² à¦Ĺà¦¤
Ġà¦¹à¦°à¦Ń à¦ľà¦¨
à¦ıà¦®à¦ĩ à¦ıà¦°
à¦ī à¦ŀ
à¦°à¦¸ à¦ļ
Ġà¦«à¦° à¦ĵà§Ł
à¦ķ à¦¨à¦¸
à¦¦à¦ķ à¦¸
Ġà¦¶à¦¤ à¦¤à¦®
Ġà§§à§¯ à§§à§¨
à¦¨à¦ľà¦¨ à¦ĩ
Ġà¦ªà¦° à¦Ĺà¦£
Ġà¦ĸ à¦ª
Ġà¦¸à¦¬ à¦²
Ġà¦ĸ à¦²à¦¨
à§Ń à§¦
Ġà¦Ĩà¦¤ à¦¶à¦¬
à¦ıà¦« à¦ıà¦²
à¦ķ à¦ĺà¦°
Ġà¦° à¦¸à¦¦
à¦ķà¦Ł à¦¸
Ġà¦ķà¦ĸà¦¨à¦ĵ à¦ĩ
à¦ī à¦ªà¦ķ
Ġà§¨ à§§à§©
à¦ªà¦° à¦¦
à¦¡à¦Łà¦ķ à¦®
à¦Ł à¦§à¦°
à¦ĩ à¦®à¦°
à¦Ĺ à¦¬à¦¤
à¦ī à§İà¦¸à¦¬
à¦¯à¦¬ à¦ĩ
à¦¦ à§Łà¦ķ
Ġà§¨ à§§à§¨
à¦ıà¦ĩà¦ļ à¦ıà¦¸
Ġà§§à§¯ à§§à§ª
à§¨à§¦à§¦ à§ª
Ġà§§à§¯ à§¨à§¨
Ġà¦ıà¦ıà¦¨ à¦Ĩà¦ĩ
Ġà¦¬à¦¹ à¦°à¦®à¦ª
à¦¸à¦¬ à¦ķ
à§Ń à§«
Ġà¦« à§ľ
Ġà¦¬ à¦īà¦ķ
à¦£ à¦ķà¦°
à¦¬à¦² à¦¸
à¦Łà¦° à¦°
à¦® à¦¯à¦ľ
Ġà¦Ľ à¦«
à¦ĩà¦ī à¦¬
Ġà¦¨ à§ľà¦¬
Ġà¦Ĺ à¦«à¦°à¦Ĺ
à¦ĩà¦° à§Ł
à¦ıà¦¨ à¦¡
Ġà¦ıà¦¨ à¦Ĩà¦ĩà¦ı
Ġà¦ħà¦ªà¦° à¦ľà¦¨
à¦·à¦£ à¦ª
Ġà¦Ŀ à¦¨
Ġà¦Ĩà¦® à¦²à¦ķ
Ġà¦Ĩà¦²à¦® à¦¡
à¦ľà¦¨ à¦Ł
Ġà¦ķà§Ł à¦ľà¦¨
Ġà¦ıà¦® à¦ıà¦®
Ġà¦Ĳ à¦¦
Ġà¦ĭà¦£ à¦Ĺ
Ġà¦¨à¦Ĺ à¦°à¦ķ
à¦ľ à¦°à¦¤
à¦¸à¦¬ à¦¶
Ġà¦ķà¦¨ à¦Ńà§Ł
à¦¸ à¦ŀ
Ġà¦¤ à¦ªà¦¸
à¦¡ à¦²à¦ķ
Ġà¦ıà¦¸ à¦ıà¦¸à¦ķ
à§¨à§¦à§¦ à§«
Ġà¦¯à¦¤ à¦Ĺ
à¦¬à¦¨ à¦¨à¦Ĺà¦°
Ġà§¨à§¦ à§§
Ġà¦ĩà¦ī à¦²
à¦Łà¦« à¦°à¦®
à¦ĩà¦¨ à¦ĺ
à¦ĩ à¦Ļ
Ġà¦¸à¦¦ à¦°à¦¦
Ġà¦Ń à¦°à¦£
Ġà¦ıà¦¸à¦¬ à¦ĩ
Ġà¦¤ à¦ĵà¦¬
à¦ıà¦® à¦ıà¦®
à¦¤ à¦§
à¦¥ à¦ªà¦°
Ġà¦¥à¦® à¦¥à¦®
à¦ª à¦ļà¦°
à¦¬à¦° à¦¬
à§Łà¦¨ à¦¯
à¦ıà¦°à¦ªà¦° à¦ĩ
à¦¬à¦¨ à¦¸à¦Ļ
à¦Ĩ à¦¨à¦¨
Ġà¦ľà¦ĵà¦¹à¦° à¦²
à¦ķ à¦Ĺà¦£
Ġà¦ıà¦°à¦ķà¦® à¦ĩ
à¦¬ à¦īà¦¦
Ġà¦ª à¦łà¦¨
à¦· à¦ĸ
à¦§à¦¶ à¦¤à¦ķ
à¦¤ à§ľ
Ġà¦¥ à¦²
à¦¤à¦° à¦Ĺ
Ġà¦Ĩà¦ĩà¦¨ à¦ª
Ġà¦¦à¦ĸà¦² à¦®
Ġà¦ĩà¦īà¦ıà¦¨ à¦ĵà¦°
à¦· à¦°à¦ķ
à¦²à¦¤ à¦¬
à§Łà¦¤ à¦ĩ
à¦ħà¦¬à¦¸ à¦°
Ġà¦Ĩà¦® à¦Ĺ
à¦ķà¦° à¦Ĺ
à¦¬ à¦ķà¦²
Ġà¦¬ à¦¤
à¦ıà¦ĩà¦ļ à¦ª
Ġà¦īà¦Ń à§Łà¦ķ
à¦° à¦¡à¦¬
à¦§à¦¨ à¦¶
Ġà§¨à§¦ à§«
Ġà¦ķ à¦ĩà¦¤
Ġà¦¬ à¦ªà¦¨
à¦ª à¦¸à¦®
à¦ĩà¦¨ à¦Ĺ
à¦² à¦īà¦¦
Ġà¦ľ à¦®à¦¤
Ġà§§à§¯ à§¨à§«
à¦ĩà¦« à¦Ł
à¦ľà¦¨ à¦¬
Ġà¦Ĩà¦ľ à¦®à¦²
Ġà¦Ĩà¦ª à¦Ĺ
à¦·à¦£ à¦ĵ
à¦°à¦¶ à¦ķ
à¦¸à¦¦ à¦¦
Ġà¦¹à¦¤ à¦Ńà¦®
Ġà¦¸à¦¹ à¦¶
à¦¯ à¦ªà¦Ł
à¦¸ à¦°à¦¨
à¦¸ à¦«à¦²
à¦Ń à¦Ĺ
Ġà¦ıà¦² à¦ı
à§® à§®
à¦ķ à¦ªà¦ķ
à¦¸ à¦¬à¦¨
Ġà¦¤à¦°à¦« à¦¦
Ġà¦¨ à¦¸à¦°
à¦· à¦¶
Ġà¦¸à¦¹à¦ľ à¦Ń
Ġà¦® à¦¬
Ġà§§à§Ń à§§
Ġà§§à§¯ à§¨à§Ń
à¦Łà¦° à¦Ĺ
Ġà§¨à§« à§¬
à¦®à¦°à¦£ à¦¸à¦Ń
à¦ª à¦¦à¦ķ
Ġà¦¨ à¦Īà¦®
Ġà¦ĸ à§Ł
Ġà¦ħà¦¨ à¦°
Ġà¦ıà¦ĩ à¦¦
à¦¤ à¦ľà¦¨à¦ķ
Ġà¦ıà¦® à¦Ł
Ġà¦Ĺà¦² à¦¦
à¦ķà¦°à¦£ à¦Ł
à¦ķ à¦°à¦ķ
Ġà¦ħ à¦¹à¦¨
Ġà¦Ī à¦Ĺà¦²
à¦¤ à¦ĸ
Ġà¦ıà¦ĩà¦ļ à¦ª
à¦·à¦ķ à¦Ĺà¦£
à§Ł à¦°à¦¦
Ġà¦® à¦ķà¦¸
à¦· à¦ļà¦¨
Ġà¦§ à¦®à¦¨
Ġà¦ĸà¦¬à¦° à¦ĵ
à¦ĩ à¦®à¦²
à¦· à¦¤à¦¬
Ġà¦¹ à¦°à¦«
Ġà¦ķà¦® à¦²à¦¨à¦Ĺà¦°
à¦¹ à¦ĸ
à¦¤ à¦¯à¦¶
à¦¸ à¦®à¦ķ
Ġà¦Ķ à¦¦
à¦¶ à¦¶
Ġà¦ī à¦¤à¦°
Ġà¦¬à¦¨ à¦ľ
à¦ªà¦¥ à¦Ĺ
Ġà¦ľà¦¨ à¦¬à¦¸à¦¤
Ġà§§à§¯ à§¨à§©
à¦°à¦¤ à¦ĵ
Ġà¦ıà¦ĩ à¦®à¦¸
Ġà§§à§¬ à§©
ĠĠĠĠĠĠĠĠ ĠĠ
à¦Ł à¦§
Ġà¦Ĺ à¦¡à¦«
à¦¦à¦¨ à¦®
Ġà¦Ĳà¦ķ à¦®à¦¤
à¦Ł à¦¯
à¦¬à¦¸ à¦ķ
à¦ĸ à¦ªà¦¤
à§¨à§¦à§¦ à§¦
à¦¯à¦¬ à¦¶à¦¤
à¦¶ à¦Ľ
à¦¤ à¦¸à¦®
à¦ľ à¦ľ
à¦¥à¦² à¦ľ
à§ª à§®
Ġà§§à§¬ à§¯
Ġà¦ıà¦ķà¦¨ à¦ľà¦°
à¦¹à¦¨ à¦Ĺà¦ŀ
à§Łà¦£ à¦ª
Ġà¦¬à§ľ à¦Ń
Ġà¦Ĩà¦ĩà¦ĵ à¦ıà¦¸
Ġà¦Ĩà¦²à¦¬ à¦¦à¦°
Ġà¦¶ à¦°à¦¦
à§Łà¦¨ à¦Ł
à¦ľà§Ł à¦¬à¦°
Ġà¦® à¦°à¦¬
Ġà¦ªà¦° à¦®à¦¬
Ġà¦ħà¦¸ à¦Ń
Ġà§§à§¯ à§§à§Ń
à¦¬ à¦ķà¦Ł
à¦°à¦¹ à¦¶
Ġà¦Ĩà¦ĵà¦° à¦Ļ
Ġà§¨ à§§à§ª
à¦ħ à¦Ł
à¦ħ à¦ľ
à¦ī à¦ĩà¦¦
Ġà¦ıà¦² à¦ıà¦¨à¦ľ
Ġà¦ħà¦ľ à¦Ĺà¦°
à¦ĩ à¦īà¦Ł
Ġà¦¨ à¦ļ
Ġà§§à§Ń à§¨
Ġà¦¸à§ľà¦ķ à¦Ĺ
à¦¯ à¦ļà¦°
Ġà¦ı à¦ŀ
Ġà§¨à§¦ à§¬
à§ª à§Ń
à¦ķà¦Ł à¦®à§Ł
Ġà¦ĺ à¦°à¦®
Ġà¦Ľ à¦¯
Ġà¦ıà¦ĩ à¦Ĺ
à¦·à§Ł à¦Ń
Ġà§§à§® à§¨
à¦¤à¦°à¦£ à¦ķ
à¦¸à¦ķ à¦Ĺ
à¦Ĩà¦ĩà¦¨ à¦ľ
à¦° à§İ
à¦¥ à¦ķà¦¤
à¦Ļ à§ľ
Ġà¦ħà¦¬à¦¸ à¦¹
à¦° à¦¡à¦ķ
Ġà¦¶ à¦°à¦¤
Ġà¦Ł à¦°à¦¨
à¦Ĩ à¦ĸ
Ġà¦ľà¦² à¦®à¦Ĺ
à¦¯à¦ķà¦° à¦Ń
Ġà§©à§¬ à§«
à¦¨ à¦¤à¦°
à¦ļ à¦Ľ
à¦ıà¦® à¦Ĩà¦ĩ
Ġà§ª à§¨à§¦
Ġà¦¤à¦¬ à¦²
Ġà¦«à¦² à¦Ł
à¦Ĺà¦² à¦ª
à¦¯ à¦ªà¦°
à¦« à¦ª
à¦®à¦¨ à¦Ń
Ġà¦ľà§Ł à¦¶
Ġà¦ħ à¦°à¦ķ
à¦²à¦¨ à¦Ł
à¦ĩà¦² à¦Ĺ
Ġà¦ª à¦¸à¦°
Ġà¦ħ à¦ĸà¦£
à¦ļ à¦¦à¦¶
Ġà¦¬à§ľ à¦ªà¦°
Ġà¦®à¦¤ à¦Ń
Ġà¦ıà¦¨ à¦«
Ġà§§à§Ń à§©
à¦°à¦ĸ à¦°
Ġà¦¹à¦¤ à¦Ń
à¦ıà¦¸ à¦ıà¦¸à¦¸
à¦Ĺà¦£ à¦®
Ġà§¨à§Ń à§«
à¦¤ à¦¯
Ġà¦Ĩà¦ĩ à¦ıà¦²
Ġà¦īà¦¦ à¦Ĺ
à¦¤à¦¨ à¦¬
Ġà¦ı à¦¤à¦¬
Ġà¦« à¦°à¦¯
à¦¤à¦° à¦Ń
Ġà¦¸à¦¬ à¦§à¦°à¦¨
à¦ł à¦ªà¦°
Ġà¦ıà¦ĩ à¦ļà¦Ł
Ġà¦ħà¦¸ à¦¹à¦¨
à¦°à¦¬ à¦®à§Ł
à§¬ à§¬
Ġà§©à§© à§¦
à¦¶à¦¹à¦° à¦Ł
à¦¬ à¦ĩà¦¤
Ġà¦Ĩ à¦ªà¦¦
Ġà¦ħ à¦Ľ
Ġà¦ħà¦Ń à§Łà¦¨à¦Ĺà¦°
à¦¨ à¦ķà¦²
Ġà¦® à¦¸à¦¨à¦¦
à¦¥ à¦¬à¦¹
à¦ħ à¦·
Ġà¦¸à¦¦à¦°à¦¦ à¦ª
Ġà¦Ĩ à¦ķà¦²
à¦ĩ à¦®à¦¤
à¦°à¦® à¦ĵ
Ġà¦ıà¦¸ à¦ĩà¦ĵ
Ġà¦īà¦ªà¦° à¦ĵ
à§Ł à¦®à¦¤
à¦ł à¦ķà¦°
Ġà§§à§Ń à§¯
Ġà¦ľ à¦Łà¦²
Ġà¦ªà¦¦à¦ķ à¦ª
Ġà¦ĩà¦īà¦ıà¦¸ à¦ı
Ġà¦ĸ à¦ļ
à¦Ĺà¦² à¦¦
Ġà¦īà§İà¦ª à¦²
à¦² à¦ªà¦°
à¦£ à¦ĸ
Ġà¦ħà¦¤ à¦²
à¦¤à¦¦ à¦¶
Ġà§¨à§¨ à§ª
à¦ª à¦¸à¦¨
Ġà¦² à¦£
à¦ī à¦ĩà¦°
Ġà§§à§¯à§¦ à§®
à¦¬ à¦ļà¦¨
à¦ķà¦¦ à¦®
Ġà§§à§¯ à§§à§©
Ġà§§à§¯ à§§à§§
à¦ªà¦¦ à¦Ĺ
Ġà¦ħà¦¹ à¦°à¦¹
Ġà¦¨à§ľà¦¬ à§ľ
à¦Ĺ à¦¤à¦°
Ġà¦¬à¦¨ à¦ķà¦°
Ġà§¨à§¯à§ ª
Ġà¦Ĩà¦® à¦°à¦£
à§¨à§¦à§¦ à§©
Ġà¦ıà¦ķ à¦¶à¦¤
à¦°à¦¤ à¦¹
Ġà¦ĺà¦° à¦Ĺ
à¦ķ à¦Ļ
à§Ł à¦¸à¦¹
à¦¶ à¦°à¦¤
à¦¨à¦¤ à¦ķ
à¦°à§Ł à¦¸
Ġà¦Ĺà¦£ à¦Ł
Ġà¦Ĩà¦¤ à¦¤
Ġà¦ļà¦°à¦® à¦Ń
Ġà¦ħ à¦¤à¦¨
Ġà¦² à¦ĸ
à¦ľà¦¨ à¦°
Ġà¦Ĩà¦ĩ à¦Ĩà¦ĩà¦Ł
Ġà¦¨à¦ĵ à¦«
Ġà¦¤ à¦°à¦¤
Ġà¦ıà¦¨ à¦Ĩà¦°à¦¬
à¦¬ à¦ľà§Ł
Ġà¦ĸ à¦¦
à¦¦à§Ł à¦¬
à¦² à¦ŀ
Ġà§§à§¯ à§§à§¦
Ġà¦Ľ à¦®
à¦£ à¦ļà¦°
à¦®à¦¤ à¦ª
à¦ħ à¦¦
Ġà§¨à§¨ à§¨
Ġà¦¹ à¦¯
Ġà¦®à¦¨ à¦Ĺà§ľ
Ġà¦¸à¦®à§Ł à¦Ĺ
Ġà¦ĸà¦¨à¦¨ à¦ķ
Ġà¦ħ à¦Ĺà¦¤
Ġà¦² à¦¬à¦Ļ
Ġà¦ľà§Ł à¦Ł
Ġà¦ĸà¦°à¦ļ à¦ĵ
Ġà¦ĩ à¦Ĺ
Ġà¦ıà¦® à¦ľ
Ġà¦Ĺà§ľ à¦¨
Ġà¦ľà¦² à¦ªà¦¥
Ġà¦ļ à¦°à¦¬
à¦°à¦¹ à¦¸
à¦Ł à¦Ľà§ľ
Ġà¦īà¦ª à¦¶
Ġà§¨à§ª à§Ń
Ġà¦īà¦ĩà¦² à¦¸à¦¨
Ġà§®à§« à§¦
à¦ķ à¦ļà¦ķ
Ġà¦ıà¦ķ à¦¤à¦²
à¦¨à¦ķ à¦ķ
Ġà¦® à¦²à§Ł
à§ª à§§
Ġà§§à§® à§©
Ġà§§à§ª à§¨à§Ń
Ġà§¨à§« à§¦à§¦
Ġà¦Ł à¦ķà¦¶
Ġà¦Ĩà¦¸ à¦¸
Ġà¦ħ à¦ªà¦ķ
Ġà§ İ
à¦²à¦¨ à¦ķà¦°
à¦·à¦£ à¦Ł
Ġà¦Ĩà¦¦ à¦®à¦¦
à¦ļ à¦ĺ
à¦ĭ à¦¤
à§Ł à¦°à¦ķ
à¦®à¦¤ à¦¤
à¦ĩà¦ī à¦ıà¦¨
à¦® à¦®à§Ł
Ġà§¨à§¨ à§Ń
à¦² à¦¹à¦ľ
Ġà§¨ à§§à§®
à¦ľ à¦Ĺà¦¨
Ġà¦¶ à¦®à¦¸
à¦Ĩ à¦Ľ
à¦¬à¦°à¦£ à¦ķ
Ġà¦ľà¦¨ à¦¦
Ġà¦¤ à¦°à¦¬
Ġà¦§ à¦ķà¦²
à¦Ĺà¦² à¦®à¦¹à¦²
Ġà¦ī à¦¥
Ġà¦¸à¦¹ à¦ļà¦°
à¦ķà¦¬ à¦Ľà¦°
Ġà¦¶ à¦¤à¦¬
à¦¬à¦² à¦¡à¦¨
à¦ķà¦¨ à¦Ĺà¦°
Ġà¦Ĺ à¦ļ
Ġà§§à§¯ à§§à§«
Ġà¦ľ à¦ĩà¦¶
Ġà¦ļ à§ľà¦¤
Ġà¦ī à¦ĩà¦ľà¦¡
à¦¬à¦² à¦ľ
à¦ıà¦® à¦ľ
à¦Ĺ à¦¤à¦¬
à¦¬à¦² à¦²
à¦¹ à¦¨à¦¤
à¦ĸ à¦¸à¦¹
à§¬ à§«
Ġà§¨à§© à§ª
à¦¤ à¦¬à¦¸à¦®
à¦ĩà¦¸ à¦Ĺ
à¦® à¦¥
à¦® à¦ªà¦ķ
à¦¤à¦¨ à¦®
Ġà¦¸à¦«à¦²à¦¤ à¦®
Ġà¦ª à¦Łà¦²
Ġà¦Ĩ à¦£à¦¬
à¦¤à¦° à¦ĵ
Ġà¦ª à¦¸
à¦Ľ à¦®
à¦ħ à¦¨à¦¨
à¦ĩà¦Ń à¦¸
à¦¦ à¦°à¦¤
Ġà¦Ĩà¦® à¦¤
à¦ķ à¦¸à¦®à§Ł
à¦¯ à¦Ŀ
Ġà¦¬à¦² à¦¦
à§¬ à§ª
à¦¤ à¦¸à¦ķ
à¦® à¦¹à¦°
à¦ĩ à¦ķà¦Ł
Ġà¦Ĩà¦¸ à¦Ĺà¦°
à¦ĺ à¦¸à¦®à§Ł
Ġà§¨à§© à§«
Ġà¦¸à¦« à¦°à¦¸à¦Ļ
à¦¸ à¦°à¦¶
Ġà¦ĵ à¦Ŀ
à¦¦à¦¨ à¦¨à¦Ĺà¦°
Ġà¦ķ à¦ĵ
Ġà¦° à¦£à¦¦
Ġà¦ľ à¦ŀ
à¦°à¦¨ à¦ķ
à¦ī à¦ªà¦¸
à¦¶à¦¨ à¦ľà¦Ł
à¦¤à¦ķ à§ľ
Ġà¦§à¦¨à¦ķ à§ľ
à¦ķ à¦Łà¦¨
à¦Ĺ à¦ĺà¦¨
à¦¤à¦ķ à¦ķ
à¦§ à¦¬à¦¨
Ġà¦ĸ à¦¬
Ġà§§à§® à§¦à§¦
Ġà¦ļ à¦Łà¦ķ
à¦ĺ à¦°à¦Ł
à¦¶ à¦¬à¦¨
Ġà¦ĩà¦ī à¦ıà¦¸à¦¬
Ġà§§à§® à§§
à¦Ĩà¦° à¦ı
Ġà¦® à¦ķà¦°
à¦¬à¦° à¦ª
Ġà¦Ĩà¦ĩà¦¨ à¦¬
Ġà¦°à¦£ à¦¤à¦°
à§Łà¦°à¦¨ à¦®
à¦ªà¦° à¦®
à¦¬à¦ķ à¦¬
Ġà¦ħà¦¨ à¦Ĺ
Ġà¦ķ à¦Łà¦¨
à¦ĩ à¦ķà¦°
à¦¶ à¦£
à¦°à¦« à¦ķ
à¦ķà¦Ł à¦°
Ġà¦Ĩà¦īà¦Ł à¦¡
à¦· à¦¬à¦°
Ġà§¨ à§§à§§
Ġà¦īà¦ª à¦¶à¦®
à¦ĩà¦² à¦ļ
à§¬ à§®
Ġà¦¶à¦¹ à¦°à¦¬
à¦Ĩà¦°à¦ĩ à¦ī
à¦°à¦ķ à¦°à¦£
à¦¨à¦ĩ à¦ī
à¦Ĩà¦¸ à¦Ľ
à¦° à¦īà¦ĩà¦¨
Ġà¦Ĺ à¦Ĺà¦¨
à¦Ĺ à¦¸à¦®
à¦ªà¦Ł à¦Ń
Ġà¦Ĺ à¦ľà¦²
à¦ªà¦ķ à¦¦
Ġà¦¨ à¦ĵà¦°
à¦°à¦¶ à¦®à¦¨
à¦ıà¦ķ à¦¸à¦®à§Ł
Ġà¦¥ à¦ķ
Ġà¦Ĳ à¦¸à¦¬
Ġà¦ıà¦« à¦ıà¦®
Ġà§© à§§à§¦
Ġà¦ħà¦¬ à¦ļ
à¦ķà¦¤ à¦²
Ġà¦Ŀ à¦ŀ
à¦ľ à¦¸à¦®
à¦®à¦¸ à¦ļ
Ġà¦ĩà¦īà¦ıà¦¨ à¦ıà¦ĩà¦ļà¦¸
à¦¡ à¦¬à¦²
Ġà¦ĵà¦ĩ à¦Ł
à¦ħ à¦¥à¦¬
à¦Ĺà¦£ à¦¨
Ġà¦¦à¦°à¦ªà¦¤ à¦¨
à§§à§¯à§¯ à§¦
Ġà¦ľ à¦Ĺà¦²
à¦¤à¦¨ à¦ĵ
à¦Ĩà¦° à¦ıà¦®
Ġà¦ķà¦¤ à¦ĩ
à¦ĵ à¦ļ
Ġà¦ľà§Ł à¦¯
à¦ıà¦« à¦ĩà¦īà¦ľ
Ġà¦°à¦¸ à¦Ĺ
à¦¤ à¦¦à¦²
Ġà¦ľ à§Łà¦°
à¦ī à¦ĩà¦²
Ġà¦ķà¦¨à¦ķ à¦¨
à¦¥ à¦¬à¦°
Ġà§¨à§® à§®
à¦® à¦Ĺà¦£
Ġà¦¦ à¦¹à¦¨
Ġà¦ľ à¦¶
Ġà¦ıà¦ĩ à¦¤
Ġà¦ħà¦§ à¦¸
à§¬ à§Ń
Ġà¦¦à¦² à¦¬à¦²
Ġà§§à§¯à§ §
Ġà§§à§¯à§¦ à§¬
à¦¤à¦° à¦¦
à§« à§Ń
Ġà¦¬à¦Ľ à¦°à¦ķ
Ġà¦ķà¦¨ à¦¡
à¦Ĺà¦¨ à¦Ń
Ġà¦ıà¦ıà¦ĩà¦ļ à¦ıà¦®
à¦ĵ à¦¯
à¦°à¦® à¦¶à¦ĩ
à§¨à§¦à§¦ à§¨
à¦¹ à¦¸à¦¹
à¦²à¦ķ à¦²
à¦Ĺà¦² à¦¸
à¦Ĩ à¦°à¦ķ
à¦¬à¦§ à¦²
Ġà¦¶à¦ªà¦¥ à¦Ĺ
à¦ªà¦ķ à¦¤
Ġà§§à§ª à§¦à§¦
Ġà¦Ĩà¦īà¦Ł à¦ª
Ġà¦ı à¦¯
à¦ļ à¦²à¦¨
à¦īà¦¨ à¦ķ
Ġà¦¦à¦² à¦¤
Ġà¦Ĩà§ľ à¦®
Ġà¦ıà¦° à¦Ĩà¦Ĺ
Ġà¦Ĩà¦ĩà¦¨ à¦¤
Ġà¦¸à¦¹à¦ľ à¦¤à¦°
Ġà¦ªà¦¤ à¦Ļ
Ġà§¨à§¯ à§¦
Ġà¦® à¦¶à¦ķ
Ġà¦¹à§Ł à¦Ľ
à¦°à¦ľ à¦Ĺà¦¤
à¦ıà¦¨ à¦ĩà¦ī
à¦īà¦¬ à¦ĵà§Ł
à§§à§¯à§¯à§ ¬
à¦£ à¦¯
Ġà§¨à§¦ à§Ń
à¦ķà¦¸ à¦ľ
à§§à§¯à§Ń à§«
Ġà¦Ĩ à¦īà¦¶
Ġà§¨ à§§à§¬
Ġà§§à§¯ à§¨
Ġà§¨à§¬ à§ª
Ġà¦ķ à¦ĩà¦Ľ
à¦¹ à¦ĵà§Ł
Ġà§¨à§¦ à§©
à¦ªà¦¦ à¦ľà¦¨à¦ķ
Ġà¦Ĩà¦Ł à¦ľà¦¨à¦ķ
Ġà¦Ĩà¦ĩà¦ıà¦¸ à¦Ĩà¦ĩ
Ġà¦¨ à¦Ĺà¦£
Ġà§¨à§ª à§«
à¦Ļ à¦Ľ
à¦¯à¦® à¦£
à¦ª à§Łà¦¸
à¦°à¦¬ à¦¹
Ġà¦ħà¦Ĺà¦£ à¦¤
Ġà¦¬ à¦Łà¦Ĺ
à¦ħ à¦¸à¦®
Ġà§§à§¯ à§§à§¬
à¦® à¦ĺà¦°
à¦ľ à¦ķà¦¤
Ġà¦¬à¦² à¦ª
Ġà¦ĩà¦¨ à¦ª
Ġà§¨à§ª à§©
Ġà¦ĭà¦£ à¦ĸ
à¦¡à¦īà¦ĩ à¦¥
à¦¶ à¦¬à¦°
à¦ı à¦Ĩà¦°
à¦²à¦¨ à¦ĵ
à¦¨à¦¬ à¦®
à¦ıà¦« à¦ĵ
à¦ľ à¦²à¦ķ
à¦® à¦ĩà¦¨
à¦Ń à¦ĵ
à¦²à¦ķ à¦Ł
à§ª à§¨
Ġà¦ıà¦¨ à¦ıà¦¸
à¦Ĩà¦ĩ à¦ıà¦¨
Ġà¦ħ à¦ªà¦¤
Ġà§¯à§¯ à§¦
à¦° à¦Ĩ
à¦ĩ à¦¸à¦¨
Ġà¦Ĩà¦° à¦¬à¦¦
Ġà¦¤ à¦®à¦²
à¦Ĩ à¦°à¦ľ
Ġà¦ľà§Łà¦¨ à¦Ĺà¦°
à¦ļ à¦ķà¦ķ
à¦£ à¦®à¦¤
à¦ľà¦¨ à¦¸à¦¹
Ġà¦ıà¦¨ à¦ıà¦²à¦¡
Ġà¦Ńà¦¬ à¦ĺ
Ġà¦¨ à¦²à¦¡
Ġà¦ļ à¦·
à¦®à¦ĩ à¦°à¦¹
à¦·à¦£ à¦¬
Ġà§®à§® à§¦
à¦ı à¦°à¦ķà¦®
Ġà¦¬à¦Ľà¦° à¦ĸ
à¦§à¦¨ à¦®
à¦ĵ à¦ĵ
Ġà§¨ à§§à§Ń
à¦¤à¦¨ à¦Ĺà¦°
à¦°à¦« à¦²
Ġà§¨à§¬ à§«
à¦ıà¦« à¦ı
à¦ıà¦« à¦Ł
Ġà¦¤ à¦¤à¦¬
Ġà¦ľ à¦¸à¦ª
Ġà¦ĺà¦¨ à¦¬à¦¸à¦¤
Ġà¦¶ à§Ł
Ġà¦§ à¦ĩà¦°
Ġà¦ķà¦¬ à¦ľ
Ġà¦Ī à¦¦à¦ķ
Ġà¦¤ à¦ľ
Ġà¦§à¦¨ à¦ŀ
à§§à§¯à§¯à§ ¯
à¦¦ à¦°à¦®
à¦¶ à¦¬à¦ķ
Ġà¦§à¦° à¦¨à¦Ł
à¦² à¦ļà¦°
Ġà¦¶ à§Łà¦¨
à¦¡ à¦¤
Ġà¦ªà§ľ à¦¨
à¦ķà§ľ à¦¸
à§« à§®
Ġà§¨à§© à§Ń
à¦¸ à§Ł
à¦ĸ à¦ĩ
à¦¡ à¦ıà¦«
Ġà§¨à§¦ à§®
à¦¦à¦¨ à¦ª
à¦·à¦ķ à¦¬
Ġà¦¬à§ľ à¦ª
Ġà¦Ĺà¦£ à¦Ĩà¦¨
Ġà¦Ľà§Ł à¦¬
Ġà¦° à¦ĩà¦¸
Ġà¦¸ à¦ĵà¦ľ
à¦¬à¦° à¦ĵ
Ġà¦ļà¦² à¦¨à¦¬
à¦®à¦¶à¦¤ à¦¬à¦°
à¦¬à¦¨ à¦¨
Ġà¦® à¦²à¦®
à§ľ à¦ĵ
Ġà¦Ĭ à¦¨à¦¬
Ġà¦ıà¦ķ à¦Ń
Ġà¦ħ à¦¶à¦¨
à¦ĵ à¦ıà¦¸
à¦ĩà¦¨ à¦¸à¦¹
Ġà¦¶à¦°à§İ à¦ļà¦¨
à¦¸ à¦°à¦¦
à¦ľà¦¨ à¦Ĺà¦£
à¦¯à¦¬ à§Łà¦¸
à¦°à¦Ń à¦ķ
Ġà§§à§¯à§¦ à§§
à¦¸ à¦ł
à¦ªà¦¦ à¦®
à¦¬ à¦²à¦ķ
Ġà¦¤ à§Ł
Ġà¦®à¦¹ à¦¬
à¦· à¦¦à¦ķ
Ġà§¨à§¨ à§®
Ġà¦¨à¦ľ à¦°à¦ķ
Ġà¦® à¦²à¦¦
Ġà¦¦à¦² à¦®à¦¤
Ġà§§à§®à§¯à§ ¯
à¦¬ à¦¯à¦°
Ġà¦° à¦Ĺ
Ġà¦¬à¦² à¦¨
Ġà¦Ĩà¦Ĺ à¦¨
à¦Łà¦° à¦ªà¦¨
Ġà¦ľà§Ł à¦¶à¦Ļ
à¦ļ à¦¡
Ġà¦īà¦ª à¦¶à¦¹à¦°
Ġà¦ıà¦ķà¦ľà¦¨ à¦ĵ
Ġà¦¸ à¦¬à¦°
Ġà¦ĸ à¦°à¦Ĺ
Ġà§©à§¦ à§©
Ġà¦¸ à¦ªà¦ķ
Ġà¦° à¦¨à¦ľ
Ġà¦¬à¦¨ à¦ª
à¦¨à§Łà¦¨ à¦ª
Ġà¦°à¦ķà¦® à¦ĩ
à¦¬ à¦¯à¦¬à¦¹
à¦® à§İà¦¸
Ġà¦® à¦Łà¦°à¦¸
Ġà¦¦à¦² à¦¬à¦¦
à¦ķà¦¸ à¦Ļ
à¦īà¦ľ à¦ª
à¦¬ à¦ĩà¦Ł
Ġà§¨ à§§à§¯
à¦¨ à¦Ľà§ľ
Ġà¦ĩà¦īà¦ıà¦¨ à¦¡
Ġà¦ī à¦ĩà¦¸
à¦¸ à¦®à¦°
à¦ľ à¦¤à¦¬
Ġà¦Ĩà¦¹à¦® à¦¦à¦ķ
à¦Ĩà¦° à¦ıà¦²
Ġà§§à§ªà§ª à§¨
Ġà¦Ĩ à¦ĸà¦¨
Ġà¦¬à¦¨ à¦¦à¦ª
Ġà¦Ĩà¦ķ à¦®à¦²
Ġà§¨à§ª à§ª
Ġà¦ľà¦² à¦°
Ġà¦Ĩà¦ķ à¦¬
à¦ł à¦¤à¦®
à¦² à¦īà¦¡
à¦®à¦¤ à¦Ń
Ġà§©à§© à§©
Ġà¦Ĺ à¦¸
Ġà¦ĩ à¦Łà¦ª
à¦Ŀ à¦Ľ
Ġà¦¸ à¦¦à¦ķ
à¦Ĺ à¦²à¦¨
à¦Łà¦¤ à¦ĩ
à§Ł à¦²à¦Ĺ
Ġà¦Ł à¦¨à¦ķ
Ġà§© à§§à§«
à¦¯ à¦¸à¦¬
Ġà§©à§¦ à§¨
à¦ľà¦¸ à¦ľ
à¦ıà¦« à¦¬
Ġà¦«à¦¸ à¦«à¦°
à¦°à¦® à¦Ł
à¦¸ à¦®à¦¨
à¦·à¦£ à¦ļ
à¦Ļ à¦¬
Ġà¦Ĩà¦¬ à¦Ĺ
Ġà¦Ĩà¦¨ à¦ķ
à¦Ĩà¦Ĺ à¦¸
Ġà§§à§¯à§¦ à§¯
à¦¨ à¦īà¦¤
à¦Ł à¦²à¦®
Ġà¦ļà¦Ł à¦ªà¦Ł
à¦ªà¦¤ à¦¨
Ġà¦īà¦ªà¦ķ à¦£
Ġà§©à§ª à§¦
Ġà¦¸ à¦¦à§Ł
à¦Ń à¦²à¦ªà¦®
Ġà¦« à¦²à¦¤
à¦ķà¦Ł à¦ľà¦¨à¦ķ
Ġà§¨à§ª à§¨
Ġà¦Ĺà¦¨ à¦¤à¦¨
à¦®à¦£ à¦ª
à¦ļ à¦£
à§ª à§©
Ġà§¨à§¨ à§¯
à¦¦ à¦ĸ
à¦²à¦¬ à¦¶à¦¤
à¦¥à¦² à¦Ń
à¦ĩ à¦ľà¦°
Ġà¦ī à¦¶
Ġà¦īà¦² à¦«
à¦° à¦¯à¦¨
à¦¤ à¦ķà¦²
à¦¯ à¦Ĺà¦¤à¦Ń
Ġà¦Ĩ à¦ī
à¦ī à¦ªà¦¨
Ġà§¨à§¨ à§§
à¦ĸ à¦ķà¦ķ
à¦ĸ à¦®à¦£
à¦£ à¦ªà¦£
à¦¹ à¦°à¦¦
à¦£ à¦¶à¦ķ
Ġà¦ļ à¦°à¦Ń
Ġà§¨à§¨ à§¬
à§§à§¯à§Ń à§¦
à¦ļ à¦ķà¦Ń
Ġà¦Ĩà¦° à¦«
Ġà¦® à¦°à¦²
à¦ı à¦²à¦¸
Ġà¦ĩà¦ī à§Ł
Ġà¦ķ à¦¸à¦°à¦¤
Ġà¦Ĭ à¦·
à¦ķ à¦ķà¦°
Ġà¦® à§İà¦¶
Ġà§¨à§© à§¨
à¦¯à¦Łà¦¨ à¦ķ
Ġà¦¬à¦Ľ à¦°à¦¬
Ġà¦¶ à¦°à¦¨
Ġà¦ĸ à§Łà¦°
Ġà¦®à¦° à¦Ľ
à¦ªà¦¬ à§Łà¦¸
à¦ª à¦Ŀ
Ġà§¯ à§§à§§
Ġà§¨à§ª à§®
à¦¸ à¦ıà¦ķ
à¦¦ à¦¶à¦ķ
Ġà¦¦ à¦Ļ
Ġà¦ĵ à¦¤à¦ª
Ġà¦ĵ à¦«
à¦¬à¦² à¦¬
Ġà§©à§® à§¦
à¦¸ à¦¶
Ġà§ ľ
Ġà§§à§® à§¯à§¦
Ġà¦Ĳ à¦¨
Ġà§¯à§« à§¦
Ġà¦¶à¦¤ à¦¶à¦¤
Ġà¦Ĺà§ľ à¦ª
Ġà§¨à§© à§¬
à¦Ĺ à¦ľà¦Ł
à¦ļ à¦Ń
à¦Łà¦° à¦¯
Ġà¦īà¦ĩ à¦Ļ
à¦ķ à¦¨à¦ķ
à¦¸à¦¨ à¦¤à¦¨
à¦¦à¦¶ à¦®
Ġà¦ıà¦²à¦ı à¦²à¦¬
à¦® à¦®à¦°
Ġà¦ı à¦Ļ
Ġà§© à§§à§¨
Ġà¦ıà¦¸ à¦ıà¦¸
Ġà§® à§§à§¦
à¦¦ à¦Ĩà¦¤
Ġà§§à§¬ à§¦à§¦
Ġà¦ľà¦¨à¦¸ à¦®à¦°
Ġà¦Ĩà§ľ à¦¤à¦¦
Ġà¦ĸà§ľ à¦Ĺ
à¦¸ à¦«à¦°
Ġà¦ı à¦²à¦ķ
à¦ı à¦¤à¦¦
à§Łà¦¨ à¦¸à¦¹
Ġà§¨à§« à§§
à¦¤ à¦¸à¦°
à¦ł à¦ķà¦Ł
Ġà¦¡ à¦¬à¦²
Ġà¦ĩà¦¨ à¦¬à¦ķ
Ġà¦ıà¦ķà¦ĩ à¦¦
à¦¨ à¦Ŀ
à¦² à¦¸à¦ķ
à¦ĩ à¦īà¦ķ
à¦¦à¦ķ à¦®
Ġà¦ĩà¦ī à¦¡
Ġà¦°à¦£ à¦ľ
à§§à§¯à§ª à§Ń
à¦¸ à¦¯à¦ľ
à¦¬à¦¨ à¦ĩ
à¦°à¦¹à¦£ à¦®
Ġà¦Ĺà¦£ à¦ķà¦¬à¦°
à¦¬ à¦®à§Ł
à¦¬ à¦Ĺà¦£
à¦¶ à¦¤à¦²
Ġà¦Ĩà¦¬ à¦¹à¦®
à¦¸à¦¹ à¦ľ
à§ª à§¬
à¦¸ à¦¥
Ġà¦ª à¦Ĺà¦¬
Ġà¦¹ à¦ª
Ġà¦ıà¦¡ à¦¸
à§Ł à¦ľà¦¨à¦¦
à¦ĩ à¦¥à¦¨
Ġà§©à§¦ à§¬
Ġà¦ħà¦¬à¦¨ à¦®à¦¨
Ġà¦ľà¦¬à¦° à¦¦à¦¸
Ġà¦ĵ à¦ķà¦¸
Ġà¦« à¦°à¦ļ
Ġà¦§ à¦¬à¦¨
Ġà¦ľà§Ł à¦²à¦²
Ġà§§à§¯à§¦ à§¨
Ġà¦Ĩ à¦¤à¦°
à¦·à¦£ à¦¤
à¦¯ à¦§à¦°
à¦· à¦²
à¦ĩà¦ľ à¦®
à¦¦ à¦²à¦ķ
Ġà¦® à¦ĩ
à¦· à¦§à¦°
à§Ń à§®
à¦² à¦Ĺà¦°
Ġà¦ļ à¦°à¦ª
Ġà¦ĩ à§Łà¦¨
à¦°à¦® à§Ł
à¦°à§Ł à¦Ł
à¦¶à¦ķ à¦ª
Ġà§¬à§ª à§¦
à§§à§¯à§® à§¦
à¦ľ à¦ĸ
à¦¨à¦ĵ à¦Ł
Ġà¦ķà¦¨ à¦¡à¦®
Ġà§¨à§¬ à§¬
à¦ľà¦² à¦¦
à¦ĩ à¦«à¦¤
à¦ı à¦ĩà¦Ł
Ġà¦ħà¦¸ à¦®à¦°
Ġà¦Ĩà¦ĩ à¦¡à¦²
Ġà§¨à§« à§«
Ġà§¨à§© à§®
à¦¸à¦¨ à¦ĵ
à§İ à¦¸à¦¨
à¦·à¦£ à¦¸à¦¹
à¦¨à¦¬ à¦ľà¦®
à§Łà¦® à¦Ĺ
Ġà§©à§¨ à§«
Ġà¦²à¦ĸà¦¨ à¦ī
à¦° à¦ĩà¦¨
à§ľ à¦Ŀ
à¦¦à¦° à¦¨à¦Ĺà¦°
à¦°à¦¨ à¦¬
à¦ķ à¦ĩà¦¨à¦«
Ġà§§à§¯à§¦ à§Ń
Ġà¦ĩ à¦·
Ġà¦Ĳ à¦Ł
Ġà§¨à§® à§¬
Ġà§¨à§¯à§ ®
Ġà¦§ à¦¬
Ġà¦Ĩà¦¨ à§Łà¦¨
à¦Ĺà¦² à¦Ł
Ġà¦īà§İ à¦«
à¦Ńà¦¬ à¦ªà¦°
à¦®à¦² à¦Ĺ
à¦Łà¦ķ à¦¹
Ġà¦ªà¦¶ à¦®
à¦°à¦£ à¦ĩ
à¦Ł à¦Ļ
à¦¤à¦® à§Ł
Ġà¦ı à¦ĵà§Ł
Ġà§¨à§« à§®
à¦¬à¦¨ à¦ĵ
à¦·à§Ł à¦ĵ
à¦ķà¦° à¦¦
ĠĠĠĠĠĠĠĠ ĠĠĠĠ
Ġà¦īà§İà¦¸à¦¬ à¦ķ
Ġà§ªà§¦à§¦ à§¦
à¦® à§İ
Ġà¦ľ à¦¬à¦¸
Ġà¦Ĩà¦° à¦ıà¦®à¦ĵ
Ġà¦ĩà¦¤ à¦¸
à¦Ĺà¦² à¦Ĺ
Ġà¦¨à¦¬ à¦¦à¦®
à¦ĩà¦® à¦Ł
Ġà¦īà§İà¦¸à¦¬ à¦Ł
à¦® à¦ł
à¦ľà¦¨ à¦Ĺ
à¦¤ à¦ªà¦¨
Ġà¦ħ à¦¯à¦¤
Ġà¦Ľ à§Łà¦¦
à¦ħ à¦Ļ
à¦® à¦·
Ġà¦ħ à¦Ŀ
à¦Łà¦¬à¦² à¦ª
Ġà§¨à§¯à§ «
à¦£ à¦®à§Ł
à¦°à¦¬ à¦¦
Ġà¦¸à¦®à¦¬ à§Łà¦¸
à§§à§¯à§Ń à§¨
Ġà§Ńà§© à§Ń
à§§à§¯à§¯à§ ®
Ġà§§à§®à§¯à§ ®
à¦ĸ à¦ĸ
Ġà§¨à§¦ à§¯
Ġà¦īà¦¦ à¦°
Ġà¦īà¦² à¦Ļ
Ġà¦ľà§ľ à¦¤
à¦° à¦ĸà¦¨
Ġà¦¬ à¦ļà¦¨
Ġà¦ªà¦¥ à¦Ń
Ġà§¨à§ª à§§
à¦°à¦¡ à¦Ĺ
à¦ķ à¦Ĩà¦īà¦Ł
à¦¯ à¦ªà¦¨
à¦ª à¦¹
à¦¤à¦ķ à¦ľ
à¦· à¦¯
Ġà¦¤ à¦¹
à¦Ĩ à¦¬à¦°
Ġà¦¹à¦² à¦®
Ġà¦°à¦® à¦¯
Ġà¦Ĺ à¦ľà¦¨
à§İ à¦ªà¦¤
Ġà§¨à§® à§«
Ġà§§à§¯à§¦ à§ª
Ġà¦ĩ à¦ķà¦¨
Ġà¦¶à¦° à¦«
à§Łà¦¤ à¦²
à¦ıà¦« à¦ıà¦¸
Ġà¦Ĺà¦£ à¦¹
Ġà¦¹à¦ķ à¦¸à¦¹
Ġà§«à§¬ à§¦
Ġà¦¸à¦® à¦ª
Ġà¦¸à¦¦à¦° à¦ª
à¦Ŀà§ľ à¦Ł
Ġà¦¤ à¦¨à§Ł
à§ĥ à¦ĥ
Ġà¦Ĩà¦² à¦ªà¦¨
à¦Łà¦ķ à¦Ĺ
à¦ĩà¦Ń à¦ľ
Ġà¦ªà¦¶ à¦¤
Ġà§¨à§© à§§
à¦®à¦ļ à¦°
à¦° à¦¶à¦¨
à¦· à§İ
Ġà¦Ŀ à¦°à¦Ľ
à¦® à¦Ŀ
Ġà¦ħà¦Ĺ à¦Ń
Ġà§§à§¯à§¦ à§©
Ġà¦Ĩ à¦Ľà¦°
à¦· à§ľ
Ġà¦Ĩà¦° à¦ıà¦«à¦ıà¦²
à¦¤à¦¬ à¦¬
Ġà¦ıà¦® à¦«
à¦Łà¦° à¦Ł
Ġà¦Ĩà¦²à¦® à¦¸à¦¹
Ġà§¨à§Ń à§¨
à¦ıà¦¸à¦ĩ à¦ıà¦ķ
Ġà¦Ńà¦°à¦£ à¦ª
Ġà¦®à¦¹ à¦°
à¦Ŀ à¦¨
à¦² à¦°à¦°
Ġà¦ĵ à¦ıà¦¸
Ġà¦®à¦¹ à¦¨
à¦¨à¦ķ à§Ł
à¦łà¦ķ à¦ĵ
à§¨à§¦ à§¨à§¨
Ġà§§à§®à§¬ à§¦
à¦ĩ à¦¬à¦¨
à¦°à¦¬ à¦²à¦Ń
Ġà¦¦ à¦¬
Ġà¦Ń à¦°à¦¦
à¦ī à¦¹
Ġà¦ıà¦ĩ à¦®
Ġà¦Ĩà¦¸ à¦°à¦Ł
Ġà¦Ĩà¦¶ à¦ķ
Ġà¦¬à¦¸ à¦¤à¦Ń
Ġà¦ıà¦¨ à¦ĩà¦¸
à¦ķà¦ľà¦¨ à¦¦
Ġà§©à§¨ à§®
à¦§ à¦¸à¦®
à¦¬à§Ł à¦¹
Ġà¦īà¦ª à¦§
à¦¶à¦¨ à¦¶
Ġà¦¬ à¦¹à¦®
Ġà¦¬ à¦¦à¦®
Ġà¦¹ à¦°à¦°
Ġà¦ľ à¦¹à¦°
Ġà¦¬à¦¨ à¦²à¦¤
Ġà§¦ à§§à§®
Ġà§¨à§« à§Ń
Ġà¦°à¦¹à¦®à¦¤ à¦Ĺà¦ŀ
Ġà§¨à§¯à§ ¯
Ġà¦Ĩà¦ĩà¦ı à¦ıà¦¨à¦ıà¦¸
Ġà¦ħà¦ªà¦¤ à§İà¦ªà¦°à¦¤
Ġà¦¡ à§Łà¦ļ
Ġà¦¬à¦¸ à¦°
à§§à§¯à§¯à§ §
à§Ł à¦Ľ
à¦¤à¦° à¦®
à¦¯à¦¬ à¦ĩà§Ł
à¦¹à¦¤ à¦Ń
Ġà¦ı à¦§à¦°à¦£
à¦¸ à¦¸à¦®
Ġà¦¬à¦¦à¦² à¦Ĺ
à¦Ł à¦®à¦¨
à¦ĩ à¦¶à¦°
Ġà¦¨ à¦®à¦¸
à¦¬à¦¨ à¦¸
Ġà¦ľ à§Łà¦¤
à¦°à¦¤ à¦¸à¦¹
à§« à§¬
à¦°à¦Ĺ à¦¨
Ġà¦Ĩà¦Ł à¦ª
à¦¤ à¦Ļ
à¦¦ à¦Ĺà¦£
à¦Ĩà¦ĩ à¦ıà¦°
Ġà¦ĩ à¦Łà¦¨
Ġà¦ĩà¦¸à¦ķ à¦¨
Ġà§© à§§à§©
Ġà§§à§¦ à§§à§¨
à¦ł à¦Ĺ
Ġà¦ľà¦¨ à¦°
Ġà¦¹à¦² à¦Ł
à§ª à§¯
à¦Ĺà¦£ à¦¤à¦¨
Ġà§©à§Ń à§«
Ġà§ªà§® à§¦
Ġà¦ĵ à¦²à¦¨
à¦¦ à¦¬à¦°
à¦°à¦£ à¦®
à¦ħ à¦®à¦°
à¦° à¦ĭà¦£
à¦ĩà¦ª à¦®
Ġà¦Ĩà¦¨ à¦®à¦¨
Ġà§¨à§« à§©
à¦ĩà¦¤ à¦²
Ġà§¨à§¨ à§©
à¦Ĩ à¦¹à¦¤à¦¦
à¦ĩà¦¨ à¦Ĩà¦ª
Ġà¦Ĩà¦§ à¦Ł
Ġà§¨à§¯ à§¨
à¦¸à¦« à¦°à¦®
Ġà¦® à¦°à¦®
à§« à§¨
à§® à§¬
à¦¤à¦ķ à¦£
Ġà§¨à§© à§¯
à¦²à¦¶ à¦¹à¦°
Ġà¦ªà¦° à¦ĸ
à¦·à¦ķ à¦ĩ
à¦²à¦Ń à¦ª
Ġà¦¸ à¦Ł
à¦ľ à¦¬à¦¨
Ġà¦¡ à¦Ĺà¦²
Ġà§¨à§© à§©
Ġà¦ļ à§ľà¦ķ
Ġà¦§ à¦¨à¦¬
Ġà¦ £
à¦¬ à¦Ĺà¦¨
à¦ĩ à¦Ŀ
à¦ĩ à¦ıà¦¸
à§ľ à¦«
à¦« à¦¸à¦¹
à¦ĩà¦¨ à¦ľ
Ġà¦Ĩà¦¦ à¦¬
Ġà¦Ĩ à¦īà¦¨
Ġà¦ĸ à§ľà¦¦
Ġà¦¬ à¦°à¦¬
Ġà§Ń à§¨à§¦
Ġà¦ıà¦® à¦Ĩà¦ĩ
à¦¬ à¦²à§Ł
à¦® à¦ķà¦¤
à¦¦ à¦¶à¦¨
à¦Ĺ à¦ĵà§Ł
Ġà§ª à§§à§¦
à¦¬à¦¤ à¦¶
Ġà¦Ĩà¦ĩ à¦Ľ
à¦ķà¦ľà¦¨ à¦ĵ
à¦® à§Łà¦¨
à¦ĩ à¦Ĩà¦°à¦¸
Ġà¦ªà¦° à¦ľ
Ġà¦Ĩà¦Ł à¦ĺà¦°
à¦® à¦²à¦ķ
Ġà¦ı à¦¨à¦ĵ
à¦ļ à¦Ļ
à¦Ń à¦ľ
Ġà¦ıà¦®à¦ı à¦ľ
à¦¸ à¦Łà¦¨
Ġà¦« à¦ķà¦°
à¦¶à¦¨ à¦ĩ
Ġà§« à§§à§¨
à¦ĵ à¦¸à¦¹
Ġà¦ħà¦ª à¦¦à¦¸
à¦Ł à§Ł
Ġà¦ī à¦«
à§Ń à§¨
à¦ıà¦® à¦Ł
ĠĠĠĠĠĠĠĠ ĠĠĠ
à¦Ł à¦¬à¦¦
à¦« à¦°à¦®
Ġà¦ıà¦° à¦ļ
à¦ħ à¦ŀ
Ġà§¨à§¬ à§¨
à¦¨ à¦¬à¦ķ
Ġà¦ıà¦ĩ à¦ľà¦¨
à¦ªà¦¨ à¦¸à¦°
à¦ķà¦¤ à¦ķ
à¦°à¦ľ à§Ł
Ġà§¨à§¬ à§®
Ġà§§à§®à§¯à§ ¬
Ġà¦Ĩ à¦¥
Ġà¦Ĳ à¦ļ
Ġà¦ı à¦¹à¦¤
Ġà¦ıà¦ķ à¦ĺà¦°
à¦¤à¦¨ à¦Ĺ
à¦īà¦Ł à¦¸
à¦¨à¦Ĺ à§ľ
Ġà¦ĺà¦¨ à¦«
Ġà¦¶ à¦Łà¦Ĺ
à¦ĸ à¦²à¦¨
à¦¦à¦¨ à¦¹
à¦¨ à§Łà¦ķ
à¦¤à¦° à¦ĩ
à¦ļà¦¨ à¦Ĺ
Ġà¦ıà¦ķà¦ľà¦¨ à¦ĩ
Ġà§¨à§ª à§¬
Ġà§¨à§Ń à§§
Ġà¦¬à¦¦à¦° à¦Ĺà¦ŀ
Ġà§§à§®à§¯à§ Ń
Ġà¦¡ à§Ł
à¦·à¦£ à¦¨à¦¤
Ġà§©à§¦ à§§
Ġà§ªà§© à§¦
Ġà§§à§§à§¦ à§¦
à¦¬à¦¹ à¦¨à¦®à¦¨
Ġà§¨à§¬ à§¯
Ġà¦² à¦¦
à¦·à§Ł à¦ĩ
Ġà§§à§®à§® à§¯
à¦¤ à¦ļà¦ķ
Ġà¦ĵ à¦ıà¦¸à¦¡
à¦¡ à¦§
à¦ĩà¦¨ à¦ĵ
Ġà¦ªà¦¥ à¦ķ
Ġà¦¦à¦¶ à¦¦
Ġà¦ķà¦° à¦¸
Ġà§« à§§à§¦
Ġà¦Ĺà¦£ à¦§
à¦¨ à¦ļà¦¨
Ġà¦¸ à¦ľà¦¨
à¦ĩ à¦¶à¦¤
Ġà¦Ĩà¦¨ à¦Ń
à¦¦à¦° à¦ľ
Ġà¦Ĩà¦ľ à¦Ĺ
Ġà¦Ĩà¦ĩ à¦¤
Ġà¦® à¦°à¦¨
Ġà¦ĩ à¦¶à¦ķ
à¦§à¦¨ à¦ª
Ġà§§à§© à§¦à§¦
à¦Łà¦¬ à¦²à¦ķ
à¦¦ à¦ĺà¦¨
à¦ª à¦ĩà§Ł
Ġà¦ı à¦ıà¦¸
à¦¬à¦° à¦ļà¦¨
Ġà¦Ĩà¦Ĺ à¦®
à§İ à¦¨
Ġà¦®à¦¹ à¦°à¦¤
à¦¹à¦° à¦ª
à§Łà¦¸ à¦Ļ
Ġà¦Ķ à¦·
Ġà§§à§®à§« à§Ń
à¦Ĩà¦Łà¦ķ à¦ķ
Ġà¦ı à¦®à¦ķ
à¦ĸ à¦°à¦ļ
Ġà§¨à§¯à§ ©
Ġà¦°à¦ĵ à¦¨à¦ķ
Ġà¦¹ à¦łà¦ķ
à¦¦à¦¨ à¦®à§Ł
Ġà¦¬à¦° à¦¯
à§« à§©
à¦Ĺà¦£ à¦¸
Ġà¦ķà¦¨ à¦ĵà§Ł
à¦¤à¦« à¦¸
à¦¬ à¦¦à¦°
à¦ľ à¦²à¦ª
à¦ĸà¦¨ à¦¨
à¦¤ à¦²à¦®
Ġà¦® à¦¦à¦ª
à¦ĩà¦¨ à¦¦
Ġà¦ħà¦¸ à¦¤à¦°
à¦ıà¦ĩà¦ļ à¦ıà¦¸à¦¸
Ġà¦¨ à¦¨à¦¦
à¦¥ à¦¨à¦ķ
à¦ĵ à¦ľà¦¨
à¦·à¦£ à¦¸
Ġà¦«à¦² à¦ĵ
Ġà§¨à§® à§ª
Ġà§©à§¨ à§©
à¦¨ à¦ªà¦²
à§Ł à¦ľà¦¨à¦ķ
à¦ı à¦°à¦¶
à§İ à¦¦
Ġà¦¬à¦Ľà¦° à¦ľ
à¦ªà¦ķ à¦ķ
Ġà§¨à§Ń à§©
à¦Ĺ à¦«à¦²
Ġà¦®à¦¹ à¦°à¦°à¦®
à§« à§ª
Ġà¦ª à¦ĵà§Ł
à¦ī à¦²à¦ķ
à¦§à¦¶ à¦¤à¦°
à¦¦à¦°à¦® à¦¹à¦²
Ġà¦¬ à¦Ĺà¦²
Ġà¦¬à¦° à¦ŀ
à¦¤ à¦ĵà§Ł
à¦¶ à¦ĵà§Ł
à¦°à¦£ à¦¸à¦¹
à¦ķ à¦¸à¦ª
à§ľ à¦ĩ
Ġà¦¦à¦² à¦ªà¦¤
Ġà¦¬à¦¨ à¦¸
Ġà§©à§¦ à§ª
à¦²à§Ł à¦¸à¦®
à¦¤à¦¨ à¦Ł
à¦¤à¦® à¦ķ
à¦ªà¦¦ à¦¤
à¦ıà¦ķ à¦ĩà¦Ń
Ġà¦¬ à¦Łà¦®
Ġà¦ª à¦ĩà§ľ
Ġà¦Ĺ à¦ĵà¦¹à¦°
à¦¯à¦¬à¦¸ à¦¹
à¦¦à¦¸ à¦®
à¦°à¦¹à¦¨ à¦¯
à§§à§§à§ ¨
à¦¬ à¦®à¦¹
à§ľ à¦ĸà¦¨
Ġà¦ĵ à¦²à¦Ł
à¦°à¦¹ à¦¬
Ġà¦ĸà¦¬à¦° à¦¦
à¦¬ à¦ĵà§Ł
à¦¨à¦¤ à¦¤à¦°
à¦¦à¦¸ à¦ĩ
Ġà¦īà¦¤ à¦¸à¦¬
Ġà¦¬à§Ł à¦²
Ġà§¨à§Ń à§¬
Ġà¦¬à¦ĩ à¦ĵ
Ġà¦¸ à¦¯à¦¤
à¦ı à¦ķà¦®
Ġà§¨à§« à§ª
Ġà§¨à§« à§¯
Ġà¦ıà¦² à¦Ĺ
Ġà§«à§Ń à§¦
Ġà§§à§®à§® à§«
Ġà¦¬ à¦īà¦®
à¦¦ à¦¬à¦ķ
à§® à§«
Ġà¦Ŀà¦Ł à¦ªà¦Ł
Ġà¦¨ à¦Ľ
à¦°à¦¹ à¦Ĺ
à¦°à§Ł à¦²
Ġà§§à§®à§® à§¦
à¦¬ à¦®à¦¨
Ġà¦« à¦¸à¦ķ
Ġà¦§à¦° à¦ª
Ġà¦Ĩà¦¨ à¦«
Ġà§¨à§ª à§¯
Ġà¦Ĩà¦§ à¦ĺà¦£
à§§à§¨ à§¦
Ġà¦®à¦¨ à¦¨à¦¶
à¦²à§Ł à¦ĵ
à¦Ł à¦ªà¦¤
à¦ı à¦ľà¦¨
à¦¤à¦¨ à¦¸à¦¹
à¦ļà¦² à¦¸à¦¹
à¦ıà¦ĩ à¦ļà¦Ł
à§§à§¯à§¯à§ Ń
à¦ķà¦ľà¦®à¦ķ à¦ª
Ġà§© à§§à§¬
à¦°à¦¶ à¦¹à¦°
Ġà¦ıà¦¨ à¦Ĩà¦°à¦ıà¦¸
à¦·à¦¦ à¦Ń
Ġà¦ªà¦¥ à¦ª
à¦°à¦ª à¦²
à¦¬ à¦ķà¦¤
Ġà¦¨ à¦¬à¦°
Ġà¦¸à¦¨ à¦ľ
Ġà§©à§¦ à§«
Ġà¦ĩà¦¸ à¦¤
Ġà§§à§®à§¯à§ «
Ġà¦¬à¦² à¦¸
Ġà¦¬à§ľ à¦°
Ġà¦Ĩà¦ĩ à¦®
Ġà§ªà§¬ à§¦
Ġà¦Ĩà¦® à¦¸
Ġà§© à§§à§®
à¦²à¦¤ à¦ĸ
à¦ĩà¦ķ à¦ª
à¦ıà¦¨ à¦ıà¦²
Ġà¦Ĩà¦« à¦Ł
à¦¦ à¦ļ
à¦°à¦¤ à¦ľ
à¦²à¦¨ à¦¸à¦¹
Ġà¦«à¦² à¦¦
à¦®à¦¹ à¦¨à¦¨
à¦² à¦ļà¦¨
à¦¥ à¦°à¦ķ
Ġà¦Ĩà¦° à¦Ń
à§¬ à§¯
à¦° à¦²à¦¬
Ġà¦ķ à¦¶
à¦ı à¦ĩà¦¬
à¦¦à¦ªà¦¤ à¦¨
Ġà¦¸à§İ à¦ķà¦°
Ġà¦ľ à¦²à¦¨
Ġà¦Ĩà¦® à§ľ
à¦ĩà¦Ł à¦¬
à¦®à¦¸ à¦Ł
à¦¦ à¦īà¦¦
à¦¶ à¦¤à¦®
à¦¤à¦° à¦¬
à¦²à¦¬ à¦ķ
Ġà§¨à§« à§¨
Ġà¦ľà¦¨à¦Ĺ à¦¨à¦ķ
Ġà¦¶ à¦¬à¦°
Ġà¦Ń à¦ľà¦¨
à¦ķà¦¬ à¦ļ
Ġà§©à§¨ à§§
à¦« à¦®
à¦ĩà¦¨ à¦Ń
Ġà§© à§§à§ª
à¦°à¦ļ à¦ķ
à¦Ĺà¦² à¦¬à¦¨
Ġà§¨à§Ń à§ª
à¦£à¦Ĺ à¦¤à¦®
Ġà¦¸ à¦¦à¦¨
Ġà¦¸à¦® à¦§
Ġà¦ıà¦ĩà¦ļ à¦ıà¦®
Ġà¦¹ à¦°à¦¹
Ġà¦Ĺà¦£ à¦Ĺ
à¦īà¦ľ à¦Ł
Ġà§¨à§Ń à§®
Ġà§©à§¨ à§¨
à¦¶ à¦¡
Ġà¦ĸ à¦Ł
Ġà¦ĸ à§ľà¦ķ
à§İ à¦ķà¦°
à¦¯à¦¬ à¦¤
Ġà¦Ĩà¦ĩà¦¨ à¦Ĺà¦¤à¦Ń
à¦ĩà¦ī à¦ıà¦¨à¦¬
à¦ķ à¦Ĺà¦¨
à¦¡ à¦¸à¦ķ
Ġà§¨à§¬ à§§
à§İà¦¸à¦ķ à¦¸à¦¹
à¦ıà¦ķ à¦ĩà¦¸à¦Ļ
Ġà§©à§¨ à§¯
à¦ķ à¦¥à¦¨
Ġà¦ħ à¦¹à¦®
à¦ļà¦¨ à¦ľà¦Ļ
Ġà§Ńà§Ń à§Ń
à§¯à§ ¯à§
Ġà¦Ĩà¦¨ à¦ļ
à¦ĩà¦īà¦ıà¦¨ à¦ĵ
à¦°à¦¶ à¦®
à§Ń à§ª
Ġà¦¬à¦ĩ à¦ªà¦¤
Ġà§¨à§§à§¦ à§¦
à§Ł à¦®à¦¬
à¦¹ à¦¨à¦ķ
Ġà¦ķà¦¥ à¦¨
à¦¡à¦Ń à¦£
Ġà¦¬ à¦ĩà¦¸
Ġà¦¹ à¦ĩà¦¸
à§Łà¦¨ à¦ĵ
à¦Ł à¦¤à¦°
Ġà¦ıà¦ķ à¦¶à¦¨
Ġà§¬ à§§à§¦
à¦ıà¦¸ à¦ĵ
à¦° à§Łà¦¨
à¦¬à¦° à¦¸à¦¹
à¦·à¦ķ à¦ĵ
Ġà¦Ĩà¦Łà¦ķ à¦¦
à¦ķà¦ª à¦ŀ
Ġà§§à§®à§¯à§ ª
à¦ķ à¦¸à¦ķ
à¦ª à¦¸à¦Ł
à¦Ĺ à§Ł
Ġà¦ī à¦ĩà¦ľ
Ġà¦ħà¦° à¦Ĺ
à¦¤à¦² à¦Ł
Ġà§©à§© à§®
Ġà¦¤ à¦Ľà¦°
Ġà¦ľ à¦¬à¦°à¦¦
Ġà¦¸à¦® à¦ķà¦ķ
à¦« à¦ĸà¦°
Ġà¦ªà¦¥ à¦¨
Ġà¦ľà¦² à¦¯
Ġà¦ıà¦¤à¦¬ à§ľ
Ġà¦Ĩ à¦ĸà¦²
Ġà¦® à¦¶à¦Ĺ
à¦ļà¦¨ à¦ĵ
à¦Łà¦ķ à¦ķ
Ġà¦Ĩà¦ĩà¦¨ à¦Ĺ
Ġà§¨à§® à§¨
à¦ª à¦²à¦ķ
Ġà¦ĩ à¦ĩà¦īà¦°
à¦°à¦£ à¦ķà¦²
Ġà¦¡ à¦°à¦®
à§« à§§
à¦¸à¦¨ à¦¸à¦¹
Ġà¦Ĩà¦¦ à¦®à¦ľ
Ġà¦¬à§ľ à¦®
à¦¬à¦ª à¦¦
à¦¬ à¦Łà¦Ł
Ġà¦ı à¦ıà¦®
à¦Ĩ à¦¶à¦°
Ġà¦¨à§Ł à¦ĩ
Ġà§ªà§¦ à§§
Ġà¦¸ à§Łà¦²
Ġà¦ľ à¦ª
Ġà¦®à¦¹ à¦°à¦®
Ġà¦¨à¦¤ à¦ľ
Ġà¦Ĩà¦¹ à¦Ľ
Ġà¦ħà¦® à¦°à¦¤
Ġà¦ı à¦ıà¦¸à¦ıà¦®
à¦Ľ à¦ĵ
à¦¹à¦® à§Ł
à¦ĩ à¦¯
à¦£ à¦ļà¦¨
Ġà¦¸à¦° à¦·
Ġà¦ıà¦¨ à¦ıà¦Ń
Ġà¦ı à¦·
Ġà¦Ń à¦°à¦¬
Ġà¦ĸà¦¬à¦° à¦ĩ
Ġà§¨à§Ń à§Ń
Ġà¦§à¦¨ à¦ĸà§ľ
Ġà§ªà§ª à§¦
à§Ł à¦¯
Ġà¦ıà¦ĩ à¦¸à¦®à§Ł
Ġà¦ªà¦¥ à¦ĵ
Ġà§¨à§® à§§
Ġà¦Ŀà¦° à¦Ŀà¦°
à¦Ĩà¦ĩà¦¨ à¦®à¦¨
à¦° à¦¹à¦®
à¦·à§Ł à¦¸à¦®
Ġà¦¨à§Ł à¦¡
à¦ħ à¦¬à¦ķ
à¦¦à¦² à¦Ł
à¦Ł à¦Łà¦²
Ġà¦ļ à§ľà¦Ľ
Ġà¦ħà¦¹ à¦Ļ
à¦ª à¦ªà¦°
Ġà¦¹ à¦°à¦®à¦¨
Ġà¦¤ à¦²à¦ª
Ġà§§à§®à§¯ à§¨
Ġà¦° à¦Łà¦¨
Ġà¦ıà¦¤ à¦¸à¦¬
Ġà¦Ĩà¦ĩ à¦ĩà¦īà¦¬
à¦¨à¦Ń à¦Ļ
à¦¨ à¦Ĩà¦ĩ
à§¬ à§¨
Ġà¦¶à¦ªà¦¥ à¦¬
à¦® à¦¦à¦°
à¦ı à¦ķà¦¨
à¦®à¦¸ à¦ķ
à¦¨ à¦°à¦ķ
Ġà¦ħ à¦¢
à¦¡ à¦¯
Ġà¦¬ à¦¶à¦°
à¦¦à¦¨ à¦Ĺ
à¦°à¦ķ à¦¦à¦®
à¦¹à¦° à¦Ĺà¦ŀ
à§§à§¯à§¯ à§¨
Ġà¦Ĩ à¦ĵà§ľ
Ġà¦ī à¦ĩà¦¦
à¦°à¦¶ à¦¤
Ġà§©à§¦ à§Ń
Ġà¦ĭ à¦¨
Ġà¦ħà¦® à¦°à¦¨
Ġà¦ĵ à¦°à¦ķà¦®
Ġà¦ĩ à¦²à¦¨
Ġà§« à§¨à§¦
à¦ĩà¦® à¦ļà¦°
Ġà§©à§¨ à§¬
Ġà§§à§®à§® à§¬
Ġà¦ª à§Łà¦Ĺ
à¦ª à¦ĵà§Ł
Ġà§¬ à§¨à§¦
à¦Ĩà¦ĩ à¦ĵ
Ġà§©à§¨ à§ª
Ġà¦®à¦°à¦£ à¦ĺ
à¦ľ à¦¯
à¦¥ à¦ªà¦¥
à¦¸à¦® à¦£
à§Ł à¦ªà¦°
à¦® à¦īà¦²
Ġà¦¬ à¦ĩà¦¬
à¦¥ à¦¸à¦®
Ġà§© à§¯à§«
à¦ĩà¦Ł à¦°
Ġà§§à§Ń à§¦à§¦
Ġà§¨à§¬ à§Ń
Ġà§ªà§Ń à§¦
à¦¤ à¦¤à¦°
Ġà¦ħ à¦ĩ
Ġà¦Ĩà¦° à¦ıà¦¨à¦ı
Ġà¦īà¦ª à¦¸à¦¹
à¦ĩà¦Ł à¦ĵ
à¦ķà¦¦ à¦²
Ġà¦ıà¦® à¦Ĩà¦°
à¦ĩà¦ľ à¦Ń
à¦² à¦®à¦¤
Ġà¦ĩà¦ī à¦Ľ
Ġà§¨à§¯à§ Ń
à¦¨ à¦ĺà¦°
à¦¥ à¦ķà¦ķ
à¦ī à¦°à¦¨
à¦²à¦¨ à¦ª
à¦¸à¦«à¦Ł à¦ĵà§Ł
à¦¸ à¦ľà¦®
Ġà¦¹ à¦®
Ġà¦ħà¦° à¦²
Ġà¦ķà¦®à¦¬ à§Łà¦¸
Ġà§¨à§¯à§ §
à¦¸à¦ķ à¦Ń
Ġà¦ľà§Ł à¦ľà§Łà¦ķ
à¦ľà¦¸ à¦Ń
Ġà§©à§¯ à§¦
Ġà¦ķ à¦ľ
à¦Ł à¦¸à¦ķ
Ġà§© à§§à§Ń
Ġà¦ıà¦² à¦Ł
à¦°à¦®à¦£ à¦ª
Ġà¦ħà¦² à¦¸à¦¤
Ġà§§à§®à§® à§®
à¦¤ à¦ĺ
Ġà¦ĵ à¦¯
Ġà¦®à¦¦à¦¨ à¦ª
à¦¥ à¦¸à¦¹
à¦¡ à¦¸à¦®
à¦ĩà¦¨ à¦²
à¦ĺ à¦Łà¦ķ
à¦²à¦Ĺ à§ľ
à¦¯à§Ł à¦Ń
Ġà¦Ĩà¦ļà¦°à¦£ à¦ķ
à¦¶ à¦ľà¦¨
Ġà¦Ľ à§Łà¦®
à¦ľà¦¨ à¦®
à¦ı à¦ıà¦«
à¦¬à¦¨ à¦¦
à¦Ĩ à¦Ļ
Ġà¦ĩà¦¨ à¦¹
à¦ļà¦² à¦ĵ
Ġà¦ħà¦ª à¦¶à¦¨à¦Ł
Ġà§«à§ª à§¦
Ġà§¬à§¬ à§¦
Ġà¦¬à¦¶ à¦¬à¦°
Ġà¦ķ à¦ĩà§Ł
Ġà¦² à¦¹
Ġà¦¬à¦° à¦¨
à¦°à¦¹ à¦¨à¦ķ
Ġà¦¢ à¦Ļ
Ġà§¬ à§©à§¦
Ġà§¦ à§§à§¯
à§¯ à§¨
à§Łà¦® à¦Ł
à¦¸ à¦§
Ġà¦Ĩà¦¸à¦¨ à¦Ĺ
Ġà¦ĺà¦¨ à¦ĺà¦¨
à¦ļà¦¨ à¦Ł
à¦¹ à¦ľà¦®
Ġà¦ªà¦° à¦ª
à¦²à¦ķ à¦ĵ
Ġà¦Ĩà¦ĩ à¦ĵà§Ł
Ġà§§à§®à§® à§¨
Ġà§¨à§¯à§ ¬
à¦¤ à¦§à¦°
Ġà¦® à¦ĸà¦¦
à¦°à¦¤ à¦¦
à¦°à¦® à¦§à¦°
à¦¤à¦² à¦ľ
à¦ĩà¦Ń à¦ķ
à§® à§Ń
Ġà¦¬à§ľ à¦¶
à¦°à¦ªà¦° à¦¨
Ġà§ªà§¨ à§«
Ġà§«à§® à§¦
Ġà¦Ĩà¦ĩà¦ıà¦² à¦ĵ
à¦¨ à¦¦à¦¨
à¦® à¦²à¦¤
à¦ļ à¦°à¦ķ
à¦Ń à¦²à¦¬
à¦ĩà¦Ł à¦®
à¦®à¦ķ à¦¨
Ġà¦¤ à¦ªà¦¶
Ġà¦¸à¦® à¦®à¦¨
à§® à§©
à¦²à¦Ĺ à¦¸
à¦¨à§Ł à¦ĵ
Ġà§©à§© à§«
Ġà§©à§© à§ª
Ġà¦ķ à¦Łà¦ķ
Ġà¦® à§ľ
Ġà¦¹ à¦°à¦ķ
à¦ªà¦¨ à¦¸à¦¹
Ġà§© à§§à§§
Ġà¦ĩà¦¨ à¦·
à§® à§ª
Ġà¦¨à¦¦ à¦Ń
Ġà¦¬à¦ĩ à¦ª
Ġà¦¸à¦° à¦²à¦¤
à¦Ĩ à§Łà¦¤à¦¨
à¦ıà¦² à¦ı
à¦Ĺà¦¬ à¦Ĺ
à§İ à§Ł
Ġà§¨à§® à§Ń
Ġà§©à§© à§¨
Ġà§§à§§à§ §à§
à§Ŀ à¦ª
à¦¶ à¦®à¦¤
à¦ķà¦ĸà¦¨ à¦ĵ
à¦¬ à¦īà¦²
à¦¸ à¦ħà¦°
Ġà¦Ĩ à¦ľà¦¨
à¦§ à¦¹
à¦£ à¦¸à¦®
Ġà¦ĵ à¦ķà¦²
Ġà¦¸à¦¹ à¦¸à¦®
à§¬ à§©
Ġà§¬à§¦à§¦ à§¦
à§§à§¯à§¯à§ ©
à¦² à¦ĸà¦¨
à¦¹à¦¨ à¦Ĺ
Ġà¦ı à¦«à¦Ł
à¦ĩ à¦°à¦¨
à¦ĩ à¦°à¦ķà¦®
Ġà¦ľà¦¨ à¦¹
Ġà¦ªà¦¦ à¦¦à¦²
Ġà¦Ńà¦° à§İà¦¸à¦¨
à¦ªà¦Ł à¦ªà¦Ł
Ġà§¨à§¬ à§©
à¦ĩà¦ī à¦ıà¦¸
Ġà§ªà§¯ à§¦
à¦ĩà¦ľà¦¨ à¦ĩ
Ġà¦ıà¦¨à¦ĵ à¦¸
à¦¨ à¦ıà¦ľ
Ġà¦¬à¦² à¦Ĺ
à§§à§¯à§¯à§ ª
à¦īà¦ªà¦ķ à¦°à¦£
Ġà¦Ľ à§Łà¦¤à¦²
à¦ķà¦² à¦¸
à§® à§¨
à¦ĩà¦¸ à¦ķ
Ġà¦¶à¦¹à¦° à¦ľ
Ġà¦Ĩà¦ĩ à¦ĵà¦¸
à¦¤ à¦°à¦¤
Ġà§© à§¯à§¯
Ġà¦ª à¦Łà¦ķ
Ġà¦ĸ à¦Łà¦ķ
à¦ľà¦¨ à¦¨
Ġà¦¬à¦¨ à¦®
Ġà¦īà§İ à¦°
à¦ªà¦£ à¦ķ
Ġà¦¤à¦« à¦¶
Ġà¦ħ à¦ĸà¦¨
Ġà§¨à§¦ à§«à§¦
Ġà¦ĵà¦ĩ à¦ĸ
Ġà¦ħà¦¤ à¦ªà¦°
à¦ªà¦¦ à¦¶
Ġà§¨à§® à§©
à¦¬à§ľ à¦¦
Ġà¦Ĩà¦ĩà¦ĵ à¦ıà¦®
Ġà¦ĩ à¦ıà¦¸à¦ª
Ġà¦ıà¦® à¦ıà¦¸à¦¸
à¦¡à¦īà¦ĩ à¦ļ
Ġà¦īà¦ĩà¦¸ à¦ķà¦¨à¦¸
à¦ĩ à¦¶à¦¦
Ġà¦Ł à¦Ĺà¦¬à¦Ĺ
à§¬ à§§
à¦°à¦Ĺ à§ľ
à§§à§¯à§¬ à§¦
à§§à§¯à§« à§¦
à¦ĩ à¦¸à¦®
à¦Ń à¦¡
à§Łà¦¨ à¦Ĺ
à§Łà¦° à¦°
à¦ľ à¦ªà¦¤
à¦Łà¦ķ à¦¥
à¦ļà¦² à¦¸à¦®
à¦¤à¦ļ à¦°à¦¬
à¦¦ à¦®à¦¸
à¦°à¦ľ à¦®
à¦īà¦ıà¦ĩà¦ļ à¦ĵà¦°
à¦¹ à¦ĩà§Ł
à§Ī à¦ĥ
à¦ªà¦ķ à¦¹
à¦ĩà¦Ł à¦¦
Ġà¦ıà¦ĩà¦ļ à¦Ĩà¦°
Ġà¦Łà¦® à¦Łà¦®
Ġà¦¨ à¦°à¦ª
Ġà¦¦ à¦ĩà§Ł
à¦ĸ à¦¶
à¦£ à¦ªà¦¨
Ġà¦īà¦¦ à§Łà¦ª
Ġà§§à§®à§¯à§ §
Ġà¦ı à¦ĸà¦²
Ġà§§à§®à§¯à§ ©
à¦¤ à¦²à¦¤
à¦¬ à¦ľà¦¨à¦ķ
Ġà¦ıà¦¸ à¦Ĩà¦°
à¦ļà¦² à¦Ń
Ġà¦ĭà¦£ à¦¦
à¦Ľ à¦¸
Ġà¦ļà¦°à¦Ń à¦¦
à¦ļ à¦¤à¦®
Ġà¦¯ à¦¶à¦°
Ġà¦¡ à¦¬à¦²à¦®
à¦ĩà¦² à¦«
à§Łà¦ķ à¦ĵ
Ġà¦ĺà¦° à¦Ľ
à¦¡à¦² à¦«
Ġà§©à§¨ à§Ń
Ġà¦¸à¦« à¦°à¦Ł
à¦²à¦ªà¦¥ à¦Ł
Ġà¦ªà¦Ļ à¦ķ
à¦¬à¦° à¦²
à¦¯à¦¨ à¦Ĺà¦°
Ġà¦¶à¦° à§İà¦ķ
à¦ķ à¦¤à¦®
à¦¨à¦ĵ à¦ķ
à¦§ à¦¤à¦¨
Ġà¦ī à¦Łà¦ª
Ġà¦ĺ à¦¨à¦®
à¦¬à¦¨ à¦ª
à¦¸à¦¨ à¦ª
à¦¨à¦¸ à¦¤
Ġà§©à§¬ à§ª
Ġà¦²à¦ĸà¦¨ à¦īà§Ł
à¦ Ķ
à¦Ĺ à¦®à§Ł
à¦ļ à¦¸à¦¹
Ġà¦ĸ à¦Ĺ
Ġà¦ħà¦§ à¦®
à¦¤à¦® à¦ŀ
Ġà¦¸à¦° à§Ł
à¦Ĩà¦ĩ à¦«
à¦ıà¦ĩ à¦¸à¦¬
à¦ıà¦« à¦ıà¦«
Ġà§©à§« à§ª
Ġà§«à§¨ à§«
à¦¦à¦§ à¦¤à¦¨
à¦¨ à¦®à§Ł
Ġà¦® à¦ĸ
à¦ĩ à¦ªà¦ķ
Ġà¦¨ à¦¶
à¦ħ à¦¸à¦¹
Ġà§«à§¯ à§¦
Ġà¦Ĩ à¦¡à¦¬
à¦ļ à¦®à¦¬
Ġà¦¶ à¦°à¦®
Ġà§¨à§Ń à§¯
Ġà§§à§®à§Ń à§¦
à¦¦ à¦®à¦¨
à¦¦ à§İ
Ġà¦ľà¦® à¦ľ
Ġà¦Ĩà¦« à¦Ľ
Ġà¦ıà¦° à¦ľà¦¨
à¦°à¦¨ à¦Ł
Ġà¦ĩà¦ī à¦ıà¦ĩ
Ġà¦«à¦° à¦°
à¦ķ à¦°à¦¤
à¦¹ à¦·
Ġà¦ħ à¦®à¦¤
Ġà¦Ľ à¦²à¦¨
Ġà§©à§¦ à§®
Ġà¦ļà¦Ł à¦ľà¦²à¦¦
Ġà§¬à§® à§¦
à¦¯ à¦£
à¦īà¦ľ à¦¬
Ġà¦ĩà¦¸ à¦®à¦¤
Ġà¦Ĺà§ľà¦ª à§ľà¦¤
à¦Ł à¦Ĩà¦īà¦Ł
Ġà¦¶ à¦®à¦¶
à¦ĵ à¦ı
Ġà¦ĵ à¦ıà¦®à¦ıà¦¸
Ġà¦ĩ à¦ĵà¦°
à¦°à¦¤ à¦ĩ
à¦ķà¦° à¦¬
à¦Łà¦ªà¦¤ à¦Ļ
à¦Ł à¦¬à¦¨
à¦ª à¦«
Ġà¦ĩ à¦ıà¦®
à¦°à¦¸ à¦¤
à§Ń à§¬
à¦ıà¦° à¦Ĩà¦Ĺ
Ġà§©à§« à§¬
à¦Łà¦ĵ à¦Ń
à§§à§¯à§¯à§ «
à¦¶à¦¨ à¦ª
à¦¦à¦° à¦ª
Ġà¦ħà¦ª à¦¦
Ġà§ª à§¯à§¯
Ġà¦Ĺà§ľ à¦Ľ
à¦¬ à¦ĩà¦®
Ġà¦ª à¦¯à¦°
à¦£ à¦¤à¦®
Ġà¦ĵ à¦°à¦¸
à¦ķà¦° à¦²
Ġà§©à§¦ à§¯
Ġà¦®à¦ľ à¦¹
à¦° à¦īà¦ĩà¦ķ
à¦Ł à¦ĩà¦¨
Ġà¦ľà¦² à¦§
Ġà¦ľà¦¨à¦ķ à¦£
Ġà§©à§© à§¬
à¦¶ à¦Ŀ
à¦Ń à¦®à¦¨
à¦ĵ à¦¨à¦ķ
à¦ī à¦£
à¦«à¦² à¦ĵ
Ġà§©à§ª à§«
à¦¦ à¦ĺ
à¦ªà¦¨ à¦ĵ
à¦°à¦¸ à¦ª
à¦ĺ à¦ľ
à¦¤à¦¤ à¦ªà¦ķ
Ġà§©à§ª à§§
à¦¸à§ľ à¦ķà¦Ł
Ġà§§à§®à§® à§ª
à¦Ĳ à¦ķ
à¦ķ à¦°à¦ķà¦®
à¦¯ à¦²à§Ł
Ġà¦« à¦¸à¦«
Ġà§© à§§à§¯
à¦²à¦¨ à¦¸
Ġà§¬ à§¨à§«
Ġà¦ªà¦łà¦¨ à¦ª
à¦Ń à¦°à¦ª
à¦¸à¦¨ à¦ķà¦°
à¦Ĩà¦ľ à¦ĵ
à¦īà¦¥ à¦ĩà¦¸
à§§à§§à§ ¦
à¦² à¦ļà¦ķ
à¦Ľ à¦Ń
à¦Ĩ à¦®à¦¦
Ġà¦īà¦¤ à¦¸
Ġà¦Ĩ à¦¬à¦¸
à¦ĩ à¦°à¦¹
à¦ī à¦ł
à¦ı à¦¬à¦Ľà¦°
Ġà¦Ĺà¦£ à¦°
à¦ħà¦¤ à¦ıà¦¬
Ġà¦®à¦Ł à¦°à¦¶
à¦ĩ à¦ı
Ġà¦° à¦¹à¦¨à¦ª
à¦ľà¦¨ à¦®à¦¤
à¦°à¦¬à¦¨ à¦¤
à¦ī à¦Ĩà¦ĩ
à§§à§¯à§Ń à§©
Ġà§§à§®à§® à§Ń
Ġà¦ķ à¦ĸ
à¦ľà¦¨ à¦¬à¦²
à¦¬à¦¨ à¦¤
à¦¯à¦¦ à¦ª
Ġà¦¨à¦¬ à¦Ĺ
Ġà¦¨à¦Ĺà¦° à¦ª
Ġà¦° à¦ĩà¦Ľ
Ġà¦¶ à¦ľ
à¦£ à¦ªà¦¤
Ġà§Ńà§® à§Ń
à¦¸ à¦¬à¦²
Ġà¦¤ à¦ŀ
à¦¹ à¦ļà¦°
à¦¥ à¦°à¦Ł
Ġà¦ĩ à¦¬à¦²
Ġà¦®à¦¨ à¦ĸ
Ġà§Ń à§©à§¦
à§Ń à§©
à¦¬ à¦¤à¦ķ
à¦¦ à¦¤à¦°
à¦Ń à¦¨à¦¦
Ġà¦ħà¦ª à¦¶
Ġà¦°à¦ķ à¦¸
à¦ĩà¦ľ à¦¦
à¦®à¦£ à¦¦
Ġà¦Ĭ à¦¨
Ġà¦Ķ à¦ľ
Ġà§§à§®à§Ń à§®
Ġà¦ķà¦¤à¦ķ à¦Ĺ
Ġà¦Ĩ à¦ĸà¦°
Ġà§ª à§§à§Ń
Ġà¦ıà¦® à¦ĵ
Ġà¦Ľà§Ł à¦¶
Ġà¦Ĩà¦ĩà¦ıà¦¸ à¦ıà¦«
à§§à§¯à§® à§¬
Ġà¦¸ à¦°à¦¤
Ġà¦ķà¦° à¦®à¦°
à¦¥ à¦¦à¦¨
à¦Ń à¦¬à¦ķ
à§® à§¯
à¦ĩà¦ī à¦Ń
Ġà¦ľà¦¬à¦°à¦¦ à¦ĸà¦²
Ġà¦Ńà§Ł à¦Ł
à¦ĩà¦« à§Ł
à¦®à¦ľ à§Łà¦¨
à¦ĩà¦ª à¦ľ
à¦® à¦¬à¦¨
Ġà¦¸à¦° à¦²à¦°
Ġà§Ń à§§à§¦
Ġà§©à§Ń à§§
Ġà§©à§Ń à§ª
à¦ļ à¦¶à¦¤
Ġà¦Ĳ à¦ĸ
à¦ıà¦² à¦ľ
Ġà§©à§ª à§¨
à¦¤ à¦§à¦¨
Ġà¦ķ à¦Ľ
à¦« à¦ĵà§Ł
Ġà¦ħà¦¨ à¦ķ
à¦ī à¦ī
à¦°à¦ķ à¦£
à¦ļà¦ķ à¦®à¦£
Ġà¦ĭ à¦Ĺ
à¦§ à¦ªà¦¤
Ġà¦¹à§Ł à¦¤à¦¬
Ġà¦ıà¦ķ à¦«
à¦ªà¦° à¦¬
à¦°à¦®à¦£ à¦ĵ
à¦¶ à¦¤à¦ķ
Ġà¦¨ à¦Ĺà¦¨
à¦Ń à¦ļ
à¦¬à¦° à¦ĸ
Ġà¦ĺ à¦°à¦ķ
Ġà¦īà¦ª à¦¨à¦¦
à¦ļà§Ł à¦Ł
à¦£à¦¬ à§Łà¦¸
Ġà¦ı à¦ľà¦¬
à¦ľ à¦Ĺà¦£
à¦ĸ à¦¢
à¦°à¦£ à¦ªà¦¤
à¦¦à¦ķ à¦®à¦£
à¦®à¦¤ à¦¬
Ġà§©à§« à§«
à¦¬ à§İà¦ķ
à¦§ à¦ķà¦²
à¦ļ à¦¹
à§Ń à§¯
Ġà¦īà§İ à¦ķà¦¨
à¦¨à¦¬à¦¸ à¦Ń
à¦¤ à¦Ĺà¦£
à¦¸à¦° à¦°
à§§à§¯à§ª à§®
à§§à§¯à§« à§¨
à¦¤ à¦®à¦¤
Ġà¦ı à¦Ĩà¦°
Ġà¦ĩ à¦Łà¦¸
à§Łà¦¨ à¦ª
à¦ļà¦² à¦Ľ
Ġà¦§à¦¨ à¦¸à¦®
à¦¶ à¦²à¦Ĺ
à¦ī à§İà¦ª
à¦Ŀ à¦¦
à¦¬ à¦ıà¦ĩà¦¡
Ġà¦¸ à¦²à¦Ļ
Ġà¦Ĩà¦° à¦¬à¦°
à¦¨à¦ĵ à¦®à¦¤
à¦¹à¦ľ à¦°à¦¤
à¦° à¦ĺà¦°
Ġà¦Ĩ à¦ªà¦ķ
à¦ķà¦² à¦ľ
Ġà¦¸à¦° à¦ľà¦®
Ġà¦ªà¦¥ à¦°
Ġà¦ıà¦ª à¦¸
Ġà§«à§¦ à§§
Ġà¦ľà¦¨à¦Ĺà¦£ à¦ĩ
Ġà§©à§Ń à§¬
Ġà¦¸ à¦īà¦¦
à¦« à¦¤à¦°
Ġà¦¦à¦² à¦Ĺà¦¤à¦Ń
à¦¸à¦® à§Łà¦ķ
à¦ıà¦® à¦Ń
Ġà¦Ĩà¦¹ à¦ķ
Ġà§©à§« à§§
Ġà¦®à¦¨ à¦°
Ġà§ª à§§à§¬
à¦²à¦¬ à¦¦à¦²
Ġà¦¬à§ľ à¦Ĺ
à¦¯à§Łà¦¨ à¦ķ
à¦¨ à¦Ĩà¦īà¦Ł
à§Ł à¦°à¦ª
Ġà¦¬ à¦ĩà¦ķ
à¦Ĺ à¦°à¦¨
Ġà¦° à¦¸à¦¨
Ġà¦Ĺ à¦ª
à¦²à§Ł à¦®
Ġà§¬ à§§à§Ń
Ġà¦īà§ľ à¦¬
à¦ĩà¦¡ à¦¸
à¦¬ à¦ļà¦ķ
à¦ľ à¦ļ
Ġà¦ī à¦ĩà¦¶
à¦Ĩ à¦Ĩ
Ġà¦¦à¦² à¦Ľ
Ġà§¦ à§§à§¬
à¦ªà¦¦ à¦Ł
Ġà¦¬à§Łà¦¸ à¦Ł
à¦Ĺà¦£ à¦ª
Ġà¦° à¦°
à¦²à¦¨ à¦Ĺ
Ġà¦ªà¦¦ à¦§
Ġà¦ªà¦¥ à¦ĩ
Ġà§ªà§Ń à§«
à¦ĩà¦®à¦¸ à¦ķ
Ġà¦Ĩà¦ĩà¦ı à¦ıà¦¸
Ġà¦ķ à¦ŀ
à¦§ à¦¹à¦¸
Ġà¦ıà¦¸ à¦Ń
Ġà¦¬à¦¨ à¦®à¦¨
Ġà§ª à§§à§«
à¦¬à¦² à¦ª
Ġà§©à§Ń à§Ń
à¦ı à¦¤à¦ķ
Ġà¦Ńà§Ł à¦ĵ
Ġà¦ķ à¦ªà¦Ł
Ġà¦ħ à¦īà¦°
Ġà¦Ĺ à¦Ł
à¦ī à§İà¦¸
Ġà¦Ĩà¦ĩ à¦Ńà¦°
Ġà¦Ĩà¦Ł à¦¬
Ġà¦Ĺà¦°à¦® à¦ķ
à¦° à¦ĩà§Ł
à¦¶ à¦°à¦£
à¦ļ à¦ļ
à¦ĵ à¦¸à¦®
à¦Ĩ à¦ŀ
à¦¨à¦ķ à¦¶
Ġà§«à§® à§¬
à¦Ĺà¦¤à¦¬ à¦Ľà¦°
à¦² à¦¥à¦ķ
Ġà¦¬ à¦īà¦¦
Ġà¦Ĩ à¦¹à¦°
Ġà¦Ĺ à¦¨à¦®
à¦°à¦¸ à¦¨à¦ķ
Ġà§ª à§§à§¨
à¦ıà¦² à¦Ł
à¦ĩà¦« à¦ķ
Ġà¦Ĩà¦Ł à¦¶
Ġà§©à§ª à§¬
à¦Ĺ à¦§
à¦°à¦¹ à¦ĵ
Ġà¦Ĺà¦¤ à¦®
à§¦à§¦ à§Ń
Ġà§¨à§® à§¯
à¦¦à¦°à¦¬à¦¨ à¦ķ
à¦¤à¦° à¦¯
Ġà¦ıà¦¸ à¦Ľ
Ġà¦¬à¦° à¦ľ
à¦«à¦¤ à¦°à¦ķ
à¦® à¦ªà¦¦
à¦ĩ à¦ĵà¦¨
à¦Ĺ à¦°à¦¬
Ġà¦ī à¦Ĺà§ľ
Ġà¦¬à¦ķ à¦¸
Ġà§«à§¦ à§¯
Ġà¦Ĩà¦Ł à¦ķà¦°
Ġà§©à§« à§¯
à¦Ĺà¦ª à§İ
à¦¬ à¦ī
Ġà¦ļ à¦°à¦Ĺ
à¦¨à¦ĩ à¦īà¦°
à¦ļà¦® à§İà¦ķ
Ġà¦ıà¦ķ à¦°à¦¤
à¦« à¦ĵ
à¦ī à¦ıà¦¸
à¦ĺ à¦²à¦ķ
Ġà¦¦à¦² à¦Ń
Ġà¦ıà¦® à¦Ĩà¦ĩà¦Ł
Ġà¦Ĩà¦« à¦ľà¦²
Ġà§ªà§¦ à§«
Ġà§ªà§¦ à§¯
Ġà§§à§®à§Ń à§©
Ġà§§à§®à§¬ à§§
à¦¨ à¦¶à¦°
à¦Ľ à¦ļ
à¦ªà¦¨ à¦¦
à¦ªà¦¨ à¦ļ
Ġà§©à§ª à§¯
à¦Ĩà¦ĩà¦¨ à¦¶
à¦Ĩà¦¹à¦® à¦¦
à¦¨ à¦¬à¦¬
Ġà¦ıà¦ķ à¦ªà¦ķ
Ġà¦Ĩà¦° à¦ıà¦®à¦ª
à¦ĩà¦¨ à¦¡
Ġà¦ľà¦² à¦ĺ
Ġà§©à§® à§«
Ġà¦¨à¦ĵ à¦¦
à§§à§¯à§® à§ª
à¦° à¦Ĩà¦ª
Ġà¦¸à¦® à¦²
Ġà¦« à¦¯
à¦¯à¦ķ à¦°à¦£
Ġà§©à§© à§Ń
Ġà§©à§Ń à§¨
Ġà¦¦à¦® à¦¬à¦¨
Ġà¦Łà¦¹à¦² à¦¦
à¦§ à¦Ĺà¦²
Ġà¦Ĺ à¦ľà¦¬
à¦¸à¦¨ à¦Ń
à¦°à§Ł à¦¦
à¦¶à¦ķ à¦¶
Ġà¦ľà§Ł à¦¬
à¦ĵ à¦ıà¦ĩà¦ļà¦ıà¦¸
à¦²à¦¨ à¦ķà¦¶
à¦²à¦ª à§ľ
à¦īà¦ĩ à¦ļ
à¦Ĺ à¦¸à¦¨
à¦¬à¦¤ à¦¸
à¦ķà¦°à¦£ à¦ķ
Ġà§¦à§§à§Ń à§§à§©
à¦· à¦Ľ
à¦ĵ à¦®à¦°
Ġà¦ļ à¦ĩà¦²
à¦ĩà¦¨ à¦ª
à§« à§¯
Ġà¦Ĩà¦ª à¦¸à¦¹
à§§à§¯à§Ń à§ª
à¦¬ à¦§à¦°
à¦¯ à¦Ľ
à¦ľ à¦¬à¦¸
Ġà¦² à¦Łà¦ķ
Ġà¦Ŀ à§ľà¦¬
Ġà¦ħà¦® à¦Ļ
Ġà§¯à§¬ à§¦
Ġà§§à§®à§Ń à§¨
Ġà§§à§®à§Ń à§¬
Ġà¦ıà¦®à¦ı à¦ıà¦ĩà¦ļ
Ġà¦ĩ à¦¹à¦°
à¦ĺ à¦¨à¦ķ
à§Łà¦® à¦®
à¦¡à¦Ń à¦¨
à¦¥ à¦¶
à¦ıà¦¨ à¦ıà¦°
à§Łà¦ķ à¦¤à¦¨
Ġà¦ıà¦ĩà¦ļ à¦¬
à¦¸à¦°à¦£ à¦ķ
Ġà¦¹ à¦Łà¦¤
à¦ī à¦ı
à¦ī à¦Ńà§Ł
à¦ħ à¦¯
Ġà¦°à¦ķà¦® à¦Ń
à¦® à¦ªà¦¤
à¦ľ à¦ħà¦°
à¦Ń à¦¤
à¦¦à¦¨ à¦¦
Ġà§©à§Ń à§¯
à¦Ĺ à¦¨à¦ķ
Ġà¦ĩ à¦Ĺà¦¨
Ġà¦¬à¦² à¦¶
Ġà¦ıà¦® à¦Ĩà¦ĩà¦ıà¦¸
Ġà¦ĩ à¦Łà¦¬
à¦ĩà¦² à¦Łà¦ķ
à¦ĩà¦Ł à¦¹
Ġà¦«à¦² à¦ľ
à¦¯à¦¸ à¦Ļ
Ġà§«à§¦ à§«
Ġà§§à§®à§¬ à§¯
à¦ķ à¦¢
à¦¸ à¦¦à¦¨
Ġà¦ĸ à¦°à¦¸
à¦°à¦¬ à¦¹à¦®
Ġà¦Ń à§Łà¦ķ
à¦¦à¦¨ à¦¬
Ġà§ªà§¦ à§¬
Ġà§Ńà§¬ à§¦
à¦® à¦¶à¦ķ
Ġà¦ª à¦¡
Ġà¦ıà¦¸ à¦ľ
Ġà¦ıà¦² à¦ıà¦¸à¦¡
à§® à§§
à¦ĸà¦² à¦Ń
Ġà§©à§ª à§©
à¦¤à¦°à¦ª à¦¶
Ġà§¬à§© à§¨
à§§à§¯à§® à§¯
Ġà§ª à§§à§ª
Ġà¦ħà¦ķ à¦¸
Ġà¦īà§İ à¦¯
à¦¶à¦² à¦Ł
à¦¸à¦®à§Ł à¦Ł
à¦ľà¦Ĺ à§İ
à§Ł à¦£à¦¤
à¦¥ à¦°à¦¬
à¦£ à¦ľ
à¦« à¦ľà¦²
Ġà¦Ĩà¦° à¦ıà¦¸
Ġà§Ńà§© à§«
à¦° à¦Ŀà§ľ
Ġà¦Ĩ à¦°à¦£
à¦· à¦²à¦§
à¦ı à¦Ĩà¦ĩ
Ġà¦®à¦¨ à¦¤
Ġà§® à§¨à§¦
à¦¯à¦¤ à¦ĩ
Ġà¦¬à¦¹ à¦¦
à¦ķà¦°à¦£ à¦Ĺ
Ġà§©à§© à§§
à¦®à¦« à¦²à¦ķ
Ġà¦¸ à¦ĩà¦¦
Ġà¦¬ à¦īà¦¬
à¦Ł à¦²à¦Ĺ
Ġà¦ı à¦Ĩà¦ĩà¦ľ
à¦ļ à¦°à¦®
à¦°à¦¤ à¦°à¦¤
Ġà§ª à§§à§©
à¦¤à¦¨ à¦ĸ
Ġà§§à§®à§® à§©
à¦¯ à¦ĺ
à¦¥ à¦²à¦Ĺ
à¦Ń à¦²à¦ª
Ġà¦Ł à¦¨à¦¸
à¦ı à¦ıà¦¸à¦ª
à¦¯à¦® à¦ŀ
à¦¹à¦² à¦Ł
Ġà§Ńà§® à§¬
Ġà¦¹à¦°à¦®à¦¨ à¦ª
Ġà¦¬ à¦°à¦®
Ġà¦ª à¦Łà¦¨
Ġà¦¹ à¦°à¦ª
à¦¥ à¦£
à¦ĵ à¦·
Ġà¦ĩ à¦ľà¦®
Ġà¦Ĩà¦ķ à¦¬à¦°à¦ķ
Ġà§©à§¬ à§¬
Ġà¦Ĺà¦ł à¦¨à¦ķ
Ġà§ªà§© à§ª
à¦® à¦ķà¦²
à¦ĩ à¦ĵà¦°
à¦ı à¦²à¦ª
Ġà¦īà¦ª à¦¸à¦®
à¦ĺ à¦²à¦¦
à¦ķà¦¤ à¦Ł
Ġà§©à§¬ à§§
Ġà¦Ĩà¦ļà¦°à¦£ à¦Ĺà¦¤
Ġà§ªà§¬ à§®
Ġà¦«à¦²à¦¨ à¦¶
à¦¤ à¦¹à¦¤
à¦Ń à¦«à¦²
Ġà¦ī à¦¥à¦²
Ġà¦§ à¦¬à¦²
à¦²à¦ķ à¦ļ
à¦ħ à¦ļ
Ġà§©à§® à§¬
Ġà§®à§¯ à§¦
Ġà¦¨à¦Łà¦° à¦¡
à¦Ĩà¦²à¦® à¦Ĺ
à¦ĩ à¦²à¦¨
à¦£ à¦£
à¦ĩà¦² à¦¬
Ġà§¯ à§§à§¦
Ġà¦Ĩà¦ĩ à¦ĩ
Ġà¦Ĩà¦« à¦¨
Ġà§«à§ª à§©
Ġà¦ ŀ
à¦¸ à¦¯à¦¨
Ġà¦® à¦ĵà¦¸
Ġà¦ķà¦° à¦°
Ġà¦ľ à¦®à¦¬
à¦Ĩ à¦ķà¦°
Ġà§©à§ª à§ª
à¦§ à¦°à¦¤
Ġà¦ī à¦ĵà¦°
Ġà¦ħà¦° à¦¨
à¦ĩà¦² à¦ĵ
à¦·à¦ķ à¦¦à¦²
Ġà§Ń à§§à§«
Ġà§ªà§¦ à§©
à¦¥à¦ª à¦°à¦¤
à¦¨ à¦ļà¦²
à¦¸ à¦¤à¦¨
à¦¹ à¦Ļ
à¦¸à¦¨ à¦Ł
Ġà§¦ à§§à§«
Ġà¦Ĩà¦ª à§İà¦ķ
Ġà¦Ĭ à¦¨à¦¸à¦¤
Ġà§Ńà§® à§¦
Ġà§§à§®à§Ń à§¯
Ġà¦¬à¦ĸ à¦¶
à¦² à§ľ
à¦ļ à¦®à¦¨
Ġà§©à§« à§¨
Ġà¦¨à¦¨ à¦ıà¦®à¦ª
Ġà¦Ĩà¦ĩà¦ıà¦¸ à¦ĵ
Ġà¦¤ à¦¹à¦¸
à¦ļ à¦Ĺà¦¤
Ġà¦Ĩà¦° à¦¹
à¦°à¦¥à¦® à¦¸
Ġà¦«à¦² à¦Ĺ
à¦¹à¦² à¦Ń
Ġà§©à§« à§¦à§¦
à§§à§¯à§® à§¨
Ġà¦ķ à¦¨à¦°
à¦¤à¦® à¦¬
à¦¹à¦² à¦¦
Ġà§ªà§¨ à§Ń
Ġà§ªà§ª à§Ń
Ġà§¬à§ª à§¨
à¦¤ à¦ķà¦Ł
à¦ľ à¦ĺ
à¦ī à¦¸à¦ķ
à¦²à¦¨ à¦ķà¦ķ
Ġà¦Ĩà¦ķ à§ľ
à¦¬à¦ķ à¦¸à¦¹
Ġà¦ķà¦¨ à¦®
à¦¶à¦° à§İ
Ġà§ªà§ª à§«
à¦¨ à¦ªà¦ķ
Ġà¦¬ à¦°à¦ķà¦²
Ġà¦Ĩà¦¸ à¦ª
à¦¨à¦¬ à¦¹
à¦ĩà¦ª à¦Ĺ
à¦¬à¦ľ à¦Ĺà¦¤
à¦¤ à§İà¦ķ
Ġà¦¹ à¦°à¦¦
à¦°à¦® à¦¶à¦ķ
à¦¨à¦®à¦¨ à¦¸
Ġà§ªà§ª à§©
Ġà¦Ńà¦Ł à¦Ńà¦Ł
Ġà¦ĸà¦¸ à¦ĸà¦¸
Ġà¦¬ à¦Łà¦¬
à¦¯ à¦¬à¦¨
Ġà¦¤ à¦°à¦£
à¦¹ à¦ļ
à¦£ à¦ķà¦²
Ġà¦ıà¦ķ à¦¡
Ġà§§à§« à§¨à§¦
Ġà§«à§ª à§§
à¦¶à¦§ à¦°à¦¦
à¦· à¦Ĺà¦£
Ġà¦®à¦¨ à¦Ľ
à¦¯à¦® à¦¸à¦¹
Ġà¦Ń à¦®
à¦ı à¦°à¦®à¦§
à¦ļà¦¨ à¦ª
Ġà¦¸à¦¹ à¦¦
à¦¨à§Łà¦¨ à¦¸à¦¹
à¦Łà¦Ĺ à¦£à¦¨
Ġà§§à§ª à§¨à§¬
Ġà§«à§¨ à§©
Ġà§ªà§¯ à§¨
Ġà§§à§®à§« à§¦
à¦Ĳ à¦¶
à¦® à¦Ľà§ľ
à¦ª à¦Łà¦ķ
à¦· à¦«
Ġà¦¹à¦² à¦¨
à¦Ĩà¦ĩ à¦ıà¦«
à¦ªà¦¦ à¦®à¦¨
à¦²à¦Ĺ à¦£
Ġà§©à§« à§®
Ġà§ªà§« à§¨
Ġà§©à§© à§¯
Ġà¦īà¦ĩ à¦ļ
à§§à§¯à§® à§®
Ġà¦ªà¦¦à¦¬ à¦ŀ
Ġà¦Ĩà¦ĩà¦ıà¦« à¦ı
à¦£ à¦ªà¦¶
à¦ı à¦ķà¦ķ
à¦¶à¦¨ à¦Ĺà¦ŀ
à§İ à¦°
Ġà¦ķà¦® à¦¡
Ġà¦Ĺà¦£ à¦ľà¦®
Ġà¦ıà¦¨ à¦ıà¦¸à¦Ĩà¦ĩ
Ġà¦ħà¦ªà¦° à¦ªà¦ķ
à¦¯à¦®à¦¨ à¦¸
Ġà§«à§© à§¦
à¦® à¦¦à¦¨
à¦¡ à¦¹à¦ķ
à¦ī à¦Ń
à¦°à¦ķ à¦¬
à¦¤à¦¬ à¦¦à¦²
à¦ĩà¦ķ à¦¬
Ġà¦ıà¦¨ à¦ľà§Ł
à§§à§¯à§® à§©
Ġà¦¨ à¦¬à¦ķ
à¦ı à¦ıà¦¸
à¦°à¦® à¦Ĺ
à¦°à¦¹ à¦ª
Ġà¦¬à¦¦ à¦¹à¦ľà¦®
à§§à§¯à§Ń à§¯
à¦¹ à¦Ĺà¦¨
à¦ĸ à¦®à¦¨
à¦¡ à¦īà¦ĩà¦ķ
Ġà¦ĩ à¦ĩà¦ĩ
à¦¤à¦° à¦ĸ
à¦¬à¦¨ à¦Ń
à¦¶à¦¨ à¦¸à¦®
à¦ĺ à¦·
à§« à§¦à§¦
Ġà§¬ à§¨à§ª
à¦²à¦¬ à¦¦
Ġà¦ıà¦® à¦ıà¦«à¦ıà¦¸
à¦ķà¦ľà¦¨ à¦ĩ
à¦Ĺà¦¨ à¦ĵà§Ł
Ġà§¬à§Ń à§¦
Ġà§§à§®à§Ń à§§
Ġà§İ à¦¶
Ġà¦ķ à¦ļà¦²
Ġà¦Ł à¦Ĺà¦°
Ġà§© à§¯à§¬
Ġà§©à§« à§©
Ġà§©à§¬ à§¯
à§§à§¯à§Ń à§Ń
à¦¸ à¦¤à¦°
à¦¥ à¦°à¦¸
Ġà¦ĩ à¦¹à¦ķ
Ġà¦ħà¦Ń à¦¦
Ġà¦ľà¦® à¦Ľ
Ġà§®à§Ń à§¦
Ġà¦®à¦°à¦£ à¦¬
Ġà¦¸ à¦Łà¦ķ
Ġà¦¶ à¦Łà¦Ł
à¦¤à¦¬ à¦®
à¦§à¦¨ à¦ĵ
à¦°à¦« à¦Ł
Ġà§©à§® à§¨
à¦°à¦¡ à¦ĵà§Ł
Ġà¦ıà¦¬à¦Ľà¦° à¦ĵ
Ġà§§à§®à§¬ à§¨
à¦¨ à¦ł
Ġà¦¬ à§Łà¦°
Ġà¦¦ à¦ľ
Ġà¦ħ à¦¶à¦°
Ġà¦Ĩà¦° à¦ıà¦¸à¦ª
Ġà¦¯à¦¶ à¦ª
à¦¡ à¦ĵà¦®
à¦¬à¦¸ à¦¹à¦ķ
Ġà¦ıà¦° à¦«
Ġà§« à§§à§¬
Ġà¦ħà¦¬à¦¸ à¦¨
Ġà§¬ à§§à§¯
Ġà¦ıà¦Ĺ à¦ľ
à¦ıà¦® à¦¡à¦¬
à¦¯à¦Łà¦¨ à¦®à¦¨
à¦ıà¦®à¦¨ à¦ĩ
Ġà§¯à§® à§¦
à¦Ľ à¦¸à¦¹
à¦§ à¦ĺ
Ġà§© à§¯à§§
Ġà¦¬à¦¨ à¦¦à¦¸
Ġà§ª à§¯à§®
Ġà¦ıà¦¤ à¦¥
Ġà¦Ĩà¦ĩ à¦ĩà¦¬
Ġà§©à§ª à§®
Ġà§©à§ª à§Ń
Ġà¦§à¦¬ à¦§à¦¬
à¦Ł à¦®à¦°
à§İ à¦ļ
Ġà¦Ĩà§Ł à¦ķ
Ġà¦Ĺà§ľ à¦Ĺà§ľ
Ġà¦ķà¦· à¦Ľ
Ġà§ªà§® à§«
Ġà¦® à¦Ĺà¦°
Ġà¦ĩ à¦ĸà¦¤
à¦ĺ à¦¸à¦¹
Ġà§ª à§¯à§Ń
Ġà¦ªà¦¦ à¦ĵ
à¦¯à¦¤ à¦¤
Ġà¦¸à¦« à¦²à¦ķ
Ġà§©à§® à§§
Ġà¦° à¦¸à¦¬
à¦Ń à¦ĩ
à¦ł à¦ĵ
Ġà¦§ à¦ª
à§İ à¦®
à¦¨à¦¸ à¦ķ
Ġà¦¦à¦¶ à¦°à¦¥
à¦ľà¦¬ à¦ľ
Ġà¦ľ à¦®à¦²
Ġà¦¬à¦ķ à¦¬à¦ķ
à¦Ĺà¦¦ à¦¤
à¦®à¦°à¦£ à¦ķ
Ġà¦®à¦¦ à¦¦à¦¦
Ġà¦®à¦¶ à¦ķà¦°
Ġà§«à§© à§®
Ġà§¬à§® à§§
Ġà¦¨ à¦¨à¦¸
à¦ĵ à¦Ĩà¦ĩà¦ª
à¦¦à¦¨ à¦ĩ
Ġà§¬ à§¨à§¨
à¦¬à¦¦ à¦®
Ġà¦ıà¦ķà¦¦ à¦«
à¦¨à¦ª à¦ŀ
Ġà§©à§Ń à§©
Ġà§©à§Ń à§®
Ġà§ªà§© à§¬
Ġà§¦à§¦à§¦ à§¦
Ġà¦ľà¦Ĺ à¦¦à¦²
Ġà§§à§®à§Ń à§«
à¦¤ à¦ªà¦¤
à¦² à¦ļà¦¤
Ġà¦Ĺ à¦¨à¦¸
Ġà¦Ĩà¦¦ à¦Ń
à¦ĩà¦¸ à¦°à§Ł
Ġà¦¦à¦°à¦ķ à¦·
Ġà§©à§¬ à§©
Ġà¦°à¦ĵ à¦ľ
Ġà§§à§®à§« à§®
Ġà¦ıà¦ķà¦§ à¦°à¦£
à¦¸ à¦Ĩà¦²
à¦Ľ à¦¤à¦²
à¦« à¦²à¦¤
Ġà¦īà¦ª à¦²à¦¦
à¦Ĩ à¦¦à¦°
Ġà¦Ĩà¦Ĺ à¦°
Ġà¦Ĩà¦¨ à¦®
Ġà¦Ĩà§Ł à¦²
Ġà¦Ĩà§Ł à¦®
à¦§à¦¨ à¦¸à¦¹
Ġà¦īà¦ªà¦ķ à¦¥
Ġà§ªà§« à§§
Ġà§©à§® à§Ń
à§§à§¯à§¬ à§¯
à¦²à¦ĸà¦¨ à¦ī
à¦° à¦ħ
Ġà¦ī à¦Ľ
à¦¬à¦° à¦§
Ġà¦ıà¦¸ à¦ıà¦®à¦ª
à¦°à¦¹à¦£ à¦¸à¦¹
Ġà¦Ĩà¦ĩ à¦ıà¦¨à¦ıà¦¸
Ġà¦ķà¦ķ à¦ª
ĠĠĠĠĠĠĠĠ ĠĠĠĠĠ
à¦ıà¦¸à¦Ĩà¦° à¦ıà¦®
à¦Ľ à¦ķà¦ĩ
Ġà¦ķà¦® à¦¦
à¦¦à¦¨ à¦¸à¦¹
Ġà¦¬à¦° à¦ª
Ġà¦¨à§Ł à¦ľà¦¨à¦ķ
Ġà§©à§® à§©
à§§à§¯à§© à§¦
Ġà¦® à¦Ľ
Ġà¦§ à§ľ
à¦ķà¦² à¦°
Ġà§ªà§¦ à§Ń
à¦ĩà¦ī à§Ł
Ġà§«à§« à§«
Ġà§§à§®à§® à§§
à¦ķ à§Łà¦²
à¦Ł à¦¥
Ġà¦¤ à¦¹à¦¶
à¦ķà¦° à¦Ń
à¦·à§Łà¦ķ à¦®à¦¨
Ġà§Ńà§ª à§¦
à¦®à¦ĺ à¦£
Ġà¦ª à¦¯à¦¨
Ġà¦ħ à¦ľà¦¨
Ġà¦Ĩà¦ľ à¦®à¦¤
à¦ĩà¦Ł à¦²
à¦°à¦² à¦®
Ġà§«à§Ń à§®
Ġà¦ĩà¦ķà¦¨ à¦®
à¦ļ à§Łà¦¨
Ġà¦Ł à¦ķà¦Łà¦ķ
à¦¬à¦° à¦°
Ġà¦¬à¦¨ à¦°
Ġà§©à§¬ à§¨
à¦° à¦īà¦¤
à¦² à¦¶à¦¨
à¦¦ à¦¬à¦¨
Ġà¦ı à¦¹à¦¨
à¦°à¦¬ à¦ŀ
Ġà¦ıà¦¸ à¦ıà¦¸à¦¬
à¦Ĺà¦łà¦¨ à¦¸à¦¹
à¦ıà¦ĩà¦ļ à¦ĵ
Ġà§ªà§© à§©
à¦ĩ à¦°à¦¶
à¦¶ à¦°à¦ķ
Ġà¦¨ à¦ľà¦®
Ġà¦īà¦ª à¦¦à¦²
à¦·à¦£ à¦¨
à¦¤à¦® à¦ľ
à¦¬à¦¹ à¦¨à¦ķ
à¦ĩà¦ľ à¦Ł
à¦ħà¦¨ à¦¶à¦¨
à¦ĸà¦¬à¦° à¦Ł
Ġà¦¬ à§İà¦¸
Ġà¦Ń à¦¬à¦¤
Ġà¦ıà¦° à¦°
Ġà§© à§¯à§®
à¦¤à¦¨ à¦¦
Ġà¦¸à¦° à¦«
Ġà§¨à§¦à§¨ à§¬
Ġà§¯ à§¨à§¦
à¦ıà¦® à¦Ĩà¦°à¦¸
Ġà¦¬à¦¹à¦¨ à¦¯
à¦¯à§Łà¦¨ à¦ªà¦¤
Ġà¦ĩà¦īà¦ıà¦¸ à¦ıà¦¸
Ġà§Ńà§¦à§¦ à§¦
à§§à§¯à§® à§Ń
à¦°à¦Ĩ à¦¨à¦ķ
à¦Ľ à¦ĩ
à¦Ĩ à¦¹à¦¸
Ġà§« à§§à§©
Ġà¦ħà¦ª à¦²à¦ķ
Ġà¦ĩà¦īà¦ıà¦¸à¦ı à¦Ĩà¦ĩà¦¡
à¦ĸ à¦¬à¦¨
Ġà¦Ĺ à¦«à¦«
Ġà¦ĩ à¦ĸà¦²
Ġà¦¬à¦² à¦¬à¦¨
Ġà¦Ĩà¦¬ à¦ľ
Ġà¦®à¦¹ à¦²à¦ķ
Ġà¦®à¦¤ à¦ķ
Ġà¦ıà¦² à¦®
Ġà¦ıà¦Ł à¦°
à¦®à¦ķà¦° à¦¨
Ġà¦¦à¦¶ à¦¬
Ġà§¯à§Ń à§¦
Ġà§§à§®à§¬ à§®
Ġà¦Ľ à¦²à¦Ľ
à¦ł à¦ľà¦¨
à¦Ĩ à¦¹à¦¤à¦°
Ġà§ª à§§à§®
Ġà¦Ĩà§Ł à¦ĵ
Ġà¦ıà¦® à¦Ĩà¦°à¦Ĩà¦ĩ
à¦°à¦®à¦£ à¦Ł
à¦ķà¦¨ à¦«
Ġà§©à§¬ à§®
Ġà§®à§ª à§¦
Ġà¦® à¦ļ
à¦Ĺ à¦Ńà¦°
à¦Ń à¦²à¦Ń
Ġà¦Ĺ à¦¡à¦¸
à¦¬à¦° à¦ļ
Ġà¦Ĩà¦¸ à¦«
Ġà¦ıà¦¤ à¦¦à¦¸
Ġà§ªà§© à§«
Ġà¦¹ à¦°à¦¨
Ġà¦ıà¦¸ à¦ĩ
Ġà¦¸à¦¹ à§Łà¦¤
à¦Ĺà¦£ à¦ªà¦°
Ġà§©à§® à§ª
Ġà§ªà§ª à§¨
à§§à§¯ à§¨à§¦
Ġà§¬à§© à§¬
Ġà§Ńà§¯ à§¦
à§§à§¯à§® à§§
à¦¹ à¦°à¦¤
Ġà¦ħ à¦¸à¦²
à¦°à¦¤ à¦Ł
Ġà¦Ĩà¦® à¦ª
Ġà¦ıà¦° à¦®
Ġà§® à§©à§¦
Ġà¦Ŀ à¦Łà¦ķ
Ġà§«à§¦ à§ª
Ġà¦ıà¦Ń à¦°
Ġà§©à§« à§Ń
Ġà¦Ŀà§ľ à¦Ł
Ġà§¯à§© à§¦
à¦Ĺ à¦ľà¦¨
à¦ªà¦¨ à¦Ĺ
à¦°à¦¬ à¦ļà¦¨
à¦ıà¦¸ à¦ıà¦¨à¦ıà¦²
Ġà¦ªà¦¤ à¦ŀ
à¦ıà¦² à¦ĵ
Ġà§¬à§¯ à§¦
Ġà§§à§®à§¬ à§«
à¦¤à¦ķà¦° à¦¨
à¦¤ à¦¸à¦¨
Ġà¦Ń à§ľà¦ķ
Ġà¦ī à¦¨à¦¬
à¦ī à¦ıà¦«à¦ª
à¦ı à¦¨à¦ķ
à¦¬à¦¨ à¦Ĺ
Ġà§ª à§¯à§«
Ġà¦ķà¦² à¦°
à¦Ĺà¦² à¦ľà¦¨à¦ķ
Ġà¦¨à¦¬ à¦¯
à¦Ĺà¦¦ à¦ĸà¦²
à¦Ī à¦¦à¦ķ
Ġà§Ńà§ª à§Ń
à§§à§¯à§Ń à§¬
à¦ķà¦¡ à¦ĩà¦¨
Ġà¦ļ à¦ªà¦²
à¦°à¦£ à¦¹
Ġà¦¹à¦² à¦«
Ġà¦ĩà¦¨ à¦«à¦°
à¦ıà¦¨ à¦ıà¦«
Ġà§ªà§« à§Ń
à¦ķ à¦®à¦¨
à¦Ĺ à¦®à¦¤
Ġà¦Ľ à¦Ĺ
à¦ł à¦¤à¦²
à¦ī à¦Ĩà¦°
Ġà¦ıà¦ĩ à¦¸
à¦°à¦ľà¦¨ à¦¨à¦ķ
à¦¬à§Ł à¦¬
Ġà§©à§® à§®
Ġà§®à§¬ à§¦
Ġà¦īà¦ªà¦ķà¦°à¦£ à¦Ĺ
Ġà¦¦à¦®à¦ķà¦² à¦ķà¦°
Ġà¦¤à§İà¦¸ à¦®
Ġà¦Ŀà¦¨ à¦Ŀà¦¨
à¦¨ à¦Ĩà§Ł
à¦¸ à¦ķà¦Ł
à¦ľ à¦«
Ġà¦Ĺ à¦°à¦¹
Ġà¦ī à¦ĩà¦ª
Ġà¦ıà¦° à¦¨
Ġà§¬ à§¨à§®
Ġà¦ĸà¦¬à¦° à¦Ĺ
Ġà¦īà§İà¦¸ à¦Ĺ
Ġà§¬à§¦ à§¬
Ġà§ªà§¬ à§«
Ġà¦°à¦¤à¦¨ à¦ª
à¦ıà¦¸à¦Ĩà¦ĩ à¦Ĩà¦°
Ġà¦¬ à¦¶à¦¤
à¦ļ à§Łà¦ķ
à§ľ à¦¸à¦¹
Ġà¦īà¦ª à¦¢
Ġà¦ħà¦¸ à¦®à¦¤
Ġà§¬ à§§à§«
Ġà¦Ĩà¦ĩ à¦Ĩà¦ĩ
Ġà¦ĺà¦¨ à¦ĺà¦Ł
Ġà¦ļà§ľà¦ķ à¦Ĺ
Ġà¦§ à¦®
Ġà§« à§¯à§«
à¦«à¦² à¦Ł
à¦ļà§Ł à¦ĵ
Ġà§ªà§© à§¨
Ġà§«à§ª à§«
à¦§ à¦®à¦¨
à¦§ à¦¬à¦ķ
à¦ĸ à¦ľ
Ġà¦ī à¦¡à¦¸
Ġà¦Ĩà¦° à¦¬à¦ķ
Ġà§ª à§§à§§
à¦®à¦¸ à¦°
Ġà¦īà¦² à¦Ń
à¦°à¦« à§İ
à¦¨à§Ł à¦Ł
à¦¥à¦² à¦ªà¦¥
à¦¤à¦² à¦ª
Ġà¦īà§İà¦¸ à¦¸
Ġà§ªà§« à§®
Ġà§©à§¬ à§Ń
Ġà§ªà§¨ à§ª
Ġà§¬à§¬ à§¬
Ġà§¯à§« à§«
Ġà§Ńà§Ń à§¦
à§§à§¯à§¬ à§Ń
à¦¨ à¦ĩà§Ł
à¦ĩ à¦Ĩà¦Ł
à¦Ľ à¦Ľ
Ġà¦¦ à¦¹
à¦ļ à¦«
Ġà¦¥ à¦ĩ
à¦ī à¦¸à¦®
à¦ı à¦ķà¦¸à¦Ļ
Ġà§¬ à§¨à§§
à¦Łà¦ķ à¦®
à¦®à¦ķ à¦¥
à¦īà¦¸ à¦Ĺ
Ġà§Ńà§© à§®
à¦® à¦Ĩà¦°
Ġà¦® à¦ĩà¦¦
Ġà§ªà§¨ à§©
à¦²à¦ļ à¦²à¦¨
Ġà¦°à¦£ à¦§
à¦° à¦īà¦¡
à¦¨ à¦¹à¦¤
à¦® à¦«à¦²
à¦¸ à¦ľà¦²
Ġà¦Ĩà¦° à¦ļ
à¦Ĩà¦ĩ à¦ıà¦¸à¦ıà¦«
Ġà§«à§¦ à§¨
Ġà¦°à¦Ļ à¦Ł
Ġà¦ľà¦Ĺà¦¤ à¦ķ
Ġà§§à§®à§¬ à§©
à¦ħà¦ª à¦¹à¦°à¦£
à¦ıà¦«à¦Ĩà¦ĩ à¦ĩà¦ī
à¦°à¦īà¦ĩà¦ķ à¦¶
à¦¤à¦° à¦¸à¦¹
à§Łà¦¨ à¦°à¦¤
à¦¯à¦ķ à¦¤
Ġà¦ıà¦¨ à¦ĵà§Ł
à¦·à¦¤ à¦¸
à¦ıà¦ķ à¦ªà¦°
Ġà¦¸à¦«à¦² à¦ĵ
Ġà§ªà§Ń à§§
à§§à§¯à§® à§«
Ġà¦¬à¦°à¦ķ à¦¤à¦®à§Ł
à¦ļ à¦ķà¦¤
à¦ī à¦ıà¦«
Ġà¦¬à¦° à¦ĩ
à¦¬à¦² à¦Ł
à¦¸à¦Ł à¦ª
Ġà¦ĭ à¦¤à¦¬
à¦ľà¦¦ à¦°à¦¬
Ġà§¬à§¬ à§ª
Ġà§¬à§© à§ª
à§§à§¯à§¬ à§¬
Ġà¦¬à¦°à¦¬ à¦Ł
à¦¸ à¦Ĺà§ľ
à¦ĩ à¦īà¦¡
à¦Ĺ à¦ĩà¦¨
à¦¥ à¦¨à¦ĵ
Ġà¦Ĩà¦¸ à¦ĵà§Ł
Ġà§© à§¯à§Ń
Ġà¦ħà¦¬ à¦Ĺ
à¦°à¦¨ à§Łà¦¨
Ġà¦ĵà¦ĩ à¦Ń
à¦°à¦° à¦ŀ
Ġà§¬à§¬ à§«
Ġà§¬à§© à§«
Ġà§®à§¦à§¦ à§¦
Ġà§§à§®à§¬ à§Ń
à¦¥ à¦Ļ
à¦ĵ à¦¶
Ġà¦¥ à¦®à¦¸à¦¨
à¦ł à¦ĸà§ľ
à¦²à¦ķ à¦Ĺ
Ġà¦Ĩà¦¨ à¦ĵà§Ł
à¦¬à¦² à¦¹
à¦ħ à¦¬à¦°
Ġà§«à§¦ à§¬
à¦ķà¦¶ à¦¤
Ġà¦®à¦Ĺ à¦§
Ġà¦ıà¦®à¦ıà¦² à¦ı
Ġà¦ļà¦Łà¦ķ à¦¦
à¦¨ à¦¶à¦¤
Ġà¦¬ à¦ľà¦¬à¦ľ
à¦¦ à¦¯à¦ª
à¦¡ à¦ıà¦®
Ġà¦ħà¦Ń à¦¬
à¦¨à¦¬ à¦ķà¦²
Ġà¦Ĩà¦ĩ à¦Ĩà¦°à¦¸
à¦Łà¦¸ à¦Ļ
Ġà§ªà§¨ à§¬
Ġà§§à§Ńà§« à§Ń
à¦ķ à¦ªà¦Ł
Ġà¦ıà¦¬ à¦¤
à¦ĩà¦¡ à¦¬
Ġà§§à§®à§Ń à§Ń
à¦® à¦Ĺà¦¤à¦Ń
Ġà¦ķ à¦²à¦¤
à¦ĵ à¦ªà¦°
Ġà¦Ĺ à¦¨à¦¤
Ġà¦ĵ à¦®à¦¨
à¦Ĺà¦° à¦°
Ġà¦ıà¦¨ à¦ıà¦ĩà¦ļ
à¦īà¦ľ à¦«
Ġà§ªà§¨ à§§
Ġà§ªà§¬ à§ª
Ġà§«à§ª à§ª
Ġà§Ńà§Ń à§«
à¦ıà¦¨à¦ı à¦¨à¦ķ
à¦¨ à¦¸à¦°
Ġà¦¨ à¦¡
Ġà¦¤ à¦Łà¦¸
à¦ĸ à¦®à§Ł
à§ľ à¦¸à¦®
Ġà¦Ń à¦Ĺà¦¤
Ġà¦ĩ à¦¦à¦²
Ġà¦Ĩà¦¨ à¦Ł
Ġà§« à§§à§«
Ġà§ª à§¯à§¬
à¦®à¦¤ à¦ĵ
à¦§à¦¨ à¦Ĺ
à¦ıà¦® à¦ıà¦¸à¦ıà¦¸
à¦īà¦ľ à¦Ĺ
Ġà¦®à¦ľ à¦¦
à¦ĩà¦Ń à¦Ł
à¦®à¦£ à¦ķ
à¦®à¦°à¦¤ à¦¦
à¦¸à¦Ĺ à§Ŀ
Ġà§¬à§© à§®
Ġà§¯à§ª à§¦
à¦¬à¦¹à¦£ à¦®à¦¨
Ġà¦ªà¦ļà¦¨ à¦¶
à¦Ĺ à¦Ĩà¦īà¦Ł
à¦®à¦¤ à¦¸à¦¹
Ġà§® à§¨à§«
Ġà¦Ŀ à¦°à¦¤
Ġà¦ªà¦¥ à¦¯
à¦¯à§Ł à¦ĵ
Ġà§ªà§« à§ª
Ġà§ªà§¨ à§¨
Ġà§ªà§© à§§
Ġà§ªà§¬ à§¬
Ġà§®à§ª à§®
Ġà¦¸à§İ à¦Ń
à¦¦ à§Łà¦Ĺ
à¦ª à¦Łà¦Ĺ
à¦· à¦¤à¦¨
à¦ī à¦¬à¦²
à¦°à¦® à¦ĩ
à¦°à¦® à¦¥
Ġà§© à§¯à§©
à¦¤à¦¨ à¦ĩ
Ġà¦Ĩà¦ĩ à¦Ĩà¦°à¦ľ
Ġà§ªà§¬ à§¨
Ġà§¬à§Ń à§«
à¦® à¦¬à¦°
Ġà¦¸ à¦²à¦Ń
Ġà¦ªà¦° à¦ļ
Ġà¦ĩà¦¨ à¦ķà¦°
Ġà§Ń à§§à§Ń
Ġà§¦ à§§à§¦
à¦ĩà¦ī à¦®
Ġà§ªà§® à§®
Ġà§ªà§© à§®
Ġà¦ıà¦®à¦ĵ à¦ĩà¦ī
Ġà¦¤ à¦¸
Ġà¦¸à¦® à¦®à¦°
Ġà¦ĸ à§İà¦¨
à¦°à¦® à¦¸
à¦°à¦¶ à¦ª
à¦Ńà¦¬ à¦ĵ
Ġà¦ªà¦¶ à¦²
Ġà¦Īà¦¦ à¦¯
à¦Ī à¦«
Ġà¦Ľà¦²à¦Ľ à¦²
à¦£ à¦°à¦¸
Ġà§© à§¯à§ª
à¦²à¦¨ à¦ĩ
Ġà¦Ĩà¦ľ à¦°
à¦ķà¦Ń à¦°
à¦²à¦Ł à¦²
Ġà§ªà§® à§§
à§§à§¯à§Ń à§®
Ġà¦ĸà§ľà¦¦ à¦¹
à¦° à¦¥à¦²
à§ľ à¦¨à¦ķ
Ġà¦ıà¦ķ à¦ĺà¦£
à¦ł à¦ļà¦ķ
à¦·à¦£ à¦ľà¦¨
Ġà§¬ à§§à§®
Ġà§¬ à§§à§©
à¦ħ à¦¡
Ġà§Ńà§« à§¨
Ġà¦Ĩà¦Ĺà¦®à¦¨ à¦ķ
Ġà¦¬ à¦¤à¦¸
à¦ª à¦¬à¦¤
à¦Ĩ à¦¨à¦¸
à¦ĩà¦² à¦¸à¦¹
à¦°à§Ł à¦¡
Ġà§§à§® à§©à§¦
à¦²à¦Ĺ à¦ķ
Ġà§Ńà§¦ à§¨
Ġà§¬à§© à§©
à¦®à¦¸à¦¨ à¦¦
à¦ķ à¦¤à¦¨
à¦² à¦£
Ġà¦īà¦ª à¦ķà¦°à¦¨
Ġà¦®à¦¨ à¦ĵ
à¦īà¦¨ à¦¶
à¦°à¦¦ à¦Ł
Ġà¦ĩà¦¨ à¦Ĺ
Ġà¦Ĩà¦ĩ à¦¶
Ġà¦¯à¦¤ à¦ĸ
Ġà¦īà§ľ à¦²
à¦²à¦ĩ à¦¸à¦²
à¦Łà¦ķà¦² à¦Ĺ
à¦¤ à¦¤à¦ķ
à¦² à¦¡à¦¨
Ġà¦ª à§Łà¦¦
à¦ľ à§Łà¦¦
à¦°à¦£ à¦¨
Ġà¦īà¦¦ à¦¦
Ġà¦ıà¦² à¦Ń
Ġà§¬ à§§à§ª
Ġà§¬ à§¯à§«
Ġà§§à§¦ à§§à§«
à¦®à¦ķ à¦®
Ġà§ªà§« à§«
Ġà§ªà§¨ à§®
à¦ıà¦¸à¦ıà¦®à¦ıà¦® à¦ĩà¦īà¦°
à¦ıà¦¸à¦ıà¦®à¦ıà¦® à¦ĩà¦īà¦¤
à¦° à¦²à¦¨
à¦ķ à¦ĵà¦Ń
Ġà¦¹ à¦ĩà¦¹
Ġà¦¨ à¦¦à¦¨à¦¦
à¦· à¦°à¦Ĺ
Ġà¦¶ à¦·
à¦¬à¦¨ à¦Ńà¦°
à¦ħ à¦¹
Ġà§ªà§¦ à§ª
Ġà§ªà§¦ à§®
Ġà§«à§¨ à§¨
Ġà§«à§® à§¨
Ġà¦Ĩà¦ĩà¦ıà¦« à¦Ĩà¦ĩà¦¸
à¦¤ à¦Ľà§ľ
Ġà¦¹à§Ł à¦ĩ
Ġà¦ªà¦° à¦·
Ġà¦ªà¦° à¦ĵà§Ł
Ġà¦Ł à¦ªà¦¸
à¦Ĩ à¦²à¦«
Ġà¦®à¦¤ à¦²
Ġà¦Ĺà¦² à¦¸
à¦łà¦ķ à¦ĸ
à¦Ĺà¦® à¦¸à¦¹
à¦¯à¦ª à¦¥
Ġà§ªà§Ń à§¬
à§§à§§à§ §à§
Ġà¦¸ à§İà¦¸
Ġà¦ı à¦Ĺà¦°
à¦ļ à¦¬à¦°
Ġà¦īà¦¦ à¦¬
Ġà¦ĩà¦ī à¦¹
à¦¯à¦¤ à¦¦
à¦ıà¦² à¦ıà¦«
Ġà§ªà§« à§¯
à¦ıà¦ĸà¦¨ à¦ĩ
à¦¸ à¦·
à¦Ĺ à¦Ĩ
Ġà¦ªà¦° à¦®à¦¹
à¦¨à¦¨ à¦ķ
à¦Ĺà¦² à¦°
Ġà¦ľà§Ł à¦§
Ġà¦ķà¦¤ à¦ľà¦¨à¦ķ
Ġà¦ħà¦² à¦Ł
Ġà¦Ńà¦¬à¦¨ à¦¸à¦¹
à¦°à¦ľà¦¨ à¦ĩ
Ġà§ªà§® à§©
à¦¬à¦® à¦ŀ
à¦®à¦Ľ à¦®
Ġà§Ńà§ª à§©
Ġà¦ĩà¦®à¦¨ à¦ķ
Ġà§§à§®à§Ń à§ª
Ġà¦īà¦Ń à¦ļà¦°
Ġà¦ķà¦° à¦Ł
à¦ļ à¦°à¦¨
Ġà¦° à¦²
Ġà¦Ľ à¦°
Ġà¦Ĩà¦® à¦¡
à¦ī à¦ĵ
à¦ī à§İà¦¸à¦°
à¦¸à¦¬ à¦ĩ
Ġà¦ıà¦® à¦Ĩà¦°à¦Ł
à¦°à¦ľ à¦¬
Ġà¦Ĩà¦Ł à¦¦
Ġà§ªà§¨ à§¯
Ġà¦Łà¦² à¦®à¦²
Ġà§§à§®à§¬ à§¬
Ġà¦¡à¦ľà¦¨ à¦ĸ
à¦¨ à¦ªà¦°
à¦®à¦¨ à¦¨
Ġà¦Ĩà¦¸ à¦¹
à¦¨à¦¸ à¦Ļ
Ġà¦Ĺà¦£ à¦ªà¦¤
à¦¨à§Łà¦¨ à¦®à¦¨
Ġà§Ńà§¦ à§¬
Ġà¦¯à¦¶ à¦¬à¦¨
Ġà§©à§¯ à§¨
Ġà§«à§© à§«
Ġà§«à§® à§«
à¦¯à¦Łà¦ķ à¦ķ
à¦°à¦ķ à¦Ĺ
Ġà¦ķà¦® à¦¸
à¦īà¦¨ à¦Ĺ
Ġà¦īà¦ªà¦ľ à¦²
à¦²à¦¬ à¦£
Ġà¦īà¦¤ à¦ª
Ġà¦Ĩà¦ĩ à¦ĵà¦Ł
Ġà§ªà§¦ à§¨
Ġà§ªà§« à§¬
à¦£à¦Ĺ à¦¹
à¦ľ à¦Ĩà¦ª
à¦ľ à¦«à¦«
Ġà¦ĸ à¦¬à¦°à¦ķ
à¦ī à¦¤à¦²
à¦ªà¦° à¦ªà¦°
à¦¶à¦¨ à¦°
Ġà¦ıà¦¸ à¦ıà¦²
Ġà¦Ŀ à¦®
Ġà§¬à§ª à§©
à¦īà¦ª à¦®à¦¹
Ġà¦¶à§Łà¦¨ à¦ķà¦ķ
à¦¯ à¦¸à¦¨
Ġà¦® à¦²à¦¤
Ġà¦¯ à§İà¦¸
Ġà¦ļ à¦°à¦¸
Ġà¦ĩ à¦ıà¦®à¦Ĩà¦ĩ
Ġà¦ĸ à¦ľà¦¨à¦ķ
à¦Ļ à¦ķ
Ġà¦ĺ à¦·à¦¤
Ġà¦Ĩà¦² à¦ª
Ġà¦¸à¦¨ à¦®
à¦¥à¦² à¦¸
Ġà§ªà§® à§¯
Ġà¦Ķ à¦°à¦Ļ
Ġà¦®à¦¦à¦¨ à¦®
Ġà§§à§®à§« à§ª
Ġà§§à§®à§ª à§¦
à¦ķ à¦Ĩ
à§Ł à¦Łà¦¸
Ġà¦® à¦Łà¦ķ
à§ľ à¦§à¦¸
Ġà¦ļ à¦°à¦¨
à§Ĥ à¦ĥ
Ġà¦ıà¦² à¦ıà¦¸
à¦°à§Ł à¦¹
à¦¨à¦¬ à¦Ľà¦°
Ġà§¦ à§§à§©
Ġà¦ıà¦® à¦ıà¦ĩà¦ļ
Ġà¦Ī à¦·à§İ
Ġà¦®à§İà¦¸ à¦ľ
à¦¦ à¦°à¦¸à¦®
à¦Ł à¦¤à¦®
à¦Ł à¦°à¦¸à¦¹
à¦ĩ à¦ıà¦«
à¦¹ à¦Ĩà¦²à¦®
à¦ı à¦®à¦¤
Ġà§« à§§à§Ń
à¦¸à¦¨ à¦Ĺ
à¦«à¦² à¦Ĺ
Ġà¦ľà¦² à¦®à¦¹
Ġà§ªà§ª à§®
Ġà¦ĩà¦īà¦ıà¦¨à¦ĵ à¦ķ
à¦¨ à¦¸à¦ª
à¦¸ à¦¶à¦¸
Ġà¦° à¦¨à¦¬
Ġà§« à§¯à§©
Ġà§ª à§§à§¯
à¦ĩà¦² à¦Łà¦¦
à¦Ĺà¦łà¦¨ à¦ĵ
Ġà§¬à§¦ à§¨
Ġà¦¨à§Łà¦¨ à¦¤
Ġà¦ħà¦ªà¦¹ à¦°à¦¨
Ġà¦ķ à¦¸à¦®à¦¸
Ġà¦¦ à¦«à¦¤à¦°à¦ķ
Ġà¦¤ à¦°à¦¤à¦°
à¦¹ à¦²à¦ķ
à¦ĩà¦¨ à¦¹
à¦ĩà¦° à¦«
Ġà¦Ĩà¦ĩà¦¨ à¦¸à¦®
à¦ıà¦ĩ à¦¤
Ġà¦ıà¦« à¦Ĩà¦°
à¦² à¦¹à¦¤
à¦ª à¦¸à¦ķ
à¦¯à¦¬ à¦ļ
Ġà§¬ à§§à§¬
à¦¶à¦ķ à¦ĵ
à¦²à¦® à¦£
Ġà¦Ĩà§ľ à¦ļ
Ġà§ªà§® à§¬
Ġà¦ļà§ľ à¦²
Ġà¦Ĩà¦ªà¦¤ à¦¤
à¦ª à¦Ĺà¦¤
Ġà¦ħ à¦ķà¦°
à¦Ĩ à¦²à¦ľ
à¦°à¦¸ à¦ľ
Ġà¦ķà¦² à¦°à¦¬
Ġà§Ń à§¨à§ª
Ġà¦Ĩà¦¤ à¦ª
Ġà¦ıà¦® à¦ıà¦¨
à¦Ĩà¦ĩ à¦ĩà¦ī
Ġà¦ľà§Łà¦¨ à¦¬
Ġà¦Ńà¦Ĺ à¦¬à¦¤
Ġà¦¤à¦°à¦ľ à¦®
Ġà¦ķ à¦ĩà¦¬
à¦¶ à¦¤à¦°
à¦Ń à¦°à¦¨
Ġà¦¬à¦² à¦¬à¦¤
Ġà¦Ĩà¦¨ à¦ª
à¦²à§Ł à¦¬
à¦¬à¦¬ à¦¤
Ġà¦Ĺà¦£ à¦¸à¦ļ
Ġà§«à§¬ à§ª
Ġà§Ńà§® à§¯
à¦ĭ à¦·
à§§à§¯à§¬ à§¨
Ġà¦ĵ à¦°à¦ļ
à§İ à¦ªà¦¦
à¦°à¦¸ à¦¸
à¦ªà¦Ł à¦²
Ġà§ªà§© à§¯
à¦Ĭ à¦¦
à¦° à¦Ĺà¦°
Ġà¦¸ à¦¸à¦®
à¦¸ à¦°à¦¸
à¦Ł à¦ľà¦¨à¦¦
à¦¶ à¦²à¦ķ
Ġà¦¨ à¦°à¦¨
à¦ļ à¦ķà¦²
Ġà¦¯ à¦¬à¦¨
Ġà¦ļ à¦¨à¦®à¦¨
Ġà¦ıà¦ĩ à¦ľ
à¦Ĩ à¦¦à¦®
à¦¦à¦ķ à¦ĵ
Ġà¦Ĺà§ľ à¦®
à§Łà¦Ĺ à§ľ
Ġà¦ĵà¦ł à¦¬
Ġà¦Ĩà¦īà¦Ł à¦«
Ġà§ªà§© à§Ń
Ġà§ªà§ª à§ª
Ġà§«à§¨ à§§
à¦° à¦īà¦²
Ġà¦ķ à¦¡
Ġà¦Ľ à¦¹
à¦¬à¦¸ à¦Ń
Ġà§« à§§à§ª
à¦¬à¦² à¦¦
Ġà¦ħà¦¸ à¦«à¦²
à¦Łà¦ķ à¦°à¦£
Ġà¦¬à§ľ à¦ķ
Ġà¦¬à§Łà¦¸ à¦ĵ
à¦Ĺà¦¨ à¦ľ
Ġà§©à§® à§¯
Ġà§ªà§ª à§§
à¦ıà¦ķà¦¦ à¦®
Ġà¦¬à¦ľà¦° à¦Ļ
à¦¹ à¦ķà¦¸
à¦¡ à¦ķà¦°
à¦¡ à¦¸à¦°
Ġà¦Ľ à¦ľà¦¨
à¦« à¦¹
Ġà¦ĺ à¦°à¦¨
Ġà¦ķà¦¥ à¦ķ
Ġà§« à§¯à§¯
à¦¸à¦² à¦®à¦¨
à¦ĩà¦ķ à¦Ĩà¦ª
Ġà¦Ĩà¦ĩ à¦ľà¦²
Ġà¦ķà¦¨ à¦ķà¦°
Ġà§¨à§¨ à§¦à§¦
à¦¨à¦Ĺ à¦¦
à¦Łà¦¬ à§ľ
Ġà¦¬à¦¦à¦° à¦ª
à¦°à¦£à§Ł à¦§à¦°
à¦ķ à¦īà¦¡
à¦Ł à¦²à¦¸
à¦¯ à¦ªà¦¤
Ġà¦ı à¦²à¦¨
Ġà¦¨ à¦īà§Ł
à¦ĵ à¦ĸ
Ġà¦ī à¦ĩà¦¡
Ġà¦Ĩà¦° à¦¬à¦¸à¦¹
Ġà¦ķà¦® à¦ķ
Ġà§¬ à§¨à§¬
Ġà¦Ĩà¦ª à¦¦à¦ķ
Ġà¦Ĩà¦ĩà¦ıà¦¸ à¦Ĩà¦ĩà¦ıà¦¸
Ġà§¦à§§à§Ńà§§à§© à§©à§Ń
à¦ľ à¦ķà¦ķ
à¦¥ à¦°à¦Ĺ
Ġà¦Ł à¦²à¦Łà¦²
Ġà¦īà¦ª à¦²
Ġà¦ıà¦¸ à¦¬à¦ķ
à¦¨à¦¬ à¦°à¦£
Ġà§«à§¦ à§Ń
Ġà¦ıà¦ľ à¦¹
à§§à§¯à§¬ à§§
à§§à§¯à§« à§ª
à§Łà¦®à¦¬ à¦¹
Ġà¦ļ à¦²à¦ķ
à¦¡ à¦ļ
Ġà¦Ľ à¦ª
à¦ī à¦·
à¦ĩà¦¨ à¦Ĺà¦°
à¦¦à¦ķ à¦¤
Ġà§¬ à§¨à§©
à¦ķà¦¦ à¦«
Ġà¦¬à¦¸ à¦ķ
à§Łà¦ķ à¦ĩ
Ġà§Ńà§¦ à§«
à§Ŀ à¦ļ
Ġà§¯à§Ń à§«
à¦Ł à¦ĺ
à¦Ł à¦¸à¦¬
à¦¯ à¦¤à¦ķ
Ġà¦® à¦¦à¦¸à¦¹
Ġà¦ľ à¦Ĺà¦®
Ġà¦ľ à¦ľà¦ķ
à¦ļ à¦ķà¦Ł
Ġà¦Ĺ à¦²à¦¨
Ġà¦ĵ à¦Łà¦¸
à¦ī à¦ıà¦®
à¦ĺ à¦¨à¦¤
à¦¤à¦¨ à¦ľà¦¨
à¦°à§Ł à¦ķà¦°
à¦īà¦¡ à¦¸
Ġà§ªà§ª à§¬
Ġà¦¨à¦ĵ à¦®
Ġà§¬à§® à§¨
Ġà¦Ń à¦ľ
Ġà§ª à§¯à§ª
à¦¯à¦® à¦ĵ
Ġà§¬ à§¯à§ª
à¦°à§Ł à¦ª
Ġà§® à§§à§«
Ġà§® à§§à§ª
Ġà§ªà§¬ à§Ń
Ġà§®à§© à§«
Ġà¦Ĩà¦ī à¦¶à¦Ĺ
à¦¸ à¦¸à¦ķ
à¦ĵ à¦ĩà¦¦
Ġà¦² à¦ĩà¦¤
à¦ī à¦°à¦®
à¦°à¦¸ à¦°à¦®
Ġà§«à§Ń à§«
à§§à§¯à§¬ à§«
à¦¤ à¦¬à¦¨
Ġà¦¸ à¦ĩà¦Ľ
à¦Ł à§Łà¦¨
Ġà¦¹ à¦Ĺ
à¦§ à¦°à¦ķ
à¦£ à¦Ńà§Ł
Ġà¦Ĩà¦® à¦²à¦¨
à¦®à¦¨ à¦¬à¦®
à¦Ĩ à¦²à¦¬
Ġà¦Ĩà¦Ĺ à¦¤à¦¦
Ġà¦¹à¦² à¦ĵ
à¦¸à¦® à¦®
Ġà¦ħà¦« à¦¶
Ġà¦¸à¦¹à¦ľ à¦¬
Ġà§Ńà§¦ à§Ń
Ġà§«à§« à§¨
Ġà¦®à¦¦ à¦¤à¦ª
Ġà§ªà§Ń à§©
Ġà§Ńà§« à§®
Ġà§«à§© à§¨
Ġà§®à§¬ à§«
Ġà¦Łà¦¹à¦² à¦°à¦¤
Ġà§§à§®à§« à§¬
à§Ł à¦¸à¦®
à¦® à¦¹à¦®
Ġà¦¬ à§Łà¦ķ
à¦¯ à§Łà¦ķ
à¦£ à¦Ĺà¦ŀ
Ġà¦ıà¦° à¦ª
Ġà§« à§¯à§ª
Ġà§ª à§¯à§©
à¦®à¦¤ à§İà¦ªà¦°à¦¤
Ġà¦Ĩà§Ł à¦¬à¦¹
à¦¦à¦² à¦Ĺ
Ġà§§à§§à§ ¯à§
à¦¬à¦® à¦¹à¦²
Ġà§ªà§Ń à§¨
Ġà¦Łà¦¨ à¦Łà¦¨
à¦ĸ à¦§
Ġà¦¯ à¦¤à¦¨
à¦« à§Łà¦¸
Ġà¦Ĩà¦® à¦ķ
à§İ à¦²
à¦Łà¦¨ à¦Ł
Ġà¦Ĩà¦Ľ à¦®
Ġà§¬ à§¨à§Ń
Ġà§Ń à§§à§¨
à¦ħ à§Ł
Ġà¦ľà¦¨à¦Ĺà¦£ à¦ĵ
Ġà¦¸à¦« à¦°à¦¸
Ġà¦¨à¦ĵ à¦¹
Ġà§¬à§® à§©
à§§à§¯à§« à§¬
à¦¬ à§Łà¦®
à¦ĩ à¦ħà¦ķ
à¦Ń à¦¯
Ġà¦Ĩà¦° à¦¨
à¦ļà¦¨ à¦¸à¦¹
Ġà¦Ŀ à¦°à¦²
à¦¤à¦¤ à¦²
Ġà¦ıà¦¡ à¦®à¦¨
Ġà§ªà§« à§©
à¦¬à¦ľà¦¨ à¦¬
Ġà§«à§« à§®
Ġà§®à§Ń à§«
à§§à§¯à§« à§®
Ġà¦ıà¦®à¦ıà¦² à¦ıà¦®
Ġà¦Ĩ à¦ĵ
Ġà¦ľ à¦Ĺà¦ľ
Ġà¦¶ à¦¬à¦¦
Ġà¦ī à¦¡à¦²
à¦ı à¦²à¦ķ
à¦¬à¦¸ à¦Ĺ
Ġà¦ķà¦® à¦«
Ġà¦¦à¦² à¦¸à¦®
Ġà§¬ à§¯à§Ń
à¦ļà¦² à¦°à¦¤
Ġà¦ªà¦¥ à¦Ĺ
à¦ªà¦¸ à¦Ĺ
Ġà§ªà§® à§Ń
Ġà§«à§ª à§¨
Ġà§«à§© à§§
à¦¶à¦¦ à¦Ń
à¦ıà¦ķà¦¨ à¦ľà¦°
à¦°à§Ł à¦®
Ġà§ªà§ª à§¯
Ġà§«à§Ń à§©
à¦¯à§İ à¦¬
à¦§ à¦¬à¦°
à¦°à¦® à¦²
Ġà¦®à¦¨ à¦¬
à¦¬à¦¬ à¦¹
Ġà§Ń à§§à§§
à¦Ĺà¦łà¦¨ à¦¸à¦®
à¦ªà§ľ à¦Ł
à¦Ĺà¦¦ à¦Ĺ
Ġà§«à§ª à§¯
Ġà§«à§¬ à§©
Ġà¦īà¦ĩà¦¨ à¦¸
Ġà§®à§® à§Ń
Ġà§§à§¦à§® à§¦
Ġà¦ıà¦¸à¦ı à¦²à¦¸
Ġà¦¬ à¦¤à¦°
à¦§ à¦£
Ġà¦¸à¦® à¦ħà¦§
à¦ļà¦¨ à¦ĩ
à¦·à¦£ à¦¯
Ġà¦ıà¦² à¦Ĩà¦°à¦¬
Ġà§¬ à§¯à§¯
à¦ıà¦ĩ à¦ļà¦ķ
Ġà¦ĩà¦² à¦¹
Ġà§Ńà§¨ à§«
Ġà§§à§®à§¬ à§ª
Ġà¦ª à¦¡à¦ķ
Ġà¦¨ à¦²à¦¹
Ġà¦ħ à¦ķà¦Ł
à¦°à¦§ à¦°à¦ĵ
Ġà¦ł à¦Ĺ
Ġà§«à§¦ à§©
Ġà¦®à¦¦ à¦¦à¦ª
Ġà§«à§¬ à§®
Ġà¦¨ à¦ª
à¦ļ à¦ªà¦¦
Ġà¦² à¦²à¦¨
Ġà¦¸à¦° à¦Ľ
Ġà¦ªà¦ķ à¦¸
Ġà¦ıà¦¨ à¦Ĩà¦ĩ
à¦°à¦ĩ à¦®à¦§
à¦Łà¦Ĺ à¦£
Ġà§Ńà§© à§¬
Ġà¦¨à¦°à¦ª à¦¶
Ġà¦ı à¦Ĩà¦ĩà¦¸
à¦ľ à¦£
à¦ľ à¦®à¦ķ
à¦ļ à¦¢
Ġà¦Ĩà¦¬ à¦ķ
à¦ĺ à¦¤à¦°
Ġà¦īà¦¤ à¦²
Ġà¦ıà¦® à¦Ĩà¦°à¦ª
Ġà§«à§¦ à§®
Ġà§¬à§¦ à§«
Ġà§®à§¦ à§¨
Ġà§Ńà§« à§«
Ġà§Ńà§¨ à§¨
Ġà§¬à§© à§Ń
Ġà§Ńà§© à§©
à¦®à§Łà¦ķà¦° à¦Ń
Ġà¦ķà¦° à¦¹
Ġà¦ī à¦°à¦¸
à§Łà¦¨ à¦Ń
à¦Ĩ à¦®à¦¤à¦²
à¦¸à¦¬ à¦Ĺ
à¦¸à¦° à¦Ł
Ġà¦ĵà¦ł à¦²
Ġà¦ªà¦¦à¦ķ à¦ľà§Ł
Ġà§Ńà§® à§®
Ġà§Ńà§Ń à§®
Ġà¦ıà¦Ĩà¦ĩ à¦ıà¦¡
à¦® à§Łà¦¤
à¦ļ à¦ĵà§Ł
Ġà¦Ľ à¦®à¦Ľà¦®
à¦ªà¦¨ à¦ĩ
Ġà¦®à¦¨ à¦®à¦°
à¦¶à¦¨ à¦¬
Ġà¦Ĩà¦² à¦ĸ
à¦ĺ à¦Ĺ
à¦°à¦ª à¦Ł
à¦°à¦¹à¦£ à¦ĵ
Ġà¦ıà¦¨ à¦ıà¦ĩà¦ļà¦ıà¦¸
Ġà¦Ĩà¦ĩ à¦ıà¦®à¦ĩ
à¦ıà¦® à¦ıà¦°
à¦ªà§ľ à¦ļ
à§¦à§¬ à§¦à§ª
Ġà§§à§®à§« à§«
à¦ª à§Łà¦²
Ġà¦Ń à¦°à¦ķ
Ġà¦« à¦Ĺ
Ġà¦Ĩà¦Ĺ à¦®à¦£
Ġà¦¦à¦² à¦¸à¦¹
Ġà¦¬à¦¨ à¦«
à¦°à¦¹ à¦¤
à¦¬à¦ķ à¦ĵ
à¦ľà¦¸ à¦ªà¦¤
à¦īà¦¡ à¦ķ
à¦²à¦Ń à¦°
Ġà¦ħà¦Ł à¦²à¦¬
Ġà§®à§¦ à§§
Ġà§¬à§« à§¬
Ġà§¬à§® à§¬
Ġà§®à§¬ à§¨
à§§à§¯à§¬ à§®
Ġà§İ à¦¸
à¦¤ à¦¥à¦²
Ġà¦Ĺ à¦¨à¦ľ
Ġà¦ªà¦° à¦¹
Ġà¦ĩ à¦¹à¦²
à¦¬à¦° à¦¬à¦°
à¦²à¦ķ à¦£
à¦¸à¦ķ à¦®
Ġà§¯ à§¨à§«
Ġà§§à§® à§¨à§¦
Ġà¦Ĩà¦ĩ à¦ıà¦ĩ
à¦Ĩà¦ĩ à¦¤
Ġà§«à§¨ à§¯
Ġà§®à§« à§«
à¦ķ à¦®à§Ł
Ġà¦¸ à¦¤à¦¨
à¦¯ à¦¦à¦°
à¦ĩ à¦ıà¦¸à¦¸
Ġà¦¸à¦® à¦¦
Ġà¦« à¦°à¦¸
à¦Ĩ à§Łà¦¨
Ġà¦¬à¦° à¦ªà¦ķ
Ġà§Ń à§§à§®
Ġà¦ľà¦² à¦Ń
Ġà¦¶à¦¹ à¦°à¦¸à¦¹
à¦ķà¦¶à¦¨ à¦¸
Ġà§«à§« à§©
Ġà§«à§¬ à§¯
à¦¤à¦¸ à¦ĩ
Ġà§®à§© à§©
Ġà§¯à§¬ à§¬
à§§à§¯à§¬ à§ª
Ġà¦ªà§Łà¦Ĺ à¦®
Ġà¦ķà¦° à¦ľ
à¦§ à¦®à§Ł
à¦£ à¦²
à§ľ à¦Ĺà¦£
Ġà¦ĸ à¦ĩ
à¦¤à¦° à¦¸à¦®
à¦Ĩ à¦¸à¦°
à¦²à¦ķ à¦°à¦£
Ġà¦¹à¦¤ à¦ļà¦ķ
Ġà§« à§§à§§
Ġà¦ķà¦² à¦Ł
Ġà§¬ à§§à§§
Ġà§¬ à§¨à§¯
Ġà¦ªà¦² à¦²
Ġà¦Ĩà§ľ à¦·
Ġà§Ńà§¦ à§¯
Ġà§«à§« à§Ń
Ġà§ªà§® à§ª
Ġà§ªà§Ń à§ª
Ġà§«à§© à§Ń
Ġà§¬à§® à§«
Ġà§Ńà§¬ à§§
Ġà§Ńà§¬ à§«
Ġà§¯à§® à§®
Ġà§¯à§© à§©
à§§à§§à§ ©
à¦ķ à¦ĵà¦®
Ġà¦¬ à¦īà¦Ł
Ġà¦ĸ à¦ŀ
à¦ĺ à¦ł
à¦¸à¦¦ à¦¬
à¦ªà¦¦ à¦¬
à¦īà¦ľ à¦¡
Ġà§Ńà§¦ à§®
ĠĠĠĠĠĠĠĠ ĠĠĠĠĠĠ
Ġà¦ħ à¦Ĺà¦¨
à§İ à¦¹
à¦Ĺà¦² à¦®
à¦¥à¦¨ à¦¯
Ġà¦Ńà¦¬à¦¨ à¦ķ
Ġà¦ªà§Ł à¦ľà¦¨
Ġà§ªà§¬ à§©
Ġà§«à§¬ à§Ń
Ġà§Ńà§¨ à§Ń
Ġà§¬à§¬ à§Ń
à¦ķà¦Ĩà¦ª à¦Ń
Ġà¦ıà¦ıà¦« à¦ıà¦®
à§Ł à¦«
Ġà¦¸ à¦Īà¦¦
à¦¦ à§ľ
Ġà¦¹ à¦°à¦Ĺ
à¦Ĺ à¦®à¦¸
Ġà¦¦ à¦Ĺà¦¦à¦Ĺ
à¦Ń à¦°à¦Ń
à¦ī à¦ĩà¦®
à¦°à¦£ à¦¸
Ġà¦¡ à¦°à¦¸
à¦ŀ à¦ķ
Ġà¦Ĩà¦ķ à¦¦
Ġà¦¨à§Ł à¦Ľà§Ł
Ġà¦ıà¦¤ à¦ľà¦¨
Ġà¦Ĩà¦ĩà¦¨ à¦ĵ
Ġà¦¹à¦ķ à¦ĵ
à¦Ĩà¦° à¦Ĩà¦°
Ġà§«à§¨ à§ª
Ġà§«à§Ń à§§
Ġà§«à§® à§®
Ġà§®à§® à§®
Ġà§Ńà§¬ à§Ń
à¦°à¦¬à¦£ à¦¶à¦ķ
Ġà¦®à¦Īà¦¨ à¦īà¦¦
Ġà§§à§¦à§¦à§¦ à§¦
à¦¶à¦§ à¦°à¦°
à¦¨ à¦®à¦ķ
à¦¨ à¦ĩà¦¬
à¦ķ à¦¦à¦°
à¦¬ à¦®à¦¤
Ġà¦ķ à¦·à¦¤
Ġà¦¤ à§İà¦ķà¦°
Ġà¦ī à¦ĩà¦Ĺ
à¦ķà¦² à¦¬
Ġà§¬ à§¯à§®
Ġà¦ıà¦ĸ à¦¬à¦°
à¦®à¦ª à¦ŀ
Ġà§ªà§¬ à§¯
Ġà§«à§¬ à§§
à¦ıà¦°à¦ªà¦° à¦ĵ
Ġà§®à§® à§ª
à¦ıà¦°à¦ĩ à¦®à¦§
à¦Ĩà¦°à¦ĩ à¦īà¦°
Ġà¦¨ à§ľà¦¤
à¦£ à¦§à¦°
à¦« à¦Ĺ
à¦Ĩ à¦«à¦¸
Ġà¦Ĩà¦ľ à¦®à¦ķ
Ġà¦«à¦² à¦ĩ
Ġà§¯ à§¨à§¨
Ġà¦ľà§Ł à¦ĩ
Ġà¦ħà¦ªà¦° à¦ª
Ġà§ªà§® à§¨
Ġà§¬à§ª à§ª
Ġà§¬à§¬ à§®
Ġà§¬à§® à§ª
Ġà§¬à§Ń à§¬
à¦¬à¦²à¦¤ à¦®
Ġà¦Łà¦¹à¦² à¦¦à¦²
à§§à§§à§ ª
à§§à§¯à§ª à§¦
à¦ıà¦¸à¦ıà¦² à¦Ĩà¦°
Ġà¦¬ à§Łà¦¨
Ġà¦® à§ľà¦ķ
Ġà¦ħ à¦ĩà¦¬
à§ľ à¦ĸ
à¦¡ à¦ı
à¦« à¦¬
Ġà§« à§§à§®
Ġà§ª à§¯à§§
à¦¬à¦² à¦¡
à¦¸à¦¹ à¦¯
Ġà§® à§¯à§¯
Ġà¦ĩà¦ī à¦¬
Ġà¦ĵà¦ł à¦¤
Ġà§«à§¬ à§¬
Ġà§«à§© à§©
Ġà¦īà¦ĩà¦² à¦¸
Ġà§®à§¯ à§¨
Ġà§§à§®à§« à§¯
Ġà¦ķ à¦ĵà§Ł
Ġà¦ĩ à¦£
Ġà¦ľà¦¨ à¦ĺà¦¨à¦¤
Ġà¦¬à¦Ľà¦° à¦ª
à¦ĩà¦² à¦®
Ġà§Ń à§§à§©
à¦°à¦Ń à¦°
à¦¶à¦ķ à¦¸à¦¹
Ġà¦ĩà¦ī à¦«
à¦¨à¦° à¦ĵà§Ł
Ġà¦ıà¦ĩà¦ļ à¦¸
Ġà§«à§« à§ª
Ġà§¬à§® à§Ń
à¦¯ à¦¤à¦¬
à¦ª à¦¤à¦°
Ġà¦ıà¦¸ à¦ıà¦®à¦¸
Ġà§« à§¯à§®
à§İà¦¸ à¦¹
Ġà¦¬à§ľ à¦ĸ
Ġà§¯ à§§à§®
Ġà§¯ à§§à§«
Ġà¦ķà¦²à¦ķ à¦²
Ġà¦ıà¦°à¦ķà¦® à¦Ł
Ġà§¬à§« à§Ń
Ġà§«à§® à§ª
Ġà¦¸à¦¨à¦¦ à¦§
Ġà§¬à§Ń à§©
Ġà§Ńà§ª à§®
à§§à§¯à§ª à§«
à¦¤ à¦ĺà§ľ
à¦® à¦®à¦£
à¦Ń à§ľ
à¦£ à¦ªà¦ķ
Ġà¦¬à¦² à¦ĵ
Ġà¦ĸ à¦²à¦ľ
à¦¬à¦° à¦«
à¦ķà¦° à¦Ľ
Ġà¦¸à¦¹ à¦ľà¦¸
à¦°à¦¥à¦® à¦Ń
à¦¤à¦® à¦ª
Ġà§§à§ª à§¨à§®
à¦°à¦ľ à¦²
Ġà¦ıà¦¡ à¦¹à¦ķ
à¦¯à§Ł à¦ķà¦°
à¦¤à¦°à¦£ à¦¸à¦¹
Ġà§ªà§Ń à§®
Ġà§¬à§¬ à§¯
à¦Ĩà¦¤ à¦Ļ
à§§à§§à§ Ń
à¦° à¦ĩà¦²
à¦¯ à¦¤à¦¨
à¦ĩ à¦ķà¦²
à¦¶ à¦Ĺà¦ŀ
à¦ļ à¦®à¦ķ
à¦« à¦¥
à¦« à¦°à¦ķ
à¦¬à¦° à¦¸
à¦°à¦¸ à¦ķ
Ġà¦ıà¦¸ à¦ĩà¦īà¦Ń
à¦¦à¦¨ à¦Ń
à¦¸à¦¹ à¦¸
à¦¨à¦¬ à¦¬à¦°
à¦²à¦Ĺ à¦Ĺ
Ġà§§à§ª à§¨à§«
Ġà§Ńà§¦ à§§
Ġà§¬à§« à§§
à§§à§¯à§ª à§¯
à¦° à¦ĩà¦¸
Ġà¦¸ à¦ĩà§Ł
à¦¦ à¦°à¦¸à¦¹
à¦ª à¦°à¦¤
Ġà¦¨ à¦«à¦¸
à¦ĸ à¦ĵà§Ł
à§ľ à¦ĺà¦°
à¦ī à¦¯
à¦Ĩ à¦ľà¦®
à¦ķà¦Ł à¦ĵ
à¦°à¦ª à¦¦
à¦°à¦ĵ à¦°
à¦ıà¦« à¦ķ
à¦Ī à¦®à¦ķ
Ġà§¬à§¬ à§§
Ġà§¯à§¬ à§Ń
à¦ħà¦¬à¦¸ à¦°à¦ª
Ġà¦ħà¦ľà¦Ĺà¦° à¦Ł
Ġà¦® à¦°à¦ļ
à¦¹ à¦¬à¦¹
Ġà¦ħà¦¨ à¦®à¦¨
à¦ī à¦§
Ġà¦Ĩà¦ªà¦¨ à¦ľà¦¨à¦¦
Ġà§¯ à§§à§¨
Ġà¦Ĩà¦ĩ à¦ıà¦¨
à¦¶à¦² à¦Ĺà¦¤à¦Ń
Ġà¦ĭ à¦ľ
Ġà§ªà§¬ à§§
Ġà§«à§® à§©
Ġà§Ńà§© à§ª
Ġà§Ńà§¯ à§¨
à¦¨ à¦°à¦¦
à¦® à¦¤à¦¨
Ġà¦¬ à¦īà¦°
à¦¥ à¦«
Ġà¦ıà¦ĩ à¦ķ
à¦¯à¦® à§Łà¦¤
Ġà§§à§® à§©à§«
Ġà§«à§« à§§
Ġà§®à§¦ à§«
Ġà§«à§¨ à§®
Ġà§«à§® à§¯
ĠĠĠĠĠĠĠĠ ĠĠĠĠĠĠĠ
Ġà§¬à§© à§§
Ġà§¯à§¯à§ «
à¦¨ à¦°à¦®
à¦¨ à¦®à¦§
Ġà¦¹ à¦°à¦²
à¦ı à¦ķà¦°
à¦¤à¦¬ à¦°à¦£
Ġà¦ıà¦¨ à¦ıà¦¸à¦ľ
à¦ªà¦¦ à¦ĵ
à¦¦à¦² à¦ĩ
à¦Ĺà¦® à¦ª
Ġà§Ńà§¦ à§©
Ġà§¯à§¦ à§©
à¦¯à¦Łà¦¨ à¦¶
Ġà§¬à§ª à§«
Ġà§¬à§ª à§¯
Ġà§Ńà§ª à§ª
Ġà§¯à§¬ à§«
Ġà¦¨à§Łà¦¨ à¦ķ
Ġà§¯à§® à§¨
à¦Ĩà¦ļ à¦®à¦ķ
à¦ķ à¦ĺà¦£
Ġà¦¸ à¦ĵà¦Ĺ
Ġà¦ı à¦¥à¦¨
à¦· à¦¦à¦¸à¦¹
Ġà¦¸à¦® à¦ľ
Ġà¦ĩ à§Łà¦¤
Ġà¦ĩ à¦Ĺà¦²
Ġà¦Ł à¦ķà¦¦
à¦²à¦ķ à¦§
à¦®à¦¤ à¦²à¦¬
à¦°à¦¨ à¦Ĺ
Ġà§¬ à§§à§¨
Ġà¦Ĩà¦ĩ à¦ıà¦¸à¦¸
Ġà¦Ĩà¦ĩ à¦ĩà¦īà¦¸
à¦ıà¦ĩ à¦ĸ
Ġà¦ıà¦¡ à¦Ĺ
Ġà¦Ĩà¦ĩà¦ıà¦®à¦ĩ à¦Ĩà¦ĩ
à¦¥ à¦¸à¦Ń
Ġà¦° à¦ĩ
à¦Ń à¦¨à¦ķ
Ġà¦ıà¦ķ à¦¶à¦°
à¦ľà¦¨ à¦¬à¦°
à¦²à¦¤ à¦®
Ġà§® à§§à§¨
à¦·à¦¦ à¦Ĺ
Ġà§§à§® à§©à§©
Ġà¦Ĩà¦¹ à¦¨
à¦ıà¦ĩà¦ļ à¦ĩà¦ī
Ġà§«à§ª à§¬
Ġà§¯à§« à§¬
à¦°à¦²à§Ł à¦Ļ
Ġà¦® à¦ĺ
à¦ĸ à¦ľà¦¨à¦ķà¦Ń
Ġà¦ļ à¦°à¦ļ
à¦Ĺà¦° à¦Ĺ
Ġà§Ń à§§à§¯
Ġà§Ń à§¯à§©
Ġà§¯ à§¨à§¯
à§¦à§¦ à§¦à§¦
à§Łà¦® à¦°à¦ķ
Ġà§¬à§¦ à§¯
à¦Ĩà¦Ĺ à¦°à¦¤à¦²
Ġà§«à§© à§¯
Ġà§®à§ª à§¬
Ġà§®à§© à§ª
Ġà§¯à§¬ à§©
Ġà¦°à¦¤à¦¨ à¦ķ
à¦ķà¦®à¦² à¦Ĺà¦ŀ
Ġà¦ķà¦° à¦£à¦¦
Ġà¦ľ à¦¤
Ġà¦ĵ à¦°à¦¶
Ġà¦§ à¦ķ
Ġà¦Ĩà¦² à¦¶
à¦¤à¦¨ à¦¹
Ġà¦¸à¦¨ à¦¦à¦ª
Ġà§Ń à§§à§¬
Ġà¦ľà¦² à¦ĸ
Ġà¦Ĩà¦²à¦® à¦ª
à¦ļà¦ķ à¦Ĺ
à¦¬à¦ľà¦¨ à¦¸à¦¹
Ġà§«à§Ń à§Ń
Ġà§«à§© à§ª
à¦¯à¦Łà¦ķ à¦¬
Ġà§Ńà§¨ à§©
Ġà¦¹à¦ľà¦® à¦¶à¦ķ
Ġà¦«à¦²à¦¨ à¦ĵ
Ġà¦¨ à¦¬à¦ª
Ġà¦° à¦¸à¦®
Ġà¦ĩ à¦Ĩà¦°à¦¡
à¦¬à¦ķ à¦ĩ
à¦ķà¦Ĺ à¦®à¦¨
Ġà§®à§¦ à§©
Ġà§«à§Ń à§¯
Ġà§®à§Ń à§Ń
Ġà¦ª à¦²à¦¸
Ġà¦Ĩ à¦¢
à¦ĩ à¦ıà¦°
Ġà¦° à¦ĩà¦ļ
Ġà¦Ĺ à¦²à¦¬
à¦°à¦¤ à¦Ń
à¦¬à¦¨ à¦ļà¦ķ
Ġà§Ń à§§à§ª
Ġà§® à§¨à§¨
Ġà¦ľà¦² à¦Ļ
Ġà¦īà§İà¦¸à¦¬ à¦Ĺ
Ġà§Ńà§« à§¯
Ġà§«à§Ń à§ª
à¦¯à¦Ń à¦¬à¦¨
Ġà¦Ńà¦°à¦¤ à¦ª
à¦§ à¦ļà¦¨
à¦Ń à¦¨à¦°
à¦®à¦¨ à¦ª
Ġà¦ķà¦¥ à¦ª
Ġà§® à§¯à§«
Ġà§®à§¦ à§ª
Ġà§¯à§¦ à§¨
Ġà¦ĵà¦ľà¦¨ à¦ĵ
Ġà§«à§© à§¬
à¦īà¦¥ à¦ĵà§Ł
Ġà§Ńà§Ń à§¨
Ġà¦¸à¦²à¦®à¦¨ à¦ķ
Ġà§§à§®à§ª à§Ń
Ġà¦ıà¦«à¦ı à¦ĵ
à¦¯ à¦¡
Ġà¦ı à¦ıà¦®à¦¡
à¦ļ à¦¯
à¦£ à¦ªà¦¦
à§ľ à¦ļ
Ġà¦ļ à¦°à¦¦
Ġà¦ķà¦® à¦²à¦¨
à¦ķà¦² à¦Ĺ
Ġà¦ıà¦ĸà¦¨ à¦¤
à§ª à§¦à§¦
Ġà¦ĩà¦ī à¦Ĩà¦°à¦ıà¦²
à¦ıà¦® à¦ĩà¦Ł
Ġà¦¦à¦¶ à¦Ń
à¦ķà¦°à¦£ à¦ĵ
Ġà¦¬à§Ł à¦·
Ġà¦¯à¦¶ à¦¸
Ġà§¯à§¯à§ Ń
à¦® à¦®à¦¦
Ġà¦ķ à¦Łà¦°
à¦¦ à¦°à¦¦
à¦ĩ à¦¬à¦°
à¦ľ à¦¤à¦ķ
Ġà¦Ĺ à¦Ľ
Ġà¦¹à¦² à¦ķ
Ġà§« à§¯à§Ń
Ġà¦¸à¦¨ à§İ
à¦¸à¦¨ à¦ĩ
à¦ķà¦¦ à¦¹
à¦Ĺà¦£ à¦Ńà¦¬à¦¨
Ġà¦Ĺà¦łà¦¨ à¦Ĺà¦¤
Ġà§¦à§¦ à§Ń
à¦¬à¦ªà¦¨ à¦ķ
Ġà¦°à¦¹à¦®à¦¤ à¦īà¦²
Ġà¦ĵà¦²à¦Ł à¦ª
à¦² à¦ªà¦ķ
à¦ª à¦¸à¦®à§Ł
Ġà¦ļ à¦®à¦ļ
Ġà¦ĩ à¦¹à¦ľ
à¦ī à¦ıà¦²
Ġà§Ń à§¯à§¯
Ġà§¯ à§¨à§©
à¦Ĩà¦ķ à¦¬à¦°
à§§à§¯à§« à§«
à§Ł à¦¬à¦°
à¦® à¦ľà¦¨
à¦ľ à¦®à¦¨
Ġà¦ķà¦° à¦¯
à¦¹ à¦²à¦¬
à¦ļ à¦ķà¦¬
Ġà¦ĩ à¦¤à¦°
Ġà¦ľà¦¨ à¦¸à¦¨à¦ķ
Ġà¦Ĩà¦¨ à¦°
à¦²à§Ł à¦ĩ
à¦·à§Ł à¦¸à¦¹
Ġà¦Ĩà¦¦ à¦®à¦ª
Ġà¦Ĩà¦ĩ à¦Ĩà¦°
à¦ıà¦ĩ à¦Ń
à¦°à¦ľ à¦ķ
à¦¤à¦² à¦¸à¦¹
Ġà¦¸à¦¹à¦ľ à¦ª
à¦ķà¦¶à¦¨ à¦Ł
Ġà§Ńà§« à§©
Ġà§¬à§« à§«
Ġà§¬à§ª à§§
Ġà§®à§® à§¬
Ġà§Ńà§ª à§§
à¦ıà¦®à¦¨ à¦Ł
à§§à§§à§ «
à¦§ à¦¨à¦Ł
Ġà¦ļ à§ľà¦¬
à¦¡ à¦īà¦ĩà¦¨
à¦°à¦£ à¦¤à¦¨
Ġà¦Ĩà¦° à¦¦
Ġà§® à§¨à§Ń
à¦¶à¦ķ à§Ł
Ġà¦¯à¦¤ à¦ľà¦¨
à¦Ĩà¦² à¦¹
Ġà§«à§« à§¬
Ġà§Ńà§« à§§
Ġà§«à§¬ à§«
Ġà§«à§® à§Ń
Ġà§Ńà§© à§¨
Ġà¦¡à¦ķ à¦ĩà§Ł
à¦ª à¦Ľà¦¨
Ġà¦® à¦ķà¦Ľ
Ġà¦¹ à¦ķà¦¦
à¦¶ à¦®à¦£
Ġà¦ĩ à¦²à¦¤
à¦ī à¦¥à¦Ĺ
à¦ĩà¦ķ à¦ķ
à¦Ĺà¦® à¦ŀ
à¦®à¦§ à¦°
Ġà§¬à§ª à§®
Ġà§¬à§© à§¯
Ġà§®à§ª à§«
Ġà§¯à§Ń à§®
à¦¨ à¦ªà¦¥
à¦² à¦¸à¦°
Ġà¦¬ à¦¸à¦ª
Ġà¦ħ à¦Ĺà¦®
Ġà¦ĩ à¦ĵà§Ł
à¦¤à¦¬ à§Ł
Ġà§Ń à§¨à§§
Ġà§¯ à§§à§Ń
Ġà§¨à§ª à§¦à§¦
à¦²à¦Ń à¦Ń
Ġà§«à§¨ à§Ń
Ġà§¬à§ª à§Ń
Ġà¦ħà¦¬à¦¨ à¦®
Ġà§¯à§« à§®
Ġà§Ńà§® à§«
Ġà¦ªà¦ª à¦ķà¦°
à§§à§¯à§¬ à§©
à¦ıà¦®à¦ıà¦¸ à¦ıà¦®à¦ĩ
à¦Ł à¦¶à¦¨
Ġà¦¹ à¦«
à¦Ĺ à¦¦à¦²
Ġà¦ī à¦Łà¦ķ
à¦ķà¦° à¦ĵ
à¦Ĩ à¦¸à¦®
à¦ĩà¦¨ à¦·
à¦°à¦¹ à¦ĩ
à¦®à¦° à¦ª
à¦¸à¦ķ à¦Ĺà¦£
Ġà¦¬à§Łà¦¸ à¦ķ
Ġà§®à§© à§®
à¦Ĭ à¦°
à¦¸ à¦¬à¦¸à¦®à§Ł
à¦Ł à¦°à¦ĵ
Ġà¦® à¦ĩà¦°
à¦§ à¦¶à¦ķ
Ġà¦ĵ à¦¥
à¦« à¦°à¦¹
à¦°à¦£ à¦¬à¦¬
à¦°à¦® à¦®à¦¨
à¦ĩà¦Ł à¦¡
Ġà§® à§¨à§®
à¦«à¦° à¦īà¦²
à¦łà¦ķ à¦ª
Ġà§¬à§¦ à§®
Ġà§¬à§« à§ª
Ġà¦¹à¦ĩ à¦ļ
Ġà§Ńà§Ń à§ª
Ġà§¯à§® à§©
à¦¤ à¦ļà¦²
à¦Ł à¦ļà¦ķ
à¦· à¦¸à¦®
Ġà¦« à¦ķà¦¨
Ġà¦ıà¦¸ à¦®à¦¸
Ġà¦Ĩà§Ł à¦¤à¦ķ
Ġà¦īà¦² à¦®
Ġà¦Ĩà¦ĩ à¦ľà¦ķ
Ġà§¬à§¦ à§§
Ġà¦Ĩà¦ĩà¦ıà¦¸ à¦ıà¦¸
Ġà§Ńà§ª à§«
Ġà§Ńà§¬ à§¯
Ġà§®à§ª à§©
Ġà§®à§¬ à§®
Ġà¦¸à§İ à¦®
Ġà§¯à§ª à§«
Ġà¦ľà¦Ĺ à§İà¦ķ
à§Ł à§Ł
à¦¬ à¦«
à¦¡ à¦¦à¦²
Ġà¦ĺ à¦°à¦ĵ
à¦·à§Ł à¦ª
Ġà§« à§¯à§§
à¦²à¦¤ à¦ĵ
Ġà¦ıà¦² à¦Ĩà¦ĩà¦¸
à¦ķà¦Ł à¦®
à¦¸à¦¬ à¦ľ
Ġà§® à§¨à§¯
Ġà¦īà¦Ńà§Ł à¦Ł
à¦¸à§ľà¦ķ à¦Ĺ
Ġà§Ńà§Ń à§¯
Ġà§¯à§® à§«
à¦° à¦°à¦ķ
à¦¨ à§İà¦¸
à¦ľ à¦¤à¦¤
à¦¥ à¦°à¦ª
à¦¡ à¦¨à¦Ń
Ġà¦¸à¦® à¦¯
à¦ľà¦¨ à¦Ń
Ġà¦ĺ à¦¨à¦ķ
à¦²à§Ł à¦¸
à¦¸à¦¬ à¦®
à¦°à¦ª à¦ļ
à¦¬à¦ķ à¦Ĺà¦£
Ġà¦ĩà¦ī à¦ıà¦¸à¦ľ
à¦¤ à¦ķà¦¬
à¦ĩ à¦ĩà¦ī
à¦¡ à§Ł
Ġà§Ń à§¯à§ª
Ġà§® à§§à§®
à¦§à¦¨ à¦¹
Ġà¦Ĳ à¦¹
Ġà§ªà§Ń à§Ń
Ġà§¯à§¦ à§Ń
Ġà§Ńà§« à§Ń
Ġà§¬à§¯ à§¨
Ġà¦ĩ à¦¨à¦¤
à¦ī à¦ªà¦¦
à¦°à¦ķ à¦ª
Ġà¦¡ à¦¸
à¦®à¦¨ à¦¬
à¦¸à¦² à¦ĸ
à¦¯à¦¨ à¦¤à¦®
Ġà¦Ĩà¦¦ à¦ª
Ġà¦Ĩà¦¦ à¦²à¦¤
à¦ĩà¦¸ à¦¡
à¦īà¦² à¦Ł
Ġà¦¨à¦Ĺà¦° à¦ľ
Ġà§¯à§¦ à§ª
Ġà§Ńà§« à§ª
Ġà§Ńà§Ń à§©
Ġà§Ńà§¬ à§¨
à¦Ĩà§Ł à¦ķà¦°
à¦ĸ à¦°à¦ķ
à¦ĵ à¦°à¦ķ
Ġà¦Ł à¦¡
à¦°à¦ķ à¦¥
à¦Ĩ à¦²à¦¤
Ġà¦ıà¦¸ à¦ĵà¦ª
à¦¤à¦® à¦°
à¦¨à¦ķ à¦¡
Ġà¦ĩà¦ī à¦¥
à¦¸à¦ķ à¦¶
à¦¨à§Ł à¦£
à¦®à¦£ à¦°
Ġà§¯à§¦ à§«
Ġà§«à§Ń à§¬
à¦ıà¦ĸà¦¨ à¦ķ
Ġà§Ńà§® à§§
Ġà§®à§® à§«
Ġà¦¸à¦°à¦¬ à¦¤
Ġà§¯à§© à§«
à¦ķ à¦Ĩà¦¤
Ġà¦¨ à¦¬à¦¸
Ġà¦¶ à¦°à¦¹
à¦ĸ à¦²à¦¤
à¦Ń à¦°à¦£
Ġà¦Ĩà¦® à¦¹
à¦ī à¦ľà¦°
Ġà¦Ĩà¦¸ à¦¨à¦¸
Ġà¦¬à¦¨ à¦ķ
Ġà¦Ŀ à¦¯
à¦¸à¦ķ à¦¸à¦¹
Ġà¦¹à¦ķ à¦ļà¦ķ
à¦¥à¦² à¦Ł
Ġà¦®à§Ł à¦¶
Ġà§¯à§« à§Ń
Ġà§¬à§Ń à§¨
à§§à§¯à§« à§Ń
Ġà¦Ĩ à¦£
Ġà¦Ĺ à¦¥
à¦®à¦¨ à¦¦
à¦ķà¦° à¦¸
à§© à§¦à§¦
Ġà§® à§§à§©
à¦¨à§Łà¦¨ à¦ĩ
à¦ľà¦¤ à¦ĸ
Ġà§®à§¦ à§Ń
Ġà¦ķà¦¬à¦° à¦Ł
Ġà§«à§ª à§Ń
Ġà§¬à§¬ à§¨
Ġà§¬à§® à§®
à¦¨à¦¸à¦® à¦ĵà§Ł
Ġà§¬à§Ń à§®
Ġà§®à§¬ à§§
à¦Łà¦ľà¦¨ à¦°
à§§à§§à§¨ à§¦
à¦® à¦Ĺà¦¨
Ġà¦¸ à¦¦à¦²
Ġà¦ı à¦£
à¦· à¦¦à¦¸
Ġà¦ħ à¦ªà¦¨
à¦£ à¦²à¦¤
à¦¬à¦¨ à¦ļà¦°
à¦Ĩ à¦ł
Ġà¦ıà¦¸ à¦®
Ġà¦ıà¦¸ à¦ıà¦«à¦Ĩà¦ĩ
Ġà¦¬à¦° à¦·
Ġà¦ħà¦ª à¦Ń
à¦¬à¦¹ à¦Ń
Ġà¦¨à¦Ń à¦ľ
Ġà¦¨à¦ľà¦° à¦¬à¦¨
à¦¥à¦ķ à¦·
Ġà§¬à§¦ à§©
Ġà§«à§« à§¯
à§§à§¯à§« à§¯
à¦ªà¦Łà¦¨ à¦¶
Ġà¦Ĩà¦ĩà¦ıà¦® à¦ĩà¦¡
Ġà¦ıà¦ıà¦¨ à¦Ĩà¦ĩà¦ķ
Ġà¦ķà¦° à¦ļ
Ġà¦ħ à¦¦à¦²
Ġà¦° à¦£à¦¨
à¦Ń à¦¸à¦¹
Ġà¦Ĺ à¦ľà¦°
à¦°à¦ķ à¦ĵ
Ġà¦ıà¦ĩ à¦¸à¦ķà¦²
à¦¬à¦¨ à¦¹
à¦Ĩ à¦®à¦²
à¦¸à¦¨ à¦®à¦¨
Ġà§¬ à§¯à§¬
Ġà§¯ à§§à§©
Ġà§¯ à§§à§ª
à¦¬à¦¤ à¦ª
Ġà§§à§® à§§à§®
Ġà¦¸à§ľà¦ķ à¦¸à¦¹
à¦Ĩà¦ľ à¦ĩ
à§Łà¦£ à¦ķ
Ġà¦¸à¦¦ à¦°à¦¸à¦¹
Ġà§«à§ª à§®
Ġà§®à§ª à§§
Ġà§®à§© à§¬
Ġà¦ķà¦¨à¦ķ à¦ļ
Ġà¦¨ à§ľà¦Ľ
Ġà¦¬à¦ķ à¦Ľ
Ġà¦ıà¦¨ à¦ıà¦ķ
Ġà§¯ à§¨à§§
Ġà¦Ĩà¦ĩ à¦ıà¦¨à¦Ł
à¦ķà¦ķ à¦¥
Ġà§«à§¬ à§¨
Ġà§¯à§© à§¬
à¦¸à¦ķà¦¦ à¦²à¦ķ
à¦Ĩà¦¶ à¦Ļ
Ġà§§à§®à§« à§¨
Ġà¦ķà¦°à¦® à¦ľà¦²
à¦° à¦Ĺà¦²
à¦¨ à¦¤à¦¨
à¦¨ à¦¸à¦¬
Ġà¦¸ à¦ĸà¦¨
à¦Ń à¦Ń
à¦ĵ à¦ķà¦°
Ġà¦Ľ à¦Łà¦ª
à¦ł à¦ĩ
à¦ī à¦Łà¦ķ
à¦ı à¦«à¦°
à¦Łà¦¨ à¦¸à¦¹
à¦ķà¦² à¦¹
à¦ħ à¦£
Ġà¦Ĺà¦£ à¦ļ
à¦·à¦¤ à¦ļ
à¦ıà¦ĩ à¦¡à¦¸
à¦ĩà¦¡ à¦ķ
à¦ĩà¦® à¦ª
Ġà§¯à§¦ à§¬
Ġà§¯à§« à§¯
Ġà§¬à§Ń à§ª
Ġà§Ńà§ª à§¯
Ġà§Ńà§Ń à§§
Ġà¦¬à¦°à¦ķà¦¤ à¦īà¦²
Ġà¦ľà§Łà¦¸ à¦ĵà§Ł
à¦ĩ à¦«à¦²
Ġà¦¹ à¦Łà¦ķ
à¦¶ à¦Ĺà¦¤à¦Ń
Ġà¦¤ à¦ĵà¦¹
à¦£ à¦¬à¦°
Ġà¦Ĩà¦® à¦ļ
à¦ķà¦° à¦¶
Ġà¦®à¦¨ à¦®à¦¤
à¦Ĩ à¦®à¦¨
Ġà¦ħà¦¬ à¦¦à¦®
Ġà§¦ à§§à§ª
à¦ħ à¦ľà§Ł
à§Łà¦ķ à¦°à¦£à¦ķ
Ġà¦Ĩà¦ĩ à¦ıà¦®à¦¡
à¦ĩà¦ľ à¦Ĺ
Ġà¦Ĩà¦« à¦«
à¦Łà¦® à¦£
Ġà¦ĭà¦£ à¦ªà¦¤
à§§à§¨ à§«
Ġà§«à§Ń à§¨
Ġà§Ńà§¬ à§ª
à§§à§¯à§ª à§¬
Ġà¦¦à¦ĸ à¦²à¦¬
Ġà¦¬ à¦¢
Ġà¦¦ à¦¶à¦Ĺ
à¦ī à¦¦à¦ª
Ġà§® à§¯à§¬
à¦¨à¦¦ à§Ł
Ġà¦°à¦Ļ à§Ł
Ġà¦¦à¦®à¦¨ à¦ª
Ġà§¬à§« à§¨
Ġà§Ńà§¨ à§®
Ġà§Ńà§ª à§¬
Ġà§§à§®à§ª à§®
Ġà¦²à¦Łà¦ķ à¦¨
Ġà¦Łà¦ķà¦¦ à¦ĩ
Ġà¦¤ à¦ĸà¦¤
Ġà¦Ĺ à¦²à¦¤
à¦®à¦¨ à¦¸à¦¹
à¦ı à¦ĵ
Ġà¦®à¦¨ à¦¦
Ġà¦ħà¦¸ à¦¤à¦¤
Ġà¦°à¦¹à¦® à¦¤à¦ª
Ġà¦ªà¦¥ à¦ļà¦²à¦¤
Ġà¦ħà¦ľ à¦ª
à¦ıà¦ĩà¦ļ à¦¬
Ġà¦Ĩà¦ĸ à¦ļ
Ġà§Ńà§¨ à§¬
Ġà§®à§® à§¨
Ġà§®à§¬ à§Ń
Ġà§¯à§¬ à§ª
Ġà¦Łà¦ª à¦ħà¦°
Ġà§§à§®à§« à§©
à§ľà¦« à§ľ
à§Ł à¦°à¦¸à¦¹
à¦¯ à¦¶à¦ķ
à¦Ĺ à§İ
à¦ļ à¦°à¦£à¦ķ
Ġà¦ĵ à¦Łà¦®
Ġà¦ĺ à¦¸
à¦¬à¦¸ à¦¬
Ġà¦ıà¦¸ à¦ıà¦¸à¦ıà¦«
à¦°à¦¥à¦® à¦ľà¦¨
Ġà¦ĵà¦ĩ à¦¸à¦®à§Ł
à¦¹à¦° à¦ĩ
Ġà§® à§¯à§®
Ġà§§à§¨ à§«à§¦
Ġà¦Ĩà¦ĩ à¦īà¦¬
à¦Ĺà¦ł à¦ķà¦¦
Ġà§®à§« à§¬
Ġà§®à§ª à§Ń
Ġà§®à§Ń à§©
Ġà¦ħà¦¨à¦¶à¦¨ à¦°à¦¤
Ġà¦¸à§ľ à¦ķà¦¬
à¦· à¦¤à¦ķ
Ġà¦Ĺ à¦¨à¦¨
Ġà¦ĵ à¦ľà¦°
Ġà¦¸à¦¬ à¦§à¦°à¦£
Ġà¦ķà¦® à¦ķà¦°
à¦²à¦¤ à¦Ĺ
à¦¤à¦¬ à¦Ń
Ġà¦ħà¦¬à¦¸ à¦°à¦ķ
Ġà§§à§¨ à§§à§©
Ġà§¯ à§¨à§¬
à¦Ĺà¦² à¦ĵ
à¦Ĺà¦£ à¦¤
Ġà¦Ĩà¦§ à¦ĺà¦¨
à¦²à¦Ń à¦¦
Ġà§¬à§¦ à§ª
Ġà¦ıà¦ĩà¦ļ à¦ıà¦¸à¦¬
à¦ıà¦ĩà¦ļ à¦ı
Ġà¦Ńà¦Ĺ à§İ
à¦ķà¦Ĩ à¦ªà¦Ł
à¦² à¦¤à¦°
Ġà¦¸ à¦²à¦®
Ġà¦¦ à¦°à¦¸
Ġà¦ħ à¦ĩà¦²
Ġà¦ľ à¦£
à¦£ à¦Ľ
à¦Ļ à¦¨à¦ķ
à¦ľà¦¨ à¦§
à¦ľà¦¨ à¦°à¦¸
à¦·à¦£ à¦¹
Ġà§« à§§à§¯
Ġà§¬ à§¯à§©
Ġà§Ń à§¯à§«
Ġà§® à§¯à§ª
Ġà§§à§® à§¨à§®
à¦Ĩà¦ĩ à¦Ĩà¦ĩ
Ġà¦īà§İ à¦ķà¦Ł
Ġà¦ľà¦² à¦ĵ
à¦ıà¦« à¦Ĩà¦ĩà§Ł
Ġà¦ĸà¦°à¦ļ à¦Ł
Ġà§¯à§¦ à§§
Ġà§¬à§« à§®
Ġà§¬à§ª à§¬
Ġà§Ńà§¨ à§¯
Ġà§¬à§Ń à§¯
Ġà§¯à§® à§Ń
Ġà§¨à§¦à§ª à§¦
à¦¶ à¦²à¦¤
Ġà¦ī à¦°à¦«
Ġà¦ıà¦ķ à¦ĸà¦£
Ġà¦ĩ à¦ķà¦®
à¦« à¦Łà¦¸
Ġà¦ıà¦° à¦¸à¦Ļ
à¦°à¦Ń à¦¬à¦¨
à¦ĩà¦ľ à¦ķ
à¦ĩà¦ľ à¦²
Ġà§®à§¦ à§¯
à¦¡à¦ª à¦Ĺ
Ġà§®à§« à§©
Ġà§Ńà§® à§ª
Ġà§¬à§Ń à§§
Ġà§®à§® à§©
à¦¨ à¦°à¦Ł
à¦¬ à¦¬à¦¨
Ġà¦® à¦ļà¦ķ
à¦Ĺ à¦°à¦¤
Ġà¦ī à¦ĩà¦Ł
Ġà¦¬à¦² à¦ĩ
Ġà¦§ à§ľà¦«à§ľ
à¦Ĩ à¦Łà¦ķà¦°
à¦²à¦ķ à¦¥
à¦ĩà¦ķ à¦°à¦£
à¦¶à¦² à¦ĵ
à¦īà¦¡ à¦¬
Ġà§Ńà§Ń à§¬
à¦¸à¦ªà¦¨ à¦¸
à¦° à¦²à¦ķ
à¦® à¦¸à¦¨à¦ķ
à¦Ł à¦ĺà¦°
Ġà¦ī à¦ĩà§Ł
à¦¡ à¦¬à§Ł
à¦ı à¦ıà¦«à¦¸
à¦²à¦¨ à¦¦
Ġà§« à§¯à§¬
à¦¤à¦¨ à¦°
à¦¬à¦ķ à¦¶
à¦¨à¦¬ à¦¶
Ġà§¦ à§¨à§¦
à¦ıà¦¨ à¦ĵ
à¦Ĩà¦ĩ à¦ĩà¦¡
à¦¯à¦° à¦ļà¦¨
à¦ªà§ľ à¦Ĺ
à¦ıà¦ķ à¦¥
à¦īà¦¸ à¦«
Ġà¦ĵ à¦®à¦ª
à¦¡ à¦²à¦ª
à¦« à§ľ
à¦ī à¦¬à§Ł
Ġà¦Ł à¦«
Ġà¦ľà¦¨ à¦¯
Ġà¦¡ à¦²à¦¬
à§Łà¦¨ à¦ĩ
à§Łà¦® à¦ĩ
Ġà§§à§ª à§¨à§ª
à¦īà¦² à¦¦
Ġà¦ªà¦¦à¦ķ à¦Ł
Ġà¦¬à¦ĩ à¦ªà§ľ
Ġà¦ľà¦Ĺà¦¤ à¦Ł
Ġà§®à§Ń à§ª
Ġà§¯à§® à§§
Ġà§¯à§ª à§§
Ġà§¯à§¯à§ §
Ġà¦ķ à¦īà¦°
à¦¯ à§Łà¦¸
à¦¶ à¦ªà¦°à¦®
à¦°à¦¤ à¦¯
à¦¤à¦° à¦²
à¦ªà¦¨ à¦¨
Ġà¦Ĩà¦² à¦®à¦¸
à¦°à¦¬ à¦Ľà¦°
Ġà¦ķà¦°à¦¬ à¦ĩ
Ġà¦¬à§ľ à¦¬à§ľ
Ġà§® à§¨à§ª
Ġà§® à§¯à§§
Ġà¦ıà¦¨ à¦ĩ
à¦²à¦ª à¦¸
à¦¸à¦®à§Ł à¦ĩ
Ġà¦®à§Ł à¦Ļ
Ġà¦ĩà¦īà¦ıà¦¸ à¦¡
Ġà§¯à§¯à§ ª
Ġà§¯à§¯à§ ¬
à¦¨ à¦²à¦ª
Ġà¦¹ à¦ĵà¦¨
à¦ļ à¦²à¦¬
à¦Ń à¦²à¦¨
Ġà¦Ń à¦°à¦¨
Ġà¦ıà¦ķ à¦ĺà¦¨
à¦Ĩ à¦¸à¦¬
à¦²à¦ķ à¦ĩ
à¦¬à¦² à¦Ń
Ġà¦ıà¦Ł à¦²
Ġà¦Ĩà¦ķ à¦Ľ
à¦ıà¦® à¦ıà¦¸à¦¡
Ġà¦¬à¦ĩ à¦ĸ
à¦ıà¦ĩà¦ļ à¦Ĩà¦°
Ġà§ªà§Ń à§¯
Ġà¦¬à¦¦ à¦Ń
Ġà§®à§ª à§¯
Ġà§¯à§¬ à§¯
Ġà¦¸à¦¦à¦² à¦¬à¦²
à¦¶ à¦ªà¦°
à¦¹ à¦¸à¦®
Ġà¦Ń à¦·
à¦¡ à¦ĺ
à¦« à¦¸à¦²
à¦°à¦ķ à¦Ĺà¦£
à¦°à¦£ à¦¦
à¦¤à¦° à¦ľ
à¦¤à¦¬ à¦§à¦°
à¦¹à¦¤ à¦ķ
à¦§à¦¨ à¦§
Ġà§¯ à§§à§¬
à¦ªà¦¸ à¦ľ
Ġà§«à§¨ à§¬
Ġà§Ńà§ª à§¨
Ġà§¯à§ª à§®
à§§à§¯à§ª à§¨
Ġà¦ļà¦®à¦ļ à¦®
à¦¨ à¦īà¦¡
à¦² à¦¤à¦¨
à¦§ à¦¨à¦¬
à¦¡ à¦¬à¦¦
à¦°à¦£ à¦¯
à¦·à§Ł à¦°
Ġà¦Ĺà¦£ à¦ķ
Ġà§§à§® à§©à§¬
à¦¯à¦¦ à¦¶
Ġà¦ħà¦² à¦®
Ġà¦Ĺà¦¨ à¦¹à¦¤
Ġà§Ńà§¬ à§®
Ġà§§à§®à§ª à§¯
Ġà¦«à§ľ à¦¨à¦¬
à¦¤ à¦ªà¦¦
Ġà¦Ĩ à¦īà¦¸
à¦¡ à¦ī
Ġà¦Ĩà¦² à¦Ŀ
Ġà¦ĩà¦¨ à¦²
Ġà¦Ľà¦¬ à¦Ľà¦°
Ġà§§à§¦ à§§à§§
Ġà§® à§¯à§©
à¦ļà¦² à¦ª
Ġà¦Ĩà¦¤ à¦¸à¦¬
à¦¥à¦ķ à§ľ
Ġà§«à§¯ à§¨
Ġà§®à§¬ à§©
à¦Ńà§İà¦¸ à¦¤
à¦ª à¦£à¦¤
Ġà¦¤ à§İà¦ª
à¦ĵ à¦ĺà¦°
Ġà¦ļ à¦¹
Ġà¦ıà¦ĩ à¦§à¦°à¦¨
à¦Ĩ à¦¡
Ġà¦ķà¦® à¦²à¦ª
à¦ĺ à¦Ń
Ġà¦¬à¦¨ à¦¦à¦«à¦¤à¦°
Ġà¦Ĩà¦ľ à¦®à¦ª
Ġà§® à§¨à§©
Ġà§¯ à§¨à§®
à¦¨à¦Ĺ à¦°à¦ķ
à¦¦à¦¶ à¦¤à¦®
Ġà¦¨à¦ĵ à¦ª
Ġà§¯à§¯à§ ®
à¦¤à¦ĸà¦¨ à¦ĩ
Ġà§¯à§¦à§¦ à§¦
à§§à§¯à§« à§©
à§§à§¯à§© à§Ń
à§¯à§¯à§ ¯
à¦² à¦ľà¦²
Ġà¦¤ à¦¸à¦¬
Ġà¦« à¦²à¦¬
Ġà¦ıà¦ĩ à¦¯
à¦Ĩ à¦°à¦®
Ġà¦Ĩà¦¨ à¦Ĩà¦®
à¦ĩà¦ľ à¦¬
à¦ľà¦² à¦īà¦¡
Ġà¦ĵà¦· à¦§
Ġà¦Ĺà¦¨ à¦Ĺà¦¨
Ġà¦ªà¦Ł à¦ªà¦°
à¦¨à¦¶à¦¨ à¦Ń
à¦®à¦ĵ à¦¦
à§§à§¯à§« à§§
à¦¤ à¦°à¦ķà¦®
Ġà¦ı à¦ļ
à¦¶ à¦Łà¦¨
à¦¶ à¦²à¦¬
à¦· à¦ļ
Ġà¦ī à¦Ńà¦ķ
à¦ł à¦¸à¦¹
à¦¬à¦¨ à¦¦à¦°
à¦²à¦¨ à¦¬
à¦°à¦¦ à¦¹
à¦ķà¦Ł à¦¸à¦¹
Ġà§Ń à§¯à§®
Ġà§® à§¨à§§
à¦¸à¦ķ à¦¨
Ġà¦ķà¦¬ à¦Ľà¦°
à¦Ńà¦¬ à¦ĩ
à¦²à¦ª à¦¥à¦®à¦¨
à¦¹à¦¨ à¦²
Ġà§ªà§« à§¦à§¦
à¦¨à¦ľ à¦Łà¦®
à¦ıà¦¸à¦ıà¦« à¦ķ
Ġà§®à§Ń à§¬
Ġà§®à§© à§¨
Ġà§§à§®à§ª à§«
à¦² à¦·
Ġà¦¦ à¦§
à¦Ń à¦ķà¦°
à¦£ à¦Ńà¦°
Ġà¦² à¦¹à¦®
à¦¶à¦¨ à¦Ĺà¦°
Ġà¦Ĩà¦² à¦ĵà§Ł
à¦Łà¦¨ à¦Ĺà¦°
Ġà¦ķà¦² à¦Ĺ
à¦ªà¦¦ à¦ª
à¦°à¦®à¦¨ à¦ķ
Ġà¦¸à¦¬à¦ķ à§Łà¦Ł
Ġà§®à§ª à§¨
Ġà§§à§®à§ª à§¨
Ġà¦¥à¦° à¦¥à¦°
Ġà¦ıà¦ķà¦Ŀ à¦²à¦ķ
Ġà¦°à¦ľà¦¤ à¦ľà§Łà¦¨
à¦Ł à¦īà¦¡
à¦ĩ à¦®à¦ķ
à¦Ľ à¦§à¦°
Ġà¦ĩ à¦Ĺà¦°
Ġà¦Ł à¦ĩà¦Ł
à¦Ĩ à¦ļà¦°à¦£
à¦ļà¦¨ à¦Ńà¦Ļ
Ġà§Ń à§¯à§¬
à¦Ĩà¦ĩ à¦ıà¦¸à¦ª
à¦¸à¦« à¦°à¦ķ
Ġà§Ńà§« à§¬
Ġà¦ķ à¦¸à¦°
Ġà¦ª à¦¯
à¦¯ à¦²à¦ķ
Ġà¦® à¦ľà¦®
à¦· à¦¨à¦ķ
à¦¹ à¦®à¦¨
à¦§ à¦ļ
Ġà¦ļ à¦°à¦Ł
à¦ī à¦Ĺà¦²
à¦°à¦® à¦¸à¦¹
Ġà§® à§§à§¬
à¦¨à¦ķ à¦¨
Ġà¦ħà¦ķ à¦¶à¦¨
Ġà¦Ĳ à¦°
à¦Łà¦¬à¦² à¦¬
à¦®à¦¹ à§Ł
à¦¶à¦¤ à¦¬à¦°
Ġà§®à§¦ à§®
Ġà§¯à§ª à§¨
à¦ķ à¦¨à¦Ł
à¦ķ à¦ĭà¦£
à¦² à¦°à¦¤à¦¨
à¦¦ à¦¤à¦ķ
Ġà¦® à¦Ĺà¦¨
à¦ĩ à¦¶à¦Ł
à¦¶ à§Łà¦Ĺ
Ġà¦ħ à¦®à¦¸
Ġà¦° à¦¬à¦¸à¦¨
Ġà¦ıà¦ķ à¦¸à¦ª
à¦ı à¦ķà¦¤
à¦ŀ à¦Ĺà¦£
à¦Ŀ à¦ŀ
à¦Ĺà¦° à¦ªà¦¥
à¦ķà¦¤ à¦¦
Ġà¦Ĩà¦« à¦¶
à¦¬à¦¦ à¦°à¦¬
à¦®à¦ª à¦²
Ġà¦®à¦¡ à¦°
Ġà§Ńà§¦ à§ª
à¦ķà§ľ à¦¶
Ġà§«à§® à§§
Ġà§¯à§« à§©
Ġà§®à§© à§¯
Ġà§¯à§© à§¨
Ġà¦Ĺà¦¦ à¦Ĺà¦¦
à§§à§§à§ ®
à¦¤ à¦·
à¦ļ à§Łà¦¦
à¦ªà¦° à¦¶
Ġà¦¬à§ľ à¦¹
Ġà§® à§§à§Ń
Ġà¦ıà¦® à¦ĵà¦ª
Ġà§¯ à§§à§¯
Ġà¦īà¦ªà¦° à¦ĵà§Ł
à¦¨à§Łà¦¨ à¦ĵ
Ġà¦ıà¦ª à¦Ł
à¦ķà¦¨ à¦²à¦ľ
à¦¦à§Ł à¦Ń
à¦¹à¦°à¦£ à¦ĵ
à¦®à¦°à¦£ à¦¶à¦ķ
Ġà¦īà¦ĩ à¦ł
Ġà¦īà¦ĩ à¦ķà¦²
Ġà§¯à§« à§ª
Ġà§®à§© à§Ń
Ġà§¯à§¬ à§§
Ġà§¯à§ª à§Ń
à§§à§§à§ ¯à§
à¦¬à§Łà¦¸ à¦Ń
Ġà¦Ĩ à¦īà¦Łà¦°
à¦ĩ à¦·à¦·
à¦¥ à¦ªà¦¨
Ġà¦ļ à¦®à¦¤à¦ķ
Ġà¦¹à¦² à¦ĺà¦°
Ġà¦ıà¦¸ à¦ıà¦¨
à¦·à¦ķ à¦¨
à¦°à¦Ń à¦¦
à¦¶à¦ķ à¦ĩ
Ġà¦ıà¦¨ à¦ıà¦¸à¦¸
Ġà§¯ à§¨à§ª
à¦¯à¦¤ à¦Ł
Ġà¦ªà¦¥ à¦ĺ
à§Łà¦® à¦ĵ
à¦Ĺà¦¨ à¦Ĺà¦°
à¦¦à¦ª à¦¸à¦°à¦£
à¦¬à¦¦ à¦¤
Ġà¦Ĩà¦ĩà¦ıà¦¸ à¦ķ
Ġà§®à§® à§¯
Ġà¦īà¦ĩà¦¥ à¦¡
à¦¤ à¦¶à¦¤
à¦² à¦¹à¦ķ
Ġà¦¸ à¦²à¦¤
à¦Ł à¦ħ
Ġà¦¨ à¦«
Ġà¦¨ à¦²à¦¬
Ġà¦¤ à¦Ł
à¦§ à¦²à¦ķ
à¦¡ à¦°à¦ķ
Ġà¦¥ à¦¤à¦®à¦¤
à¦ı à¦°à¦¦
Ġà¦Ĩà¦¸ à¦¨à¦ĵ
Ġà¦®à¦¨ à¦¶
à¦ĺ à¦ª
à¦°à¦¥à¦® à¦¬à¦°
à¦¬à¦¬ à¦§
à¦¸à¦¨ à¦¸
Ġà¦Ĩà¦¹ à¦¯
à¦¸à¦Ń à¦Ļ
Ġà¦ıà¦« à¦Ĩà¦ĩ
à¦¹à¦°à¦£ à¦Ĺ
à§§à§§à§ §
à¦Ļà¦¨à¦ķ à¦¬à¦²
à¦¨ à¦Ĺà¦¨
à¦® à¦°à¦¹
à¦Ł à¦ªà¦£
Ġà¦ı à¦ıà¦²
à¦ĩ à§İà¦ľ
à¦ľ à¦ªà§ľ
à¦§ à§Ł
Ġà¦¸à¦® à¦¶
Ġà¦Ĩà¦¸ à¦®à¦¤
Ġà¦Ĩà¦² à¦¦
Ġà¦Ĩà¦¬ à¦¹à¦¬
à¦ĩà¦¨ à¦ĩ
Ġà¦ıà¦¸ à¦ķà¦°
Ġà¦¬à¦Ľà¦° à¦Ńà¦°
à¦¤à¦¨ à¦¸
à¦ĩà¦ķ à¦¸
Ġà¦²à¦ķ à¦Ĺ
Ġà¦Ĺà¦£ à¦¸à¦®
Ġà¦ıà¦¨ à¦ı
à¦¨à¦¡ à¦¸
Ġà¦Ĩà§ľ à¦ª
à¦Ĺà¦ľ à¦Ĺ
Ġà§¬à§« à§¯
Ġà¦īà¦ĩà¦² à¦®
à¦°à¦£à§Łà¦¨ à¦ķ
Ġà§¬à§® à§¯
Ġà§¯à§® à§ª
à¦¹ à¦ľà¦¨
à¦§ à¦²à¦Ń
à¦ļ à¦ŀ
Ġà¦ıà¦ķ à¦¶à¦Ł
Ġà¦Ł à¦ªà¦Ł
à¦Łà¦¨ à¦¸
à¦¯à¦ķ à¦®à¦ª
à¦ĩà¦² à¦¡
Ġà¦ĩà¦¨ à¦°
Ġà§® à§§à§§
Ġà§§à§¨ à§§à§¨
Ġà¦ķà¦¬ à¦ļ
Ġà§§à§® à§©à§®
à¦ªà¦¥ à¦Ł
Ġà§®à§® à§§
à¦ķà¦²à¦¨ à¦Ł
à§§à§¯à§© à§¨
à¦Ĭ à¦¨
à¦° à¦ł
à¦² à¦°à¦¤
à¦® à¦Ĩ
Ġà¦¸ à¦ĩà¦¬
Ġà¦¬ à¦ķà¦¤
à¦Ł à¦¬à¦ķ
Ġà¦® à¦ĸà¦²
Ġà¦¨ à¦ĩà¦®
à¦· à¦ªà¦¤
Ġà¦Ĩà¦® à¦Ł
à¦°à¦£ à¦¶
à¦ı à¦¹
à¦°à¦¬ à¦¬
à¦°à¦¬ à¦Ĺ
Ġà¦¸à¦¹ à¦Ĺ
Ġà¦Ĩà§Ł à¦°
Ġà¦ĩà¦ī à¦ıà¦ª
à¦°à¦®à¦£ à¦°
Ġà§®à§« à§®
Ġà¦Ĺà¦® à¦Ĺà¦®
Ġà§¯à§¯ à§¨
Ġà§§à§®à§« à§§
Ġà¦®à¦Ĺ à¦¡
Ġà¦ı à¦ı
à¦¶ à§Łà¦¤
à¦Ĩ à¦Ń
Ġà¦īà¦¦ à¦Ń
à¦·à¦£ à¦Ĺà¦£à¦¨
Ġà¦¬à¦¨ à¦°à¦ķ
à¦°à¦§ à¦¸
Ġà¦ıà¦² à¦ļ
Ġà¦ıà¦² à¦ĵà¦¸
à¦¬à¦² à¦Ĺ
à¦ıà¦¸ à¦Ń
à¦¨à¦° à¦°
Ġà¦ıà¦« à¦ıà¦Ł
Ġà§Ńà§¬ à§©
à¦¨à¦Łà¦¨ à¦ķ
à¦® à¦¬à¦²
à¦® à¦łà¦¬
à¦ĩ à¦ªà¦Ł
à¦ľ à¦«à¦«à¦°
Ġà¦ħ à¦¹à¦°
Ġà¦ľ à¦ĸ
à¦§ à¦ªà¦¥
à¦¥ à¦Ĺà¦ŀ
à¦ĵ à¦°à¦¬
à¦ĵ à¦Ĩà¦°
Ġà¦ıà¦ķ à¦®à¦¨
à¦« à¦¯
à¦« à¦Łà¦ķ
à¦ł à¦¯
à¦ļà¦¨ à¦®
Ġà¦ıà¦®à¦¨ à¦¸à¦¬
Ġà¦Ĳ à¦ķà¦¤
à¦Ĺà¦£ à¦«
à¦Ĺà¦® à¦ĵ
Ġà§¨à§¬ à§¦à§¦
Ġà§®à§« à§¨
Ġà§®à§¬ à§¯
Ġà¦²à¦ĸà¦¨ à¦īà¦¤
Ġà§®à§®à§¦ à§§à§Ń
Ġà¦¬à¦¢ à¦°
à¦² à¦ªà¦¨
à¦¦ à¦²à¦¨
Ġà¦ķà¦° à¦®à¦ļ
Ġà¦ħ à¦¹à¦²
à¦®à¦¨ à¦Ĺ
Ġà¦§ à¦²à¦ª
Ġà¦®à¦¨ à¦Ń
Ġà¦Ĩà¦¬ à¦¡
Ġà¦ķà¦² à¦²
à¦°à¦ĵ à¦ªà¦°
Ġà¦Ĺà¦£ à¦¦
à¦ıà¦® à¦ıà¦¸à¦ıà¦«
Ġà§§à§Ń à§¯à§©
à¦¶à¦Ĺ à¦®à¦¨
à¦¬à¦ľà¦¨ à¦¹
Ġà¦¶à¦Ł à¦ĵ
Ġà§¯à§¬ à§¨
Ġà§¯à§Ń à§§
à¦¨à¦ªà¦¤ à¦¨
à§§à§§à§ ¬
à¦Ķ à¦·à¦§
Ġà¦¹à¦ĩà¦¹ à¦ĩ
à¦¨ à¦¶à¦ķ
à¦ķ à¦°à¦®
à¦¸ à¦¸à¦ļ
à¦¸ à¦ħà¦«
à¦Ł à¦¤à¦¤
Ġà¦Ĩ à¦¬à¦¨
Ġà¦¤ à¦Ľà¦²
Ġà¦° à¦¨à¦ķ
à¦ī à¦®à¦°
Ġà¦ľà¦¨ à¦ķà¦ķ
à¦®à§Ł à¦¦
Ġà¦īà§İà¦¸ à¦®
à§§à§¯ à§¨à§§
Ġà§®à§« à§¯
Ġà§Ńà§© à§§
à¦¶à¦ĵ à¦ķà¦¤
Ġà¦¹ à¦īà¦¨
à¦Ľ à§Łà¦¨
à¦®à¦² à¦¬
Ġà¦ķà¦² à¦¬
Ġà§¬ à§¯à§§
à¦īà¦Ł à¦Ł
Ġà§§à§® à§§à§¨
à§Łà¦£ à¦Ĺà§ľ
Ġà¦ħà¦¦ à¦²à¦¬à¦¦à¦²
Ġà§¬à§Ń à§Ń
Ġà§Ńà§© à§¯
Ġà§¦à§§à§Ń à§§à§¨
à¦¦à¦ļ à§Łà¦¨
à¦¤à¦²à¦¤ à¦®
à¦¨ à¦ĩà¦²
Ġà¦Ĩ à¦ĵà¦¸
Ġà¦® à¦°à¦«
à¦ĩ à¦Ĩà¦¤
Ġà¦¤ à¦®à¦¦
à¦¹ à¦ĭà¦£
Ġà¦ī à¦«à¦«
Ġà¦² à¦ĵ
Ġà¦ĩ à¦°à¦®
à¦ł à¦²
Ġà¦ľà¦¨ à¦Ń
à¦ªà¦° à¦Ł
à§İ à¦¤
à¦°à¦¸ à¦¬à¦ķ
à¦¬à¦ķ à¦¹
Ġà¦Ĩà¦ª à¦Ł
Ġà¦Ĩà¦ļ à¦°
à§§à§¯ à§¨à§¯
Ġà§¯à§Ń à§Ń
Ġà§¯à§¯à§ ©
à¦¡à¦¸à¦ķ à¦®
Ġà¦¬ à¦ĩà¦¨
Ġà¦¤ à¦ĸ
Ġà¦° à¦¡à¦°
à¦« à¦Łà¦¨
Ġà¦ħà¦¨ à¦®
à¦ī à¦°à¦ķ
à¦²à¦ķ à¦®à¦²
à¦ļà¦¨ à¦¬
à¦¦à¦° à¦ĵ
à¦¨à¦¬ à¦¦à¦²
à¦®à¦¦ à¦¬
à¦¸à¦ķ à¦®à¦£
Ġà§§à§ª à§§à§«
Ġà¦ķà¦¤ à¦Ń
Ġà¦Ĩà¦§ à¦ª
à¦Ī à§Ł
à¦¦à§Ł à¦Ł
Ġà¦ıà¦« à¦ª
à¦ĩà¦ī à¦Ĩà¦ĩ
à¦ķà¦ª à§Ł
Ġà§¯à§¦ à§¯
Ġà§¯à§© à§§
Ġà¦ĩà¦īà¦ıà¦¸ à¦Ł
Ġà¦Ńà¦°à¦¤ à¦¨
Ġà¦ľà¦Ĺà§İ à¦Ł
Ġà¦Ĩà¦ĩà¦ĩ à¦ıà¦²à¦Ł
à¦¤ à¦Ĺà¦ŀ
à¦Ĺ à¦Ĺà¦¤
à¦°à¦¤ à¦ªà¦ķ
à¦Ļ à¦Ł
à¦ł à¦ł
Ġà¦§ à¦°à¦®à¦ª
à¦ķà¦° à¦°
à¦¨à¦Ł à¦°
à¦®à¦¸ à¦Ń
Ġà§§à§® à§¨à§¨
Ġà§§à§® à§©à§¯
à¦¨à¦¦ à¦°à¦¬
à¦Ĺà¦£ à¦ĵ
à¦ĩà¦ľ à¦¬à¦¨
à¦Ĩà¦® à¦«
Ġà¦Ķ à¦°à¦¸
à¦ķ à¦¬à¦ķ
à¦¯ à¦ļà¦ķ
Ġà¦Ń à¦°à¦²
Ġà¦ĩ à¦ķà¦¤
Ġà¦ıà¦² à¦ıà¦²
à¦¸à¦¨ à¦Ĺà¦°
Ġà¦¬à§ľ à¦¤
Ġà§¯ à§¨à§Ń
à¦¬à¦¹ à¦¨à¦Ĺ
à¦ľà§Ł à¦ĵà§Ł
Ġà¦°à¦ķà¦® à¦«
à§¨à§« à§¦
Ġà§®à§¬ à§ª
Ġà§¯à§© à§ª
Ġà§¯à§ª à§©
à¦ıà¦¸à¦ĩ à¦ıà¦¸
à¦ħà¦ª à¦¹
à§§à§¯à§ª à§ª
Ġà¦Ŀà¦® à¦Ŀà¦®
Ġà¦¸ à¦¶à¦¬
Ġà¦ı à¦Ĩà¦ĩà¦ıà¦®
à¦ĸ à¦¸à§ľ
Ġà¦² à¦ĩà¦²
Ġà¦ĸ à¦¤à¦¨
Ġà¦ĺ à¦°à¦£
à¦¯à¦® à¦ĩ
Ġà¦®à¦¤ à¦ĵ
Ġà¦ıà¦® à¦ıà¦¨à¦ª
à¦Ĺà¦² à¦Ĺà¦ŀ
Ġà¦ľà§Ł à¦¹
Ġà¦¬à§Łà¦¸ à¦ľà¦¨
à¦¬à¦¶ à¦Ļ
Ġà¦¨à¦Ń à¦¦
Ġà¦ķà¦¤ à¦¶à¦¤
Ġà§®à§¦ à§¬
à§§à§¯ à§§à§¨
à§§à§« à§¦
Ġà§®à§© à§§
Ġà¦¸à§İ à¦ªà¦¥
Ġà§§à§Ńà§Ń à§¬
à¦¤ à¦īà¦²
à¦ķ à¦īà¦²
à¦² à¦°à¦¸à¦¹
à§Ł à¦ľà¦²
Ġà¦ķ à§ľà¦ķ
à¦Ł à¦Ĩ
à¦ĩ à¦ªà¦¸
à¦Ĺ à¦¦à¦°
Ġà¦Ĺ à¦Ĺà¦£
Ġà¦ĵ à¦ļ
Ġà¦ĩ à¦ªà¦¸
Ġà¦§ à¦ĩà¦¨
Ġà¦ıà¦¸ à¦ıà¦¸à¦¡
Ġà¦¬à§ľ à¦¦à¦²
Ġà§¬à§¦ à§Ń
Ġà¦¦à¦¶à¦ķ à¦Ĺ
Ġà¦Ĩà¦ĩà¦ıà¦¸ à¦Ĩà¦ĩà§Ł
Ġà§®à§ª à§ª
Ġà§®à§Ń à§§
Ġà§§à§®à§ª à§¬
à¦ĩà¦ĩ à¦ĩ
Ġà¦ªà¦¦à¦¸ à¦®
Ġà¦¸ à¦°à¦®
Ġà¦Ĩ à¦Łà¦Ĺ
à¦¶ à§Łà¦¬
à¦£ à¦¬à¦¨à¦Ĺà¦°
Ġà¦ªà¦° à¦Ĺ
à¦°à¦£ à¦¸à¦®
à¦¬à¦° à¦¡
Ġà¦īà¦ª à¦ªà¦¤
Ġà¦Ĩà¦¬ à¦¬
à¦¯à¦ķ à¦Ł
à¦ıà¦¸ à¦°
Ġà¦ıà¦¨ à¦¹
à¦°à¦®à¦£ à¦¬
Ġà§§à§® à§¨à§ª
Ġà§§à§® à§©à§¨
Ġà¦ľà¦² à¦¬à¦¨
à¦¶à¦² à¦ªà¦¤
Ġà¦īà¦ĩ à¦²à¦ķ
Ġà§¯à§Ń à§¨
à§§à§¯à§© à§«
Ġà§§à§Ńà§¬ à§«
à¦° à§İà¦¸
à§Ł à¦¶à¦ª
à¦¬ à§ľà¦²
à¦¸ à¦ļà¦°
à¦Ł à¦²à¦Ł
à¦Ł à¦Ńà¦ķ
à¦¶ à¦ªà¦²
Ġà¦¨ à§ľà¦²
Ġà¦ĩ à¦¹à¦¤
à¦ī à¦¸à¦Ł
à¦°à¦£ à¦¬à¦¶à¦¤
à§Łà¦¨ à¦ªà¦¤
Ġà¦Ĩà¦Ĺ à¦ªà¦°
à¦Łà¦¨ à¦ĵ
Ġà¦ĩà¦¨ à¦Ńà§Ł
Ġà¦ķà¦² à¦¡
Ġà¦¶à¦¤ à¦Ĺ
Ġà§§à§® à§¨à§¯
à¦¡à¦² à¦ħà¦°
Ġà§®à§« à§§
à¦¤à¦¸ à¦ķà¦°
Ġà§¯à§® à§¯
Ġà§¯à§Ń à§ª
à¦¯à¦ĸà¦¨ à¦ĩ
Ġà¦¹à¦°à¦¦ à¦®
à¦¬ à¦¤à¦°
à¦¸ à¦ĸà¦¨
à¦ª à¦¬à¦¦
Ġà¦¨ à¦°à¦¬à¦²
à¦ĸ à¦¹
Ġà¦ĩ à¦ıà¦«à¦Ł
à¦¬à¦² à¦ĵ
à¦°à¦¨ à¦¨
Ġà¦ķà¦² à¦®à¦Ł
à¦ħ à¦°à¦£
Ġà§§à§® à§§à§ª
Ġà§§à§® à§¦à§§
Ġà¦Ĩà¦ĩ à¦ıà¦«à¦¸
Ġà¦¶à¦¹ à¦°à¦®
Ġà§¨à§¬ à§§à§§
Ġà¦²à§ľ à¦²
à¦¦à¦¶ à¦¹à¦°
Ġà¦Ĩà§ľ à§İ
à¦ıà¦ĩà¦ļ à¦ĩ
Ġà§¦à§© à§§
à¦īà¦¶à¦¨ à¦¸
Ġà§Ńà§® à§©
à¦¤à¦°à¦ķ à¦¨
à¦Ŀà¦¬ à§Łà¦¸
à§§à§¯à§ª à§©
à§§à§¯à§© à§¯
à¦ķ à¦¬à¦¸
à¦ķ à¦¶à¦ķ
à¦¸ à¦°à¦²
Ġà¦Ĩ à¦ļà¦²
à¦ĩ à¦ıà¦®
à¦ļ à¦ľ
Ġà¦Ĺ à§İà¦¬
Ġà¦Ł à¦ªà¦²
à¦ı à¦ķà¦²
à¦ªà¦° à¦¸
à¦¬à¦¨ à¦ľ
à¦Ĩ à¦°à¦Ń
à¦ĺ à¦¬à¦¬
à¦²à§Ł à¦¶
à¦°à¦¨ à¦Ń
Ġà¦¨à§Ł à¦¶
à¦Łà¦ķ à¦ĵ
Ġà¦Ŀ à¦°à¦¬
à¦ħ à¦¬à¦¨
à¦¬à¦¤ à¦Ł
Ġà¦Ĩà¦ĩ à¦ıà¦®à¦ı
Ġà¦īà¦ĩà¦ķ à¦ıà¦¨
Ġà¦ħà¦² à¦ĵà§Ł
Ġà¦ĭ à¦ķ
à¦ıà¦« à¦ıà¦ķ
à§İà¦¸à¦ķ à¦ĵ
Ġà§¬à§« à§©
à¦¯à¦ľ à¦Ĺà¦¤
Ġà§¯à§® à§¬
à¦¨ à¦®à¦¸
à¦¤ à¦¸à¦¤
à¦ķ à¦·à¦£
à¦¸ à¦ħ
à¦· à¦°à¦ľ
à¦Ń à¦ľà¦¨
à¦¡ à¦ľà¦¨
Ġà¦ĩ à¦ĵ
à¦°à¦¤ à¦ª
Ġà¦ĸ à¦°à¦¬
à¦ĺ à¦ĵ
à¦¤à¦¨ à¦¯
Ġà¦¸à¦° à¦¨
Ġà¦ĵà¦ĩ à¦°à¦ķà¦®
à¦¹à¦° à¦°à¦®
à¦¸à¦® à¦¬
Ġà¦°à¦ķ à¦«
Ġà¦¨à¦¬ à¦Ĺà¦Ļ
Ġà§¨à§© à§¦à§¦
à¦ªà§ľ à¦ĵ
à¦Łà¦® à¦Ł
à¦Ĩà¦ľ à¦¹
Ġà§©à§¨ à§¦à§¦
Ġà§§à§ªà§ª à§§
à¦® à§Łà¦¸
à¦Ł à¦²à¦ķ
Ġà¦ı à¦ıà¦ª
à¦· à¦®à¦¦
à¦¥ à¦¸à¦ļ
Ġà¦ĵ à¦ıà¦®à¦Ĩà¦°
Ġà¦Ĩà¦° à¦Ĩà¦°
à¦®à¦¨ à¦ľ
à¦ŀ à¦¯
Ġà¦īà¦ª à¦ĸ
à¦·à¦£ à¦°
Ġà§Ń à§¯à§§
Ġà¦ĩà¦ī à¦Ĩà¦ĩ
Ġà¦Ńà¦° à¦Ľ
Ġà§§à§® à§©à§§
à¦ªà¦¥ à¦¯
à§§à§¨ à§®
Ġà¦īà¦ĩà¦² à¦¹
Ġà§®à§Ń à§®
Ġà§¯à§Ń à§¯
Ġà§¯à§ª à§¯
à§§à§¯à§© à§©
à¦·à§ľ à¦¯à¦¨
à¦¤ à¦¸à¦¬
à¦² à¦¸à¦¬
à¦¦ à¦Ļ
à¦¶ à¦¤à¦Ń
à¦¶ à¦Ńà¦ķ
à¦Ĺ à¦¬à¦¸
à¦¥ à¦²à¦¨
à¦¡ à¦ªà¦¤
Ġà¦Ľ à¦²à¦ļ
à¦ł à¦ľ
à¦¬à¦° à¦ªà¦¤
à¦ı à¦ķà¦¶
à¦ªà¦¨ à¦¸
Ġà§¨à§¦ à§©à§«
Ġà¦Ĩà¦¸ à¦¨à¦¬
à¦·à¦£ à¦§à¦°
Ġà¦ıà¦¨ à¦ıà¦¸à¦ı
Ġà§§à§« à§§à§¬
à¦°à¦®à¦£ à¦Ĺ
Ġà¦Ĩà¦¸à¦¨ à¦ĩ
à¦Ĩà¦® à¦ľ
à¦ļà¦ķ à¦£
à§§à§¯ à§¨à§®
Ġà§¯à§ª à§ª
Ġà§§à§®à§ª à§ª
Ġà¦®à¦ĩ à¦§
Ġà¦®à¦ļ à¦®à¦ļ
à¦ķ à¦ļà¦°
Ġà¦ª à¦ĩà¦°
à¦ª à¦²à¦¬
à¦ľ à§Łà¦°
Ġà¦¹ à¦Ľ
Ġà¦¹ à§ľà¦ķ
Ġà¦° à¦¯
Ġà¦° à¦¸à¦ķ
à¦®à¦¨ à¦¡
à¦¬à¦¸ à¦°
à¦¬à¦² à¦°
à¦ĩà¦² à¦Łà¦°
à¦°à¦¨ à¦ĵ
à¦¨à¦¬ à¦Ĺ
à¦¨à¦ķ à¦Ń
à¦ĩà¦¸ à¦ľ
Ġà¦ľà§Ł à¦ĵ
Ġà¦ıà¦¡ à¦ľ
Ġà¦Ĩà¦Ł à¦ļà¦²
Ġà¦Ĩà¦ļà¦°à¦£ à¦ĵ
Ġà§¯à§Ń à§©
Ġà§¯à§© à§®
à§§à§¯à§ª à§§
à¦ķ à¦®à¦°
à¦ª à¦¸à¦¦
Ġà¦Ĩ à¦īà§ľ
à¦ľ à§Łà¦Ĺ
Ġà¦¦ à¦¹à¦Ĺ
Ġà¦ķà¦° à¦Ń
à¦ļ à¦«à¦²à¦¨
à¦« à¦Ń
à¦¬à¦¨ à¦¸à¦¹
à§İ à¦¸à¦²
à¦ªà¦¤ à¦®
Ġà¦ķà¦® à¦²à¦ķ
Ġà¦ķà¦¥ à¦ķà¦¤
Ġà¦¸à¦¨ à¦¦à¦Ł
à¦Ĺà¦° à¦Ł
Ġà¦Ŀ à¦°à¦£
à¦°à¦®à¦£ à¦ľà¦¨
Ġà¦Ĩà¦ª à¦ĵà§Ł
Ġà§®à§Ń à§¨
à¦īà¦ª à¦¹
Ġà¦īà¦Ń à§Łà¦¦
Ġà¦¸à§İà¦¸ à¦Ļ
Ġà¦ķ à¦Ĺà¦¨
Ġà¦Ĩ à¦¤à¦ķ
Ġà¦® à¦ī
Ġà¦Ń à¦²à¦¡
Ġà¦¡ à¦Łà¦¨
à¦īà¦¨ à¦¬
à¦ĩà¦² à¦ª
Ġà§® à§¯à§Ń
à¦¨à¦¬ à¦¶à¦°
à¦§à¦¨ à¦¯à¦ľ
Ġà¦Ĺà¦£ à¦ħà¦¨à¦¶à¦¨
à¦¬à¦¤ à¦¤
Ġà§§à§® à§§à§¯
Ġà¦Ĩà¦§ à¦ĸ
à¦ıà¦« à¦ľ
à¦ķà¦® à¦²à¦¨à¦Ĺà¦°
à¦¸à¦« à§ľ
Ġà§®à§« à§ª
Ġà§¯à§ª à§¬
à¦° à¦ī
à¦¤ à¦²à¦Ĺ
à¦® à¦ļà¦ķ
à¦¹ à¦¨à¦¦
Ġà¦Ń à§ľ
à¦ı à¦ķà¦¸
à¦ı à¦ıà¦«à¦ª
à¦¶à¦¨ à¦¨
à¦¯à¦ķ à¦¥
Ġà§® à§§à§¯
Ġà¦ªà¦¦ à¦¤à¦²
Ġà¦ıà¦® à¦ĩ
Ġà¦ıà¦® à¦ıà¦¨à¦ı
à¦ĩà¦ľ à¦¤
à¦«à¦Ł à¦ª
à¦Łà¦® à¦¹à¦²à¦¬
à¦°à¦Ĩà¦¨ à¦ĸ
Ġà§¦à§¦ à§©
à¦¤à¦ķà¦°à¦£ à¦¸à¦¹
Ġà§®à§¬ à§¬
Ġà§¯à§¬ à§®
à¦Łà¦ĸ à¦Ł
à¦«à¦ľ à¦ĸ
Ġà¦ľà§Łà¦° à¦¥
à¦® à¦Īà¦¨
Ġà¦¸ à¦Ĺà¦°
à¦¸ à¦ªà¦°
à¦¯ à¦¤à¦°
à¦Ĺ à¦ªà¦¥
à¦Ĺ à¦¶à¦Ļ
à¦¹ à¦Ńà¦Ļ
à¦¹ à¦ľà¦¨à¦ķà¦Ń
à¦ĸ à¦Ĺà¦¹
à¦ī à¦ķà¦®
Ġà¦ĺ à¦°à¦¦
Ġà¦§ à¦°à¦®
à¦ĺ à¦°à¦Ĺ
Ġà¦ıà¦Ł à¦®
à¦°à¦ª à¦ŀ
Ġà§¦ à§¯à§¬
à¦ľà§Ł à¦²
à¦¨à¦Ĺ à¦°à¦¬
Ġà¦Ĩà¦ļ à§ľ
Ġà§Ńà§¬ à§¬
à¦² à¦Ĩà¦¬
à¦® à¦²à¦¨
Ġà¦ª à¦¦à¦¸à¦¹
Ġà¦Ĩ à¦īà¦°
à¦§ à¦°à¦ª
à¦ļ à¦¬à¦Ł
à§ľ à¦¶à¦¤
à¦ı à¦¹à¦¸
à¦ŀ à¦ļ
Ġà¦īà¦ª à¦¬à¦¨
à¦ĸà¦¨ à¦ķ
Ġà¦¸à¦®à§Ł à¦ľ
Ġà¦§à¦° à¦¨à¦ĵ
Ġà¦®à¦¤ à¦Ł
Ġà¦ĩà¦¨ à¦ķà¦°à¦ª
Ġà¦¨à§Ł à¦¦
à¦°à¦ª à§Ł
Ġà¦¬à¦ķ à¦ĸ
à¦«à¦² à¦ĩ
à§İà¦¸à¦ķ à¦ĩ
Ġà§¦à§¦ à§ª
Ġà§¬à§¬ à§©
Ġà§¯à§« à§§
Ġà§Ńà§® à§¨
Ġà§¯à§© à§¯
à¦ıà¦¸à¦ı à¦«à¦°
à¦² à¦Ĺà¦²
à¦¬ à¦ĩà¦ķ
Ġà¦ķ à¦¤à¦°
à¦¯ à¦°à¦¶
à¦Ľ à¦ªà¦Ł
Ġà¦¨ à¦²à¦¤
Ġà¦ħ à¦ĩà¦Ľ
à§ľ à¦¨à¦®
Ġà¦ĸ à¦®
à¦ľà¦¨ à¦ªà¦°
Ġà¦Ĩà¦° à¦ıà¦¨
Ġà§¨à§¦ à§©à§§
Ġà¦ıà¦² à¦ıà¦®à¦ľ
à¦¬à¦² à¦¤à¦°
Ġà¦¬à§ľ à¦Ł
à¦°à¦ĵ à¦¶à¦¨
à¦²à¦Ĺ à¦®
Ġà¦ľà¦² à¦¸à¦®
à¦²à¦Ł à¦Ł
à¦²à¦Ń à¦¬à¦¨
Ġà§¯à§¦ à§®
Ġà¦ĩà¦ľ à¦¹
Ġà§®à§« à§Ń
Ġà§§à§ªà§ª à§¦
à§§à§¯à§© à§¬
à¦¶à¦°à¦£ à¦ĸ
à¦ķ à¦ļà¦Ł
à¦® à¦¸à¦²
Ġà¦Ĩ à¦ªà¦°
Ġà¦¦ à¦ªà¦¦à¦ª
à¦§ à¦ľà§Ł
à§ľ à¦¯à¦¨
Ġà¦ļ à¦®à¦¸
Ġà¦ī à¦®à¦¤
à¦¡ à¦ĸ
à¦ī à¦¬à¦¨
à¦ı à¦¤à¦Ł
Ġà¦ıà¦² à¦ıà¦®
Ġà§Ń à§¯à§Ń
à¦¸à¦ķ à¦°à¦£
Ġà§§à§® à§§à§«
à¦Ĩà¦ĩ à¦ĩà¦īà¦¸
à¦²à¦Ĺ à¦ª
Ġà§¨à§Ń à§¦à§¦
Ġà¦ıà¦¡ à¦īà¦ĩà¦¨
à¦ıà¦« à¦Ĩà¦°
Ġà¦¬à¦ĩ à¦¸à¦¹
à¦ªà¦£ à¦¨à¦ķ
à¦Ĩà¦ĩà¦¨ à¦¸
Ġà§®à§Ń à§¯
à¦ĸà§ľ à¦Ĺà¦ª
à¦Ĭ à¦¨à¦¬
à¦¨ à¦ªà¦Ł
à¦² à¦ªà¦Ł
à¦¦ à¦°à¦¤à¦®
à¦ľ à§Łà¦¸
Ġà¦² à¦ĩ
Ġà¦ĩ à¦«à¦°
Ġà¦ıà¦¸ à¦°
à¦°à¦¨ à¦ĩ
à¦¹à¦° à¦²
à¦¬à¦ķ à¦¦à¦²
à¦¨à¦ķ à§ľ
à¦¸à¦° à¦Ĺ
Ġà¦ĩà¦ī à¦ı
Ġà¦ıà¦® à¦ıà¦¸à¦ķ
Ġà¦ĵà¦ł à¦Ľ
Ġà¦ĵà¦ł à¦¬à¦¸
Ġà¦Ĺà¦¨ à¦ª
Ġà§¯à§© à§Ń
à¦² à¦¹à¦°
à¦¸ à¦°à¦¤à¦ķ
à¦¦ à§Łà¦¸
à¦ª à¦¬à¦¨
Ġà¦Ĩ à¦¶à¦¨
à¦ľ à¦¬à¦²
à¦£ à¦°à¦ķ
à¦£ à¦¤à¦°
Ġà¦ļ à¦°à¦¤
Ġà¦Ń à¦¦à¦¨
à¦Ĩ à¦Łà¦²
Ġà¦¹à¦¤ à¦¶
à¦®à¦¤ à¦ĩ
à¦ĩà¦² à¦ĩ
Ġà¦Ĩà¦ķ à¦°à¦®
Ġà¦ıà¦¤ à¦ĸ
Ġà¦ªà¦¦ à¦ĩ
à¦¦à¦² à¦ª
Ġà¦Ĩà¦Łà¦ķ à¦ĵ
à¦¨à¦® à¦Ĺ
à¦ķà¦°à¦£ à¦¸à¦¹
à¦²à¦Ń à¦®
à§İà¦¸à¦ķ à¦Ĺà¦£
Ġà¦ħà¦¬à¦¦ à¦®à¦¨
Ġà¦īà¦ĩà¦¨ à¦«
Ġà§¯à§Ń à§¬
Ġà¦Ĺà¦²à¦¦ à¦ĺà¦°
Ġà¦ĸà¦ļ à¦ĸà¦ļ
à¦ļà¦«à¦²à¦¨ à¦¶
Ġà¦ķ à¦ļà¦ķ
Ġà¦ª à¦¦à¦¨
à¦¥ à¦²à¦¬
à§ľ à¦£
Ġà¦ļ à¦ªà¦¸
Ġà¦ī à¦®à¦ª
Ġà¦« à¦°à¦Ĺ
Ġà¦Ł à¦²à¦¤
à¦¸à¦¹ à¦ķà¦°
Ġà¦īà¦ł à¦¬à¦¸
à¦¨à¦° à¦Ĺ
à¦īà¦ľ à¦²
à¦²à¦¸ à¦Ł
à¦¹à¦°à¦£ à¦Ł
Ġà¦īà¦ĩà¦² à¦«
à§§à§¯à§© à§®
Ġà§§à§«à§¦à§¦ à§¦
Ġà¦¸ à§Łà¦¦
à¦Ł à¦ľà¦¨à¦¤
à¦ļ à¦ĸ
Ġà¦¶ à¦°à§Ł
à¦« à¦¨à¦ķ
Ġà¦Ĩà¦° à¦ıà¦®
Ġà¦Ĩà¦° à¦ıà¦«
à¦¬à¦¸ à¦®à¦ķ
à¦Ĩ à¦¯
à¦·à¦£ à¦¦
à¦¤à¦¬ à§ľ
Ġà¦¸à¦° à¦¯
Ġà¦ıà¦¨ à¦²
Ġà¦ªà¦¥ à¦¹
Ġà¦Ĩà¦²à¦® à¦ĵ
à¦ķà¦ľà¦¨ à¦¸à¦¹
à¦ĩà¦¡ à¦¨
à¦ķà¦ķ à¦°à¦£
à¦¨à¦Ĺ à¦°à¦¸à¦¹
à¦¶à¦° à¦ŀ
Ġà¦īà¦ĩà¦¨ à¦¡
à¦¤à¦ľà¦¨ à¦¦
Ġà¦ķà¦®à¦¨ à¦°
à¦ķà¦®à¦¨ à¦ĵà§Ł
à¦¨ à¦²à¦Ľ
à¦ª à¦ľà¦¨
Ġà¦ĵ à§İ
à¦¡ à¦¬à¦ķ
à¦ı à¦¡à¦ĵà§Ł
à¦¬à¦¨ à¦¶
à¦·à¦£ à¦¸à¦®
à¦¯à¦ķ à¦¨
Ġà¦ªà¦¦ à¦Ń
à¦¨à¦ķ à¦°à¦£
à¦ıà¦¨ à¦Ĩà¦ĩ
Ġà¦īà¦² à¦Łà¦ª
à¦§à¦¨ à¦ĩ
à¦¨à§Łà¦¨ à¦¬
Ġà§§à§® à§¨à§§
Ġà§§à§¬ à§§à§¦
Ġà§§à§© à§«à§¦
Ġà¦ļà¦° à¦ĸ
Ġà¦ħà¦² à¦¡
Ġà¦Ĺà¦łà¦¨ à¦¸à¦¹
à¦ķà¦¶à¦¨ à¦ĵ
Ġà¦ıà¦¹ à¦Ľ
à§§à§¨à§¦ à§¨à§§
à¦¤ à¦²à¦¨
à¦ķ à¦ķà¦¨
à¦ª à§ľà¦¤
à¦§ à¦ķà¦¦
Ġà¦° à¦ľà¦ķ
à¦£ à¦¢
Ġà¦ļ à¦°à¦¶
Ġà¦ĩ à¦Ĩà¦ĩ
à¦« à§Ł
Ġà¦Ĩà¦° à¦ıà¦ķ
à¦ı à¦®à¦°
Ġà¦§ à§ľà¦ķ
à¦ŀ à¦ľà¦¨
à¦¬à¦¨ à¦°à¦ķ
Ġà¦²à¦ķ à¦¹
Ġà¦²à¦ķ à¦Ĩà¦ª
Ġà¦¬à¦¸ à¦Ĺ
Ġà¦Ĩà§Ł à¦¸
Ġà¦ľà§Ł à¦¬à¦°
Ġà¦ªà¦¥ à¦ªà¦°
Ġà§§à§® à§¨à§«
à¦¡à¦² à¦¸à¦¹
à¦¬à¦¹à¦¨ à¦¸à¦¹
à¦Ī à¦ľ
à§Łà¦Ł à¦Ĺà¦ŀ
Ġà§¦à§§à§Ń à§§à§¬
Ġà¦ıà¦¨à¦ıà¦¸ à¦ĵ
à¦¨à¦¸à¦ª à¦Ł
à¦° à¦¡à¦®
à¦¨ à¦ªà¦¦
Ġà¦® à§Łà¦°
à¦ľ à¦·
à¦¶ à¦°à¦¹
Ġà¦¤ à¦¹à¦®
à¦¥ à¦¤à¦²
à¦« à¦£
à¦Ļ à¦¨à¦°
à¦ī à¦ĩà¦¸
à¦ī à¦ªà¦¯
Ġà¦§ à¦¨à¦¤
Ġà¦ıà¦¸ à¦ĩà¦¸
à¦®à§Ł à¦¯
à¦Ĺà¦² à¦®à§Ł
à¦¹à¦¨ à¦ĵà§Ł
à¦ĩà¦ª à¦¡
à¦¦à§Ł à¦¹
Ġà¦ĩà¦Ń à¦¨
à§§à§¯ à§¨à§ª
à¦īà¦Łà¦° à¦°
Ġà¦¶à¦¤à¦° à¦ŀ
Ġà¦¹à¦ĩà¦ļ à¦ĩà§Ł
à¦ķ à¦ªà¦£
Ġà¦¸ à¦¬à¦¸
à¦¸ à¦¤à¦¤
Ġà¦® à¦ķà¦²
Ġà¦ķà¦° à¦ķ
à¦ļ à¦¬à¦Ľà¦°
Ġà¦Ĺ à¦°à¦ľ
Ġà¦ļ à¦°à¦ľ
Ġà¦ªà¦° à¦Ń
Ġà¦Ľ à¦ĵà§Ł
Ġà¦ĩ à¦«à¦«
Ġà¦ĸ à¦¸à¦²
à§Į à¦ĥ
à¦°à¦¥à¦® à¦ªà¦¤
Ġà¦ĩà¦ī à¦®
Ġà¦ľà¦² à¦Ľ
Ġà¦¨à¦¬ à¦ªà¦¤
à¦ļà§Ł à¦¹
Ġà¦ĸà¦°à¦ļ à¦ĩ
Ġà¦Ĩà¦ĩà¦ª à¦¡
à§§à§¯ à§¨à§Ń
à§§à§§à§ ¯
Ġà§§à§®à§ª à§©
Ġà¦ıà¦®à¦Ĩà¦° à¦ıà¦¨à¦ı
à¦¨ à¦®à¦°
à¦¸ à¦¦à¦¸à¦¹
à¦¦ à¦°à¦¸
à¦¦ à¦®à¦¦à¦®
Ġà¦¹ à¦ľà¦ķ
à¦· à¦°à¦Ł
Ġà¦¤ à¦²à¦¸
Ġà¦ĵ à¦°à¦²
Ġà¦¹à§Ł à¦ĵ
Ġà¦ıà¦¸ à¦ıà¦¸à¦ª
à¦°à¦§ à¦¨
à¦ķà¦Ł à¦ľà¦¨
Ġà¦ł à¦¨
Ġà¦ĺà¦° à¦ľ
à¦īà¦Ł à¦°à¦¦
Ġà§§à§® à§§à§Ń
Ġà¦¬à§Łà¦¸ à¦ĩ
à¦īà¦ķ à¦°à¦®
à¦£à¦¬ à¦§à¦°
à¦ĸà¦ķ à¦ĵ
Ġà¦¦à¦®à¦¨ à¦®
à¦ľà¦«à¦« à¦°à¦ª
à¦¬ à¦¹à¦¸
à¦® à¦®à¦¹
à¦· à¦®à¦ķ
Ġà¦ĵ à¦¦à¦²
Ġà¦Ń à¦¬à¦¦
à¦°à¦¤ à¦Ĺ
Ġà¦ıà¦¬ à§ľ
à¦ı à¦ıà¦®
à¦ŀ à¦¸
à¦ŀ à¦ĩ
à¦Ĩ à¦ªà¦¤
à¦ĺ à¦¬à¦¨
à¦¥à¦® à¦ķ
à¦¨à¦¤ à¦¬
à¦ĩà¦ķ à¦ļ
à¦ĩà¦Ł à¦ª
à¦¸à¦® à¦Ŀ
à¦īà¦ľ à¦®
à¦Ĩà¦° à¦°
Ġà¦ļà¦ķ à¦ª
à¦ıà¦ĩà¦ļ à¦ıà¦®
Ġà¦ķà§ľ à¦ĩ
à§§à§¯ à§§à§®
Ġà¦«à¦°à¦® à¦Ł
Ġà¦¸à¦®à¦¤à¦² à¦Ń
à¦ıà¦®à¦ĵ à¦ıà¦ĩà¦ļ
Ġà¦ıà¦¤à¦¦à¦¸ à¦¤
Ġà¦Ĩà¦ĩà¦ıà¦ĩ à¦ı
à¦¸ à¦°à¦¬
à¦¸ à¦¨à¦¤
Ġà¦ª à¦¸à¦¨
à¦Ł à¦°à¦¨
à¦£ à¦ªà¦°
Ġà¦ļ à¦ĩ
Ġà¦ĩ à¦Ĩà¦°à¦ıà¦«
à¦ĺ à¦¤
à¦²à¦¨ à¦ļ
Ġà¦ıà¦®à¦¨ à¦¤à¦°
Ġà§® à§¨à§¬
Ġà¦ĩà¦ī à¦ıà¦¸à¦ª
Ġà¦ľà¦² à¦Ł
à¦ķà¦¨ à¦¸à¦¹
à¦°à¦ķà¦® à¦Ń
à¦ıà¦« à¦ıà¦¸à¦ıà¦²
à¦ĵà¦¨ à¦²
Ġà¦ĭà¦£ à¦ª
à¦ıà¦ĩà¦ļ à¦ıà¦²
à¦²à¦ĺ à§ľ
Ġà§§à§®à§ª à§§
Ġà¦ıà¦®à¦ıà¦² à¦ıà¦¸à¦ıà¦¸
Ġà¦īà¦« à¦¶
à¦Ĺ à¦ªà¦¨
à¦· à¦°à¦ĵ
à¦¥ à¦·
Ġà¦¯ à¦¯
Ġà¦Ĺ à¦¹à¦°
Ġà¦ıà¦ķ à¦¸à¦®à§Łà¦ķ
Ġà¦« à¦ĵà¦ľ
Ġà¦¬à¦² à¦§
à¦ªà¦¨ à¦¤
Ġà¦ĩà¦ī à¦ıà¦«à¦ĵ
à¦Ĺà¦² à¦ĩ
Ġà§§à§® à§¨à§¬
à¦«à¦² à¦¸
Ġà¦Ĳ à¦Ĺ
à¦ĩà¦¬ à¦Ľà¦°
à¦¨à§Ł à¦ĩ
Ġà¦Ĩà¦Ł à¦®
Ġà¦ĺà¦¨ à¦¶
à¦²à¦° à¦Ļ
à¦ķà¦¶à¦¨ à¦§à¦°
à§§à§¯ à§§à§¯
à¦¯à¦Łà¦¨ à¦¸
Ġà¦ıà¦Ĩà¦ĩà¦ıà¦® à¦Ĩà¦ĩà¦ıà¦®
Ġà¦ķ à¦®à¦¨à¦¸
à¦¸ à¦ıà¦²
Ġà¦Ĺ à¦°à¦¬
Ġà¦¸à¦® à§Łà¦¨
à¦ł à¦ĸ
à¦°à¦ķ à¦ļà¦ķ
à¦ľà¦¨ à¦¸à¦¨
Ġà¦Ĩà¦° à¦Ĺ
Ġà¦Ĩà¦¨ à¦ħà¦«
à¦¦à¦ķ à¦ª
Ġà¦ľà¦² à¦Ľà¦¬
à¦ĸà¦ķ à¦·
Ġà¦ıà¦¬à¦Ľà¦° à¦ĩ
à¦ıà¦¸à¦ıà¦² à¦Ń
à¦¤ à¦¸à¦²
Ġà¦¤ à¦¹à¦¨
à¦ļ à¦°à¦«
à¦ĸ à¦²à¦ķ
à¦ī à¦ĩà¦Ł
à¦°à¦ķ à¦¸à¦¹
Ġà¦Ĩà¦° à¦²
à¦¬à¦° à¦Ļ
Ġà¦¡ à¦¸à¦¨
à¦¬à¦¨ à¦°
à¦°à¦® à¦¦
à¦ĺ à¦°à¦ķ
Ġà¦ıà¦¸ à¦ĵà¦ıà¦¸
Ġà¦Ĩà¦ķ à¦·
à¦Ĺà¦° à¦ĩ
à§İà¦¸ à¦®
à¦°à¦ª à¦¬à¦ķ
Ġà¦īà¦¨ à¦ķ
à¦¶à¦ķ à¦£
à¦ıà¦¨ à¦Ĩà¦°à¦¸
à¦ıà¦¸ à¦ĩà¦ī
Ġà§§à§® à§¨à§©
Ġà¦Ĳ à¦¸à¦®à§Ł
à¦¬à¦¹ à¦¤à¦®
Ġà¦ķà¦¨ à¦·
à¦ķà¦¨ à¦ľ
à¦ķà¦¨ à¦¹
Ġà¦ķà¦Ł à¦ķà¦Ł
Ġà¦«à¦¸à¦² à¦¹
à¦ļà¦ľà¦¨ à¦ĩ
Ġà¦Ńà¦Ĺ à¦¬à¦¦
Ġà¦¹à¦ĵ à¦¯
à§§à§¯à§© à§ª
à¦¤ à¦¤à¦¨
à¦¬ à¦Łà¦ķ
à¦ĩ à¦Ĩà¦°
à¦ľ à¦¶à¦ķ
à¦ľ à¦ħà¦¨
à¦ľ à¦Ĺà¦¦
à¦Ĺ à¦°à¦¸à¦¹
Ġà¦ľ à¦«à¦°
à¦¥ à¦ĩà¦¸
Ġà¦Ń à¦²à¦ķ
Ġà¦ħà¦¨ à¦¶à¦¨à¦ķ
à¦Ĩ à¦·
à¦²à§Ł à¦°
Ġà¦Ĩà¦Ľ à¦²
Ġà¦ıà¦® à¦ıà¦®à¦ıà¦¸
Ġà¦ĺà¦° à¦ĩ
Ġà§§à§® à§©à§Ń
Ġà§§à§Ń à§«à§¦
Ġà¦¨à¦ľ à¦¦
Ġà¦«à¦¤ à¦ĵà§Ł
Ġà¦®à¦¤à¦¨ à¦ĩ
Ġà¦®à¦ł à¦Ł
à¦§à¦Ĺ à§Ł
Ġà¦¸à¦¬à¦° à¦®à¦¤
à¦® à¦¥à¦¨
à¦® à¦ĵà¦²
Ġà¦° à¦ĩà¦¬
à¦¡ à¦¸à¦Ń
à¦ī à§İ
à¦¬à¦° à¦®à¦ķ
Ġà¦Ĩà¦ªà¦¨ à¦®à¦¨
à¦®à¦¤ à¦Ĺ
Ġà¦¨à§Ł à¦®
à¦°à¦ª à¦Ļ
Ġà¦ıà¦ķà¦ĩ à¦¸à¦®à§Ł
Ġà§§à§© à§¨à§¦
à§¨à§¦ à§¨à§©
Ġà¦ĩà¦¸ à¦«
Ġà¦ĭ à¦£à¦®
à¦ķà¦® à¦¹à¦²
Ġà¦ĭà¦£ à¦¸
à§§à§¦ à§¦à§¦
Ġà¦ªà¦Ł à¦ļ
Ġà¦¦à¦«à¦¤à¦° à¦Ĺ
Ġà¦®à¦² à¦¹
Ġà¦¨à§ľ à¦ļà§ľ
Ġà§¯à§« à§¨
Ġà¦Ĺà¦¦ à¦ĸ
à§§à§¯à§© à§§
Ġà¦ķà¦ļà¦ķ à¦ļ
Ġà¦® à¦²à¦¨
Ġà¦¹ à¦Ĺà¦ĵà§Ł
à¦¶ à§Łà¦ķ
à¦§ à¦ĵà§Ł
Ġà¦¶ à¦®à¦°
Ġà¦ĵ à¦²à¦Ĺ
Ġà¦ī à¦ĵà¦®
à¦¬à¦¨ à¦ļ
Ġà¦¸à¦®à§Ł à¦¤
Ġà¦¬à¦¨ à¦¹
Ġà¦ħà¦¬à¦¸ à¦°à¦Ĺ
Ġà¦ıà¦ķà¦ľà¦¨ à¦¸à¦¹
Ġà¦Ńà§Ł à¦ĩ
Ġà¦¨à¦¬ à¦°à¦¤
Ġà§¨à§® à§¦à§¦
à§§à§¯ à§§à§ª
à¦¨à¦¶à¦¨ à¦Ł
Ġà§§à§¨à§¦ à§Ń
Ġà¦ľà¦Ĺà§İ à¦ľ
à¦®à§Łà¦¸ à¦Ń
à¦² à¦®à¦ķ
à¦¬ à¦Łà¦Ĺ
à¦¯ à¦·
Ġà¦¶ à¦ĵà¦ķ
Ġà¦² à¦ĩà¦¬
Ġà¦ľà¦¨ à¦ĵ
à¦ı à¦Ĩà¦°à¦¸
à¦ķà¦° à¦Ł
à¦¦à¦° à¦¨
à¦§à¦¨ à¦¦
Ġà¦¸à¦ļ à¦ķ
à¦ªà¦Ł à¦Ł
Ġà¦ĭà¦£ à¦ļ
à¦° à¦īà¦ªà¦°
à¦ķ à¦ªà¦°
à¦¸ à¦¬à¦°
à¦ª à¦Ĺà§ľ
à¦ĩ à¦§
Ġà§ Ŀ
à¦ļ à¦°à¦¦
Ġà¦ªà¦° à¦£
Ġà¦² à¦¹à¦°
à¦¬à¦° à¦ľ
à¦Ĩ à¦ĺ
à¦Ĩ à¦ĸà¦¤
à§İ à¦¶à¦ķ
Ġà¦Ĩà¦¨ à¦«à¦²
Ġà¦¸à¦¹ à¦°
à¦®à¦² à¦¦
à¦°à§Ł à¦ľà¦¨
à¦®à¦ķ à¦¸
Ġà¦īà¦¨ à¦¸à¦¤
Ġà¦Ŀ à¦ª
à¦¹à¦² à¦®
Ġà§§à§® à§¦à§©
Ġà¦¨à¦Ĺà¦° à¦Ł
Ġà§¦à§¦ à§§
Ġà¦Ĭ à¦ł
Ġà¦ķà¦¬à¦° à¦ĸ
à¦ħà¦Ń à§Łà¦¨à¦Ĺà¦°
Ġà¦¸à¦®à¦Ŀ à¦¦
à¦¤à¦ĸà¦¨ à¦ĵ
Ġà§§à§Ńà§Ń à§¦
Ġà§§à§Ńà§® à§¯
ĠĠĠĠĠĠĠĠĠĠĠĠĠĠĠĠ ĠĠĠĠĠĠĠĠĠĠĠĠĠĠĠĠ
Ġà¦Ĺà¦ľà¦² à¦¡
à¦ķ à¦ĩà§Ł
à¦® à¦«à¦¨
à¦¶ à¦¸à¦ļ
Ġà¦¤ à¦®à¦¸
à¦§ à¦·
à¦§ à¦¤à¦®
Ġà¦ĩ à¦¤à¦®
Ġà¦ĸ à¦°à¦¤
Ġà¦ĸ à¦Łà¦ĸà¦Ł
Ġà¦ľà¦¨ à¦ķà¦¨
à¦ķà¦° à¦ĩ
à¦Ĩ à¦ķà¦¸
à¦Ĩ à¦«à¦°
Ġà¦ıà¦¸ à¦ĵ
à¦·à¦ķ à¦¶
Ġà¦¶à¦¤ à¦¦
Ġà¦ħà¦ªà¦° à¦ļ
à¦¸à¦¦ à¦ĵ
à¦Ĩà¦ĩ à¦¸à¦²
à¦ªà¦¦ à¦ĩ
à¦¶à¦Ĺ à¦Ļ
à¦®à¦°à¦£ à¦ĺ
à¦¨à¦ľà¦¨ à¦¸à¦¹
Ġà¦¸à¦ľ à¦²à¦ķ
Ġà¦ķà¦¦ à¦®à¦¬
Ġà§§à§Ńà§® à§Ń
à¦°à§İ à§Ł
Ġà¦ľà¦¨à¦¦ à¦°à¦¦
à¦¤ à¦¬à¦²
à¦² à¦Ĩà¦ª
Ġà¦ķ à¦²à¦¨
Ġà¦ª à¦Ĺ
à¦¦ à¦ªà¦¦
Ġà¦¹ à¦¬à¦¸
à¦¹ à¦°à¦®
à§ľ à¦¨à¦¬
à¦ī à¦¬à¦¸à¦¹
Ġà¦ľà¦¨ à¦ªà¦°
à§Łà¦¨ à¦ªà¦°
Ġà¦Ĩà¦² à¦¨
à¦°à¦¸ à¦¦à¦¨
à¦¯à¦¬ à¦²
Ġà¦ıà¦² à¦Ĺà¦°
à¦ĩà¦Ł à¦ĩ
à¦¬à¦ķ à¦®
Ġà§§à§® à§©à§ª
Ġà¦īà§İ à¦ĸà¦¨à¦¨
à¦ļà¦ķ à¦ĵ
Ġà¦ĩà¦īà¦ıà¦¨ à¦ıà¦«à¦ª
Ġà¦ķà¦ªà¦Ł à¦¤
Ġà¦ķ à¦ĵà¦¨
Ġà¦¬ à¦ª
à¦ª à¦¦à¦°
à¦¶ à¦Ńà¦Ļ
Ġà¦¨ à¦°à¦«
à¦· à¦¶à¦ķ
à¦¹ à§ľ
Ġà¦ĩ à¦ıà¦«à¦¡
à¦¬à¦° à¦¦à¦¸
Ġà¦§ à¦²à¦ĺ
à¦¶à¦¨ à¦®
à¦¯à¦ķ à¦Ń
à¦¨à¦¤ à¦¦
Ġà¦¨à§Ł à¦¬
Ġà¦Ĩà¦ĩà¦¨ à¦ĩ
Ġà¦ľà¦® à¦¶
à¦¯à¦° à¦ŀ
à¦Ĺà¦® à¦£
Ġà¦Ľà§Ł à¦²
à¦ªà¦¸ à¦ĩ
à¦¤à¦°à¦ķ à¦°à¦£
à¦ıà¦ķà¦¦ à¦²
Ġà¦ķà§ľà¦ķ à§ľ
à¦¨ à¦ŀ
à¦¨ à¦Ĺà¦¤à¦Ń
à¦ķ à¦ªà¦¤
à¦² à¦¸à¦¦
à¦® à¦ĩà§Ł
à¦¦ à¦¤à¦¬
Ġà¦ı à¦Ĩà¦ĩà¦Ł
Ġà¦¶ à¦£
Ġà¦ĺ à¦°à¦¸à¦¹
à¦²à¦¤ à¦¸à¦¹
à¦°à¦ª à¦¸
Ġà¦Ĩà¦ĩà¦¨ à¦¸à¦¹
Ġà§¨à§¦à§¨ à§®
à¦·à¦¦ à¦Ł
Ġà§§à§® à§¦à§ª
à¦īà¦ĩ à¦ĺ
Ġà¦ħà¦®à¦° à¦ľ
Ġà¦ıà¦Ĩà¦ĩ à¦ĩà¦īà¦¬
à¦¨ à¦¸à¦¨à¦ķ
Ġà¦¸ à§İà¦ª
à¦Ł à¦«à¦²
à¦ĩ à¦°à¦ķ
à¦¶ à¦ķà¦¬
Ġà¦¨ à¦¹à¦°
à¦Ĺ à¦«à¦°à¦Ĺ
Ġà¦ī à¦ĩà¦¬
Ġà¦ıà¦ķ à¦¨à¦®
Ġà¦ĩ à¦ĸà¦ĵà§Ł
Ġà¦ľà¦¨ à¦¨à¦¨
à¦®à¦¨ à¦ĵ
à¦Ĩ à¦²à¦Ń
à§İ à¦®à¦¨
Ġà¦§à¦° à¦¨à¦ķ
Ġà¦Ĩà§Ł à¦¬à¦°
Ġà¦Ĺà¦£ à¦Ĩà¦¦
Ġà¦¶à¦¹à¦° à¦ĵ
à¦¨à§Łà¦¨ à¦ķà¦°
Ġà§§à§® à§¦à§¨
Ġà¦Ĩà¦¹à¦® à¦¦à¦¸à¦¹
à¦¨à¦¦ à¦¶
Ġà§§à§¬ à§«à§¦
Ġà§§à§Ń à§¯à§¯
Ġà¦ķà¦¨ à¦ķà¦¦
Ġà¦Īà¦¦ à¦Ĺà§ľ
à¦ĸà¦ķ à¦ĩ
Ġà¦°à¦Ļ à¦Ĺ
à§§à§¯ à§§à§Ń
à§§à§¯ à§§à§©
Ġà¦®à¦°à¦£ à¦«
Ġà¦¤à§İà¦ªà¦° à¦¬à¦°
à§Ł à¦¬à¦¹
à¦¬ à¦·
à¦¸ à§İ
à¦¯ à§İà¦ķ
à¦· à¦°à¦¬
à¦¹ à¦¨à¦ĵ
à¦ĸ à¦Ńà¦Ļ
Ġà¦ļ à¦®à¦¨
Ġà¦ļ à¦°à¦ľà¦¬
Ġà¦¸à¦® à¦¤à¦Ł
à¦°à¦ķ à¦Ń
à¦ļà¦¨ à¦¶
Ġà¦ıà¦¸ à¦Ĩà¦ĩà¦ķ
à¦Ŀ à¦¨à¦¦
à¦°à¦¨ à¦®
à¦¹à¦¤ à¦ķà¦°à¦£
à¦ļà¦² à¦ĩ
Ġà§§à§¨ à§§à§«
Ġà¦ľà§Ł à¦®à¦¨
Ġà¦ķà¦¬ à¦°à¦ķ
Ġà¦ľà¦° à¦¥
Ġà¦ľà¦² à¦¹à¦¸
à¦ľà§Ł à¦¬à¦°à¦£
à¦¸à¦Ń à¦°
Ġà¦Ĩà¦Ł à¦ĸ
Ġà¦ĵà¦® à¦°à¦ķ
Ġà¦Ĺà¦ľ à¦Ĺà¦ľ
Ġà¦¬à¦¦à¦° à¦ĸ
à¦Ĩà¦« à¦ľ
à¦®à¦īà¦¦ à¦¦
Ġà§§à§Ńà§® à§¦
Ġà¦Ĩà¦ĩà¦ıà¦² à¦ıà¦«à¦ıà¦¸à¦ıà¦²
à¦Ķ à¦ªà¦¨
à¦® à¦Łà¦°
Ġà¦¸ à¦§
Ġà¦¸ à¦ķà¦°
Ġà¦ª à§Łà¦¤
Ġà¦¥ à¦Ł
Ġà¦² à¦Ńà¦²
Ġà¦Ľ à¦²à¦ķ
Ġà¦« à¦°à¦Ł
à¦°à¦£ à¦ª
à¦ĺ à¦°à¦ĵ
Ġà¦ıà¦¸ à¦ĩà¦īà¦¸
à¦¦à¦° à¦ĸ
à¦²à¦¤ à¦ĩ
à¦Ĺà¦° à¦ĸ
Ġà¦¬à§ľ à¦ĺ
Ġà¦ķà§Ł à¦¬
Ġà¦Ĺà¦£ à¦¸à¦Ļ
Ġà¦ıà¦¨ à¦Ĩà¦ĩà¦¸
Ġà¦Ĩà¦ĩ à¦¦
Ġà§§à§Ń à§¯à§¦
à¦ľà§Ł à¦¬
à¦®à¦Ĺ à¦¬
à¦¯à¦ª à¦¦à¦ķ
à¦ıà¦² à¦ıà¦¸
à¦°à¦ľà¦¨ à¦¨à¦¸
Ġà§¦à§© à§©
Ġà¦ĸà§ľà¦Ĺ à¦¹à¦¸
à¦¨ à¦¦à¦°
à§Ł à¦ªà¦¤
à¦¸ à¦¤à¦®
à¦¯ à¦Ĺà¦¨
Ġà¦Ĩ à¦īà¦Ĺ
Ġà¦ı à¦ıà¦®à¦¸
à¦ľ à¦°à¦ķ
à¦¹ à¦¨à¦Ĺà¦°
à¦¹ à¦Ĩà¦²
à¦¥ à¦§
Ġà¦¯ à¦®à¦¦
Ġà¦ī à§İà¦¸à¦ķ
Ġà¦ıà¦ķ à¦¨à¦²
à¦ı à¦²à¦¬
Ġà¦ĩà¦¨ à¦¬
Ġà¦ķà¦² à¦ľ
Ġà§¦ à§§à§¨
à¦°à¦² à¦ª
à¦®à§Ł à¦²
Ġà¦Īà¦¦ à¦Ł
à¦¦à¦® à¦ķà¦²
Ġà§©à§¬ à§¦à§¦
à¦¬à¦Ń à¦Ļ
Ġà¦Ĩà¦ķà¦¬à¦° à¦¶
Ġà¦¸ à¦¥
à¦Ł à¦°à¦ª
Ġà¦¹ à¦°à¦¬
à¦¶ à¦Ĺà¦²
à¦Ĺ à¦ªà¦°
Ġà¦¤ à¦ĵà¦«
à¦ĵ à¦ķà¦²
Ġà¦ªà¦° à¦®à¦¤à¦¸à¦¹
Ġà¦ħà¦¨ à¦·
à¦°à¦ķ à¦Łà¦Ń
Ġà¦®à¦¨ à¦¤à¦²
Ġà¦ħà¦¬ à¦¤à¦°à¦¨
Ġà¦¸à¦° à¦²à¦Ń
Ġà¦Ĩà§Ł à¦¬
à¦ħ à¦°à¦¬
à¦¶à¦ķ à¦¸
à¦¤à¦ķ à¦¸
Ġà§§à§® à§§à§¦
à¦łà¦ķ à¦ĩ
Ġà¦ĩà§Ł à¦Ł
à¦ķà¦°à¦£ à¦¯
Ġà¦īà§İà¦¸à¦¬ à¦ĵ
Ġà¦ĭà¦£ à¦ĵ
Ġà¦°à¦Ļ à¦¬
à§§à§¦ à§«
Ġà¦¶à¦¶ à¦§à¦°
à¦ĭ à¦¦
à¦«à¦« à¦°à¦ª
Ġà¦¨à¦ĸ à¦¦à¦°
à§©à§Ń à§¦
Ġà§§à§Ńà§¬ à§¦
Ġà¦łà¦¨ à¦łà¦¨
à¦ķ à¦®à¦ª
à§Ł à¦¤à¦°
à¦¸ à¦Ĺà¦¤
à¦ĩ à¦·
à¦ĩ à¦īà¦²
Ġà¦¨ à¦®à¦°
Ġà¦ľ à¦«
à¦ĵ à¦ªà¦Ł
à§ľ à¦¬à¦ķ
Ġà¦Ń à¦¦à¦ķ
à¦¡ à¦¹à¦°
Ġà¦« à¦¨à¦¸
à¦Ļ à¦Ĺ
Ġà¦ıà¦ĩ à¦¨
à¦¬à¦° à¦¹
à¦®à¦¨ à¦°
à¦ªà¦° à¦¨
à¦¬à¦¨ à¦ĺà¦¨
à¦°à¦¬ à¦ª
à¦¦à¦ķ à¦°à¦£
Ġà¦¸à¦° à¦ĩ
à¦¸à¦¨ à¦®
à¦°à¦ª à¦¶
à¦¹à¦¸ à¦ĵ
Ġà¦¬à¦ķ à¦ļà¦°
Ġà¦ıà¦¨ à¦¥
à¦¥à¦¨ à¦ª
Ġà¦ľà¦² à¦°à¦Ļ
à¦ķà¦¨ à¦Ĺ
à¦¸à¦Ł à¦¸
Ġà¦Ĩà¦Ł à¦¤
à¦°à¦ĸ à¦ª
à¦ªà¦® à¦£
Ġà¦ĸà¦² à¦ļà¦°
Ġà¦¸à§İ à¦¬
Ġà¦«à§Ł à¦Ľà¦²
Ġà¦ªà¦°à¦¶ à¦®à¦£
Ġà¦Ĺà¦®à¦¨ à¦ķ
à¦¬à§İ à¦¸à¦²
à¦ĵà¦ĵ à¦ĵà¦ĵ
à¦¨ à¦¬à¦²
à§Ł à¦«à¦²
à¦ĩ à¦ıà¦¸à¦ª
Ġà¦¹ à¦ķà¦°
Ġà¦¹ à¦«à¦®
à¦¥ à¦¬à¦¦
Ġà¦ļ à¦ļ
Ġà¦Ń à¦¤
à¦¡ à¦ķà¦ª
à¦« à¦ĩ
à¦°à¦¤ à¦ļà¦¨
à¦ł à¦°à¦¤
Ġà¦Ĩà¦° à¦ĩà¦¬
à§İ à¦ĵ
Ġà¦¦à¦² à¦¦
Ġà§ª à§§à§¦à§¦
Ġà¦ªà¦¦ à¦²
à¦®à¦¸ à¦Ĺ
à¦¬à¦¤ à¦Ĺ
Ġà¦ķà¦¤ à¦²
à¦ļà¦ķ à¦Ĺà¦£
Ġà¦Ĩà¦¹à¦¤ à¦ĵ
Ġà¦¯à¦¤ à¦¸à¦¬
à¦¬à¦¤à¦¨ à¦¦
Ġà¦Ĩà¦ĸ à¦®
Ġà¦Ĭ à¦¨à¦ªà¦ŀ
ĠĠĠĠĠĠĠĠ ĠĠĠĠĠĠĠĠĠ
à¦²à¦¥ à¦Ń
Ġà¦¤à¦¦ à¦§
à¦°à¦°à¦« à¦ķ
à¦¡à¦ı à¦¬à¦²
à¦¨ à¦Ĩ
à¦ķ à¦Ĺà¦¤
Ġà¦ķ à¦ĩà¦®
Ġà¦ª à¦ªà¦¸
à¦¦ à¦Ĺà¦®
à¦Ł à¦Ĺà¦¤à¦Ń
à¦ľ à¦¬à¦ķ
à¦¹ à¦¬à¦²
Ġà¦Ń à¦²à¦Ĺ
à¦¡ à¦°à¦¹
Ġà¦² à¦¡
à¦« à¦¤à¦ķ
à¦« à¦¨à¦¦
Ġà¦Ł à§Łà¦Ł
Ġà¦īà¦ª à¦¦à¦ª
Ġà¦Ĩà¦¸ à¦°à¦Ĺ
Ġà¦ķà¦°à¦¤ à¦²
Ġà¦¬à¦¨ à¦ľà¦Ļ
Ġà¦Ĩà¦¦ à¦®à¦ķ
Ġà§§à§¦ à§§à§¦
Ġà¦Ĩà¦¶ à§Ł
à¦°à¦¹à¦£ à¦ĩ
à§Łà¦ķ à¦¸à¦¹
Ġà¦īà¦² à¦Ńà¦¸
Ġà§§à§« à§«à§¦
Ġà§§à§® à§¦à§¯
Ġà¦Ĩà¦ĩ à¦ıà¦¸à¦¬
à¦łà¦ķ à¦Ĺ
Ġà§§à§Ń à§¦à§Ń
Ġà¦Ľà§Ł à¦«
à¦¶à¦¤ à¦ķà¦°
à§§à§¦ à§¯
à¦¬à¦£ à¦ķ
Ġà¦«à§ľ à¦£à¦¬
Ġà¦®à¦ĸ à¦®à¦²
à¦° à¦²à¦¤à¦®
à¦¸ à¦ı
à¦¯ à¦°à¦ķ
à¦ª à¦¸à¦°
Ġà¦ķà¦° à¦£à¦ķ
à¦¹ à¦Ľ
Ġà¦ľ à¦¦
à¦Ń à¦®à§Ł
à¦£ à¦«à¦²
à§ľ à¦¸à¦ĵà§Ł
Ġà¦ļ à¦°à¦¹
Ġà¦ıà¦ķ à¦²à¦¬
à¦°à¦¤ à¦«
à¦°à¦ķ à¦¸
à¦°à¦£ à§Łà¦£
à¦ľà¦¨ à¦¸à¦®
à¦¬à¦° à¦Ń
à¦Ĩ à¦¦à¦¨
à¦ªà¦ķ à¦°à¦£
à¦°à¦¨ à§Łà¦£
à¦Łà¦ķ à¦ª
à¦¬à¦ķ à¦Ń
à¦¶à¦ķ à¦¨à¦¨
à¦¹à¦² à¦ª
Ġà§©à§¦ à§ªà§¦
à¦¬à¦¹ à¦¨à¦ĵ
à¦Ĺà¦£ à¦¹à¦¤
Ġà§¨à§« à§©à§¦
à¦²à¦¸ à¦«
Ġà§«à§¦ à§¬à§¦
à¦ıà¦² à¦ĩà¦¡
à¦ıà¦ķ à¦ĩà¦¸
à§§à§¯ à§¦à§«
Ġà¦¸à¦«à¦Ł à§Ł
Ġà¦ıà¦Ĩà¦ĩ à¦ıà¦«à¦ıà¦«
Ġà¦Ĺà¦Ĺà¦¨ à¦ļ
Ġà¦Ĩà¦ĩà¦ıà¦¸à¦Ĩà¦ĩ à¦ıà¦²
à¦¨ à¦ıà¦°
Ġà¦ı à¦Ĩà¦°à¦ıà¦®
à¦ľ à¦Ĺà§ľ
Ġà¦¨ à¦°à¦¹à¦¤
Ġà¦ħ à¦ĩà¦¨
Ġà¦ľ à¦ĩà¦¨
Ġà¦ī à¦¯
à¦¡ à¦¨à¦ķ
à¦°à¦® à¦ĺà¦¨
à¦²à¦ķ à¦Ĺà¦£
à¦²à¦¨ à¦²à¦ļ
à¦ĩà¦² à¦ľ
à¦ıà¦¨ à¦Ĩà¦°
Ġà¦ıà¦Ĺ à¦¨
à¦īà¦Ł à¦Ĺ
à¦Ĺà¦£ à¦¶
Ġà¦ıà¦ķà¦® à¦ŀ
Ġà¦īà¦Ńà§Ł à¦ª
Ġà¦¬à§Ł à¦¬à¦¸
Ġà¦Ĺà¦ł à¦£
Ġà¦¸à¦¦ à¦Ĺ
à¦¬à¦® à¦Ļ
Ġà§¦à§¦ à§¨
Ġà¦ķà§ľ à¦Ĺà¦®
Ġà¦¤à¦¦ à¦ķà¦°
Ġà¦ĩà¦īà¦ıà¦¸ à¦ıà¦ĩà¦¡
à¦° à¦ĩà¦¨à¦¬
à§Ł à¦·à¦Ł
à¦® à¦°à¦¬
Ġà¦¬ à¦Ĺà¦²à¦¦
à¦ľ à¦²à¦¤
à¦· à¦¤à¦®
Ġà¦¤ à¦¸à¦°
à¦Ń à¦¹
Ġà¦¯ à§ľà¦¯à¦¨
Ġà¦¬à¦² à§Łà¦Ĺ
Ġà¦Ĩà¦° à¦¥
à¦²à¦ķ à¦¹
Ġà¦¦à¦² à¦®
à¦¬à¦² à¦¸à¦¹
Ġà¦ĩà¦¨ à¦¦
à¦¸à¦¨ à¦ªà¦¤
Ġà¦ħà¦ª à¦²
Ġà¦ıà¦® à¦ıà¦¸à¦ıà¦«
Ġà¦Ĺà§ľ à¦¬à§ľ
à¦ľà¦ķ à¦ĵ
Ġà¦§à¦¨ à¦ª
Ġà¦Ĩà¦ļà¦°à¦£ à¦ĩ
à§§à§¯ à§¨à§«
à§§à§¯ à§¨à§©
à¦Īà¦¨ à¦īà¦¦
à¦īà¦ª à¦¸à¦°
Ġà§§à§Ńà§Ń à§«
Ġà¦¬à¦°à¦® à¦ļ
à¦¨ à¦£
à¦Ł à¦¬à¦°
à¦Ł à¦®à¦¬
à¦§ à¦ľà¦¨
à¦ĵ à¦Ĩà¦ĩà¦¸
Ġà¦Ń à¦ŀ
à¦¡ à¦²à¦Ł
Ġà¦ıà¦¬ à¦¦
à¦°à¦® à¦¥à¦¨
Ġà¦ķà¦® à¦ĵ
à¦²à¦ķ à¦¸
Ġà¦¬à¦° à¦ĩà¦¤à¦²
à¦ķà¦² à¦Ł
à¦°à¦¶ à¦°
Ġà¦®à¦¤ à¦¦
à¦ªà¦ķ à¦¸
à¦®à¦¤ à¦®
à¦°à¦¨ à¦¹
à¦ļà¦² à¦ľ
à¦¹à¦¸ à¦Ł
Ġà¦ıà¦® à¦ıà¦¸à¦ıà¦¸
Ġà¦ıà¦¨ à¦ıà¦®
Ġà¦§à¦°à¦¨ à¦Ĺ
Ġà¦ıà¦ª à¦²
à¦ĩà¦¡ à¦Ł
à¦²à¦ª à¦²
à¦²à¦Ł à¦¸
Ġà§ªà§¦ à§«à§¦
à¦²à¦° à¦Ĺà¦£
à¦Ī à¦¸
Ġà¦ĩà¦īà¦ıà¦¨ à¦ľ
Ġà¦¦à¦®à¦ķà¦² à¦®à¦¨
Ġà§§à§Ńà§Ń à§¨
à¦ĩà¦¨à¦« à¦°à¦®
à§Ł à¦°à¦ĵ
à¦¦ à¦ªà¦¨
Ġà¦Ĩ à¦ĵà¦¨
à¦Ĺ à¦¨à¦ĵ
Ġà¦¤ à¦¦à¦¸
à¦¹ à¦²à¦¬à¦¶à¦¤
Ġà¦ľ à¦¶à¦ª
Ġà¦Ĺ à¦Ĺà¦²à¦¸
Ġà¦ī à¦·à¦¸
Ġà¦ªà¦° à¦§à¦¨à¦ª
Ġà¦² à¦Ľ
à§İ à¦Ł
Ġà¦ıà¦¸ à¦ıà¦ĩà¦ļ
à¦¤à¦® à¦¦
à¦ĩà§Ł à¦°
Ġà¦ĺà¦Ł à¦®
Ġà§§à§® à§§à§¬
Ġà§§à§® à§¨à§Ń
à¦ķà¦¸ à¦Ł
à¦«à¦² à¦Ń
Ġà¦Ĺà¦² à¦Ľ
Ġà§§à§Ń à§§à§®
à¦ĩà¦® à¦Ĺ
Ġà¦Ĩà¦Ł à¦ĺ
Ġà§©à§© à§¦à§¦
Ġà¦§à¦°à¦£ à¦Ł
à§§à§¯ à§¨à§¨
à¦īà¦ĩ à¦ıà¦«
Ġà¦¨à¦ķà¦² à¦®
à¦¬à¦ªà¦¨ à¦¬
Ġà¦ıà¦ķà¦ĩà¦°à¦ķà¦® à¦Ń
Ġà¦Ĺà¦Ĺ à¦¨à¦¬
à¦°à¦¹à¦® à¦¤
Ġà¦¥à¦ĩ à¦¥à¦ĩ
à¦Ł à¦¸à¦Ń
Ġà¦¨ à¦°à¦ĸ
Ġà¦¨ à¦²à¦ĸ
à¦· à¦ªà¦¦
à¦· à¦°à¦¯
Ġà¦° à¦¸à¦°
Ġà¦¶ à¦Łà¦¸
Ġà¦ĵ à¦Ļ
Ġà¦Ń à¦²à¦Ń
Ġà¦Ľ à¦Łà¦ķ
Ġà¦¬à¦² à¦ĸ
à¦ī à¦¸à¦¨
Ġà¦ıà¦° à¦¸
à¦Ĩ à¦®à¦¤
Ġà¦ıà¦¸ à¦ıà¦¨à¦¸
à¦°à¦¹ à¦²
à¦¦à¦° à¦ĩ
à¦·à¦ķ à¦®à¦¨
Ġà¦¬à§ľ à¦ļ
Ġà¦Ĩà¦¤ à¦¹
à¦¸à¦ķ à¦¬à¦°
Ġà¦ħà¦ªà¦° à¦ľà¦¨à¦ķ
Ġà§§à§® à§¦à§¬
à¦²à¦Ĺ à¦¨
à¦Ĺà¦£ à¦ľ
Ġà¦¨à¦¬ à¦®à¦¬
à¦ªà¦Ł à¦®
à¦ıà¦² à¦Ĩà¦°
Ġà¦Ńà¦¬à¦¨ à¦ĵ
Ġà¦ĸà¦°à¦ļ à¦¸à¦¹
à¦¬à¦°à¦£ à¦ĵ
Ġà§¦à§« à§¦
Ġà¦ıà¦ĩà¦ļà¦Ĩà¦° à¦¡à¦¬
Ġà¦ı à¦ıà¦¨à¦¸
à¦¶ à¦¦à¦°
à¦Ĺ à¦ľà¦¨à¦ķà¦Ń
Ġà¦¤ à§İ
à¦¥ à¦ľ
Ġà¦° à¦Ĺà¦°à¦Ĺ
Ġà¦ıà¦ķ à¦ĸà¦¨
Ġà¦īà¦ª à¦ķà¦¨
à¦¶à¦¨ à¦Ń
Ġà¦Ĺà¦¤ à¦¦
à¦°à¦ª à¦¡
à¦ħ à¦¬à¦¹
Ġà§¨à§¦à§¨ à§Ń
Ġà¦ľà§Ł à¦¸à¦²à¦®
Ġà§§à§® à§¦à§«
à¦Ĩà¦ĩ à¦ıà¦®à¦ıà¦¸
Ġà¦®à¦° à¦ľ
Ġà¦ķà¦¤ à¦°à¦ķà¦®
Ġà¦¨à¦¬ à¦¤à¦®
à¦ªà§ľ à¦¶
à§§à§¯ à§§à§§
à§§à§¯ à§¨à§¬
à¦Ĩà¦²à¦® à¦¡
Ġà§§à§Ńà§¯ à§¨
Ġà¦ıà¦¨à¦ĩ à¦Ĩà¦ĩà¦Ĩà¦°
à¦¨ à¦¡à¦¨
à¦¤ à¦Ŀà¦°
à¦² à¦°à¦¬
à¦¬ à¦¯à¦¤
à¦¦ à¦¬à¦¦
Ġà¦® à¦ĩà¦ľ
à¦Ĺ à¦¨à¦Ł
à¦· à¦¬à¦¨
Ġà¦ĵ à¦¨à¦²
Ġà¦Ń à¦ĩà¦°
Ġà¦ī à¦ľà¦®
à¦ł à¦¤à¦°
à§Łà¦¨ à¦®
à¦Ĩ à¦ĩà¦²
Ġà¦¸à¦®à§Ł à¦¬
à¦¦à¦° à¦°
à¦ķà¦Ł à¦Ł
à¦¤à¦¬ à¦Ł
à¦ĩà¦² à¦ªà¦²
Ġà¦ķà¦² à¦ª
à¦°à¦®à¦£ à¦ĩ
à§Łà¦® à¦Ńà¦Ļ
Ġà¦Ńà§Ł à¦¡à¦°à¦¹
à¦²à¦¸ à§ľà¦ķ
à§¨à§¦ à§©à§¦
Ġà¦ıà¦« à¦ıà¦¸
Ġà¦«à§Ł à¦ľà¦²
Ġà§§à§¨à§¦à§¦ à§¦
Ġà¦ľà¦²à¦ķ à¦£
à¦ıà¦¨à¦ĩà¦ī à§Ł
à¦ľà¦«à¦« à¦°à¦¨à¦Ĺà¦°
à¦° à¦ıà¦°
à¦² à¦ªà¦¦
à¦® à¦Ńà¦ķ
Ġà¦¸ à¦¸à¦ª
à¦¸ à¦Ĺà¦£
Ġà¦¬ à¦°à¦£à¦ķ
à¦¦ à¦§à¦®
à¦¯ à¦¶à¦¨
à¦¶ à¦·
à¦£ à¦¬à¦¤
Ġà¦¯ à¦°
Ġà¦¯ à¦·
Ġà¦Ń à¦ľà¦¨à¦ª
à¦°à¦£ à¦ķà¦ķ
Ġà¦¡ à¦ķà¦Ł
à¦¬à¦¨ à¦¡
à¦°à¦® à¦¹à¦²
à¦Ĩ à¦ľà¦¬
à¦ķà¦Ł à¦Ĺ
à¦¤à¦¬ à¦ľ
à¦Ĺà¦¤ à¦ĩ
à¦¸à¦¨ à¦°
à¦ħ à¦§à¦°
Ġà§§à§® à§§à§©
à¦²à¦Ĺ à¦¬
Ġà§§à§¬ à§§à§Ń
Ġà¦Ī à¦¦à¦¸
Ġà¦Ńà¦¬à¦¨ à¦¸
à¦«à¦Ł à¦Ł
à¦¶à¦¬ à¦ļà¦¨
à¦ıà¦ķ à¦ĩà¦¦
à¦¨à¦¡ à¦«à¦¸
à¦° à§ľà¦¹
à¦¤ à¦²à¦¬
à¦ķ à¦§à¦°
à§Ł à¦Ĺà¦¤
à¦¬ à¦§à¦¨
à¦Ł à¦°à¦ļ
à¦¶ à¦²à§Ł
à¦Ľ à§Łà¦Ł
Ġà¦° à¦¬à¦ķ
Ġà¦¶ à¦¦
Ġà¦¯ à¦ĸ
Ġà¦ĩ à¦ıà¦¨à¦Ł
à¦ł à¦¨à¦ķ
à¦ī à¦ĵà§Ł
à¦ı à¦¸à¦¹
Ġà¦¸à¦¬ à¦ªà¦ķ
à¦ļà¦¨ à¦¨à¦Ĺà¦°
à¦·à¦£ à¦°à¦¤
Ġà¦¹à¦¤ à¦¨
Ġà¦¸à¦¹ à¦²
à¦ķà¦¤ à¦Ĺ
à§¬ à§¦à§¦
Ġà¦ıà¦® à¦ıà¦¨à¦ıà¦¸
à¦ªà¦¦ à¦Ń
à¦®à¦¹ à§ľ
à¦Ńà§Ł à¦Ļ
à¦ĸà¦ķ à¦Ĺà¦£
Ġà§«à§« à§¦à§¦
à¦Ĩà¦Ĺ à¦·
Ġà¦·à§ľ à¦ĭà¦¤
à¦Ĩà¦¦ à¦®à¦¦
à¦ķ à¦ĺà¦¨
à¦ĩ à¦¶à¦Ĺ
à¦ĩ à¦ĺà¦°
à¦ľ à¦¬à¦°
Ġà¦¨ à¦ĸà¦°
à¦¹ à¦¨à¦Ł
à¦§ à¦ķà¦Ł
Ġà¦° à§İà¦¸
Ġà¦° à¦Ĺà§ľ
à¦ĵ à¦°à¦ª
Ġà¦īà¦ª à¦²à¦Ń
à¦°à¦§ à¦°à¦ķ
Ġà¦ħà¦¸ à¦¸
Ġà¦¢ à¦ķ
Ġà¦ĵà¦ĩ à¦¸
Ġà¦Ĩà¦¶ à¦°à¦«
Ġà¦¬à¦¸ à¦«à¦°
à¦Ĩà¦ĩ à¦ıà¦²
Ġà¦īà§İ à¦ķà¦²
Ġà§§à§ª à§«à§¦
Ġà¦Ī à¦ª
Ġà¦¸à§ľà¦ķ à¦ķ
à¦ĸà¦° à¦ŀ
Ġà¦ıà¦°à¦ķà¦® à¦Ń
Ġà¦¦à¦®à¦¨ à¦¨
à¦Ĺà¦ł à¦ķà¦°
à§§à§© à§¦
Ġà¦īà¦ĩ à¦Łà¦¨
Ġà¦ľà¦¨à¦¸à¦® à¦·
à¦Ĭ à¦·
Ġà¦ªà¦¬à¦¨ à¦¦
à¦·à¦¦à¦¸ à¦ļ
à¦¨ à¦ĩà¦¨
à¦ķ à¦Ŀ
à¦ķ à¦°à¦¤à¦®
Ġà¦ķ à¦ĩà¦¨
à¦¸ à¦£
Ġà¦Ĩ à¦īà¦«
Ġà¦ı à¦°à¦ķ
à¦ĩ à¦Ĺà¦ŀ
à¦ľ à¦²à¦¸
Ġà¦¨ à¦ķà¦Ń
Ġà¦ħ à¦ľà¦°
à¦¥ à¦¬à¦²
à¦¥ à¦Ĺà¦¤
à¦£ à¦ľà§Ł
Ġà¦Ĺ à¦¦à¦°
Ġà¦¸à¦® à¦°à¦ķà¦¨
Ġà¦ĩ à¦²à¦ķ
à¦« à¦īà¦¦
Ġà¦ıà¦ĩ à¦¸à¦Ļ
à¦ĺ à¦ĩ
Ġà¦®à¦¹ à¦²à¦Ł
à¦¯à¦ķ à¦ķ
Ġà¦ıà¦² à¦«
à¦ĩà¦ķ à¦ĵ
Ġà¦¸à¦¨ à¦ķ
Ġà¦ıà¦¨ à¦ıà¦ĩà¦ļà¦ķ
à¦Ĺà¦² à¦¯
à¦¨à§Łà¦¨ à¦¬à¦ŀ
à§Łà¦® à¦®à¦¤
à¦¯à¦¦ à§Ł
Ġà¦ľà¦² à¦ļà¦°
à¦¬à¦¶ à¦¸
à¦¦à¦ª à§ľ
à¦¯à¦¸ à¦¤
Ġà¦¦à¦¶ à¦ľà¦¨à¦ķ
à¦¯à§Ł à¦Ł
Ġà¦Ĩà¦Ł à¦¤à¦²
à¦¹à¦ķ à¦Ĺà¦£
Ġà¦ıà¦ĩà¦ļ à¦ıà¦®à¦ıà¦¸
à§§à§ª à§ª
à¦Ńà¦¸ à¦¬à¦¨
Ġà¦²à¦¬à¦£ à¦ļà¦°
Ġà¦®à¦°à¦£ à¦ªà¦£
Ġà¦Ľà§Łà¦¦ à¦«
à¦¨ à§Łà¦¤
à§Ł à¦¤à¦ķ
à¦¬ à¦Ńà¦°
à¦¸ à¦¸à¦°
à¦Ł à§Łà¦²
à¦ª à¦¶à¦ķ
à¦ĩ à¦¶à¦¨
à¦Ĺ à¦ľà¦ķ
à¦¹ à¦§à¦¨
à¦ĵ à¦ĵà§Ł
Ġà¦Ĺ à§İà¦¸
Ġà¦ī à¦ĩà¦°
Ġà¦ıà¦ķ à¦ķà¦Ł
Ġà¦ĩ à¦®à¦²
à¦°à¦ķ à¦¤
Ġà¦īà¦ª à¦¨à¦Ĺà¦°
à¦°à¦® à¦®
à¦ĩà¦¨ à¦¶
à¦ĺ à¦²à¦°
à¦ĺ à¦°à¦¸à¦¹
Ġà¦ıà¦¸ à¦ĩà¦ī
à¦·à§Ł à¦¬
à¦ĩà¦ķ à¦¸à¦¹
Ġà¦Ĩà¦¶ à¦Ĩà¦°
Ġà¦ł à¦ķà¦¤
Ġà¦ł à¦ķà¦¬
à¦ıà¦¨ à¦ıà¦®
à¦¤à¦ķ à¦¸à¦¹
Ġà¦ıà¦® à¦ıà¦¸à¦ª
à¦Łà¦° à¦ĩ
à¦®à§Ł à¦¬
Ġà¦Ĩà¦ĩ à¦¸à¦¬
Ġà¦Ĩà¦ĩ à¦ıà¦Ł
Ġà§§à§© à§§à§ª
Ġà¦ľà¦² à¦ĩ
Ġà§§à§Ń à§¯à§®
à¦ķà¦ľà¦¨ à¦°
à¦Ĩà¦° à¦ıà¦°
à¦ĩà¦¡ à¦Ĺ
Ġà¦Ńà¦¬à¦¨ à¦¸à¦®
Ġà¦¨à¦Ĺà¦° à¦Ńà¦¬à¦¨
à¦¹à¦ķ à¦ĩ
Ġà¦ĩà¦Ń à¦²
Ġà¦ĩà¦īà¦ıà¦¨à¦ĵ à¦¦
Ġà§§à§Ńà§Ń à§©
Ġà§§à§Ńà§Ń à§ª
Ġà¦ľà¦¹à¦° à¦²
à¦¦à¦ļ à¦¶à¦®
Ġà¦Ńà¦¬à¦¦ à¦¹
Ġà¦ķ à¦ĩà¦¸
à¦¦ à¦ļà¦¨
Ġà¦¤ à¦ķà¦¤à¦ķ
à¦¥ à¦Ľ
Ġà¦¶ à¦łà¦¤
à¦ĵ à¦ıà¦®
Ġà¦Ĺ à¦¬à¦°
Ġà¦Ĺ à¦ľà¦¨à¦¬
à¦¡ à¦°à¦¸
à¦¡ à¦Ĩà¦ª
Ġà¦¸à¦® à¦¹
Ġà¦¸à¦® à¦°à¦ľ
Ġà¦ĩ à¦ıà¦¸à¦¡
à¦« à¦īà¦²
à¦Ĩ à¦¹à¦²
à¦¹à¦® à¦ĸà¦¦
à¦Ŀ à¦ª
à¦ªà¦ķ à¦¬
à¦·à¦ķ à¦®à¦£
à¦¤à¦ķ à¦¨
Ġà¦¶à¦¹à¦° à¦ĩ
Ġà¦Ĩà¦ĩ à¦Ĩà¦ĩà¦ıà¦®
Ġà§§à§ª à§¨à§©
à¦ķà¦¨ à¦īà¦¦
à¦¥à¦² à¦®
à¦Ĩà¦® à¦²à¦ķ
à¦ľà¦ª à¦¦à¦ķ
Ġà¦°à¦Ļ à¦§à¦¨
à§§à§¯ à§§à§«
Ġà¦¬à¦°à¦« à¦ķà¦²
à¦¯à¦°à¦ķà¦® à¦Ń
à¦ıà¦¸à¦ıà¦® à¦ıà¦¸
à¦ķ à¦ĩà¦¨
à¦¬ à¦ĩà¦²
à¦® à¦¹à¦¨
à¦¦ à¦ľà¦¨
à¦¦ à¦«à¦¤à¦°à¦ķ
Ġà¦® à¦¦à¦ķ
Ġà¦ķà¦° à¦¬à¦°
à¦ĸ à¦Ńà¦°
Ġà¦ļ à¦°à¦²
Ġà¦« à¦ķà¦²
à¦ī à¦ªà¦¬
à¦Ĩ à¦°à¦£
Ġà¦ªà§ľ à¦¸
Ġà¦¹à¦¤ à¦ļ
à¦¤à¦¨ à¦ª
à¦°à¦¥à¦® à¦Ĩà¦²
Ġà¦Ĩà¦ķ à¦£
à¦·à¦ķ à¦¸
Ġà¦¸à¦Ń à¦ªà¦¤
à¦ħ à¦®à¦¨
Ġà¦¸à¦ķà¦² à¦ĩ
à¦łà¦ķ à§Łà¦²
Ġà§¨à§« à§¦à§¦à§¦
Ġà¦īà¦ĩà¦ķ à¦¸
à¦īà¦° à¦¡
Ġà¦ıà¦¡ à¦¬
à¦°à¦ĸ à¦£
à¦Ī à¦ķ
à§ľà¦¬ à§ľ
à¦¨à¦¸à¦¹ à¦ķ
à§§à§¯ à§§à§¬
à¦Ĺà¦¸ à¦ĩ
à¦²à¦Łà¦¨ à¦ķ
Ġà¦Ŀà¦ķ à¦®à¦ķ
Ġà¦¸ à¦¯à¦¤à¦¨
à¦¸ à¦ĵà¦°
Ġà¦¬ à¦Ń
Ġà¦® à¦ª
Ġà¦¨ à¦ľà¦¨
Ġà¦¤ à¦ķà¦¦
à¦¹ à¦Ĺà¦£
Ġà¦ľ à¦®à¦¸
Ġà¦ĵ à¦®à¦ķ
Ġà¦ªà¦° à¦ļà¦°
Ġà¦² à¦ĵà§Ł
Ġà¦² à¦¬à¦¸
à¦ī à¦²à¦Ĺ
à¦ī à§İà¦ķ
Ġà¦ĺ à¦°à¦¹
à¦¤à¦° à¦ĸà¦£
à¦ªà¦¨ à¦®
à¦Ĩ à¦°à¦¶
à¦°à¦¬ à¦¹à¦¨
à¦īà¦¨ à¦®
Ġà¦ıà¦¸ à¦Ĩà¦ĩà§Ł
à¦°à¦¦ à¦¶à¦°
à¦Ŀ à¦Ĺ
à¦ĩà¦° à¦ª
Ġà¦ĩà¦ī à¦Ĩà¦ĩà¦¡
Ġà¦¬à¦ķ à¦¨
à¦Łà¦Ĺ à¦®
à¦ķà¦¸ à¦Ĺ
Ġà¦Ĺà§ľ à¦ķà¦°
à¦ıà¦® à¦ıà¦¬
Ġà§§à§Ń à§¯à§«
à¦Ĺà¦łà¦¨ à¦ĩ
à¦īà¦² à¦°
Ġà¦ıà¦ķà¦¦ à¦¶à¦ķ
à¦¶à¦² à¦ĩ
à¦²à¦ª à¦ŀ
Ġà¦ĩà¦¸ à¦¸
Ġà¦ªà¦£ à¦¬à¦¨
à¦Łà¦¸ à¦Ĺ
à§§à§¦ à§Ń
à¦Łà¦®à¦¹à¦² à¦Ĺ
à¦¨ à¦¹à¦²
à¦¤ à¦ĸà¦¤
à¦¬ à¦¦à¦ķ
à¦¬ à¦Ĺà¦®
à¦Ł à¦¡à¦ķ
Ġà¦ı à¦ľà¦®
Ġà¦¨ à¦²à¦ļ
à¦Ĺ à¦¸à¦Ļ
Ġà¦¤ à¦Łà¦°
Ġà¦ħ à¦ľà¦¨à¦ª
à¦£ à¦¦à¦£
à§ľ à¦¶à¦°
Ġà¦ļ à¦¡
Ġà¦ī à¦¨à¦¤
à¦ł à¦®à¦¹à¦²
à¦ī à¦¸à¦¬
à¦ĵà§Ł à¦¤
Ġà¦ıà¦¬ à¦¨
à¦ľà¦¨ à¦Ĺà¦£à¦ķ
Ġà¦ıà¦ĩ à¦ī
Ġà¦§ à¦²à¦ĩ
à¦¬à¦¨ à¦¤à¦²
à¦°à¦¸ à¦°à¦¤
à¦°à¦¨ à¦¸
à¦Łà¦ķ à¦ĩ
à¦ıà¦¸ à¦¡à¦¬
à¦¨à¦¸ à¦Ł
à¦ĩà¦¡ à¦¥
Ġà¦Ī à¦·
à¦¯à§Ł à¦¬
Ġà¦ļà¦ķ à¦®
Ġà¦ıà¦ķà¦¬ à¦ļà¦¨
Ġà¦¤à¦¤ à¦ªà¦°à¦¤
Ġà¦°à¦Ļ à¦ķ
à§§à§¦ à§¨
Ġà§¦à§¨ à§¨
Ġà§¦à§¨ à§«
à¦¬à¦ļ à§Łà¦¨
à¦ĩà¦ļ à¦¡
Ġà§§à§Ńà§¬ à§ª
à¦¤ à¦®à¦²
à¦² à¦ĸà¦£
à¦¬ à¦ľà¦°
à¦¸ à¦°à¦ĵ
Ġà¦¬ à¦ĸà¦°
à¦Ł à¦¸à¦¨à¦ķ
Ġà¦Ĩ à¦ĵà¦®
Ġà¦ı à¦¥à¦²
à¦ĩ à¦°à¦¤
à¦ĩ à¦Ĺà¦¨
Ġà¦ħ à¦ĩà§Ł
à¦¥ à¦¥
Ġà¦Ĺ à¦°à¦²
Ġà¦ĵ à¦®à¦²
Ġà¦ī à¦ķà¦¬
Ġà¦ĩ à¦ı
Ġà¦Ĩà¦® à¦Ŀ
à¦ī à¦ľà¦¨
à¦ľà¦¨ à¦¹
à¦ľà¦¨ à¦¸à¦Ń
Ġà¦®à¦¨ à¦ļ
à¦°à¦¹ à¦¸à¦¹
Ġà¦Ĩà¦ľ à¦²
Ġà¦Ĩà¦ķ à¦ļ
à¦¬à¦¬ à¦Ľà¦°
Ġà§§à§¦ à§«à§¦
à¦ĩà¦Ł à¦Ń
à¦¨à¦¬ à¦§à¦°
à¦ħ à¦ĸ
à¦ħ à¦²à¦°
à¦®à§Ł à¦ĵ
Ġà¦ķà¦ª à¦ļ
à¦·à¦ľà¦¨ à¦ĵ
Ġà§§à§Ńà§® à§§
Ġà§§à§ªà§¯ à§¨
Ġà¦Ĩà¦ĩà¦ıà¦¨ à¦ıà¦ķ
à¦° à§ľ
à¦¬ à¦®à¦£
à¦® à¦Ĺà¦°
à¦¸ à¦Ĩ
à¦¸ à¦Ĭà¦¦
à¦ľ à¦ļà¦¨
Ġà¦ī à¦²à§Ł
Ġà¦Ĩà¦® à¦²à¦Ĺ
à¦°à¦¬ à¦£à¦ķ
Ġà¦Ĩà¦¨ à¦¡
à¦¦à¦¨ à¦¯
Ġà¦¸à¦¹ à¦®à¦°à¦£
Ġà¦®à¦¹ à¦¦
Ġà¦ĵà§Ł à¦°
Ġà¦ħà¦¬à¦¸ à¦°à¦Ń
Ġà¦ĵà¦ĩ à¦Ĺ
à¦ĩà¦Ł à¦¸à¦¹
Ġà§¦ à§§à§§
Ġà¦¹à¦¨ à¦¹à¦¨
à¦Ĩà¦ĩ à¦ıà¦¸à¦ıà¦²
à¦¹à¦¨ à¦¸à¦¹
à¦¨à¦¡ à¦°
Ġà¦ıà¦ĩà¦ļ à¦ıà¦¸
à§§à§¦ à§®à§¦
à§Ŀ à¦¸
à§§à§¯ à§¦à§¬
Ġà§§à§ªà§ª à§©
Ġà§§à§Ńà§® à§ª
Ġà¦Ĩà¦ĩà¦ıà¦² à¦ĵà¦°
à¦ĸà¦²à¦¨ à¦ľà¦¨
Ġà¦§à¦¬à¦² à¦§
Ġà¦ĩà¦¤à¦® à¦§
à¦ķ à§ľà¦ķ
à¦² à¦¹à¦¨
à¦¬ à¦Ńà¦ķ
à¦® à¦Ńà¦°
à¦Ł à¦°à¦²
à¦¯ à¦ªà¦ķà¦Ń
Ġà¦Ĩ à¦¯à¦®à¦ķ
à¦ĩ à¦¦à¦ķ
à¦ĩ à¦®à¦¦
à¦§ à¦ķà¦ķ
à¦Ń à¦¨à¦¬
Ġà¦ıà¦ķ à¦Ľ
Ġà¦ĩ à¦°à¦¤
à¦ł à¦«
à¦°à¦£ à¦ľ
Ġà¦ıà¦ĩ à¦¸à¦®à¦¸
Ġà¦Ĩà¦° à¦ıà¦¸à¦ıà¦«
à¦ı à¦ıà¦¨
à¦°à¦¸ à¦Ĺ
à¦īà¦¨ à¦ĵ
Ġà¦ıà¦¸ à¦²
Ġà¦ıà¦² à¦Łà¦¨
à¦²à¦¬ à¦ŀ
à¦°à§Ł à¦¯
Ġà¦¬à§ľ à¦ķà¦°
Ġà¦¤à¦ĸà¦¨ à¦¤
à¦¤à¦ķ à¦®
à¦¸à¦ķ à¦²à¦ķ
Ġà¦Ĺà¦² à¦Ĺà¦²
à¦Ĺà¦£ à¦Ł
à¦ĩà¦ľ à¦ª
à¦īà¦² à¦«
à¦ķà¦® à¦°à¦¦
à¦¡à¦² à¦ĵ
à¦¦à§Ł à¦Ļ
à¦ļà¦® à¦¹à¦²
Ġà¦ľà¦Ĺà¦¤ à¦ª
à¦£à¦ķ à¦¥
Ġà¦¨à§Łà¦¨ à¦ª
Ġà¦¬à¦¦à¦° à¦īà¦¦
à§©à§© à§©
Ġà¦ıà¦¸à¦ıà¦² à¦Ĩà¦°
à¦¨ à¦¨à¦¬
à¦¬ à¦īà§Ł
à¦¬ à¦Ĺà¦¤à¦Ń
à¦® à¦°à¦¸
Ġà¦¹ à¦°à¦¸
à¦¶ à¦ĸà¦¨
à¦· à¦¨à¦Ĺà¦°
Ġà¦ľ à¦¶à¦¨
Ġà¦ľ à¦®à¦¦
Ġà¦ĩ à¦¯
Ġà¦ĩ à¦¸à¦¨
à¦« à¦°à¦ª
à¦ī à§İà¦ªà¦¤
Ġà¦Ł à¦ªà¦Łà¦ª
à¦¶à¦¨ à¦¡
Ġà¦Ĩà¦¨ à§Ł
Ġà¦Ĩà¦ªà¦¨ à¦ľà¦¨à¦ķ
à¦®à¦¸ à¦Ļ
à¦ıà¦¨ à¦Ĩà¦°à¦¬
Ġà¦ıà¦¨ à¦Ĩà¦ĩà¦ıà¦°
à¦¸à¦¦ à¦®à¦¨
à¦°à¦®à¦£ à¦¸
Ġà§§à§® à§§à§§
Ġà¦¨à¦® à¦ª
Ġà§§à§ª à§©à§¯
Ġà§§à§¬ à§¨à§¬
Ġà§§à§¬ à§¦à§«
Ġà¦°à¦ķà¦® à¦Ł
à¦¡à¦² à¦Łà¦¨
à¦Ī à¦°
Ġà¦ķà¦ĸà¦¨à¦ĵ à¦¬
à§§à§¨ à§©
à§§à§¯ à§¦à§¯
à¦Ńà¦¬à¦¨ à¦Ł
à¦°à¦¡ à¦¡à¦²
à¦ķà¦ľ à¦®à¦ķà¦Ń
Ġà§§à§¨à§¦ à§ª
à¦īà¦ī à¦īà¦ī
à¦Ĩà¦Ĩ à¦Ĩà¦Ĩ
à¦° à¦Ĩà¦°
à¦¤ à¦ĺà¦°
à¦ķ à¦ķà¦²
Ġà¦¬ à¦¹à¦¤
à¦ľ à¦²à¦¨
à¦ľ à¦Ńà¦°
à¦Ĺ à¦¤à¦¨
à¦ļ à¦®à¦¤
Ġà¦ĵ à¦²à¦®
Ġà¦ī à¦¡à¦¬
Ġà¦ªà¦° à¦¬à¦¤
Ġà¦Ľ à¦°à¦°
Ġà¦ĩ à¦¦à¦°
Ġà¦ĩ à¦®à¦¬
à¦ł à¦ªà¦Ł
Ġà¦ıà¦ĩ à¦ļà¦ķ
à¦¤à¦° à¦°
à¦Ĩ à¦²à¦Ĺ
Ġà¦Ĩà¦² à¦¬à¦¦
Ġà¦¹à¦² à¦¸à¦®
à¦Łà¦¨ à¦²
à¦īà¦¨ à¦¸à¦¹
Ġà¦Ĩà¦¨ à¦ĩà¦¨
à¦Ŀ à¦Ĺà§ľ
à¦¦à¦ķ à¦ļà¦ķ
Ġà¦Ĩà¦ľ à¦®à¦Ĺà§ľ
à¦ĩà¦Ł à¦¸à¦ķ
à¦°à§Ł à¦¶
à¦ķà¦¬ à¦ĩ
à¦ķà¦¬ à¦¹
Ġà¦Ĩà¦ĩ à¦¡à¦¬
à¦Ĩà¦ĩ à¦ĩ
à¦°à¦ľ à¦¬à¦°à¦¦à¦¸
à¦ķà¦¨ à¦Ń
à¦ľà¦® à¦ľà¦®
à¦Łà¦¸ à¦¸à¦¹
à¦¤à¦°à¦£ à¦ĵ
à§§à§¦ à§©
à¦¸à¦« à¦²à¦¤
à¦ıà¦ĩà¦ļ à¦ıà¦«
à§§à§¯ à§§à§¦
à§§à§¯ à§¦à§§
Ġà¦ıà¦ķà¦° à¦Ļ
Ġà¦²à¦¬à¦£ à¦¯
Ġà¦ĺà¦· à¦²
Ġà¦¸à¦¬à¦°à¦ķà¦® à¦Ń
à¦ıà¦¸à¦Ĩà¦° à¦ıà¦«
Ġà¦¶à¦¤à¦¬ à¦Ľà¦°
Ġà¦ľà¦ĸ à¦®à¦¦
à¦¤ à¦ļà¦¨
à¦¬ à§İà¦¸
Ġà¦ķ à¦¦à¦¬
à¦¸ à¦ĩà¦²à¦®
Ġà¦ľ à¦Ĺà¦Ĺ
Ġà¦° à¦Łà¦¤
Ġà¦ĩ à¦¶à¦«
à¦®à¦¨ à¦®
à¦¤à¦° à¦«à¦²à¦ķ
Ġà¦Ĩà¦² à¦ļà¦¨
à¦°à¦¸ à¦²
à¦²à¦¨ à¦°
à¦ªà¦ķ à¦Ł
Ġà¦ıà¦®à¦¨ à¦¤
à¦°à§Ł à¦¬
Ġà¦¶à¦¤ à¦¦à¦²
à¦¬à¦ª à¦²
à¦°à¦Ł à¦¸
Ġà¦Ĺà§ľ à¦«
Ġà§§à§ª à§¨à§¨
Ġà§§à§¬ à§¦à§©
Ġà¦ľà¦² à¦ľà¦Ł
Ġà¦Ĩà¦¹ à¦ľ
Ġà¦īà§İà¦¸ à¦Ł
Ġà¦ļà¦¨ à¦ª
à¦ķà¦¶à¦¨ à¦Ĺ
à¦²à¦¶ à¦¯
Ġà§¦à§¨ à§®
à¦ıà¦¸à¦ıà¦¸ à¦ķ
Ġà§¦à§§à§Ń à§§à§«
Ġà¦Ĩà¦ĩà¦ı à¦ıà¦«
à¦¦ à¦¹à¦¨
à¦Ł à¦Ĺà¦¤
à¦Ł à¦ĵà¦°
à¦¯ à¦ĵà§Ł
Ġà¦Ĩ à¦§à¦¬
Ġà¦Ĩ à¦¥à¦²
à¦ĩ à¦ªà¦¥
à¦ĩ à¦ıà¦«à¦Ĩà¦ĩ
à¦Ľ à¦«
à¦· à¦°à¦¸à¦¹
Ġà¦¤ à¦ĩà¦¬
à¦¹ à¦°à¦¬
Ġà¦° à¦ĸ
Ġà¦¯ à¦ĸà¦®
Ġà¦ĵ à¦°à¦ĩ
à¦°à¦¤ à¦Ļ
Ġà¦ıà¦ĩ à¦¹
Ġà¦¡ à¦Ļ
Ġà¦¹à¦² à¦ĩ
à¦¦à¦¨ à¦°à¦¤
à¦¹à¦® à¦¤
à¦°à¦¹ à¦°à¦£
Ġà¦Ĩà¦ķ à¦®
à¦¸à¦¬ à¦¦
Ġà¦ķà¦² à¦¹à¦¬
à¦¶à¦ķ à¦®à¦¹à¦²
Ġà¦ıà¦¸à¦¬ à¦ĵ
Ġà§§à§¬ à§¦à§®
à¦ªà¦Ł à¦ªà¦Ĺ
à¦Łà¦¬à¦² à¦Ł
à¦ķà¦°à¦£ à¦ĩ
Ġà¦Ĩà¦Ł à¦ļ
Ġà¦¨à¦Ĺà¦° à¦°
à¦ķà¦¶à¦¨ à¦ķ
Ġà¦¬à§Ł à¦¬à¦¹
Ġà¦ıà¦« à¦ıà¦¨à¦ıà¦¸
à§Ŀ à¦¤à¦°
Ġà¦®à¦Ĺ à¦ľà¦§
à¦·à¦°à¦£ à¦ľà¦¨
Ġà§§à§§à§« à§¦
à¦Ĩà¦ĩà¦ıà¦¸ à¦ı
Ġà§§à§«à§« à§¬
à¦¨ à¦Ĩà¦¤
à§Ł à¦¬à¦¨
à¦® à¦¤à¦°
Ġà¦® à¦¸à¦ķ
Ġà¦¹ à¦Łà¦¨
à¦¶ à¦°à¦ĵ
Ġà¦ķà¦° à¦Ĺ
Ġà¦ħ à¦Ŀà¦°
Ġà¦¶ à¦Ń
à¦ĵ à¦§
Ġà¦² à¦ĩà¦Ł
Ġà¦¸à¦® à¦²à§Ł
Ġà¦ĩ à¦Ĩà¦ĩà¦ı
à¦ŀ à¦¬à¦²
à¦ªà¦¨ à¦¸à¦°à¦¶
à¦ĩà¦¨ à¦īà¦¦
à¦Łà¦¨ à¦Ń
Ġà¦ıà¦¸ à¦ıà¦ª
à¦¦à¦¨ à¦¸
Ġà¦¬à¦¨ à¦¬à¦¸
à¦ķà¦² à¦¤
à¦¯à¦® à¦ľ
à¦·à¦ķ à¦¬à¦¨
Ġà¦¸à¦¨ à¦¦à¦ķ
Ġà§§à§¦ à§¨à§¦
à¦¨à¦¬ à¦Ĺà¦ł
à¦ıà¦¸ à¦ıà¦¨
à¦¸à¦° à¦ŀ
à¦·à¦¦ à¦ĵ
à¦ıà¦® à¦Ĺ
à§ľà¦ķ à¦°à¦£
Ġà¦Ĩà¦¹ à¦°à¦¨
Ġà¦Ĩà¦¹ à¦°à¦£à¦ķ
à¦°à¦° à¦°
à§¨à§¦ à§¨à§ª
Ġà¦ĩà¦² à¦¶
Ġà¦ĩà¦¨à¦¸ à¦®à¦¨
Ġà¦¤à¦¤ à¦ĸ
à¦·à¦¨ à¦¶
à¦¬à¦ľà¦¨ à¦Ĺ
Ġà¦¨à¦ĵ à¦¸
à¦¯à¦¬à¦° à¦²
Ġà¦łà¦ķ à¦łà¦ķ
Ġà¦ıà¦¨à¦ıà¦¸ à¦¡à¦¬
Ġà¦Ĩà¦ī à¦Łà¦ķ
à¦¨ à¦ı
à¦ķ à¦ħ
à¦® à¦°à¦®
à¦® à¦¹à¦¸
Ġà¦ª à¦ªà¦²
à¦¯ à¦Ĺà¦°
à¦¶ à¦¬à¦¨à¦®
à¦· à¦¨à¦¬
à¦¹ à¦²à¦¤
à¦¥ à¦²à¦ķ
Ġà¦ļ à¦°à¦¸à¦®
Ġà¦ī à¦Ľà¦®
Ġà¦Ł à¦°à¦ķ
Ġà¦Ł à¦¨à¦ª
Ġà¦§ à¦£
Ġà¦ıà¦° à¦²
Ġà¦Ĩà¦Ĺ à¦°à¦ª
Ġà¦Ĩà¦¬ à¦ĸ
à¦ĺ à¦¦à¦²
à¦Łà¦¨ à¦Ĺ
Ġà¦¬à¦¨ à¦Ł
à¦ªà¦ķ à¦¨à¦Ĺà¦°
à¦®à¦¤ à¦Ł
à¦¤à¦® à¦¶
à¦®à¦¬ à¦¤
à¦°à¦¹à¦£ à¦Ł
à¦¸à¦° à¦¬à¦°
à¦Ĺà¦² à¦ĸ
à§Łà¦Ĺ à¦£
à¦°à¦Ĺ à¦Ł
Ġà¦ķà¦¤ à¦ķà¦Ł
à¦ķà¦¨ à¦¶
Ġà¦ľà§ľ à¦¸à§ľ
à¦®à¦ļ à¦ŀ
Ġà¦īà§İà¦¸ à¦ĵ
Ġà¦¸à¦« à¦°à¦ĵ
Ġà¦¦à¦® à§Łà¦¨
à§§à§¬ à§¦
Ġà¦ĩà¦īà¦ıà¦¨ à¦¸
Ġà¦Ĩà¦¬à¦° à¦¨
Ġà¦¨à§Łà¦¨ à¦®à¦£
à¦ªà¦Łà¦ª à¦¸à¦¹
Ġà¦ľà¦Ĺ à§İà¦¸
Ġà¦ĸà§ľ à¦®
Ġà¦®à¦°à¦£ à¦¶
Ġà¦®à¦ĩà¦¨ à¦īà¦¦
Ġà§§à§Ńà§Ń à§®
Ġà¦ķà¦¤à¦¬ à§ľ
Ġà§ľ à¦Ń
Ġà¦ĩà¦Ĩà¦ĩ à¦Ĩà¦ĩà¦ıà¦¨
à¦° à¦¡à¦²
à¦° à¦ħà¦²
à¦² à¦¬à¦¬
à¦® à¦ľà¦²
à¦ľ à¦Ĺà¦łà¦¨
à¦Ľ à¦ĺ
à¦Ĺ à¦ĸ
à¦Ĺ à¦°à¦¸
à¦· à¦¨à¦ĩ
Ġà¦¤ à¦ªà¦¤
Ġà¦° à¦Ńà¦®
Ġà¦ĵ à¦²à¦«
Ġà¦ĩ à¦ĩà¦īà¦¤
Ġà¦Ĩà¦¸ à¦°à¦ķ
à¦²à§Ł à§Ł
Ġà¦¬à¦¨ à¦§à¦ķ
Ġà¦Ĩà¦ľ à¦Ł
à¦¸à¦¬ à¦ĵ
Ġà¦¸à¦¨ à¦¦à¦¸à¦¹
à§© à§¨à§¦
à¦ıà¦¨ à¦°
Ġà¦ħà¦ª à§Ł
à§Łà¦¤ à¦¸à¦®
Ġà§§à§© à§¨à§©
Ġà¦Ĩà¦¹à¦¤ à¦ķ
à¦¨à¦Ń à¦¦
Ġà¦Ĩà§ľ à§İà¦¦
à¦¦à§Ł à¦ª
Ġà¦ķà§ľ à¦ļ
à§§à§¨ à§§
Ġà¦¨à¦ķà¦¶ à¦¬à¦¨
à¦ĩà¦ļ à¦Ĺ
Ġà§§à§ªà§« à§©
Ġà§§à§¬à§¬ à§¬
à¦¡à¦ī à¦ĩà¦¡à¦¥
à¦° à¦ı
à§Ł à¦°à¦¸
à¦® à¦¡à¦Ĺ
Ġà¦ķ à¦ķà¦ķ
à¦ª à¦®à§Ł
Ġà¦® à¦ĵ
Ġà¦® à¦²à¦Ĺ
Ġà¦® à¦Ĺà§ľ
à¦ľ à¦ħ
Ġà¦¨ à¦¨à¦ķ
Ġà¦¦ à¦°à¦¦à¦°
à¦· à¦ķà¦Ł
Ġà¦ħ à§Łà¦²
à¦§ à¦°à¦¦
Ġà¦ī à¦ĩà¦Ń
à¦¡ à¦¬à¦°
Ġà¦ĸ à¦ķ
Ġà¦¹à¦² à¦¸à¦¹
à¦°à¦¦ à¦²à¦ķ
à¦®à¦² à¦ª
à¦ĩà¦² à¦ªà¦¤
à¦ĩà¦ķ à¦¨
à¦¨à¦¨ à¦¨
Ġà¦ĩà¦ī à¦Ĩà¦ĩà¦Ł
à¦¹à¦¸ à¦ľ
à§Łà¦° à¦ŀ
à¦¥à¦¨ à¦ĩ
Ġà¦Ĩà¦ĩ à§ľ
à¦ķà¦¸ à¦ĵ
Ġà¦§à¦¨ à¦ķà¦°
Ġà¦¨à¦Ĺà¦° à¦Ĺ
Ġà¦ļà¦°à¦® à¦¤à¦®
à§§à§¦ à§®
à¦¨à¦ľà¦¨ à¦ķà¦Ń
à¦īà¦¥ à¦ĸ
Ġà§¨à§¦à§¦à§¦ à§¦
à¦ľà¦īà¦¦ à¦¦
Ġà¦ĩà¦Ľ à¦¹
Ġà¦ıà¦«à¦ı à¦ıà¦¸
Ġà¦Īà¦Ĺà¦² à¦¸
Ġà¦ıà¦¨à¦ıà¦¸ à¦ĩà¦ī
Ġà¦Ĩà¦ī à¦¶à¦ķ
à¦ķ à¦¬à¦¨
à¦¬ à¦ľà¦²
Ġà¦¸ à¦ĵà¦®
Ġà¦ª à¦ĩ
à¦Ł à¦¸à¦°
à¦Ł à¦Ńà¦°
à¦ª à§ľà¦ķ
Ġà¦Ĩ à¦īà¦ļ
Ġà¦® à¦ĵà¦ľ
à¦ľ à¦īà¦²
Ġà¦¹ à¦¯à¦¬à¦°à¦²
à¦¶ à¦°à¦®
à¦¹ à¦Ĺà¦£à¦¨
Ġà¦ħ à¦ĵà¦°
Ġà¦ľ à¦łà¦°
Ġà¦¯ à¦Īà¦«
Ġà¦ĩ à¦§
Ġà¦ħà¦¨ à¦ª
Ġà¦Ł à¦ĩà¦Łà¦®
Ġà¦ıà¦¸ à¦Ĩà¦°à¦ķ
à¦²à¦¬ à¦¤
Ġà¦¬à§ľ à¦¤à¦²
à¦°à¦Ń à¦ŀ
à¦ħ à¦¥
à¦ıà¦¨ à¦Ń
Ġà¦ħà¦ª à¦ľ
Ġà§§à§¨ à§©à§ª
Ġà¦Ĩà¦¤ à¦¶
Ġà¦ĸà¦¬à¦° à¦ªà¦¤
à¦·à¦¤ à¦Ł
à¦īà¦Ł à¦¦
Ġà¦Ĳ à¦Ń
Ġà§§à§Ń à§¯à§§
à¦ľà§Ł à¦Ł
à¦ĩà¦¡ à¦¶
Ġà¦¨à¦¬ à¦¤à¦°
à¦¯à¦ķà¦° à¦ĵ
Ġà¦¨à¦° à¦īà¦ĩà¦ļ
à¦®à¦£ à¦Ĺ
Ġà¦Ĭ à¦·à¦¸
Ġà§¦à§¨ à§Ń
Ġà¦ĩà¦īà¦ıà¦¸ à¦ıà¦¸à¦Ĩà¦°
Ġà§§à§Ńà§® à§©
Ġà§§à§¬à§¬ à§¦
à¦°à¦¹à¦¸à¦¨ à¦®
à¦£à¦ļ à¦ŀ
à§Ńà§Ń à§Ń
à¦² à¦Łà¦ķ
à¦® à¦ľà§Ł
Ġà¦¨ à¦¸à¦°à¦¤
à¦ĵ à¦²à¦ķ
Ġà¦¯ à¦¶à¦ķ
Ġà¦Ĺ à¦¸à¦ª
Ġà¦ī à¦°à¦¬
Ġà¦ī à¦¤à¦¬
Ġà¦ĩ à¦¸à¦¬
Ġà¦¬à¦² à§İà¦ķ
Ġà¦Ĩà¦° à¦°
Ġà¦ıà¦° à¦¬
à¦īà¦¨ à¦¹à¦²
à¦¦à¦¨ à¦¤à¦¤
à¦ķà¦Ł à¦ĩ
à¦¤à¦® à¦¸
à§İà¦¸ à¦ĩ
à¦¸à¦¹ à¦ª
à¦®à¦ķ à¦¬
Ġà§§à§© à§¨à§«
Ġà§§à§Ń à§¯à§¬
à¦°à¦ľ à¦¦
à¦Ĺà¦¨ à¦·
à¦¯à¦¸ à¦°à¦ķ
à¦ıà¦« à¦ıà¦®
Ġà¦¦à¦ĸà¦² à¦¸à¦¹
à§§à§¦ à§¬
Ġà¦ļà§ľ à¦ļà§ľ
à§§à§¯ à§¦à§©
Ġà§¦à§© à§¦
Ġà§¦à§© à§«
Ġà¦¨à¦ĵ à¦ľ
Ġà§¦à§ª à§§
à¦°à¦£à§Łà¦¨ à¦¸à¦¹
Ġà¦¬à¦¦ à¦ħà¦Ń
Ġà¦īà¦ªà¦ķà¦°à¦£ à¦ĵ
Ġà§§à§Ńà§® à§«
Ġà§§à§Ńà§® à§¬
à¦° à¦Ĩà¦°à¦ĵ
à¦¨ à¦ľà§Ł
à¦² à¦ĩà§Ł
Ġà¦ª à¦·
à¦¦ à¦ĩà§Ł
à¦Ł à¦°à¦¶
à¦ĩ à¦£
à¦ĩ à§Łà¦¨
Ġà¦¹ à§ľ
à¦¶ à¦ķà¦Ł
Ġà¦ĵ à¦Łà¦²
Ġà¦ī à¦§à¦®
à¦¡ à§Łà¦ļ
à¦ł à¦ľà¦¨à¦¦
Ġà¦ĺ à¦°à¦ķà¦¨
Ġà¦§ à¦°à¦®à¦¶
à¦ŀ à¦¨
à§Łà¦¨ à¦¤
Ġà¦¹à¦² à¦¸
à¦²à¦ķ à¦¤
à¦ĺ à¦ªà¦¥
Ġà¦īà¦¦ à¦°à¦ª
à¦ķà¦² à¦Ļ
à¦Ŀ à¦Ł
à¦ªà¦ķ à¦¸à¦¹
Ġà¦Ŀ à§ľà¦ķ
à¦¶à¦ķ à¦¹
à¦ıà¦¨ à¦ıà¦ķ
à¦°à¦² à¦Ń
à¦Łà¦° à¦ĵà§Ł
à¦Ĩà¦ĩ à¦ĩà¦īà¦°
à¦ªà¦¦ à¦¹
Ġà¦ıà¦ª à§Ł
à¦¨à§Ł à¦ľ
Ġà¦Ĩà¦« à¦®
à¦²à¦® à¦ŀ
à¦ļà¦ķ à¦ĩ
Ġà¦ªà¦¦à¦ķ à¦¸à¦¹
Ġà¦Ĩà¦¬à¦¹ à¦ĵà§Ł
à§ľà¦¬ à¦Ļ
Ġà§«à§¦à§¦ à§¦à§¦
Ġà¦īà¦ĩà¦² à¦¬
Ġà§¦à§ª à§«
Ġà¦¸à¦¨à¦¦ à¦ĵ
à¦¬à§ľ à¦ª
à¦Ĩà¦īà¦Ł à¦¸
Ġà¦°à¦£ à¦ľà§Ł
Ġà¦¤à¦ªà¦¨ à¦ķ
Ġà¦Ĩà§Łà¦°à¦¨ à¦®
Ġà¦ıà¦®à¦¤ à¦¬à¦¸
Ġà§§à§Ńà§« à§¬
Ġà¦ıà¦¨à¦ıà¦¸ à¦Ĩà¦ĩà§Ł
à¦ĵà¦ıà¦¸ à¦ıà¦¨
à¦Ĩà¦ļà¦°à¦£ à¦¬
à¦° à¦ħà¦¨
à¦¨ à¦¦à¦²
à¦ķ à¦¸à¦°
à¦² à¦¦à¦°
Ġà¦¬ à¦¬à¦¸
Ġà¦® à¦ĩà§Ł
à¦ľ à¦¬à¦¦
Ġà¦¹ à¦ķà¦¸
Ġà¦¹ à¦Łà¦¬
Ġà¦ķà¦° à¦¬à¦¨
à¦£ à§Łà¦¸
Ġà¦Ĺ à¦¡à¦ķ
à§ľ à¦ĺ
Ġà¦ĩ à¦°à¦¨
à¦ī à¦¬à¦ķ
Ġà¦Ĩà¦° à¦¬à¦¬
Ġà¦ĺ à¦°à¦Ń
à§Łà¦¨ à¦¨
Ġà¦Ĩà¦² à¦®à¦¨à¦Ĺà¦°
Ġà¦Ĩà¦¬ à¦²
à¦²à¦ķ à¦°à¦ķ
à¦ħ à¦¸à¦®à§Ł
Ġà¦Ĩà¦ĵà§Ł à¦®
Ġà¦¬à¦ķ à¦°à¦ķ
à¦·à¦¤ à¦Ĺ
Ġà¦Ĩà¦ĩ à¦ĩà¦īà¦Ł
à¦ĩà¦« à¦ĵ
à¦°à¦ķà¦® à¦Ł
Ġà§©à§ª à§¦à§¦
à¦¡à¦¬ à¦¡
Ġà¦¸à¦« à¦¦
à§§à§¦ à§§
Ġà¦Ĩà¦Ļ à¦Ł
Ġà¦®à¦¶ à¦¹
Ġà¦Ĺà¦¹ à¦¬à¦°
Ġà¦«à¦²à¦ķ à¦¨
Ġà¦®à¦¤à¦² à¦¬à¦¬
à§Ł à¦Ĩà¦¤
Ġà¦® à¦Ī
Ġà¦¨ à¦°à¦¬
à¦ļ à¦°à¦¤
à¦ļ à¦¯à¦¨
Ġà¦Ĺ à¦īà¦Ľ
à¦°à¦¤ à¦¤à¦¤
Ġà¦Ł à¦Ĺ
à¦ı à¦ŀ
à¦ķà¦° à¦ĸ
Ġà¦¸à¦®à§Ł à¦°
à¦īà¦¨ à¦ĩ
à¦·à§Ł à¦¸
à¦¯à¦¬ à¦°à¦£
à¦¤à¦® à¦¹
à¦·à¦ķ à¦Ĺà¦¨
à¦¸à¦® à§Łà¦¸
à¦¬à¦ķ à¦¥
à¦¨à¦¬ à¦§
à¦ıà¦¨ à¦Ĩà¦ĩà¦¡
Ġà¦ıà¦® à¦Ĩà¦°à¦¸
Ġà¦¦à¦° à¦¬à¦¸
Ġà§§à§Ń à§¯à§Ń
à¦Ĩà¦° à¦ıà¦¸à¦ıà¦¸
à¦Ĺà¦® à¦Ĺ
Ġà¦¨à¦¬ à¦Ľà¦°
Ġà¦ıà¦ĩà¦ļ à¦Ĩà¦°à¦¡
Ġà¦Ĩà¦ļà¦°à¦£ à¦Ĺ
à§§à§® à§¯à§Ń
à§§à§® à§®à§¦
à§§à§® à§«à§Ń
à§§à§® à§¯à§¨
Ġà¦ĵà¦ľà¦¨ à¦¦
à¦¸à¦°à¦£ à¦ª
à§§à§¯ à§¦à§¦
Ġà§§à§¨à§¦ à§«
Ġà¦ĸà§ľ à¦ĸà§ľ
à¦°à¦ĺ à¦£
Ġà¦°à¦¥ à¦Ł
Ġà§§à§Ńà§® à§®
Ġà¦ĩà¦ıà¦® à¦ĩà¦ī
Ġà¦Ĩà¦ĩà¦ĩ à¦Ĩà¦°
à¦° à¦ıà¦ķ
à¦¨ à¦¯à¦Ł
à¦² à¦ľà¦¬
à¦² à¦Ĩà¦¨
Ġà¦¬ à¦ķà¦²à¦®
à¦¦ à¦®à¦ķ
à¦ĩ à¦¸à¦ª
à¦ĩ à¦¦à¦²
à¦Ľ à¦¯
Ġà¦ķà¦° à¦ŀ
à¦§ à¦¨à¦¸
Ġà¦° à¦ľà¦®
Ġà¦¶ à¦¬à¦¬
Ġà¦Ĺ à¦ķ
Ġà¦ıà¦ķ à¦²à¦ķ
Ġà¦ĩ à¦°à¦¬
Ġà¦« à¦¡
Ġà¦ľà¦¨ à¦īà¦¦
à¦ı à¦¥
à¦°à¦¦ à§Ł
à¦ħ à¦®à¦²
à¦ħ à¦¹à¦¨
à¦ħ à¦ªà¦¸
à¦«à¦° à¦Ĺà¦ŀ
à¦łà¦ķ à¦Ĺà¦£
Ġà§§à§Ń à§§à§Ń
à¦ıà¦ĩ à¦°à¦ķà¦®
Ġà¦ļà¦° à¦²à¦ķ
à¦ıà¦² à¦°
à¦ĩà¦Ń à¦²
Ġà¦ĭ à¦Ń
à¦īà¦¡ à¦ĵ
à¦ªà¦¥ à¦ķ
Ġà¦ķà¦· à¦²
Ġà¦Ĭ à¦²
Ġà¦Ĭ à¦§
à¦¯à¦Ĺ à¦Ĺà¦¨
à§§à§¯ à§¦à§®
Ġà§¦à§¨ à§ª
Ġà§¦à§ª à§¦
Ġà§¦à§ª à§®
à¦®à¦® à¦®à¦®
à¦®à¦ĺ à¦Łà¦ķ
Ġà¦°à¦¤à¦¨ à¦¦
Ġà¦ıà¦®à¦ı à¦¡
à¦¤à¦ĸà¦¨ à¦ķ
à¦¸à¦¦à¦° à¦ĺ
Ġà¦ıà¦ĩà¦°à¦ķà¦® à¦ĩ
Ġà¦ıà¦ıà¦¨ à¦Ĩà¦ĩà§Ł
Ġà¦ļà¦°à¦« à¦ķ
à¦° à¦Ĩà¦²
à¦ķ à¦ĩà¦²
à¦® à¦¸à¦¬
Ġà¦ķ à¦ªà¦°
à¦¸ à¦Ĺà¦ŀ
à§Ģ à¦ģ
Ġà¦Ĩ à¦īà¦ľ
à¦¶ à¦Ĺà¦®
Ġà¦¨ à¦Ľà¦°
à¦Ĺ à¦¨à¦¨
Ġà¦ķà¦° à¦«
à¦· à¦¥
Ġà¦ħ à¦²à¦¬
à¦¥ à¦ĸ
à¦£ à¦¬à¦ķ
Ġà¦ĵ à¦Ľ
Ġà¦ĵ à¦¬à¦²
Ġà¦ĵ à¦°à¦ĵ
Ġà¦ī à¦¡à¦ĵà§Ł
Ġà¦ıà¦ķ à¦ļà¦²
Ġà¦ĸ à¦²à¦¸
Ġà¦ħà¦¨ à¦ļà¦²
Ġà¦Ł à¦ķà¦Ł
Ġà¦§ à¦°à¦ķ
à¦°à¦® à¦¡
Ġà§¨à§¦ à§©à§©
à¦°à¦¸ à¦Ł
