{
  "version": "1.0",
  "truncation": null,
  "padding": null,
  "added_tokens": [
    {
      "id": 50257,
      "content": "<|endoftext|>",
      "single_word": false,
      "lstrip": false,
      "rstrip": false,
      "normalized": true,
      "special": true
    },
    {
      "id": 50258,
      "content": "<|startoftranscript|>",
      "single_word": false,
      "lstrip": false,
      "rstrip": false,
      "normalized": false,
      "special": true
    },
    {
      "id": 50259,
      "content": "<|en|>",
      "single_word": false,
      "lstrip": false,
      "rstrip": false,
      "normalized": false,
      "special": true
    },
    {
      "id": 50260,
      "content": "<|zh|>",
      "single_word": false,
      "lstrip": false,
      "rstrip": false,
      "normalized": false,
      "special": true
    },
    {
      "id": 50261,
      "content": "<|de|>",
      "single_word": false,
      "lstrip": false,
      "rstrip": false,
      "normalized": false,
      "special": true
    },
    {
      "id": 50262,
      "content": "<|es|>",
      "single_word": false,
      "lstrip": false,
      "rstrip": false,
      "normalized": false,
      "special": true
    },
    {
      "id": 50263,
      "content": "<|ru|>",
      "single_word": false,
      "lstrip": false,
      "rstrip": false,
      "normalized": false,
      "special": true
    },
    {
      "id": 50264,
      "content": "<|ko|>",
      "single_word": false,
      "lstrip": false,
      "rstrip": false,
      "normalized": false,
      "special": true
    },
    {
      "id": 50265,
      "content": "<|fr|>",
      "single_word": false,
      "lstrip": false,
      "rstrip": false,
      "normalized": false,
      "special": true
    },
    {
      "id": 50266,
      "content": "<|ja|>",
      "single_word": false,
      "lstrip": false,
      "rstrip": false,
      "normalized": false,
      "special": true
    },
    {
      "id": 50267,
      "content": "<|pt|>",
      "single_word": false,
      "lstrip": false,
      "rstrip": false,
      "normalized": false,
      "special": true
    },
    {
      "id": 50268,
      "content": "<|tr|>",
      "single_word": false,
      "lstrip": false,
      "rstrip": false,
      "normalized": false,
      "special": true
    },
    {
      "id": 50269,
      "content": "<|pl|>",
      "single_word": false,
      "lstrip": false,
      "rstrip": false,
      "normalized": false,
      "special": true
    },
    {
      "id": 50270,
      "content": "<|ca|>",
      "single_word": false,
      "lstrip": false,
      "rstrip": false,
      "normalized": false,
      "special": true
    },
    {
      "id": 50271,
      "content": "<|nl|>",
      "single_word": false,
      "lstrip": false,
      "rstrip": false,
      "normalized": false,
      "special": true
    },
    {
      "id": 50272,
      "content": "<|ar|>",
      "single_word": false,
      "lstrip": false,
      "rstrip": false,
      "normalized": false,
      "special": true
    },
    {
      "id": 50273,
      "content": "<|sv|>",
      "single_word": false,
      "lstrip": false,
      "rstrip": false,
      "normalized": false,
      "special": true
    },
    {
      "id": 50274,
      "content": "<|it|>",
      "single_word": false,
      "lstrip": false,
      "rstrip": false,
      "normalized": false,
      "special": true
    },
    {
      "id": 50275,
      "content": "<|id|>",
      "single_word": false,
      "lstrip": false,
      "rstrip": false,
      "normalized": false,
      "special": true
    },
    {
      "id": 50276,
      "content": "<|hi|>",
      "single_word": false,
      "lstrip": false,
      "rstrip": false,
      "normalized": false,
      "special": true
    },
    {
      "id": 50277,
      "content": "<|fi|>",
      "single_word": false,
      "lstrip": false,
      "rstrip": false,
      "normalized": false,
      "special": true
    },
    {
      "id": 50278,
      "content": "<|vi|>",
      "single_word": false,
      "lstrip": false,
      "rstrip": false,
      "normalized": false,
      "special": true
    },
    {
      "id": 50279,
      "content": "<|he|>",
      "single_word": false,
      "lstrip": false,
      "rstrip": false,
      "normalized": false,
      "special": true
    },
    {
      "id": 50280,
      "content": "<|uk|>",
      "single_word": false,
      "lstrip": false,
      "rstrip": false,
      "normalized": false,
      "special": true
    },
    {
      "id": 50281,
      "content": "<|el|>",
      "single_word": false,
      "lstrip": false,
      "rstrip": false,
      "normalized": false,
      "special": true
    },
    {
      "id": 50282,
      "content": "<|ms|>",
      "single_word": false,
      "lstrip": false,
      "rstrip": false,
      "normalized": false,
      "special": true
    },
    {
      "id": 50283,
      "content": "<|cs|>",
      "single_word": false,
      "lstrip": false,
      "rstrip": false,
      "normalized": false,
      "special": true
    },
    {
      "id": 50284,
      "content": "<|ro|>",
      "single_word": false,
      "lstrip": false,
      "rstrip": false,
      "normalized": false,
      "special": true
    },
    {
      "id": 50285,
      "content": "<|da|>",
      "single_word": false,
      "lstrip": false,
      "rstrip": false,
      "normalized": false,
      "special": true
    },
    {
      "id": 50286,
      "content": "<|hu|>",
      "single_word": false,
      "lstrip": false,
      "rstrip": false,
      "normalized": false,
      "special": true
    },
    {
      "id": 50287,
      "content": "<|ta|>",
      "single_word": false,
      "lstrip": false,
      "rstrip": false,
      "normalized": false,
      "special": true
    },
    {
      "id": 50288,
      "content": "<|no|>",
      "single_word": false,
      "lstrip": false,
      "rstrip": false,
      "normalized": false,
      "special": true
    },
    {
      "id": 50289,
      "content": "<|th|>",
      "single_word": false,
      "lstrip": false,
      "rstrip": false,
      "normalized": false,
      "special": true
    },
    {
      "id": 50290,
      "content": "<|ur|>",
      "single_word": false,
      "lstrip": false,
      "rstrip": false,
      "normalized": false,
      "special": true
    },
    {
      "id": 50291,
      "content": "<|hr|>",
      "single_word": false,
      "lstrip": false,
      "rstrip": false,
      "normalized": false,
      "special": true
    },
    {
      "id": 50292,
      "content": "<|bg|>",
      "single_word": false,
      "lstrip": false,
      "rstrip": false,
      "normalized": false,
      "special": true
    },
    {
      "id": 50293,
      "content": "<|lt|>",
      "single_word": false,
      "lstrip": false,
      "rstrip": false,
      "normalized": false,
      "special": true
    },
    {
      "id": 50294,
      "content": "<|la|>",
      "single_word": false,
      "lstrip": false,
      "rstrip": false,
      "normalized": false,
      "special": true
    },
    {
      "id": 50295,
      "content": "<|mi|>",
      "single_word": false,
      "lstrip": false,
      "rstrip": false,
      "normalized": false,
      "special": true
    },
    {
      "id": 50296,
      "content": "<|ml|>",
      "single_word": false,
      "lstrip": false,
      "rstrip": false,
      "normalized": false,
      "special": true
    },
    {
      "id": 50297,
      "content": "<|cy|>",
      "single_word": false,
      "lstrip": false,
      "rstrip": false,
      "normalized": false,
      "special": true
    },
    {
      "id": 50298,
      "content": "<|sk|>",
      "single_word": false,
      "lstrip": false,
      "rstrip": false,
      "normalized": false,
      "special": true
    },
    {
      "id": 50299,
      "content": "<|te|>",
      "single_word": false,
      "lstrip": false,
      "rstrip": false,
      "normalized": false,
      "special": true
    },
    {
      "id": 50300,
      "content": "<|fa|>",
      "single_word": false,
      "lstrip": false,
      "rstrip": false,
      "normalized": false,
      "special": true
    },
    {
      "id": 50301,
      "content": "<|lv|>",
      "single_word": false,
      "lstrip": false,
      "rstrip": false,
      "normalized": false,
      "special": true
    },
    {
      "id": 50302,
      "content": "<|bn|>",
      "single_word": false,
      "lstrip": false,
      "rstrip": false,
      "normalized": false,
      "special": true
    },
    {
      "id": 50303,
      "content": "<|sr|>",
      "single_word": false,
      "lstrip": false,
      "rstrip": false,
      "normalized": false,
      "special": true
    },
    {
      "id": 50304,
      "content": "<|az|>",
      "single_word": false,
      "lstrip": false,
      "rstrip": false,
      "normalized": false,
      "special": true
    },
    {
      "id": 50305,
      "content": "<|sl|>",
      "single_word": false,
      "lstrip": false,
      "rstrip": false,
      "normalized": false,
      "special": true
    },
    {
      "id": 50306,
      "content": "<|kn|>",
      "single_word": false,
      "lstrip": false,
      "rstrip": false,
      "normalized": false,
      "special": true
    },
    {
      "id": 50307,
      "content": "<|et|>",
      "single_word": false,
      "lstrip": false,
      "rstrip": false,
      "normalized": false,
      "special": true
    },
    {
      "id": 50308,
      "content": "<|mk|>",
      "single_word": false,
      "lstrip": false,
      "rstrip": false,
      "normalized": false,
      "special": true
    },
    {
      "id": 50309,
      "content": "<|br|>",
      "single_word": false,
      "lstrip": false,
      "rstrip": false,
      "normalized": false,
      "special": true
    },
    {
      "id": 50310,
      "content": "<|eu|>",
      "single_word": false,
      "lstrip": false,
      "rstrip": false,
      "normalized": false,
      "special": true
    },
    {
      "id": 50311,
      "content": "<|is|>",
      "single_word": false,
      "lstrip": false,
      "rstrip": false,
      "normalized": false,
      "special": true
    },
    {
      "id": 50312,
      "content": "<|hy|>",
      "single_word": false,
      "lstrip": false,
      "rstrip": false,
      "normalized": false,
      "special": true
    },
    {
      "id": 50313,
      "content": "<|ne|>",
      "single_word": false,
      "lstrip": false,
      "rstrip": false,
      "normalized": false,
      "special": true
    },
    {
      "id": 50314,
      "content": "<|mn|>",
      "single_word": false,
      "lstrip": false,
      "rstrip": false,
      "normalized": false,
      "special": true
    },
    {
      "id": 50315,
      "content": "<|bs|>",
      "single_word": false,
      "lstrip": false,
      "rstrip": false,
      "normalized": false,
      "special": true
    },
    {
      "id": 50316,
      "content": "<|kk|>",
      "single_word": false,
      "lstrip": false,
      "rstrip": false,
      "normalized": false,
      "special": true
    },
    {
      "id": 50317,
      "content": "<|sq|>",
      "single_word": false,
      "lstrip": false,
      "rstrip": false,
      "normalized": false,
      "special": true
    },
    {
      "id": 50318,
      "content": "<|sw|>",
      "single_word": false,
      "lstrip": false,
      "rstrip": false,
      "normalized": false,
      "special": true
    },
    {
      "id": 50319,
      "content": "<|gl|>",
      "single_word": false,
      "lstrip": false,
      "rstrip": false,
      "normalized": false,
      "special": true
    },
    {
      "id": 50320,
      "content": "<|mr|>",
      "single_word": false,
      "lstrip": false,
      "rstrip": false,
      "normalized": false,
      "special": true
    },
    {
      "id": 50321,
      "content": "<|pa|>",
      "single_word": false,
      "lstrip": false,
      "rstrip": false,
      "normalized": false,
      "special": true
    },
    {
      "id": 50322,
      "content": "<|si|>",
      "single_word": false,
      "lstrip": false,
      "rstrip": false,
      "normalized": false,
      "special": true
    },
    {
      "id": 50323,
      "content": "<|km|>",
      "single_word": false,
      "lstrip": false,
      "rstrip": false,
      "normalized": false,
      "special": true
    },
    {
      "id": 50324,
      "content": "<|sn|>",
      "single_word": false,
      "lstrip": false,
      "rstrip": false,
      "normalized": false,
      "special": true
    },
    {
      "id": 50325,
      "content": "<|yo|>",
      "single_word": false,
      "lstrip": false,
      "rstrip": false,
      "normalized": false,
      "special": true
    },
    {
      "id": 50326,
      "content": "<|so|>",
      "single_word": false,
      "lstrip": false,
      "rstrip": false,
      "normalized": false,
      "special": true
    },
    {
      "id": 50327,
      "content": "<|af|>",
      "single_word": false,
      "lstrip": false,
      "rstrip": false,
      "normalized": false,
      "special": true
    },
    {
      "id": 50328,
      "content": "<|oc|>",
      "single_word": false,
      "lstrip": false,
      "rstrip": false,
      "normalized": false,
      "special": true
    },
    {
      "id": 50329,
      "content": "<|ka|>",
      "single_word": false,
      "lstrip": false,
      "rstrip": false,
      "normalized": false,
      "special": true
    },
    {
      "id": 50330,
      "content": "<|be|>",
      "single_word": false,
      "lstrip": false,
      "rstrip": false,
      "normalized": false,
      "special": true
    },
    {
      "id": 50331,
      "content": "<|tg|>",
      "single_word": false,
      "lstrip": false,
      "rstrip": false,
      "normalized": false,
      "special": true
    },
    {
      "id": 50332,
      "content": "<|sd|>",
      "single_word": false,
      "lstrip": false,
      "rstrip": false,
      "normalized": false,
      "special": true
    },
    {
      "id": 50333,
      "content": "<|gu|>",
      "single_word": false,
      "lstrip": false,
      "rstrip": false,
      "normalized": false,
      "special": true
    },
    {
      "id": 50334,
      "content": "<|am|>",
      "single_word": false,
      "lstrip": false,
      "rstrip": false,
      "normalized": false,
      "special": true
    },
    {
      "id": 50335,
      "content": "<|yi|>",
      "single_word": false,
      "lstrip": false,
      "rstrip": false,
      "normalized": false,
      "special": true
    },
    {
      "id": 50336,
      "content": "<|lo|>",
      "single_word": false,
      "lstrip": false,
      "rstrip": false,
      "normalized": false,
      "special": true
    },
    {
      "id": 50337,
      "content": "<|uz|>",
      "single_word": false,
      "lstrip": false,
      "rstrip": false,
      "normalized": false,
      "special": true
    },
    {
      "id": 50338,
      "content": "<|fo|>",
      "single_word": false,
      "lstrip": false,
      "rstrip": false,
      "normalized": false,
      "special": true
    },
    {
      "id": 50339,
      "content": "<|ht|>",
      "single_word": false,
      "lstrip": false,
      "rstrip": false,
      "normalized": false,
      "special": true
    },
    {
      "id": 50340,
      "content": "<|ps|>",
      "single_word": false,
      "lstrip": false,
      "rstrip": false,
      "normalized": false,
      "special": true
    },
    {
      "id": 50341,
      "content": "<|tk|>",
      "single_word": false,
      "lstrip": false,
      "rstrip": false,
      "normalized": false,
      "special": true
    },
    {
      "id": 50342,
      "content": "<|nn|>",
      "single_word": false,
      "lstrip": false,
      "rstrip": false,
      "normalized": false,
      "special": true
    },
    {
      "id": 50343,
      "content": "<|mt|>",
      "single_word": false,
      "lstrip": false,
      "rstrip": false,
      "normalized": false,
      "special": true
    },
    {
      "id": 50344,
      "content": "<|sa|>",
      "single_word": false,
      "lstrip": false,
      "rstrip": false,
      "normalized": false,
      "special": true
    },
    {
      "id": 50345,
      "content": "<|lb|>",
      "single_word": false,
      "lstrip": false,
      "rstrip": false,
      "normalized": false,
      "special": true
    },
    {
      "id": 50346,
      "content": "<|my|>",
      "single_word": false,
      "lstrip": false,
      "rstrip": false,
      "normalized": false,
      "special": true
    },
    {
      "id": 50347,
      "content": "<|bo|>",
      "single_word": false,
      "lstrip": false,
      "rstrip": false,
      "normalized": false,
      "special": true
    },
    {
      "id": 50348,
      "content": "<|tl|>",
      "single_word": false,
      "lstrip": false,
      "rstrip": false,
      "normalized": false,
      "special": true
    },
    {
      "id": 50349,
      "content": "<|mg|>",
      "single_word": false,
      "lstrip": false,
      "rstrip": false,
      "normalized": false,
      "special": true
    },
    {
      "id": 50350,
      "content": "<|as|>",
      "single_word": false,
      "lstrip": false,
      "rstrip": false,
      "normalized": false,
      "special": true
    },
    {
      "id": 50351,
      "content": "<|tt|>",
      "single_word": false,
      "lstrip": false,
      "rstrip": false,
      "normalized": false,
      "special": true
    },
    {
      "id": 50352,
      "content": "<|haw|>",
      "single_word": false,
      "lstrip": false,
      "rstrip": false,
      "normalized": false,
      "special": true
    },
    {
      "id": 50353,
      "content": "<|ln|>",
      "single_word": false,
      "lstrip": false,
      "rstrip": false,
      "normalized": false,
      "special": true
    },
    {
      "id": 50354,
      "content": "<|ha|>",
      "single_word": false,
      "lstrip": false,
      "rstrip": false,
      "normalized": false,
      "special": true
    },
    {
      "id": 50355,
      "content": "<|ba|>",
      "single_word": false,
      "lstrip": false,
      "rstrip": false,
      "normalized": false,
      "special": true
    },
    {
      "id": 50356,
      "content": "<|jw|>",
      "single_word": false,
      "lstrip": false,
      "rstrip": false,
      "normalized": false,
      "special": true
    },
    {
      "id": 50357,
      "content": "<|su|>",
      "single_word": false,
      "lstrip": false,
      "rstrip": false,
      "normalized": false,
      "special": true
    },
    {
      "id": 50358,
      "content": "<|translate|>",
      "single_word": false,
      "lstrip": false,
      "rstrip": false,
      "normalized": false,
      "special": true
    },
    {
      "id": 50359,
      "content": "<|transcribe|>",
      "single_word": false,
      "lstrip": false,
      "rstrip": false,
      "normalized": false,
      "special": true
    },
    {
      "id": 50360,
      "content": "<|startoflm|>",
      "single_word": false,
      "lstrip": false,
      "rstrip": false,
      "normalized": false,
      "special": true
    },
    {
      "id": 50361,
      "content": "<|startofprev|>",
      "single_word": false,
      "lstrip": false,
      "rstrip": false,
      "normalized": false,
      "special": true
    },
    {
      "id": 50362,
      "content": "<|nocaptions|>",
      "single_word": false,
      "lstrip": false,
      "rstrip": false,
      "normalized": false,
      "special": true
    },
    {
      "id": 50363,
      "content": "<|notimestamps|>",
      "single_word": false,
      "lstrip": false,
      "rstrip": false,
      "normalized": false,
      "special": true
    }
  ],
  "normalizer": null,
  "pre_tokenizer": {
    "type": "ByteLevel",
    "add_prefix_space": false,
    "trim_offsets": true,
    "use_regex": true
  },
  "post_processor": {
    "type": "TemplateProcessing",
    "single": [
      {
        "SpecialToken": {
          "id": "<|startoftranscript|>",
          "type_id": 0
        }
      },
      {
        "SpecialToken": {
          "id": "<|notimestamps|>",
          "type_id": 0
        }
      },
      {
        "Sequence": {
          "id": "A",
          "type_id": 0
        }
      },
      {
        "SpecialToken": {
          "id": "<|endoftext|>",
          "type_id": 0
        }
      }
    ],
    "pair": [
      {
        "SpecialToken": {
          "id": "<|startoftranscript|>",
          "type_id": 0
        }
      },
      {
        "SpecialToken": {
          "id": "<|notimestamps|>",
          "type_id": 0
        }
      },
      {
        "Sequence": {
          "id": "A",
          "type_id": 0
        }
      },
      {
        "Sequence": {
          "id": "B",
          "type_id": 1
        }
      },
      {
        "SpecialToken": {
          "id": "<|endoftext|>",
          "type_id": 1
        }
      }
    ],
    "special_tokens": {
      "<|endoftext|>": {
        "id": "<|endoftext|>",
        "ids": [
          50257
        ],
        "tokens": [
          "<|endoftext|>"
        ]
      },
      "<|notimestamps|>": {
        "id": "<|notimestamps|>",
        "ids": [
          50363
        ],
        "tokens": [
          "<|notimestamps|>"
        ]
      },
      "<|startoftranscript|>": {
        "id": "<|startoftranscript|>",
        "ids": [
          50258
        ],
        "tokens": [
          "<|startoftranscript|>"
        ]
      }
    }
  },
  "decoder": {
    "type": "ByteLevel",
    "add_prefix_space": true,
    "trim_offsets": true,
    "use_regex": true
  },
  "model": {
    "type": "BPE",
    "dropout": null,
    "unk_token": null,
    "continuing_subword_prefix": "",
    "end_of_word_suffix": "",
    "fuse_unk": false,
    "byte_fallback": false,
    "ignore_merges": false,
    "vocab": {
      "!": 0,
      "\"": 1,
      "#": 2,
      "$": 3,
      "%": 4,
      "&": 5,
      "'": 6,
      "(": 7,
      ")": 8,
      "*": 9,
      "+": 10,
      ",": 11,
      "-": 12,
      ".": 13,
      "/": 14,
      "0": 15,
      "1": 16,
      "2": 17,
      "3": 18,
      "4": 19,
      "5": 20,
      "6": 21,
      "7": 22,
      "8": 23,
      "9": 24,
      ":": 25,
      ";": 26,
      "<": 27,
      "=": 28,
      ">": 29,
      "?": 30,
      "@": 31,
      "A": 32,
      "B": 33,
      "C": 34,
      "D": 35,
      "E": 36,
      "F": 37,
      "G": 38,
      "H": 39,
      "I": 40,
      "J": 41,
      "K": 42,
      "L": 43,
      "M": 44,
      "N": 45,
      "O": 46,
      "P": 47,
      "Q": 48,
      "R": 49,
      "S": 50,
      "T": 51,
      "U": 52,
      "V": 53,
      "W": 54,
      "X": 55,
      "Y": 56,
      "Z": 57,
      "[": 58,
      "\\": 59,
      "]": 60,
      "^": 61,
      "_": 62,
      "`": 63,
      "a": 64,
      "b": 65,
      "c": 66,
      "d": 67,
      "e": 68,
      "f": 69,
      "g": 70,
      "h": 71,
      "i": 72,
      "j": 73,
      "k": 74,
      "l": 75,
      "m": 76,
      "n": 77,
      "o": 78,
      "p": 79,
      "q": 80,
      "r": 81,
      "s": 82,
      "t": 83,
      "u": 84,
      "v": 85,
      "w": 86,
      "x": 87,
      "y": 88,
      "z": 89,
      "{": 90,
      "|": 91,
      "}": 92,
      "~": 93,
      "¡": 94,
      "¢": 95,
      "£": 96,
      "¤": 97,
      "¥": 98,
      "¦": 99,
      "§": 100,
      "¨": 101,
      "©": 102,
      "ª": 103,
      "«": 104,
      "¬": 105,
      "®": 106,
      "¯": 107,
      "°": 108,
      "±": 109,
      "²": 110,
      "³": 111,
      "´": 112,
      "µ": 113,
      "¶": 114,
      "·": 115,
      "¸": 116,
      "¹": 117,
      "º": 118,
      "»": 119,
      "¼": 120,
      "½": 121,
      "¾": 122,
      "¿": 123,
      "À": 124,
      "Á": 125,
      "Â": 126,
      "Ã": 127,
      "Ä": 128,
      "Å": 129,
      "Æ": 130,
      "Ç": 131,
      "È": 132,
      "É": 133,
      "Ê": 134,
      "Ë": 135,
      "Ì": 136,
      "Í": 137,
      "Î": 138,
      "Ï": 139,
      "Ð": 140,
      "Ñ": 141,
      "Ò": 142,
      "Ó": 143,
      "Ô": 144,
      "Õ": 145,
      "Ö": 146,
      "×": 147,
      "Ø": 148,
      "Ù": 149,
      "Ú": 150,
      "Û": 151,
      "Ü": 152,
      "Ý": 153,
      "Þ": 154,
      "ß": 155,
      "à": 156,
      "á": 157,
      "â": 158,
      "ã": 159,
      "ä": 160,
      "å": 161,
      "æ": 162,
      "ç": 163,
      "è": 164,
      "é": 165,
      "ê": 166,
      "ë": 167,
      "ì": 168,
      "í": 169,
      "î": 170,
      "ï": 171,
      "ð": 172,
      "ñ": 173,
      "ò": 174,
      "ó": 175,
      "ô": 176,
      "õ": 177,
      "ö": 178,
      "÷": 179,
      "ø": 180,
      "ù": 181,
      "ú": 182,
      "û": 183,
      "ü": 184,
      "ý": 185,
      "þ": 186,
      "ÿ": 187,
      "Ā": 188,
      "ā": 189,
      "Ă": 190,
      "ă": 191,
      "Ą": 192,
      "ą": 193,
      "Ć": 194,
      "ć": 195,
      "Ĉ": 196,
      "ĉ": 197,
      "Ċ": 198,
      "ċ": 199,
      "Č": 200,
      "č": 201,
      "Ď": 202,
      "ď": 203,
      "Đ": 204,
      "đ": 205,
      "Ē": 206,
      "ē": 207,
      "Ĕ": 208,
      "ĕ": 209,
      "Ė": 210,
      "ė": 211,
      "Ę": 212,
      "ę": 213,
      "Ě": 214,
      "ě": 215,
      "Ĝ": 216,
      "ĝ": 217,
      "Ğ": 218,
      "ğ": 219,
      "Ġ": 220,
      "ġ": 221,
      "Ģ": 222,
      "ģ": 223,
      "Ĥ": 224,
      "ĥ": 225,
      "Ħ": 226,
      "ħ": 227,
      "Ĩ": 228,
      "ĩ": 229,
      "Ī": 230,
      "ī": 231,
      "Ĭ": 232,
      "ĭ": 233,
      "Į": 234,
      "į": 235,
      "İ": 236,
      "ı": 237,
      "Ĳ": 238,
      "ĳ": 239,
      "Ĵ": 240,
      "ĵ": 241,
      "Ķ": 242,
      "ķ": 243,
      "ĸ": 244,
      "Ĺ": 245,
      "ĺ": 246,
      "Ļ": 247,
      "ļ": 248,
      "Ľ": 249,
      "ľ": 250,
      "Ŀ": 251,
      "ŀ": 252,
      "Ł": 253,
      "ł": 254,
      "Ń": 255,
      "Ġt": 256,
      "Ġa": 257,
      "Ġth": 258,
      "in": 259,
      "er": 260,
      "Ġw": 261,
      "Ġs": 262,
      "ou": 263,
      "Ġthe": 264,
      "re": 265,
      "on": 266,
      "at": 267,
      "en": 268,
      "Ġc": 269,
      "it": 270,
      "is": 271,
      "Ġb": 272,
      "nd": 273,
      "Ġd": 274,
      "Ġm": 275,
      "Ġh": 276,
      "Ġo": 277,
      "ing": 278,
      "es": 279,
      "Ġp": 280,
      "Ġto": 281,
      "an": 282,
      "Ġf": 283,
      "or": 284,
      "ll": 285,
      "ĠI": 286,
      "Ġl": 287,
      "Ġy": 288,
      "ar": 289,
      "Ġg": 290,
      "Ġyou": 291,
      "ed": 292,
      "Ġand": 293,
      "Ġin": 294,
      "Ġof": 295,
      "as": 296,
      "Ġn": 297,
      "om": 298,
      "ic": 299,
      "Ġthat": 300,
      "us": 301,
      "et": 302,
      "ve": 303,
      "al": 304,
      "ow": 305,
      "le": 306,
      "Ġis": 307,
      "Ġe": 308,
      "Ġit": 309,
      "ot": 310,
      "'s": 311,
      "Ġbe": 312,
      "ion": 313,
      "ĠT": 314,
      "Ġwh": 315,
      "ĠA": 316,
      "ent": 317,
      "ĠS": 318,
      "Ġre": 319,
      "ay": 320,
      "Ġwe": 321,
      "Ġon": 322,
      "ere": 323,
      "Ġha": 324,
      "ut": 325,
      "ac": 326,
      "id": 327,
      "ig": 328,
      "os": 329,
      "ke": 330,
      "ver": 331,
      "im": 332,
      "ĠÐ": 333,
      "ĠTh": 334,
      "am": 335,
      "all": 336,
      "Ġfor": 337,
      "el": 338,
      "ch": 339,
      "ro": 340,
      "Ġthis": 341,
      "Ġst": 342,
      "ĠW": 343,
      "Ġu": 344,
      "ad": 345,
      "out": 346,
      "ir": 347,
      "ld": 348,
      "ct": 349,
      "Ġk": 350,
      "if": 351,
      "Ġgo": 352,
      "..": 353,
      "Ð¾": 354,
      "ith": 355,
      "ly": 356,
      "ht": 357,
      "qu": 358,
      "Ġ-": 359,
      "Ġdo": 360,
      "Ġj": 361,
      "Ġhave": 362,
      "ĠB": 363,
      "Ġan": 364,
      "Ġwith": 365,
      "Ġare": 366,
      "Ġr": 367,
      "Ġde": 368,
      "Ġse": 369,
      "Ġso": 370,
      "Ġv": 371,
      "st": 372,
      "ill": 373,
      "ur": 374,
      "Ġli": 375,
      "ĠM": 376,
      "est": 377,
      "od": 378,
      "ally": 379,
      "'t": 380,
      "ust": 381,
      "Ġas": 382,
      "ĠC": 383,
      "ce": 384,
      "Ġme": 385,
      "Ð°": 386,
      "Ðµ": 387,
      "il": 388,
      "ĠH": 389,
      "Ġwas": 390,
      "ter": 391,
      "th": 392,
      "Ġcan": 393,
      "ant": 394,
      "Ġcom": 395,
      "our": 396,
      "ight": 397,
      "ĠY": 398,
      "ation": 399,
      "ĠAnd": 400,
      "ol": 401,
      "Ġsh": 402,
      "ÑĤ": 403,
      "op": 404,
      "se": 405,
      "Ġnot": 406,
      "ĠSo": 407,
      "Ġne": 408,
      "un": 409,
      "Ġab": 410,
      "Ġlike": 411,
      "Ġat": 412,
      "ĠD": 413,
      "ie": 414,
      "Ġhe": 415,
      "Ġcon": 416,
      "Ġch": 417,
      "ore": 418,
      "Ġal": 419,
      "Ġor": 420,
      "Ġqu": 421,
      "ĠO": 422,
      "ome": 423,
      "ra": 424,
      "ul": 425,
      "ĠN": 426,
      "pp": 427,
      "Ġyour": 428,
      "ould": 429,
      "ĠP": 430,
      "Ġfr": 431,
      "ge": 432,
      "ers": 433,
      "'re": 434,
      "Ð¸": 435,
      "Ġthey": 436,
      "Ġwhat": 437,
      "use": 438,
      "Ġall": 439,
      "ĠThe": 440,
      "ĠL": 441,
      "ess": 442,
      "em": 443,
      "Ġkn": 444,
      "Ġjust": 445,
      "art": 446,
      "Ġpro": 447,
      "very": 448,
      "um": 449,
      "Ġlo": 450,
      "Ġì": 451,
      "Ġmy": 452,
      "ok": 453,
      "Ġex": 454,
      "ab": 455,
      "Ġthere": 456,
      "Ġbut": 457,
      "Ġknow": 458,
      "Ġsu": 459,
      "ĠG": 460,
      "Ñģ": 461,
      "ĠE": 462,
      "Ġma": 463,
      "Ð¾Ð": 464,
      "Ġen": 465,
      "Ġabout": 466,
      "ĠIt": 467,
      "ist": 468,
      "Ġwor": 469,
      "ri": 470,
      "ind": 471,
      "Ġone": 472,
      "ate": 473,
      "and": 474,
      "ink": 475,
      "Ġle": 476,
      "ort": 477,
      "'m": 478,
      "ĠF": 479,
      "ich": 480,
      "ÑĢ": 481,
      "ide": 482,
      "Ġget": 483,
      "Ġout": 484,
      "...": 485,
      "Ġwill": 486,
      "ãģ": 487,
      "ive": 488,
      "Ð½": 489,
      "Ġfrom": 490,
      "ain": 491,
      "ĠWe": 492,
      "Ġup": 493,
      "pe": 494,
      "res": 495,
      "ca": 496,
      "ĠR": 497,
      "Ġif": 498,
      "Ġpl": 499,
      "Ġdon": 500,
      "ack": 501,
      "Ġ1": 502,
      "Ġ\"": 503,
      "Ġtr": 504,
      "Ġus": 505,
      "ĠWh": 506,
      "ity": 507,
      "ĠJ": 508,
      "ĠYou": 509,
      "Ġhere": 510,
      "her": 511,
      "Ġsome": 512,
      "oug": 513,
      "ak": 514,
      "ard": 515,
      "Ġgoing": 516,
      "Ġun": 517,
      "ment": 518,
      "Ġthink": 519,
      "Ġpe": 520,
      "end": 521,
      "Ġ(": 522,
      "cause": 523,
      "Ġtim": 524,
      "ast": 525,
      "Ã©": 526,
      "Ġour": 527,
      "Ġwant": 528,
      "ame": 529,
      "ies": 530,
      "Ġë": 531,
      "ud": 532,
      "ine": 533,
      "Ġreally": 534,
      "Ġte": 535,
      "Ġsee": 536,
      "ci": 537,
      "Ġby": 538,
      "so": 539,
      "ure": 540,
      "ose": 541,
      "Ġ[": 542,
      "are": 543,
      "Ġmore": 544,
      "ah": 545,
      "one": 546,
      "ck": 547,
      "ople": 548,
      "Ð°Ð": 549,
      "Ġthen": 550,
      "Ġthing": 551,
      "Ġthem": 552,
      "ven": 553,
      "ound": 554,
      "ost": 555,
      "ong": 556,
      "ect": 557,
      "Ġright": 558,
      "ag": 559,
      "Ġint": 560,
      "Ġpeople": 561,
      "Ġwhen": 562,
      "ous": 563,
      "pl": 564,
      "Ġtime": 565,
      "Ġim": 566,
      "Ġwho": 567,
      "Ġ2": 568,
      "ap": 569,
      "Ġbecause": 570,
      "hing": 571,
      "Ġno": 572,
      "ice": 573,
      "Ġlook": 574,
      "Ġhas": 575,
      "Ġwould": 576,
      "Ġhow": 577,
      "act": 578,
      "Ġfe": 579,
      "nt": 580,
      "ough": 581,
      "Ġpr": 582,
      "ĠBut": 583,
      "Ġsay": 584,
      "Ñĥ": 585,
      "Ġnow": 586,
      "Ġman": 587,
      "Ġvery": 588,
      "Ġwork": 589,
      "iz": 590,
      "ĠK": 591,
      "iv": 592,
      "itt": 593,
      "Ġar": 594,
      "ep": 595,
      "Ġcl": 596,
      "Ġwhich": 597,
      "Ġco": 598,
      "ans": 599,
      "'ve": 600,
      "Ġsa": 601,
      "ff": 602,
      "'ll": 603,
      "Ġany": 604,
      "Ġact": 605,
      "Ġye": 606,
      "ber": 607,
      "ach": 608,
      "age": 609,
      "per": 610,
      "Ġalso": 611,
      "fer": 612,
      "Ġthese": 613,
      "Ġad": 614,
      "ÐµÐ": 615,
      "ther": 616,
      "ace": 617,
      "ick": 618,
      "ake": 619,
      "reat": 620,
      "ire": 621,
      "ue": 622,
      "Ġag": 623,
      "ĠU": 624,
      "uch": 625,
      "ions": 626,
      "ry": 627,
      "00": 628,
      "na": 629,
      "Ġdid": 630,
      "Ġque": 631,
      "Ġhad": 632,
      "Ġevery": 633,
      "ĠHe": 634,
      "Ġla": 635,
      "Ġway": 636,
      "Ġsp": 637,
      "ble": 638,
      "ĠThis": 639,
      "ass": 640,
      "Ġtheir": 641,
      "ite": 642,
      "Ġneed": 643,
      "Ġpart": 644,
      "Ġwere": 645,
      "Ġback": 646,
      "ip": 647,
      "own": 648,
      "omet": 649,
      "be": 650,
      "ase": 651,
      "Ġmake": 652,
      "irst": 653,
      "ia": 654,
      "ence": 655,
      "ang": 656,
      "ank": 657,
      "Ġgot": 658,
      "Ġpre": 659,
      "Ġcont": 660,
      "Ġother": 661,
      "pt": 662,
      "ĠThat": 663,
      "og": 664,
      "Ġgood": 665,
      "Ġinto": 666,
      "alk": 667,
      "Ġbeen": 668,
      "Ġam": 669,
      "Ġover": 670,
      "ually": 671,
      "Ġâ": 672,
      "ìĿ": 673,
      "Ġund": 674,
      "he": 675,
      "way": 676,
      "Ġgr": 677,
      "ÑĮ": 678,
      "Ġdif": 679,
      "Ġper": 680,
      "Ñı": 681,
      "ĠIn": 682,
      "Ġtw": 683,
      "ond": 684,
      "ars": 685,
      "int": 686,
      "orm": 687,
      "Ġlot": 688,
      "Ġwhere": 689,
      "ĠÃ": 690,
      "ĠV": 691,
      "Ġsomet": 692,
      "Ð»": 693,
      "ens": 694,
      "Ġgu": 695,
      "Ġac": 696,
      "ug": 697,
      "Ñĭ": 698,
      "Ä±": 699,
      "Ġfirst": 700,
      "ree": 701,
      "Ġhis": 702,
      "ittle": 703,
      "Ġimp": 704,
      "Ġmo": 705,
      "av": 706,
      "Ġlittle": 707,
      "ĠWhat": 708,
      "Ġmuch": 709,
      "Ġz": 710,
      "Ġê": 711,
      "able": 712,
      "ĠÐ¿": 713,
      "Ġpo": 714,
      "Ġcomp": 715,
      "ne": 716,
      "Ġdis": 717,
      "Ġlet": 718,
      "ance": 719,
      "Ġher": 720,
      "Ġthings": 721,
      "Ġstart": 722,
      "ult": 723,
      "Ġapp": 724,
      "Ġres": 725,
      "Ġfo": 726,
      "Ġcould": 727,
      "Ġinter": 728,
      "Ġthose": 729,
      "Ġdes": 730,
      "Ġwell": 731,
      "Ġtwo": 732,
      "Ġkind": 733,
      "xt": 734,
      "ress": 735,
      "ely": 736,
      "Ã¤": 737,
      "Ġbr": 738,
      "Ġthr": 739,
      "ĠÐ²": 740,
      "Ġi": 741,
      "ish": 742,
      "Ġdiffer": 743,
      "Ġro": 744,
      "ĠSt": 745,
      "Ġsomething": 746,
      "Ġtake": 747,
      "Ġbo": 748,
      "ys": 749,
      "Ġshe": 750,
      "Ġtalk": 751,
      "lo": 752,
      "Ñĩ": 753,
      "Ġeven": 754,
      "Ðº": 755,
      "ãĢ": 756,
      "ĠÐ½": 757,
      "Ġbu": 758,
      "ĠIf": 759,
      "Ġdown": 760,
      "ĠCh": 761,
      "ade": 762,
      "ations": 763,
      "Ġuse": 764,
      "ord": 765,
      "Ġoff": 766,
      "Ġactually": 767,
      "Ġspe": 768,
      "du": 769,
      "ated": 770,
      "ater": 771,
      "oss": 772,
      "ning": 773,
      "Ã¼": 774,
      "Ġdoes": 775,
      "ĠÑģ": 776,
      "Ġnew": 777,
      "Ġbet": 778,
      "vel": 779,
      "cess": 780,
      "ple": 781,
      "Ġhapp": 782,
      "ting": 783,
      "onna": 784,
      "Ġes": 785,
      "Ġday": 786,
      "Ġonly": 787,
      "ign": 788,
      "kay": 789,
      "sel": 790,
      "ents": 791,
      "ount": 792,
      "ild": 793,
      "ile": 794,
      "Ġsc": 795,
      "Ġhim": 796,
      "Ġagain": 797,
      "ving": 798,
      "Ġgonna": 799,
      "Ġcomm": 800,
      "Ġhel": 801,
      "other": 802,
      "Ġke": 803,
      "ical": 804,
      "Ġ3": 805,
      "Ġel": 806,
      "Ġthrough": 807,
      "Ġcome": 808,
      "ark": 809,
      "day": 810,
      "ier": 811,
      "Ã³": 812,
      "Ġthan": 813,
      "ĠThey": 814,
      "Ġmay": 815,
      "Ġser": 816,
      "íķ": 817,
      "Ġcall": 818,
      "Ġdifferent": 819,
      "Ġshould": 820,
      "ĠThere": 821,
      "ary": 822,
      "ĠNow": 823,
      "ãĤ": 824,
      "thing": 825,
      "we": 826,
      "ory": 827,
      "fter": 828,
      "Ġput": 829,
      "ors": 830,
      "ial": 831,
      "ëĭ": 832,
      "Ġunder": 833,
      "Ġinc": 834,
      "ĠYe": 835,
      "ub": 836,
      "form": 837,
      "Ġvide": 838,
      "à¸": 839,
      "vers": 840,
      "Ġfeel": 841,
      "Ã¡": 842,
      "ody": 843,
      "ft": 844,
      "fore": 845,
      "Ġem": 846,
      "get": 847,
      "Ġsaid": 848,
      "ition": 849,
      "Ġrec": 850,
      "ious": 851,
      "atch": 852,
      "Ġtry": 853,
      "Ġhelp": 854,
      "Ġshow": 855,
      "Ð´": 856,
      "Ġbit": 857,
      "ull": 858,
      "Ð²": 859,
      "ÑĤÐ¾": 860,
      "gr": 861,
      "Ġplay": 862,
      "ife": 863,
      "ail": 864,
      "ĠYeah": 865,
      "Ġquest": 866,
      "Ġmany": 867,
      "Ġpers": 868,
      "Ġgreat": 869,
      "ÃŃ": 870,
      "Ġest": 871,
      "ng": 872,
      "ĠâĻ": 873,
      "ty": 874,
      "la": 875,
      "ĠOh": 876,
      "Ġ×": 877,
      "à®": 878,
      "ĠBe": 879,
      "ady": 880,
      "Ġmost": 881,
      "ction": 882,
      "ĠNo": 883,
      "Ġdoing": 884,
      "Ġbeing": 885,
      "Ġtoo": 886,
      "ces": 887,
      "Ġbl": 888,
      ".\"": 889,
      "Ġrem": 890,
      "iss": 891,
      "ons": 892,
      ">>": 893,
      "ru": 894,
      "wn": 895,
      "ont": 896,
      "ib": 897,
      "ell": 898,
      "Ġsm": 899,
      "oth": 900,
      "ual": 901,
      "Ġ>>": 902,
      "Ġph": 903,
      "les": 904,
      "oc": 905,
      "ful": 906,
      "Ġsec": 907,
      "ise": 908,
      "Ġadd": 909,
      "igh": 910,
      "ert": 911,
      "Ġsame": 912,
      "âĢ": 913,
      "Ġmean": 914,
      "Ġfind": 915,
      "ek": 916,
      "Ġend": 917,
      "--": 918,
      "Ð¼": 919,
      "Ġstill": 920,
      "az": 921,
      "Ġ'": 922,
      "Ġmin": 923,
      "Ġyears": 924,
      "urn": 925,
      "Ġaround": 926,
      "self": 927,
      "Ġwr": 928,
      "bs": 929,
      "ought": 930,
      "ĠâĻª": 931,
      "Ġfl": 932,
      "ange": 933,
      "Ġafter": 934,
      "Ġpoint": 935,
      "mer": 936,
      "ved": 937,
      "Ġlong": 938,
      "oy": 939,
      "ä¸": 940,
      "Ġcr": 941,
      "ways": 942,
      "Ġsy": 943,
      "Ġtra": 944,
      "Ġ20": 945,
      "ave": 946,
      "Ġche": 947,
      "Ġent": 948,
      "Ġbefore": 949,
      "ph": 950,
      "Ġatt": 951,
      "ian": 952,
      "ily": 953,
      "Ġperson": 954,
      "Ġbig": 955,
      "Ġsch": 956,
      "Ġreal": 957,
      "Ġnext": 958,
      "Ġlove": 959,
      "Ġvideo": 960,
      "ĠLet": 961,
      "Ġfin": 962,
      "Ġmak": 963,
      "ible": 964,
      "Ġtoday": 965,
      "erm": 966,
      "ĠAl": 967,
      "ower": 968,
      "ann": 969,
      "ix": 970,
      "Ġpar": 971,
      "Ġstud": 972,
      "Ã¶": 973,
      "Ġimport": 974,
      "te": 975,
      "Ġgive": 976,
      "ves": 977,
      "Ġdie": 978,
      "Ġdec": 979,
      "Ġtell": 980,
      "ĠÐº": 981,
      "ÑģÑĤ": 982,
      "Ġwhy": 983,
      "ically": 984,
      "ict": 985,
      "red": 986,
      "Ġbas": 987,
      "Ġsure": 988,
      "Ġbel": 989,
      "ating": 990,
      "Ġtak": 991,
      "Ġset": 992,
      "Ġlife": 993,
      "Ġdidn": 994,
      "Ø§": 995,
      "ob": 996,
      "und": 997,
      "ath": 998,
      "Ġop": 999,
      "ĠÐ¾": 1000,
      "ait": 1001,
      "Ġworld": 1002,
      "Ġsupp": 1003,
      "io": 1004,
      "Ġcour": 1005,
      "ĠÐ¸": 1006,
      "ward": 1007,
      "ÐµÐ½": 1008,
      "Ġalways": 1009,
      "up": 1010,
      "Ġhand": 1011,
      "ĠHow": 1012,
      "cial": 1013,
      "Ġcons": 1014,
      "ĠÑ": 1015,
      "Ġind": 1016,
      "Ġ4": 1017,
      "ĠAs": 1018,
      "Ġfun": 1019,
      "ject": 1020,
      "Ġimportant": 1021,
      "Ġsur": 1022,
      "ew": 1023,
      "ates": 1024,
      "Ġ5": 1025,
      "Ġdi": 1026,
      "Ġmade": 1027,
      "Ġins": 1028,
      "Ġask": 1029,
      "Ġet": 1030,
      "Ġnum": 1031,
      "Ġcar": 1032,
      "ĠOkay": 1033,
      "Ġsim": 1034,
      "ik": 1035,
      "Ġlast": 1036,
      "ĠGo": 1037,
      "Ġmus": 1038,
      "Ġrel": 1039,
      "ular": 1040,
      "´ì": 1041,
      "ĠWell": 1042,
      "pect": 1043,
      "ĠThank": 1044,
      "Ġthree": 1045,
      "Ã£": 1046,
      "ãĥ": 1047,
      "Ġinv": 1048,
      "Ġgen": 1049,
      "lic": 1050,
      "Ġhappen": 1051,
      "ëĬ": 1052,
      "ien": 1053,
      "ever": 1054,
      "Ð¾Ð²": 1055,
      "Ġstr": 1056,
      "ĠAll": 1057,
      "Ġinst": 1058,
      "ĠâĢ": 1059,
      "Ġdef": 1060,
      "Ġsl": 1061,
      "Ġmight": 1062,
      "ung": 1063,
      "Ġyear": 1064,
      "Ġown": 1065,
      "Ġkeep": 1066,
      "body": 1067,
      "der": 1068,
      "ĠÑĤ": 1069,
      "ĠÐ´": 1070,
      "Ġanother": 1071,
      "Ġmod": 1072,
      "Ġev": 1073,
      "Ġguys": 1074,
      "Ġable": 1075,
      "Ã£o": 1076,
      "que": 1077,
      "ident": 1078,
      "ĠYes": 1079,
      "Ġits": 1080,
      "Ġplace": 1081,
      "Ġprodu": 1082,
      "arn": 1083,
      "ĠÐ¼": 1084,
      "Ġrep": 1085,
      "Ġexper": 1086,
      "Ġfam": 1087,
      "ities": 1088,
      "ific": 1089,
      "Ġhigh": 1090,
      "ied": 1091,
      "ool": 1092,
      "iew": 1093,
      "ÐµÑĤ": 1094,
      "ren": 1095,
      "Ġdone": 1096,
      "Ġ...": 1097,
      "ëĬĶ": 1098,
      "stem": 1099,
      "ĠSe": 1100,
      "Ġbetter": 1101,
      "come": 1102,
      "Ġdel": 1103,
      "Ġty": 1104,
      "Ġum": 1105,
      "Ġho": 1106,
      "ĠAn": 1107,
      "Ġmon": 1108,
      "ings": 1109,
      "Ġsk": 1110,
      "Ġob": 1111,
      "com": 1112,
      "blem": 1113,
      "ope": 1114,
      "stand": 1115,
      "'d": 1116,
      "ments": 1117,
      "Ġele": 1118,
      "ĠIs": 1119,
      "Ġda": 1120,
      "Ġreg": 1121,
      "lease": 1122,
      "ike": 1123,
      "als": 1124,
      "ize": 1125,
      "ê°": 1126,
      "Ġcare": 1127,
      "Ġnever": 1128,
      "ìĿ´": 1129,
      "ese": 1130,
      "Ġmet": 1131,
      "olog": 1132,
      "ĠWhen": 1133,
      "uck": 1134,
      "ÐµÑĢ": 1135,
      "ĠÃ©": 1136,
      "Ġdat": 1137,
      "Ã§": 1138,
      "Ġexam": 1139,
      "ility": 1140,
      "Ġdet": 1141,
      "cri": 1142,
      "Ġused": 1143,
      "ĠDo": 1144,
      "Ġtrans": 1145,
      "eg": 1146,
      "ten": 1147,
      "Ñİ": 1148,
      "cus": 1149,
      "Ġsecond": 1150,
      "Ġbest": 1151,
      "Ġhard": 1152,
      "Ġide": 1153,
      "Ġproblem": 1154,
      "ê³": 1155,
      "ĠUn": 1156,
      "Ñħ": 1157,
      "ĠÎ": 1158,
      "Ġwatch": 1159,
      "ĠSh": 1160,
      "atter": 1161,
      "Ġpret": 1162,
      "Ġder": 1163,
      "Ġcourse": 1164,
      "ÅŁ": 1165,
      "ative": 1166,
      "ics": 1167,
      "Ġquestion": 1168,
      "ute": 1169,
      "ìĹ": 1170,
      "ĠFor": 1171,
      "ather": 1172,
      "Ġcol": 1173,
      "iend": 1174,
      "Ġí": 1175,
      "ĠZ": 1176,
      "Ġdoesn": 1177,
      "arch": 1178,
      "Ġinterest": 1179,
      "Ġpol": 1180,
      "Ġcor": 1181,
      "ience": 1182,
      "Ġpres": 1183,
      "Ġeach": 1184,
      "Ġsystem": 1185,
      "Ġfact": 1186,
      "iel": 1187,
      "ably": 1188,
      "Ġer": 1189,
      "Ġrun": 1190,
      "ĠìĿ": 1191,
      "Ġtop": 1192,
      "ner": 1193,
      "Ġthought": 1194,
      "Ġeas": 1195,
      "ient": 1196,
      "Ġcre": 1197,
      "ÑĪ": 1198,
      "Ġcommun": 1199,
      "ye": 1200,
      "ready": 1201,
      "llow": 1202,
      "Ġeverything": 1203,
      "omm": 1204,
      "Ġmed": 1205,
      "ļĶ": 1206,
      "Ġcount": 1207,
      "its": 1208,
      "Ġcompl": 1209,
      "hip": 1210,
      "ÙĦ": 1211,
      "ook": 1212,
      "Ġtoget": 1213,
      "Ġtogether": 1214,
      "amp": 1215,
      "Ġgame": 1216,
      "Ġalready": 1217,
      "Ð°Ð»": 1218,
      "Ġcalled": 1219,
      "ale": 1220,
      "ÅĤ": 1221,
      "ĠMy": 1222,
      "Ġunderstand": 1223,
      "Ġdr": 1224,
      "Ġmom": 1225,
      "ited": 1226,
      "Ð¾Ð»": 1227,
      "Ġusing": 1228,
      "zy": 1229,
      "Ġnumber": 1230,
      "ãĢģ": 1231,
      "ced": 1232,
      "Ġcle": 1233,
      "Ð½Ð¾": 1234,
      "ëĭ¤": 1235,
      "ince": 1236,
      "Ġlooking": 1237,
      "Ġpretty": 1238,
      "Ġprob": 1239,
      "ĠShe": 1240,
      "Ġve": 1241,
      "Ġgetting": 1242,
      "Ġweek": 1243,
      "Ġeff": 1244,
      "uff": 1245,
      "air": 1246,
      "ues": 1247,
      "ern": 1248,
      "ĠQ": 1249,
      "oup": 1250,
      "ention": 1251,
      "Ġside": 1252,
      "Ð¾Ð¼": 1253,
      "Ġform": 1254,
      "Ġbus": 1255,
      "Ġass": 1256,
      "Ġed": 1257,
      "ason": 1258,
      "ween": 1259,
      "âĢ¦": 1260,
      "Ġturn": 1261,
      "Ġcur": 1262,
      "Ġcoll": 1263,
      "Ġdire": 1264,
      "ĠGod": 1265,
      "Ġ10": 1266,
      "Ġequ": 1267,
      "ĠÐ±": 1268,
      "Ġopen": 1269,
      "Ġsuch": 1270,
      "ird": 1271,
      "Ð°Ðº": 1272,
      "Ġear": 1273,
      "ÄĻ": 1274,
      "gan": 1275,
      "Ġpartic": 1276,
      "Ġfriend": 1277,
      "Ġexp": 1278,
      "Ġext": 1279,
      "Ġhome": 1280,
      "Ġwater": 1281,
      "ĠOn": 1282,
      "ÑĤÑĮ": 1283,
      "ork": 1284,
      "ĠÐ¿ÑĢ": 1285,
      "Ġmove": 1286,
      "ness": 1287,
      "ense": 1288,
      "ho": 1289,
      "Ġchar": 1290,
      "co": 1291,
      "ins": 1292,
      "Ġboth": 1293,
      "Ġ19": 1294,
      "Ġgra": 1295,
      "Ġbetween": 1296,
      "á»": 1297,
      "Ġìķ": 1298,
      "ash": 1299,
      "ĠRe": 1300,
      "ai": 1301,
      "alth": 1302,
      "ures": 1303,
      "ember": 1304,
      "Ġav": 1305,
      "Ġver": 1306,
      "Ãª": 1307,
      "oney": 1308,
      "Ġthank": 1309,
      "Ġmaybe": 1310,
      "uc": 1311,
      "ime": 1312,
      "ê³ł": 1313,
      "Ġaway": 1314,
      "Ġname": 1315,
      "ouse": 1316,
      "Ġacc": 1317,
      "Ġmusic": 1318,
      "Ġchange": 1319,
      "Ġpass": 1320,
      "ger": 1321,
      "Ġbuild": 1322,
      "Ġval": 1323,
      "iness": 1324,
      "any": 1325,
      "Ġfew": 1326,
      "´ë": 1327,
      "ta": 1328,
      "Ġlist": 1329,
      "Ã¥": 1330,
      "Ġold": 1331,
      "Ġìŀ": 1332,
      "Ġsort": 1333,
      "Ġmem": 1334,
      "Ġca": 1335,
      "cept": 1336,
      "Ġgener": 1337,
      "Ġyeah": 1338,
      "Ġwhile": 1339,
      "Ġanything": 1340,
      "ric": 1341,
      "gram": 1342,
      "Ġein": 1343,
      "cy": 1344,
      "uring": 1345,
      "ĠDe": 1346,
      "Ġpower": 1347,
      "Ġcoming": 1348,
      "Ġword": 1349,
      "Ġ--": 1350,
      "Ġbelie": 1351,
      "Ġfound": 1352,
      "to": 1353,
      "Ð¿": 1354,
      "Ġmeans": 1355,
      "Ġinform": 1356,
      "ĠØ": 1357,
      "ĠÑĩ": 1358,
      "Ġsmall": 1359,
      "000": 1360,
      "Ġcame": 1361,
      "Ġíķ": 1362,
      "wh": 1363,
      "Ġworking": 1364,
      "Ġexample": 1365,
      "Ġpos": 1366,
      "Ġdep": 1367,
      "ê²": 1368,
      "äº": 1369,
      "ote": 1370,
      "Ġdem": 1371,
      "ì§": 1372,
      "ts": 1373,
      "Ġvar": 1374,
      "aut": 1375,
      "Ġtri": 1376,
      "chn": 1377,
      "Ġhead": 1378,
      "Ġwhole": 1379,
      "×Ļ": 1380,
      "ze": 1381,
      "Ġtrying": 1382,
      "Ġtem": 1383,
      "Ġcou": 1384,
      "ets": 1385,
      "Ġ6": 1386,
      "Ġfil": 1387,
      "velop": 1388,
      "Ġcase": 1389,
      "à¯": 1390,
      "Ġprobably": 1391,
      "Ġokay": 1392,
      "Ġplan": 1393,
      "Ġsit": 1394,
      "Ġschool": 1395,
      "ĠThen": 1396,
      "¸ë": 1397,
      "me": 1398,
      "Ġprocess": 1399,
      "Ġfar": 1400,
      "Ġread": 1401,
      "Ġposs": 1402,
      "Ġbre": 1403,
      "Ġsol": 1404,
      "icht": 1405,
      "Ġsupport": 1406,
      "ĠTo": 1407,
      "ertain": 1408,
      "Ġstarted": 1409,
      "Ġcap": 1410,
      "Ġleft": 1411,
      "Ġdata": 1412,
      "Ġtimes": 1413,
      "ÐµÐ»": 1414,
      "Ġwanted": 1415,
      "Ð°Ð½": 1416,
      "Ġtalking": 1417,
      "Ġist": 1418,
      "Ġhaving": 1419,
      "ump": 1420,
      "Ġcontin": 1421,
      "Ġsub": 1422,
      "ĠÐ·": 1423,
      "pr": 1424,
      "ëĭĪ": 1425,
      "ina": 1426,
      "Å¼": 1427,
      "Ġcreat": 1428,
      "ode": 1429,
      "×ķ": 1430,
      "æĺ": 1431,
      "!!": 1432,
      "Ġterm": 1433,
      "ism": 1434,
      "Ð¾Ð´": 1435,
      "ĠBecause": 1436,
      "Ġwent": 1437,
      "ider": 1438,
      "Ġprov": 1439,
      "Ġchild": 1440,
      "Ġden": 1441,
      "Ġlight": 1442,
      "br": 1443,
      "³Ð¾": 1444,
      "oh": 1445,
      "Ġbook": 1446,
      "ĠÙ": 1447,
      "ution": 1448,
      "ĠJust": 1449,
      "ene": 1450,
      "Ġfour": 1451,
      "Ġvis": 1452,
      "ê°Ģ": 1453,
      "Ġhope": 1454,
      "Ġmaking": 1455,
      "ĠLe": 1456,
      "ìķ": 1457,
      "Ġopp": 1458,
      "au": 1459,
      "Ġmoney": 1460,
      "Ġprogram": 1461,
      "Ã¨": 1462,
      "Ġstand": 1463,
      "IN": 1464,
      "Ġsign": 1465,
      "Ġlearn": 1466,
      "Ãł": 1467,
      "ĠDon": 1468,
      "Ġteam": 1469,
      "ĠÐ½Ð°": 1470,
      "lud": 1471,
      "Ġrest": 1472,
      "ices": 1473,
      "æľ": 1474,
      "ĠÑĢ": 1475,
      "Ġaut": 1476,
      "Ġlead": 1477,
      "ational": 1478,
      "de": 1479,
      "gy": 1480,
      "Ġnice": 1481,
      "Ġdas": 1482,
      "Ġdist": 1483,
      "Ġhum": 1484,
      "ĠOne": 1485,
      "æĪ": 1486,
      "Ġcomes": 1487,
      "Ġjo": 1488,
      "Ġcent": 1489,
      "Ġexpl": 1490,
      "Ġmark": 1491,
      "reen": 1492,
      "led": 1493,
      "gin": 1494,
      "ìļĶ": 1495,
      "Ġlevel": 1496,
      "Ġconf": 1497,
      "ush": 1498,
      "Ġdevelop": 1499,
      "Ġtest": 1500,
      "eng": 1501,
      "vious": 1502,
      "ature": 1503,
      "ÐµÐ¼": 1504,
      "ret": 1505,
      "Ġje": 1506,
      "Ġstuff": 1507,
      "Ġclass": 1508,
      "ows": 1509,
      "Ġê·": 1510,
      "Ġsi": 1511,
      "Ġles": 1512,
      "rop": 1513,
      "çļ": 1514,
      "Ġpor": 1515,
      "Ġwar": 1516,
      "ìĹĲ": 1517,
      "Ġeveryone": 1518,
      "Ġge": 1519,
      "Ġcheck": 1520,
      "ott": 1521,
      "Ġsing": 1522,
      "Ġart": 1523,
      "Ġfollow": 1524,
      "Ġ201": 1525,
      "ĠFr": 1526,
      "ais": 1527,
      "ìĸ": 1528,
      "Î±": 1529,
      "å°": 1530,
      "ĠÃł": 1531,
      "imes": 1532,
      "Ġret": 1533,
      "Ġchang": 1534,
      "Ġpub": 1535,
      "Ġinf": 1536,
      "Ġtechn": 1537,
      "ada": 1538,
      "ives": 1539,
      "Ġbeh": 1540,
      "æĺ¯": 1541,
      "Ġlooks": 1542,
      "ãĢĤ": 1543,
      "Ð·": 1544,
      "ĠWhy": 1545,
      "çļĦ": 1546,
      "Ġenough": 1547,
      "Ġbra": 1548,
      "itch": 1549,
      "ä»": 1550,
      "Ġadv": 1551,
      "Ð±": 1552,
      "Ġwithout": 1553,
      "wer": 1554,
      "meric": 1555,
      "den": 1556,
      "Ġcomplet": 1557,
      "Ġidea": 1558,
      "ters": 1559,
      "ock": 1560,
      "Ġdefin": 1561,
      "Ġever": 1562,
      "Ġgl": 1563,
      "Ġonce": 1564,
      "Ġbring": 1565,
      "Ġsaying": 1566,
      "Ġans": 1567,
      "Ġhear": 1568,
      "nect": 1569,
      "Ġless": 1570,
      "go": 1571,
      "ream": 1572,
      "ado": 1573,
      "ìŀ": 1574,
      "Ġmind": 1575,
      "ente": 1576,
      "Ġfull": 1577,
      "Ġbad": 1578,
      "Ġwom": 1579,
      "Ġsomeone": 1580,
      "Ġdu": 1581,
      "Ġwon": 1582,
      "Ġcontro": 1583,
      "ortun": 1584,
      "Ġhealth": 1585,
      "Ġcho": 1586,
      "ĠAr": 1587,
      "Ġconc": 1588,
      "Ġinformation": 1589,
      "Ġstop": 1590,
      "att": 1591,
      "ately": 1592,
      "ä½": 1593,
      "Ġgroup": 1594,
      "ĠÑĥ": 1595,
      "Ġquite": 1596,
      "Ġresp": 1597,
      "ER": 1598,
      "ught": 1599,
      "ê¸": 1600,
      "man": 1601,
      "ized": 1602,
      "ĠBr": 1603,
      "Ġremember": 1604,
      "Ġfamily": 1605,
      "Ġbusiness": 1606,
      "aw": 1607,
      "Ġspec": 1608,
      "Ġau": 1609,
      "ĠOr": 1610,
      "Äħ": 1611,
      "Ġseen": 1612,
      "Ġlar": 1613,
      "Ġ7": 1614,
      "gg": 1615,
      "bers": 1616,
      "Ġdra": 1617,
      "Ġmonth": 1618,
      "Ġsays": 1619,
      "Ġiss": 1620,
      "Ġlive": 1621,
      "Ġline": 1622,
      "Ġmoment": 1623,
      "Ġexc": 1624,
      "els": 1625,
      "Ġsound": 1626,
      "Ġcool": 1627,
      "Ġloc": 1628,
      "Ġcertain": 1629,
      "Ġdri": 1630,
      "Ð¾ÑĤ": 1631,
      "ames": 1632,
      "Ġmust": 1633,
      "ny": 1634,
      "Ð¸ÑĤ": 1635,
      "Ġkid": 1636,
      "Ġinclud": 1637,
      "ìĿĦ": 1638,
      "ator": 1639,
      "ÄŁ": 1640,
      "ha": 1641,
      "ared": 1642,
      "Ġseem": 1643,
      "Ð¹": 1644,
      "ìĦ": 1645,
      "Ġelse": 1646,
      "Ġìł": 1647,
      "irl": 1648,
      "Ġ8": 1649,
      "Ġvo": 1650,
      "Ġquestions": 1651,
      "ines": 1652,
      "ee": 1653,
      "æĪĳ": 1654,
      "Ã¼r": 1655,
      "ĠAmeric": 1656,
      "Ġstory": 1657,
      "Ġserv": 1658,
      "vern": 1659,
      "ages": 1660,
      "land": 1661,
      "ĠâĢĵ": 1662,
      "era": 1663,
      "ĠCan": 1664,
      "Ġpop": 1665,
      "ether": 1666,
      "Ġna": 1667,
      "Ġorder": 1668,
      "Ġmakes": 1669,
      "Ġsince": 1670,
      "con": 1671,
      "ctor": 1672,
      "Ġthough": 1673,
      "Ġproduct": 1674,
      "Ð»Ð¸": 1675,
      "Ġleg": 1676,
      "Ġmeet": 1677,
      "alf": 1678,
      "ÑģÑı": 1679,
      "unch": 1680,
      "iter": 1681,
      "ove": 1682,
      "×ķ×": 1683,
      "iet": 1684,
      "Ð°Ð¼": 1685,
      "ital": 1686,
      "Ġsuper": 1687,
      "ling": 1688,
      "Ġpay": 1689,
      "Ġpara": 1690,
      "Ġjob": 1691,
      "ĠHere": 1692,
      "Ġsw": 1693,
      "ks": 1694,
      "ption": 1695,
      "ma": 1696,
      "Ġbelieve": 1697,
      "¬ë": 1698,
      "Ġwait": 1699,
      "Ð¾Ð¹": 1700,
      "Ġunt": 1701,
      "Ġquick": 1702,
      "hr": 1703,
      "ĠÑį": 1704,
      "ĠPro": 1705,
      "Ġmen": 1706,
      "à¹": 1707,
      "Ġdays": 1708,
      "Ġgoes": 1709,
      "Ġspeak": 1710,
      "ĠAt": 1711,
      "ement": 1712,
      "Ġmiss": 1713,
      "Ġaw": 1714,
      "Ġdesign": 1715,
      "Ġproject": 1716,
      "Ð¾ÑĢ": 1717,
      "ij": 1718,
      "ants": 1719,
      "ats": 1720,
      "ĠChr": 1721,
      "Ġ9": 1722,
      "Ġcut": 1723,
      "Ġrequ": 1724,
      "ĠÐ½Ðµ": 1725,
      "ĠNot": 1726,
      "aster": 1727,
      "Ġmill": 1728,
      "Ġparticular": 1729,
      "Ġpie": 1730,
      "Ġstudents": 1731,
      "Ġfive": 1732,
      "oun": 1733,
      "ĠNe": 1734,
      "Ġgi": 1735,
      "Ġpas": 1736,
      "Ġfree": 1737,
      "ĠSp": 1738,
      "lich": 1739,
      "Ġprof": 1740,
      "Ġeng": 1741,
      "Ġprot": 1742,
      "ĠLike": 1743,
      "osed": 1744,
      "Ġconnect": 1745,
      "app": 1746,
      "Ġë§": 1747,
      "iting": 1748,
      "Ġblo": 1749,
      "Ġlos": 1750,
      "ists": 1751,
      "Ġexperience": 1752,
      "rent": 1753,
      "Ġstay": 1754,
      "Ġfood": 1755,
      "ton": 1756,
      "ruct": 1757,
      "Ġhist": 1758,
      "view": 1759,
      "ining": 1760,
      "most": 1761,
      "ivers": 1762,
      "bo": 1763,
      "ãģĦ": 1764,
      "ĠTr": 1765,
      "gen": 1766,
      "Ġplease": 1767,
      "Ġcommunity": 1768,
      "Ġce": 1769,
      "AN": 1770,
      "no": 1771,
      "Ġbody": 1772,
      "Ġhour": 1773,
      "Ġvers": 1774,
      "áº": 1775,
      "cer": 1776,
      "Ġê°": 1777,
      "Ġreason": 1778,
      "ĠRight": 1779,
      "Ġlater": 1780,
      "ÏĦ": 1781,
      "Ġhouse": 1782,
      "ĠX": 1783,
      "Ð¾Ð½": 1784,
      "Ġstate": 1785,
      "fic": 1786,
      "å¤": 1787,
      "ÅĽ": 1788,
      "ield": 1789,
      "Ġpri": 1790,
      "Ġpast": 1791,
      "Ġwalk": 1792,
      "ology": 1793,
      "ering": 1794,
      "anna": 1795,
      "Ġter": 1796,
      "Ġhold": 1797,
      "Ġorgan": 1798,
      "ben": 1799,
      "Î¿": 1800,
      "Ã³n": 1801,
      "Ġeffect": 1802,
      "Ġyourself": 1803,
      "Ġplus": 1804,
      "aj": 1805,
      "ando": 1806,
      "ural": 1807,
      "Ġroom": 1808,
      "lect": 1809,
      "ê²Į": 1810,
      "?\"": 1811,
      "side": 1812,
      "Ġbecome": 1813,
      "ÑĨ": 1814,
      "ĠÂ": 1815,
      "ood": 1816,
      "Ġconst": 1817,
      "Ġnight": 1818,
      "utes": 1819,
      "Ð¶": 1820,
      "Ġbreak": 1821,
      "Ġpain": 1822,
      "Ġstep": 1823,
      "ired": 1824,
      "Ġnothing": 1825,
      "Ġuntil": 1826,
      "Ñĸ": 1827,
      "Ð°Ð²": 1828,
      "ÙĬ": 1829,
      "Ġduring": 1830,
      "ì§Ģ": 1831,
      "less": 1832,
      "oll": 1833,
      "Ð½Ñĭ": 1834,
      "Î¹": 1835,
      "fect": 1836,
      "iver": 1837,
      "ıĦ": 1838,
      "ither": 1839,
      "ying": 1840,
      "Ġbegin": 1841,
      "×Ļ×": 1842,
      "ivid": 1843,
      "ĠÃ§": 1844,
      "Ġsal": 1845,
      "Ġta": 1846,
      "Ġpot": 1847,
      "Ġ$": 1848,
      "Ġmar": 1849,
      "Ġclear": 1850,
      "Ġface": 1851,
      "Ġgrow": 1852,
      "Ġ*": 1853,
      "Ġinside": 1854,
      "Ġfriends": 1855,
      "Ġleave": 1856,
      "enn": 1857,
      "Ġeasy": 1858,
      "Ġarea": 1859,
      "ality": 1860,
      "oud": 1861,
      "Ġeat": 1862,
      "ÙĨ": 1863,
      "Ġpur": 1864,
      "orn": 1865,
      "Ġsaw": 1866,
      "Ġanswer": 1867,
      "Ġfront": 1868,
      "Ġbeaut": 1869,
      "¼ë": 1870,
      "Ġmatter": 1871,
      "Ġson": 1872,
      "ĠNew": 1873,
      "Ġresult": 1874,
      "ides": 1875,
      "che": 1876,
      "Ġfut": 1877,
      "ps": 1878,
      "Ġfocus": 1879,
      "Ġinteresting": 1880,
      "å¥": 1881,
      "Ġap": 1882,
      "\".": 1883,
      "Ġcreate": 1884,
      "Ð¾Ñģ": 1885,
      "Ġpress": 1886,
      "ross": 1887,
      "Ġpick": 1888,
      "line": 1889,
      "Ġtook": 1890,
      "ĠMay": 1891,
      "row": 1892,
      "Ġich": 1893,
      "ĺë": 1894,
      "Ġref": 1895,
      "Ġmor": 1896,
      "ract": 1897,
      "arent": 1898,
      "AR": 1899,
      "Ġexact": 1900,
      "Ġspace": 1901,
      "work": 1902,
      "Ð½Ð¸": 1903,
      "Ġbir": 1904,
      "Ġdev": 1905,
      "Ð³": 1906,
      "Ġtold": 1907,
      "Ġpublic": 1908,
      "cially": 1909,
      "Ġview": 1910,
      "ĠHey": 1911,
      "med": 1912,
      "llo": 1913,
      "cc": 1914,
      "Ġfac": 1915,
      "Ġcouple": 1916,
      "Ġheart": 1917,
      "ler": 1918,
      "Ġready": 1919,
      "Ġalmost": 1920,
      "aring": 1921,
      "Ġhalf": 1922,
      "ĠMe": 1923,
      "avor": 1924,
      "ique": 1925,
      "Ġcharac": 1926,
      "Ġpract": 1927,
      "ON": 1928,
      "ane": 1929,
      "Ġil": 1930,
      "Ð½Ð°": 1931,
      "Ġvi": 1932,
      "lish": 1933,
      "head": 1934,
      "Ġleast": 1935,
      "Ġbasically": 1936,
      "ased": 1937,
      "right": 1938,
      "Ġyet": 1939,
      "Ġtaking": 1940,
      "Ġcountry": 1941,
      "Ġwin": 1942,
      "Ġisn": 1943,
      "Ġpossible": 1944,
      "Ġcam": 1945,
      "Ġincre": 1946,
      "Ġpat": 1947,
      "Ġwanna": 1948,
      "Ġconsider": 1949,
      "Ġabs": 1950,
      "Ġwithin": 1951,
      "Ġhuman": 1952,
      "Ġthinking": 1953,
      "Ġoh": 1954,
      "¡ľ": 1955,
      "Ġqui": 1956,
      "ases": 1957,
      "Ġ0": 1958,
      "itely": 1959,
      "ä¸į": 1960,
      "Ġkill": 1961,
      "Ġmil": 1962,
      "Ġinvest": 1963,
      "ister": 1964,
      "Ġsuc": 1965,
      "ional": 1966,
      "elf": 1967,
      "Ġwhether": 1968,
      "Ġcontrol": 1969,
      "Ġagainst": 1970,
      "ots": 1971,
      "ëĭĪëĭ¤": 1972,
      "ior": 1973,
      "Ġpresent": 1974,
      "ĠØ§": 1975,
      "Ġwatching": 1976,
      "ube": 1977,
      "erv": 1978,
      "Ġnicht": 1979,
      "Ġgovern": 1980,
      "ĠThese": 1981,
      "Ġ:": 1982,
      "uit": 1983,
      "ugh": 1984,
      "Ġworks": 1985,
      "oo": 1986,
      "Ġwir": 1987,
      "Ġair": 1988,
      "ĠTe": 1989,
      "Ð°Ð·": 1990,
      "ision": 1991,
      "where": 1992,
      "Ġtot": 1993,
      "joy": 1994,
      "ìĭ": 1995,
      "Ġvol": 1996,
      "ĠÐµ": 1997,
      "Ġclose": 1998,
      "ĠAd": 1999,
      "Ñī": 2000,
      "ined": 2001,
      "Ġuna": 2002,
      "Ġê·¸ë": 2003,
      "°ë": 2004,
      "orry": 2005,
      "Ġbro": 2006,
      "Ġfilm": 2007,
      "ift": 2008,
      "20": 2009,
      "Ġtype": 2010,
      "Ġhappened": 2011,
      "ĠAm": 2012,
      "Ġgirl": 2013,
      "ĠAre": 2014,
      "wards": 2015,
      "Ġpour": 2016,
      "Ġcolor": 2017,
      "elt": 2018,
      "Ð°Ñģ": 2019,
      "Ġsense": 2020,
      "lex": 2021,
      "ĠWith": 2022,
      "uss": 2023,
      "rib": 2024,
      "Ġrese": 2025,
      "Ġnorm": 2026,
      "Ġfuture": 2027,
      "Ġdeal": 2028,
      "ending": 2029,
      "ey": 2030,
      "Ġx": 2031,
      "ero": 2032,
      "ĠCl": 2033,
      "uk": 2034,
      "Ġwhatever": 2035,
      "selves": 2036,
      "Ġyoung": 2037,
      "ìĬ": 2038,
      "ĠMar": 2039,
      "ĠChrist": 2040,
      "Ġguess": 2041,
      "Ġperform": 2042,
      "Ġener": 2043,
      "ron": 2044,
      "Ġhit": 2045,
      "Ġwond": 2046,
      "Ġdirect": 2047,
      "ĠEvery": 2048,
      "Ġoften": 2049,
      "Ġfa": 2050,
      "Ġalong": 2051,
      "Ġclick": 2052,
      "ĠLook": 2053,
      "Ġsitu": 2054,
      "Ġhappy": 2055,
      "ead": 2056,
      "Ġago": 2057,
      "Ġenc": 2058,
      "Ġmyself": 2059,
      "Ġcover": 2060,
      "Ð¾Ð±": 2061,
      "Ġmid": 2062,
      "Ġcost": 2063,
      "Ġten": 2064,
      "ĠSch": 2065,
      "Ġexpect": 2066,
      "Ġwasn": 2067,
      "Ġstrong": 2068,
      "iful": 2069,
      "Ġopportun": 2070,
      "inal": 2071,
      "yle": 2072,
      "Ġshare": 2073,
      "Ġtrue": 2074,
      "Ġappro": 2075,
      "Ġchall": 2076,
      "Ġminutes": 2077,
      "Ġchann": 2078,
      "ĠëĤ": 2079,
      "Îµ": 2080,
      "li": 2081,
      "Ġmess": 2082,
      "ories": 2083,
      "pecially": 2084,
      "Ġwrong": 2085,
      "Ġyes": 2086,
      "ĠìĹ": 2087,
      "iron": 2088,
      "Ġallow": 2089,
      "Ġsubs": 2090,
      "Ġfore": 2091,
      "Ġfight": 2092,
      "Ġsocial": 2093,
      "Ġcra": 2094,
      "ana": 2095,
      "Ġaff": 2096,
      "Ġess": 2097,
      "Ġways": 2098,
      "Ġshort": 2099,
      "Ġfall": 2100,
      "Ġlaw": 2101,
      "ĠWho": 2102,
      "Ġenjoy": 2103,
      "Ġcal": 2104,
      "Ġaccess": 2105,
      "fe": 2106,
      "Ġnon": 2107,
      "Ġacross": 2108,
      "ery": 2109,
      "viously": 2110,
      "ĠEx": 2111,
      "ided": 2112,
      "Ġlink": 2113,
      "ĠPr": 2114,
      "Ġterms": 2115,
      "aces": 2116,
      "Ġland": 2117,
      "azing": 2118,
      "Ġ15": 2119,
      "Ġmult": 2120,
      "Ġspecial": 2121,
      "åĢ": 2122,
      "iving": 2123,
      "ìĿĢ": 2124,
      "Ġtyp": 2125,
      "Ġste": 2126,
      "ĠÄ": 2127,
      "Ġforward": 2128,
      "åı": 2129,
      "Ġfre": 2130,
      "å¥½": 2131,
      "Ġresearch": 2132,
      "à¯į": 2133,
      "Ð°ÑĤ": 2134,
      "Ġmain": 2135,
      "Ġrecord": 2136,
      "Ġhu": 2137,
      "Ġdefinitely": 2138,
      "Ġeither": 2139,
      "Ġlisten": 2140,
      "Ġkey": 2141,
      "Ġmarket": 2142,
      "ĠÑĩÑĤÐ¾": 2143,
      "ization": 2144,
      "Ġvideos": 2145,
      "Ġguy": 2146,
      "Ġfig": 2147,
      "Ġstra": 2148,
      "ĠPl": 2149,
      "ully": 2150,
      "amos": 2151,
      "Ġmention": 2152,
      "Ġsong": 2153,
      "Ġintern": 2154,
      "ral": 2155,
      "urs": 2156,
      "Ġhon": 2157,
      "Ġvalue": 2158,
      "Ġbar": 2159,
      "cle": 2160,
      "Ð¾Ð¶": 2161,
      "Äĩ": 2162,
      "ľë": 2163,
      "Ġzu": 2164,
      "Ð¸Ð¼": 2165,
      "ä½ł": 2166,
      "Ġsingle": 2167,
      "Ġauch": 2168,
      "cuss": 2169,
      "Ġgets": 2170,
      "Ġsometimes": 2171,
      "å¾": 2172,
      "amb": 2173,
      "mm": 2174,
      "cing": 2175,
      "Ġperfect": 2176,
      "ĠBl": 2177,
      "outh": 2178,
      "ìł": 2179,
      "Ġsci": 2180,
      "par": 2181,
      "Ġred": 2182,
      "Ġpost": 2183,
      "Ġmot": 2184,
      "Ġelect": 2185,
      "ĠEu": 2186,
      "itive": 2187,
      "ĠSome": 2188,
      "Ġdescri": 2189,
      "Ġcurrent": 2190,
      "Ã©s": 2191,
      "Ġtre": 2192,
      "ĠEn": 2193,
      "Ġmit": 2194,
      "EN": 2195,
      "Īë": 2196,
      "ium": 2197,
      "Ġheard": 2198,
      "Ġsimple": 2199,
      "lar": 2200,
      "Ġeverybody": 2201,
      "ilar": 2202,
      "Ġneeds": 2203,
      "Ġdiffic": 2204,
      "ĠGood": 2205,
      "ument": 2206,
      "cent": 2207,
      "Ġoper": 2208,
      "Ð°ÑĤÑĮ": 2209,
      "ety": 2210,
      "Ġblack": 2211,
      "Ġgiven": 2212,
      "ones": 2213,
      "Ġwel": 2214,
      "éĢ": 2215,
      "ĠìķĦ": 2216,
      "Ġ30": 2217,
      "AT": 2218,
      "Ġstat": 2219,
      "ouch": 2220,
      "ĠMr": 2221,
      "Ð°ÑĢ": 2222,
      "Ġsho": 2223,
      "Ġcond": 2224,
      "×Ķ": 2225,
      "my": 2226,
      "Ġchildren": 2227,
      "Ġeu": 2228,
      "ÐµÐ´": 2229,
      "ìķĦ": 2230,
      "tern": 2231,
      "Ġuh": 2232,
      "Ġhar": 2233,
      "Ġprom": 2234,
      "Ġpull": 2235,
      "rew": 2236,
      "Ġcompany": 2237,
      "Ġbeautiful": 2238,
      "ustom": 2239,
      "íķĺ": 2240,
      "ÐºÐ¸": 2241,
      "Ġstre": 2242,
      "Ġamazing": 2243,
      "ries": 2244,
      "Ġsuccess": 2245,
      "Ġmach": 2246,
      "not": 2247,
      "Ġdiscuss": 2248,
      "Ġnat": 2249,
      "¦¬": 2250,
      "Ġune": 2251,
      "Ġdifficult": 2252,
      "Ġris": 2253,
      "Î½": 2254,
      "Ġcamp": 2255,
      "Ġbuy": 2256,
      "ä¸Ģ": 2257,
      "Ġmag": 2258,
      "po": 2259,
      "ĠYour": 2260,
      "Ġbehind": 2261,
      "ica": 2262,
      "Ä±n": 2263,
      "ĠOK": 2264,
      "Ġlang": 2265,
      "Ġwomen": 2266,
      "Ġenv": 2267,
      "Ġrece": 2268,
      "Ġchannel": 2269,
      "ially": 2270,
      "ule": 2271,
      "Ġ12": 2272,
      "thers": 2273,
      "Ġbott": 2274,
      "Ġreport": 2275,
      "ently": 2276,
      "fully": 2277,
      "The": 2278,
      "Ġsent": 2279,
      "Ġevent": 2280,
      "Ġenergy": 2281,
      "lt": 2282,
      "Ġwords": 2283,
      "arr": 2284,
      "dle": 2285,
      "Ġahead": 2286,
      "ards": 2287,
      "Ø±": 2288,
      "äºĨ": 2289,
      "Ġtool": 2290,
      "conom": 2291,
      "ÐµÑģ": 2292,
      "Ġexactly": 2293,
      "Ġfavor": 2294,
      "Ġlow": 2295,
      "Ġproper": 2296,
      "ĠìŀĪ": 2297,
      "Ġ!": 2298,
      "Ġrelations": 2299,
      "Ġmas": 2300,
      "Ġkids": 2301,
      "Ġentire": 2302,
      "ude": 2303,
      "Ùħ": 2304,
      "ĠWhere": 2305,
      "Ġones": 2306,
      "Ġcity": 2307,
      "olut": 2308,
      "Ġsix": 2309,
      "ability": 2310,
      "Ã¶r": 2311,
      "ili": 2312,
      "ĠEs": 2313,
      "Ġhappens": 2314,
      "ains": 2315,
      "Ġmodel": 2316,
      "Ġpict": 2317,
      "Ġespecially": 2318,
      "Ġ100": 2319,
      "kt": 2320,
      "Ġsoon": 2321,
      "by": 2322,
      "rodu": 2323,
      "Ġann": 2324,
      "Ġsubscri": 2325,
      "ĠQu": 2326,
      "Ġavail": 2327,
      "iment": 2328,
      "Ġvoc": 2329,
      "ka": 2330,
      "Ġ200": 2331,
      "aper": 2332,
      "ĠInd": 2333,
      "Ġì§": 2334,
      "hor": 2335,
      "į°": 2336,
      "jor": 2337,
      "Ð¸Ð»": 2338,
      "Ġsqu": 2339,
      "AU": 2340,
      "arning": 2341,
      "ĠÐ³": 2342,
      "IS": 2343,
      "ĠÐ»": 2344,
      "ÐµÐ¹": 2345,
      "yes": 2346,
      "åħ": 2347,
      "ĠÐĴ": 2348,
      "Ġorig": 2349,
      "Ð¾Ð³Ð¾": 2350,
      "Ġasked": 2351,
      "ilt": 2352,
      "Ð¾Ð³": 2353,
      "Ġcontinue": 2354,
      "Ġìĺ": 2355,
      "ram": 2356,
      "Ġothers": 2357,
      "ES": 2358,
      "ohn": 2359,
      "Ġlay": 2360,
      "Ġbased": 2361,
      "Ġpu": 2362,
      "Ġappe": 2363,
      "Ġlim": 2364,
      "Ġprop": 2365,
      "Ģë": 2366,
      "min": 2367,
      "Ġhot": 2368,
      "ĠLa": 2369,
      "Ġfast": 2370,
      "Ġprotect": 2371,
      "Ġamount": 2372,
      "Ġaqu": 2373,
      "Ġfund": 2374,
      "Ġcustom": 2375,
      "Ġcult": 2376,
      "Ġhands": 2377,
      "Ġhaven": 2378,
      "Ġaud": 2379,
      "Ġoutside": 2380,
      "ĠAfter": 2381,
      "aps": 2382,
      "Ġanim": 2383,
      "ploy": 2384,
      "Ġhat": 2385,
      "ĠFirst": 2386,
      "Ġtreat": 2387,
      "Ġep": 2388,
      "Ġmater": 2389,
      "Ġbuilding": 2390,
      "Ġë°": 2391,
      "åĲ": 2392,
      "ìĦľ": 2393,
      "za": 2394,
      "ughter": 2395,
      "ĠPe": 2396,
      "ney": 2397,
      "eter": 2398,
      "atic": 2399,
      "Ġeduc": 2400,
      "ê¸°": 2401,
      "Ġmov": 2402,
      "ĵ¤": 2403,
      "ama": 2404,
      "ration": 2405,
      "Ġsn": 2406,
      "ÙĪ": 2407,
      "Ġsum": 2408,
      "Ġphot": 2409,
      "ĠÐĿ": 2410,
      "Ġ.": 2411,
      "æľī": 2412,
      "Ġfinish": 2413,
      "itting": 2414,
      "å®": 2415,
      "Ġlarge": 2416,
      "Ġìĸ": 2417,
      "Ġwhite": 2418,
      "ara": 2419,
      "Ġmais": 2420,
      "ĠHi": 2421,
      "Ġdam": 2422,
      "ĠØ§ÙĦ": 2423,
      "Ġbox": 2424,
      "ĠHello": 2425,
      "Ġsle": 2426,
      "Ġopt": 2427,
      "ried": 2428,
      "¥¼": 2429,
      "Ġactiv": 2430,
      "ĠnÃ£o": 2431,
      "ĠCom": 2432,
      "Ġplaying": 2433,
      "Th": 2434,
      "Ġavailable": 2435,
      "Ġport": 2436,
      "åĪ": 2437,
      "ĠAh": 2438,
      "Ġlas": 2439,
      "Ġearly": 2440,
      "Ġwonder": 2441,
      "±°": 2442,
      "Ġ18": 2443,
      "cul": 2444,
      "Ġfunction": 2445,
      "Ġmorning": 2446,
      "lle": 2447,
      "ients": 2448,
      "ux": 2449,
      "Ġcir": 2450,
      "itions": 2451,
      "Ġdeep": 2452,
      "Ġpolit": 2453,
      "yor": 2454,
      "mp": 2455,
      "aking": 2456,
      "Įë": 2457,
      "ĠMan": 2458,
      "Ġmillion": 2459,
      "Ġ/": 2460,
      "Ġindivid": 2461,
      "Ġpan": 2462,
      "Ġgovernment": 2463,
      "Ġwrite": 2464,
      "ĠTod": 2465,
      "ament": 2466,
      "ĠÏ": 2467,
      "Ġwind": 2468,
      "ĠEng": 2469,
      "chen": 2470,
      "Wh": 2471,
      "ìľ": 2472,
      "Ġident": 2473,
      "ãģ§": 2474,
      "vent": 2475,
      "urch": 2476,
      "Ġhy": 2477,
      "Ġya": 2478,
      "Ġtrad": 2479,
      "Ġrelationship": 2480,
      "Ãº": 2481,
      "Ġdou": 2482,
      "OR": 2483,
      "Ġswe": 2484,
      "Ġneg": 2485,
      "ination": 2486,
      "Ġtext": 2487,
      "ipp": 2488,
      "Ġfine": 2489,
      "Ã¡s": 2490,
      "ĠDr": 2491,
      "ĠCome": 2492,
      "Ġmonths": 2493,
      ",\"": 2494,
      "ÐµÐ½Ð¸": 2495,
      "Ġhours": 2496,
      "Ġpod": 2497,
      "irt": 2498,
      "Ġinvol": 2499,
      "Ġcollect": 2500,
      "Ġauf": 2501,
      "Ġpa": 2502,
      "Ġhistory": 2503,
      "mb": 2504,
      "ify": 2505,
      "Ġ?": 2506,
      "Ġbelow": 2507,
      "asure": 2508,
      "aby": 2509,
      "Ġlangu": 2510,
      "Ġant": 2511,
      "Ġcomb": 2512,
      "ato": 2513,
      "Ġexist": 2514,
      "Ġëĭ": 2515,
      "Ġtakes": 2516,
      "Ġcharacter": 2517,
      "aff": 2518,
      "Ġfield": 2519,
      "Ġeconom": 2520,
      "ief": 2521,
      "Ġpiece": 2522,
      "åľ": 2523,
      "Ġreach": 2524,
      "Ġê²": 2525,
      "ony": 2526,
      "Ġmaterial": 2527,
      "Ġdig": 2528,
      "Ġphys": 2529,
      "Ġimpro": 2530,
      "Ġsimilar": 2531,
      "IC": 2532,
      "Ġnet": 2533,
      "yn": 2534,
      "Ġposition": 2535,
      "ÃŁ": 2536,
      "Ġbene": 2537,
      "read": 2538,
      "Ġlearning": 2539,
      "ume": 2540,
      "Ġclean": 2541,
      "ÑĤÐ¾ÑĢ": 2542,
      "Ġcook": 2543,
      "Ġseems": 2544,
      "Ġol": 2545,
      "ĠUS": 2546,
      "ĠJes": 2547,
      "Ġà®": 2548,
      "ential": 2549,
      "iversity": 2550,
      "acy": 2551,
      "ĠÑı": 2552,
      "olutely": 2553,
      "rect": 2554,
      "ĠPlease": 2555,
      "Ġrepres": 2556,
      "Ġtouch": 2557,
      "men": 2558,
      "ĠÐ°": 2559,
      "iÃ³n": 2560,
      "ĠThanks": 2561,
      "Ġang": 2562,
      "Ġmajor": 2563,
      "Ġitself": 2564,
      "ills": 2565,
      "\",": 2566,
      "ians": 2567,
      "Ġscreen": 2568,
      "Ġhor": 2569,
      "Ġknown": 2570,
      "Ġenviron": 2571,
      "Ġfinal": 2572,
      "Ġfigure": 2573,
      "ĠTw": 2574,
      "Ġeyes": 2575,
      "Ġimag": 2576,
      "Ġseeing": 2577,
      "Ġhair": 2578,
      "rem": 2579,
      "Ġapplic": 2580,
      "ends": 2581,
      "put": 2582,
      "Ġnews": 2583,
      "Ġcompletely": 2584,
      "ughs": 2585,
      "Ġknew": 2586,
      "ified": 2587,
      "ĠJe": 2588,
      "ĠDid": 2589,
      "Ġsituation": 2590,
      "Ġflo": 2591,
      "ms": 2592,
      "Ġphone": 2593,
      "Ġball": 2594,
      "do": 2595,
      "Ġparent": 2596,
      "Ġsorry": 2597,
      "ury": 2598,
      "Ð¸Ð½": 2599,
      "ips": 2600,
      "Ð°Ð´": 2601,
      "Ġinstead": 2602,
      "Ġhuge": 2603,
      "Ġtu": 2604,
      "Ġãģ": 2605,
      "ĠGr": 2606,
      "Ġdetail": 2607,
      "ĠÐŁ": 2608,
      "Ġindividual": 2609,
      "Ġfire": 2610,
      "Ġclos": 2611,
      "Ġwer": 2612,
      "une": 2613,
      "Ġrunning": 2614,
      "Ġconvers": 2615,
      "Ġrecomm": 2616,
      "Ġcomo": 2617,
      "Ġsomebody": 2618,
      "ĠJohn": 2619,
      "ĠìĿ´": 2620,
      "ĠOur": 2621,
      "ples": 2622,
      "ĠPh": 2623,
      "Ġanal": 2624,
      "Ġ50": 2625,
      "Ġoffer": 2626,
      "Ġ<": 2627,
      "itional": 2628,
      "gest": 2629,
      "Ġvous": 2630,
      "let": 2631,
      "icy": 2632,
      "Ġfeeling": 2633,
      "LE": 2634,
      "ros": 2635,
      "Ġthird": 2636,
      "Ð¾Ðº": 2637,
      "Ġseries": 2638,
      "ĠAny": 2639,
      "ised": 2640,
      "old": 2641,
      "Ġdraw": 2642,
      "Ġservice": 2643,
      "Ġcannot": 2644,
      "bal": 2645,
      "ãģĨ": 2646,
      "Ġliving": 2647,
      "Ä±m": 2648,
      "Ġdifference": 2649,
      "Ġopportunity": 2650,
      "Ġnear": 2651,
      "orth": 2652,
      "ken": 2653,
      "Ġlocal": 2654,
      "Øª": 2655,
      "ĠCon": 2656,
      "Ġobject": 2657,
      "Ġdass": 2658,
      "ãģĻ": 2659,
      "Ĳ×": 2660,
      "Ġquickly": 2661,
      "raph": 2662,
      "Ġissues": 2663,
      "éĢĻ": 2664,
      "ĠAmerican": 2665,
      "Ġprep": 2666,
      "ences": 2667,
      "Ġprofess": 2668,
      "lling": 2669,
      "of": 2670,
      "Ġfoot": 2671,
      "bre": 2672,
      "Ġusually": 2673,
      "Ġgeneral": 2674,
      "da": 2675,
      "ances": 2676,
      "Ġdest": 2677,
      "Ġocc": 2678,
      "Ġmembers": 2679,
      "Ġdans": 2680,
      "Ġequal": 2681,
      "zt": 2682,
      "Ġbecom": 2683,
      "Ġmoving": 2684,
      "Ġspecific": 2685,
      "ÃŃa": 2686,
      "Ġfur": 2687,
      "Ġnecess": 2688,
      "Ġcommon": 2689,
      "Ġattack": 2690,
      "ĠÑįÑĤÐ¾": 2691,
      "ĠToday": 2692,
      "Ġuns": 2693,
      "ĠGu": 2694,
      "iod": 2695,
      "Ġaccount": 2696,
      "Ġgrand": 2697,
      "Ġself": 2698,
      "ĠEl": 2699,
      "Ġtast": 2700,
      "Ġcontent": 2701,
      "Ġcu": 2702,
      "Ħë": 2703,
      "ĠMaybe": 2704,
      "ĠJesus": 2705,
      "ores": 2706,
      "port": 2707,
      "©´": 2708,
      "Ġgives": 2709,
      "Ġnormal": 2710,
      "ÑĢÑĥ": 2711,
      "Ġimpact": 2712,
      "Ã¤r": 2713,
      "Ġdies": 2714,
      "Ġlab": 2715,
      "sh": 2716,
      "ios": 2717,
      "ĠPres": 2718,
      "ĠUnd": 2719,
      "ĠOf": 2720,
      "Ġfinally": 2721,
      "Ġdoll": 2722,
      "ĠvocÃª": 2723,
      "ply": 2724,
      "ĠAg": 2725,
      "Ġtaken": 2726,
      "Ġground": 2727,
      "fort": 2728,
      "Ġgave": 2729,
      "ĠInst": 2730,
      "Ġlost": 2731,
      "Ġworked": 2732,
      "Ġliter": 2733,
      "Ġissue": 2734,
      "Ġindust": 2735,
      "Ġreturn": 2736,
      "Ġhappening": 2737,
      "Ġwants": 2738,
      "Ð¸Ð²": 2739,
      "Ġproblems": 2740,
      "ĠCar": 2741,
      "Ŀ¼": 2742,
      "ĠAlso": 2743,
      "Ġsize": 2744,
      "Ġobviously": 2745,
      "ĠSu": 2746,
      "ĠSc": 2747,
      "Ġrecommend": 2748,
      "ources": 2749,
      "astic": 2750,
      "....": 2751,
      "Ġmi": 2752,
      "lier": 2753,
      "ĠEven": 2754,
      "cia": 2755,
      "Ġhur": 2756,
      "va": 2757,
      "Ġmass": 2758,
      "Ġwouldn": 2759,
      "unt": 2760,
      "cks": 2761,
      "Ġfelt": 2762,
      "osp": 2763,
      "light": 2764,
      "Ð¾Ð»ÑĮ": 2765,
      "nie": 2766,
      "Ġbottom": 2767,
      "ĠÐ±Ñĭ": 2768,
      "ored": 2769,
      "ison": 2770,
      "Ġgrad": 2771,
      "Ġuma": 2772,
      "Ġva": 2773,
      "ĠìĤ": 2774,
      "ression": 2775,
      "ulation": 2776,
      "ID": 2777,
      "idence": 2778,
      "Ġbur": 2779,
      "Ġgone": 2780,
      "lu": 2781,
      "ìĸ´ì": 2782,
      "Ġredu": 2783,
      "Ġja": 2784,
      "ìĿĺ": 2785,
      "ita": 2786,
      "Ġsoft": 2787,
      "ĠÃ§a": 2788,
      "ico": 2789,
      "eral": 2790,
      "Ã±": 2791,
      "af": 2792,
      "Ġpoints": 2793,
      "gu": 2794,
      "ĠdÃ©": 2795,
      "apt": 2796,
      "ax": 2797,
      "ĠAlright": 2798,
      "Ġcamera": 2799,
      "Ġach": 2800,
      "ĠÐ¿Ð¾": 2801,
      "Ġsever": 2802,
      "50": 2803,
      "Ġsie": 2804,
      "Ïģ": 2805,
      "Ġmal": 2806,
      "Ġcomput": 2807,
      "Ġmiddle": 2808,
      "Ġcouldn": 2809,
      "ming": 2810,
      "Ġìĭ": 2811,
      "ĠHis": 2812,
      "Ġgames": 2813,
      "Ġintrodu": 2814,
      "Ġcell": 2815,
      "por": 2816,
      "Ġsleep": 2817,
      "Ġë³": 2818,
      "iding": 2819,
      "Ġou": 2820,
      "Ġdeg": 2821,
      "Ġdrink": 2822,
      "Ġenvironment": 2823,
      "ĠUnited": 2824,
      "Ġtalked": 2825,
      "Ġchoose": 2826,
      "Ġjour": 2827,
      "ege": 2828,
      "ĠMin": 2829,
      "Ġinte": 2830,
      "Ġrather": 2831,
      "Ġoffic": 2832,
      "ÐºÐ°": 2833,
      "aching": 2834,
      "Ġmentioned": 2835,
      "Ġfill": 2836,
      "Ġtrack": 2837,
      "Ġnie": 2838,
      "Ġut": 2839,
      "ĠÐ²Ñĭ": 2840,
      "ibility": 2841,
      "Ġvac": 2842,
      "Ġrad": 2843,
      "Ġpack": 2844,
      "Ġsend": 2845,
      "ĠDas": 2846,
      "ĠAb": 2847,
      "Ġengine": 2848,
      "ãģĹ": 2849,
      "Ġcompet": 2850,
      "Ã´": 2851,
      "ĠÐ²Ñģ": 2852,
      "Ġdoor": 2853,
      "Ġlonger": 2854,
      "å°į": 2855,
      "Ġlanguage": 2856,
      "Ġextra": 2857,
      "play": 2858,
      "Ġwebs": 2859,
      "umb": 2860,
      "room": 2861,
      "çľ": 2862,
      "Ġbeginning": 2863,
      "Ġrefer": 2864,
      "AM": 2865,
      "nen": 2866,
      "igher": 2867,
      "face": 2868,
      "erc": 2869,
      "Ġforget": 2870,
      "Ġcomment": 2871,
      "ÐµÐº": 2872,
      "Ð»Ñı": 2873,
      "ror": 2874,
      "Å¼e": 2875,
      "ĠGe": 2876,
      "Ġdark": 2877,
      "Ġanyone": 2878,
      "ante": 2879,
      "ges": 2880,
      "ìĬµ": 2881,
      "Ñĳ": 2882,
      "bed": 2883,
      "je": 2884,
      "ructure": 2885,
      "Ġprim": 2886,
      "ida": 2887,
      "è¦": 2888,
      "ãģ¾": 2889,
      "Ġmix": 2890,
      "Ġstarting": 2891,
      "ĠìĿ´ë": 2892,
      "Ġprovide": 2893,
      "action": 2894,
      "Ġmother": 2895,
      "Ġperiod": 2896,
      "Ġstick": 2897,
      "ĠYouT": 2898,
      "Ġtechnology": 2899,
      "ê¹": 2900,
      "Ġbed": 2901,
      "Ġgiving": 2902,
      "Ġexplain": 2903,
      "zen": 2904,
      "imate": 2905,
      "Ġrepresent": 2906,
      "load": 2907,
      "ĠHowever": 2908,
      "Ġlives": 2909,
      "uth": 2910,
      "irit": 2911,
      "ogn": 2912,
      "Ġlik": 2913,
      "Ġrespons": 2914,
      "Ġpriv": 2915,
      "Ġtom": 2916,
      "Ã§Ã£o": 2917,
      "iam": 2918,
      "Ġexcited": 2919,
      "Ġcard": 2920,
      "ground": 2921,
      "Ġ×Ķ": 2922,
      "Ġsens": 2923,
      "Ġteach": 2924,
      "ido": 2925,
      "hod": 2926,
      "Ġepis": 2927,
      "Ġwelcome": 2928,
      "Ġwall": 2929,
      "ä¹": 2930,
      "Ġchance": 2931,
      "hen": 2932,
      "ĠÐ¡": 2933,
      "ĠÄĳ": 2934,
      "Ġsimply": 2935,
      "ĠÑĤÐ°Ðº": 2936,
      "ring": 2937,
      "ja": 2938,
      "book": 2939,
      "Ġseveral": 2940,
      "ste": 2941,
      "Ġcreated": 2942,
      "ĠÐ¾ÑĤ": 2943,
      "Ġpush": 2944,
      "==": 2945,
      "Ġhigher": 2946,
      "uf": 2947,
      "ource": 2948,
      "oke": 2949,
      "Ġonline": 2950,
      "Ġrele": 2951,
      "Ġton": 2952,
      "ensive": 2953,
      "Ġfavorite": 2954,
      "ÑĥÐ´": 2955,
      "Ġlooked": 2956,
      "Ġvon": 2957,
      "âĢĶ": 2958,
      "ĠfÃ¼r": 2959,
      "Ġbutton": 2960,
      "Ġbill": 2961,
      "Ġchanges": 2962,
      "!\"": 2963,
      "Ġslow": 2964,
      "ables": 2965,
      "Ġdeath": 2966,
      "ands": 2967,
      "ateg": 2968,
      "Ġthemselves": 2969,
      "ãģ£": 2970,
      "Ġcop": 2971,
      "ãģ®": 2972,
      "Ġpersonal": 2973,
      "ughing": 2974,
      "Ġ11": 2975,
      "gar": 2976,
      "ades": 2977,
      "Ġneeded": 2978,
      "Ġstudy": 2979,
      "aged": 2980,
      "ÑģÑĤÐ²": 2981,
      "ino": 2982,
      "Ġdisc": 2983,
      "ki": 2984,
      "Ġaddress": 2985,
      "×¨": 2986,
      "itten": 2987,
      "esome": 2988,
      "ĠÐ¶": 2989,
      "¤ë": 2990,
      "ura": 2991,
      "Ġmu": 2992,
      "Ġcontinu": 2993,
      "for": 2994,
      "Ġmatch": 2995,
      "ãģ¦": 2996,
      "Ġstraight": 2997,
      "Ĳë": 2998,
      "ners": 2999,
      "Ġdog": 3000,
      "Ġdeb": 3001,
      "ĠCO": 3002,
      "Ġos": 3003,
      "ged": 3004,
      "came": 3005,
      "Ġcorrect": 3006,
      "ette": 3007,
      "ĠSee": 3008,
      "Ġincluding": 3009,
      "ĠEuro": 3010,
      "ester": 3011,
      "Ġjump": 3012,
      "ĠWhich": 3013,
      "ĠÐºÐ°Ðº": 3014,
      "son": 3015,
      "ya": 3016,
      "ING": 3017,
      "Ġeine": 3018,
      "osh": 3019,
      "ency": 3020,
      "Ġmedia": 3021,
      "Ġsubscribe": 3022,
      "éĤ": 3023,
      "Ġprin": 3024,
      "Ġhab": 3025,
      "ĠPer": 3026,
      "ĠWas": 3027,
      "Ġpage": 3028,
      "itor": 3029,
      "Ġtowards": 3030,
      "Ġtried": 3031,
      "enge": 3032,
      "artment": 3033,
      "Ġvari": 3034,
      "Ġpaper": 3035,
      "Ġpicture": 3036,
      "Ġversion": 3037,
      "Ġbrought": 3038,
      "ware": 3039,
      "ĠStates": 3040,
      "Ġsich": 3041,
      "ledge": 3042,
      "Ġpercent": 3043,
      "Ġgod": 3044,
      "ec": 3045,
      "ĠComm": 3046,
      "Ġdecided": 3047,
      "Ġselect": 3048,
      "íķľ": 3049,
      ").": 3050,
      "urity": 3051,
      "Ġfurther": 3052,
      "Ġcomments": 3053,
      "lement": 3054,
      "Ġdream": 3055,
      "Ġcenter": 3056,
      "mi": 3057,
      "Ġcas": 3058,
      "Ġwoman": 3059,
      "Ġroad": 3060,
      "Ġfail": 3061,
      "Ġbecame": 3062,
      "lus": 3063,
      "ilities": 3064,
      "ãģ¯": 3065,
      "ĠCo": 3066,
      "Ġmanage": 3067,
      "Ġrecogn": 3068,
      "Ġaction": 3069,
      "Ġbenef": 3070,
      "Ġearlier": 3071,
      "×ľ": 3072,
      "Ġspeed": 3073,
      "Ġment": 3074,
      "Ġsoci": 3075,
      "Ġshoot": 3076,
      "ui": 3077,
      "ĠÃ¤": 3078,
      "Ġapply": 3079,
      "vo": 3080,
      "xim": 3081,
      "Ġcause": 3082,
      "Ġsurpr": 3083,
      "Ġhaben": 3084,
      "DI": 3085,
      "Ġfather": 3086,
      "ĠNext": 3087,
      "ĠYouTube": 3088,
      "Ġcode": 3089,
      "Ġrole": 3090,
      "gress": 3091,
      "Ġgreen": 3092,
      "ett": 3093,
      "Ġbuilt": 3094,
      "Ġflow": 3095,
      "Ġbase": 3096,
      "Ġtraining": 3097,
      "Ġround": 3098,
      "ĠWill": 3099,
      "Ġpath": 3100,
      "ĠRo": 3101,
      "Ġinterested": 3102,
      "ìĸ´": 3103,
      "Ġrespect": 3104,
      "Ġchanged": 3105,
      "ission": 3106,
      "Ġstudent": 3107,
      "ograph": 3108,
      "Ġapproach": 3109,
      "Ġshows": 3110,
      "å°±": 3111,
      "Ġtar": 3112,
      "Ġcrit": 3113,
      "Ġglo": 3114,
      "ìĬµëĭĪëĭ¤": 3115,
      "Ġdead": 3116,
      "ĠPresident": 3117,
      "Ġthous": 3118,
      "Ġbal": 3119,
      "ster": 3120,
      "ex": 3121,
      "Ġabsolutely": 3122,
      "Ġmic": 3123,
      "Ġpractice": 3124,
      "Ġquality": 3125,
      "Ġlower": 3126,
      "ogle": 3127,
      "Ġsepar": 3128,
      "ball": 3129,
      "medi": 3130,
      "Ġreview": 3131,
      "ĠApp": 3132,
      "Ġok": 3133,
      "âĢĭ": 3134,
      "Ġexperien": 3135,
      "Ġconcern": 3136,
      "entially": 3137,
      "more": 3138,
      "ĠJo": 3139,
      "apan": 3140,
      "ĠIch": 3141,
      "istic": 3142,
      "Ġfair": 3143,
      "Ġwebsite": 3144,
      "ires": 3145,
      "ĠBy": 3146,
      "Ġtravel": 3147,
      "Ġrisk": 3148,
      "Ġmir": 3149,
      "Ġboard": 3150,
      "Ġsen": 3151,
      "Ġparents": 3152,
      "ĠWow": 3153,
      "Ġfeed": 3154,
      "Ġsave": 3155,
      "Ġserious": 3156,
      "Ġinit": 3157,
      "EL": 3158,
      "undred": 3159,
      "AS": 3160,
      "Ġvan": 3161,
      "orrow": 3162,
      "Ġworth": 3163,
      "Ġsearch": 3164,
      "Ġ16": 3165,
      "Ġparts": 3166,
      "ÑģÑĤÑĮ": 3167,
      "Ġcompan": 3168,
      "Ġmovie": 3169,
      "Ġmethod": 3170,
      "Ġill": 3171,
      "Ġwish": 3172,
      "dy": 3173,
      "Ġitem": 3174,
      "Ġminus": 3175,
      "anger": 3176,
      "Ġvoice": 3177,
      "Ġskin": 3178,
      "Ġareas": 3179,
      "Ġeight": 3180,
      "Ġobs": 3181,
      "Ġ,": 3182,
      "Ð°Ð¹": 3183,
      "Ġoil": 3184,
      "Ġcy": 3185,
      "Ġbaby": 3186,
      "sy": 3187,
      "Ġemploy": 3188,
      "ĠKe": 3189,
      "Ġplaces": 3190,
      "Ġfix": 3191,
      "ĠestÃ¡": 3192,
      "ãģ¨": 3193,
      "ived": 3194,
      "Ġlots": 3195,
      "Ġseason": 3196,
      "unk": 3197,
      "alt": 3198,
      "Ġtable": 3199,
      "ĠÐ¢": 3200,
      "Ã¢": 3201,
      "Ġattention": 3202,
      "ãģª": 3203,
      "ĠHer": 3204,
      "Ġage": 3205,
      "Ġpra": 3206,
      "back": 3207,
      "cil": 3208,
      "Ġnetwork": 3209,
      "rit": 3210,
      "Ġdoc": 3211,
      "Ġaren": 3212,
      "igen": 3213,
      "ĠëĦ": 3214,
      "Ø¯": 3215,
      "ender": 3216,
      "Ġtotal": 3217,
      "Ġprice": 3218,
      "Ġcrazy": 3219,
      "ìļ": 3220,
      "iqu": 3221,
      "though": 3222,
      "You": 3223,
      "Ùĩ": 3224,
      "ãĤĵ": 3225,
      "Ïħ": 3226,
      "Ġsat": 3227,
      "Ġbi": 3228,
      "ĠDie": 3229,
      "Ġsha": 3230,
      "Ġthanks": 3231,
      "uh": 3232,
      "Ġstage": 3233,
      "Ð°Ð¶": 3234,
      "ĠFl": 3235,
      "Ġleav": 3236,
      "Ġboy": 3237,
      "Ġaf": 3238,
      "Ã¶n": 3239,
      "ĠGet": 3240,
      "Ġaccept": 3241,
      "Ġenter": 3242,
      "Ġtur": 3243,
      "ĠsiÄĻ": 3244,
      "Ġhonest": 3245,
      "ãĢĮ": 3246,
      "Ġsam": 3247,
      "Ġrepl": 3248,
      "ging": 3249,
      "Ġdevelopment": 3250,
      "ĠAct": 3251,
      "ora": 3252,
      "ãĢį": 3253,
      "ä¾": 3254,
      "Ġknows": 3255,
      "Ġimage": 3256,
      "ĠLord": 3257,
      "Ð¸ÑĤÑĮ": 3258,
      "Ġweeks": 3259,
      "Ġsex": 3260,
      "Ķë": 3261,
      "Ġhundred": 3262,
      "Ġsounds": 3263,
      "Ġlearned": 3264,
      "Ġbud": 3265,
      "ĠÑģÑĤ": 3266,
      "Ġincred": 3267,
      "âĻ": 3268,
      "Ġnos": 3269,
      "Ġdrop": 3270,
      "Ġben": 3271,
      "ĠÐĺ": 3272,
      "Ġsafe": 3273,
      "ata": 3274,
      "Ġfuck": 3275,
      "soci": 3276,
      "Ġdan": 3277,
      "Ġcross": 3278,
      "10": 3279,
      "mo": 3280,
      "vert": 3281,
      "Ġ17": 3282,
      "zie": 3283,
      "åķ": 3284,
      "Ġdom": 3285,
      "ĠBo": 3286,
      "Ġsetting": 3287,
      "Ġinvolved": 3288,
      "arily": 3289,
      "Ġsind": 3290,
      "Ġsus": 3291,
      "Ġworry": 3292,
      "eth": 3293,
      "ê¹Į": 3294,
      "Ġsun": 3295,
      "Ġhier": 3296,
      "Ġcertainly": 3297,
      "oul": 3298,
      "orts": 3299,
      "ĠEr": 3300,
      "ĠUm": 3301,
      "Ġcaus": 3302,
      "Ġnatural": 3303,
      "ĠÃ¼": 3304,
      "Ġcry": 3305,
      "ĠSec": 3306,
      "Ġsom": 3307,
      "æ²": 3308,
      "Ġeducation": 3309,
      "Ð°ÐµÑĤ": 3310,
      "Ġmultip": 3311,
      "Ġalone": 3312,
      "Ġeye": 3313,
      "Ġrate": 3314,
      "ĠEurope": 3315,
      "è¿": 3316,
      "mon": 3317,
      "Ġfit": 3318,
      "izing": 3319,
      "pped": 3320,
      "Ġpressure": 3321,
      "the": 3322,
      "Ð¸Ñģ": 3323,
      "ites": 3324,
      "ĠAf": 3325,
      "reci": 3326,
      "attle": 3327,
      "Ġservices": 3328,
      "ĠGoogle": 3329,
      "éģ": 3330,
      "Ġcases": 3331,
      "Ġdrive": 3332,
      "Ġchalleng": 3333,
      "uz": 3334,
      "ĠMo": 3335,
      "ìľ¼ë": 3336,
      "val": 3337,
      "åĢĭ": 3338,
      "Ġfol": 3339,
      "Ġì¢": 3340,
      "ffic": 3341,
      "Ġra": 3342,
      "Ġsin": 3343,
      "Ġblue": 3344,
      "Ġaffect": 3345,
      "Ġmis": 3346,
      "Ġshot": 3347,
      "ĠÐ¾Ð±": 3348,
      "asing": 3349,
      "Ġsignific": 3350,
      "ĠChe": 3351,
      "Ġê³": 3352,
      "Ġpositive": 3353,
      "ì£": 3354,
      "Ġwie": 3355,
      "Ġ40": 3356,
      "ording": 3357,
      "ĠFrom": 3358,
      "êµ": 3359,
      "Ġbrand": 3360,
      "Ġtrust": 3361,
      "Ġple": 3362,
      "Ġcommunic": 3363,
      "Ġweight": 3364,
      "Ġasking": 3365,
      "Ġtax": 3366,
      "ĠJapan": 3367,
      "ãģŁ": 3368,
      "Ġíķĺ": 3369,
      "ops": 3370,
      "ÏĤ": 3371,
      "Ġputting": 3372,
      "Ġroll": 3373,
      "ĠAmerica": 3374,
      "reg": 3375,
      "ŀ×": 3376,
      "atures": 3377,
      "ension": 3378,
      "ĠSomet": 3379,
      "Ġoriginal": 3380,
      "ping": 3381,
      "ĠÅŁ": 3382,
      "Ġproducts": 3383,
      "ãĥ¼": 3384,
      "Ġcontact": 3385,
      "olution": 3386,
      "Ġgoal": 3387,
      "Ġpow": 3388,
      "Ġperformance": 3389,
      "Ġblood": 3390,
      "ators": 3391,
      "ĠMich": 3392,
      "Ġtemper": 3393,
      "ĠDan": 3394,
      "Ġsugg": 3395,
      "ÑĤÐ¸": 3396,
      "Ġimm": 3397,
      "Ġoffice": 3398,
      "Ġarri": 3399,
      "Ġcomfort": 3400,
      "ĠÐĶ": 3401,
      "Ġsuggest": 3402,
      "Ġplat": 3403,
      "Ĥĺ": 3404,
      "19": 3405,
      "Ġom": 3406,
      "Ġseven": 3407,
      "ĠCent": 3408,
      "ille": 3409,
      "Ġconcept": 3410,
      "Ġbag": 3411,
      "Ã¼n": 3412,
      "ively": 3413,
      "Ġdiv": 3414,
      "mos": 3415,
      "æī": 3416,
      "Ġfeels": 3417,
      "Ġir": 3418,
      "akes": 3419,
      "ley": 3420,
      "Ġparticip": 3421,
      "ĠÐļ": 3422,
      "fl": 3423,
      "just": 3424,
      "Ġsil": 3425,
      "ĠPa": 3426,
      "AL": 3427,
      "Ġgotta": 3428,
      "Ġfan": 3429,
      "Ġchallenge": 3430,
      "Ġcompanies": 3431,
      "ĠPeople": 3432,
      "</": 3433,
      "Ð¾Ð·": 3434,
      "Ġpen": 3435,
      "ising": 3436,
      "Ġaus": 3437,
      "emic": 3438,
      "amente": 3439,
      "Ġmeeting": 3440,
      "Ġvisit": 3441,
      "Ġsupposed": 3442,
      "ĠOnce": 3443,
      "Ð´Ð°": 3444,
      "orld": 3445,
      "30": 3446,
      "US": 3447,
      "Ġviol": 3448,
      "Ġnotice": 3449,
      "ĠÐĲ": 3450,
      "han": 3451,
      "ped": 3452,
      "ìĺ": 3453,
      "hh": 3454,
      "Ġtrou": 3455,
      "Ġminute": 3456,
      "ĠPar": 3457,
      "ray": 3458,
      "Ġtit": 3459,
      "Ġupd": 3460,
      "Ġblock": 3461,
      "Ġdue": 3462,
      "aur": 3463,
      "Ġforce": 3464,
      "Ġcoun": 3465,
      "ĠâĢĶ": 3466,
      "Ġtypes": 3467,
      "ë§": 3468,
      "Ġlate": 3469,
      "Ġimprove": 3470,
      "ĠìĪ": 3471,
      "Ġave": 3472,
      "ules": 3473,
      "cl": 3474,
      "amed": 3475,
      "Ġawesome": 3476,
      "ĠOk": 3477,
      "Ġvot": 3478,
      "Ġmachine": 3479,
      "Ġfollowing": 3480,
      "Ġmeasure": 3481,
      "aciÃ³n": 3482,
      "uel": 3483,
      "chan": 3484,
      "Ġability": 3485,
      "Ġtout": 3486,
      "Ġideas": 3487,
      "Ġincrease": 3488,
      "Ġens": 3489,
      "ĠÑħ": 3490,
      "Ġëª": 3491,
      "Ġjest": 3492,
      "ĠÐľ": 3493,
      "Ġtruth": 3494,
      "hy": 3495,
      "Ġspend": 3496,
      "Ġscience": 3497,
      "ete": 3498,
      "Ġ14": 3499,
      "Ġepisode": 3500,
      "Ġalg": 3501,
      "ended": 3502,
      "ãģĵ": 3503,
      "ari": 3504,
      "lla": 3505,
      "Ġfish": 3506,
      "Ġthrow": 3507,
      "mit": 3508,
      "å¹": 3509,
      "Ġcirc": 3510,
      "ĠCal": 3511,
      "Ġtour": 3512,
      "Ġdirection": 3513,
      "Ġnoch": 3514,
      "ÐµÐ²": 3515,
      "Ã©n": 3516,
      "Ġcountries": 3517,
      "Ġindustry": 3518,
      "iny": 3519,
      "icle": 3520,
      "Ġfeet": 3521,
      "It": 3522,
      "Ġleaders": 3523,
      "etzt": 3524,
      "Ġstaff": 3525,
      "çĶ": 3526,
      "Ġpurp": 3527,
      "ito": 3528,
      "?!": 3529,
      "ĠJa": 3530,
      "Ġstore": 3531,
      "etic": 3532,
      "ĠChina": 3533,
      "ĠëĲ": 3534,
      "ĠUniversity": 3535,
      "Ġ#": 3536,
      "Ġdecision": 3537,
      "Ġachie": 3538,
      "Ġactual": 3539,
      "uly": 3540,
      "Ġsection": 3541,
      "Ġresults": 3542,
      "Ġstar": 3543,
      "Ġmist": 3544,
      "ibly": 3545,
      "Ġdad": 3546,
      "Ġnumbers": 3547,
      "omb": 3548,
      "èª": 3549,
      "ĠSpe": 3550,
      "Ġmer": 3551,
      "Ġ25": 3552,
      "Ġautom": 3553,
      "Ġcold": 3554,
      "Ø¨": 3555,
      "Ħľ": 3556,
      "ager": 3557,
      "ĠTV": 3558,
      "ĠSie": 3559,
      "ĠHave": 3560,
      "ĠÅ¼e": 3561,
      "ugg": 3562,
      "ained": 3563,
      "Ġupon": 3564,
      "Ġlog": 3565,
      "Ġcomplete": 3566,
      "Ġbrain": 3567,
      "aging": 3568,
      "ĠMus": 3569,
      "over": 3570,
      "Ġeasier": 3571,
      "Ġintegr": 3572,
      "ĠmÃ¡s": 3573,
      "Ġturned": 3574,
      "Ġstri": 3575,
      "ival": 3576,
      "Ġheav": 3577,
      "ĠTH": 3578,
      "Ġwriting": 3579,
      "ÑĢÐ°": 3580,
      "åľ¨": 3581,
      "å¤§": 3582,
      "Ġcla": 3583,
      "ding": 3584,
      "Ġtelling": 3585,
      "Ð¸Ð´": 3586,
      "icated": 3587,
      "ä»¥": 3588,
      "acht": 3589,
      "ãģĤ": 3590,
      "haps": 3591,
      "ĠSte": 3592,
      "Ġresources": 3593,
      "Ġdann": 3594,
      "Ġparty": 3595,
      "ĠÏĦ": 3596,
      "Ġsaf": 3597,
      "ises": 3598,
      "tre": 3599,
      "oint": 3600,
      "Ġknowledge": 3601,
      "Ġanymore": 3602,
      "Ġfly": 3603,
      "Ġmaint": 3604,
      "Ð¸Ðº": 3605,
      "åĳ": 3606,
      "Ġsell": 3607,
      "laughs": 3608,
      "ĠYork": 3609,
      "Ġbien": 3610,
      "Ġod": 3611,
      "Ġeasily": 3612,
      "Ġrange": 3613,
      "Ġoption": 3614,
      "Ø¹": 3615,
      "Ġappreci": 3616,
      "ocr": 3617,
      "Ġdeterm": 3618,
      "ÑĦ": 3619,
      "Ġmeaning": 3620,
      "Ġsite": 3621,
      "Ġdisco": 3622,
      "verage": 3623,
      "Ġlose": 3624,
      "Ġinstall": 3625,
      "Ġemot": 3626,
      "antly": 3627,
      "Ã¤t": 3628,
      "Ġtamb": 3629,
      "ĠWar": 3630,
      "ĠHo": 3631,
      "ĠGen": 3632,
      "emy": 3633,
      "ÐµÐ·": 3634,
      "ĠPol": 3635,
      "Ġmessage": 3636,
      "Ġnote": 3637,
      "ĮĢ": 3638,
      "Ġhet": 3639,
      "Ġimmedi": 3640,
      "Ġavo": 3641,
      "Ġbooks": 3642,
      "Ġbecomes": 3643,
      "resh": 3644,
      "Ã¨s": 3645,
      "asons": 3646,
      "Ġhimself": 3647,
      "uts": 3648,
      "Ġju": 3649,
      "Ġaware": 3650,
      "Ġrequire": 3651,
      "Ġsystems": 3652,
      "ĠHar": 3653,
      "Ġamong": 3654,
      "Ġhom": 3655,
      "Ġbreat": 3656,
      "Ġweird": 3657,
      "Ġë¶": 3658,
      "Î»": 3659,
      "Ø©": 3660,
      "iff": 3661,
      "oring": 3662,
      "Ġplatform": 3663,
      "ĠTake": 3664,
      "Ġhelps": 3665,
      "utions": 3666,
      "Ġforg": 3667,
      "Ġluck": 3668,
      "ĠEnglish": 3669,
      "Ġweb": 3670,
      "Ġnegative": 3671,
      "Ġtut": 3672,
      "Ġabove": 3673,
      "ngth": 3674,
      "Ġê±°": 3675,
      "Ġstories": 3676,
      "Ġload": 3677,
      "Ġbackground": 3678,
      "Ġswitch": 3679,
      "ga": 3680,
      "Ġprinci": 3681,
      "Ġfinan": 3682,
      "Ġvarious": 3683,
      "ĠlÃł": 3684,
      "Ġkinds": 3685,
      "aining": 3686,
      "Ġnature": 3687,
      "ĠÐŀ": 3688,
      "cz": 3689,
      "Ġpray": 3690,
      "Ġgar": 3691,
      "irm": 3692,
      "Ġ&": 3693,
      "Ġìĥ": 3694,
      "ns": 3695,
      "ĠRep": 3696,
      "ĠFe": 3697,
      "Ġrev": 3698,
      "rand": 3699,
      "Ġlikely": 3700,
      "Ġunderstanding": 3701,
      "Ä±r": 3702,
      "ãģĭ": 3703,
      "Ġfal": 3704,
      "Ġ13": 3705,
      "ÑĨÐ¸": 3706,
      "Ġsud": 3707,
      "Ġbrother": 3708,
      "Ġplant": 3709,
      "Ġthroughout": 3710,
      "wise": 3711,
      "pre": 3712,
      "Ġculture": 3713,
      "ĠÙħ": 3714,
      "Ġwonderful": 3715,
      "Ġah": 3716,
      "pper": 3717,
      "Ġsold": 3718,
      "Ġstarts": 3719,
      "Ġwritten": 3720,
      "Î¯": 3721,
      "ni": 3722,
      "Ġ×Ķ×": 3723,
      "ĠDav": 3724,
      "Ġult": 3725,
      "Ġarm": 3726,
      "Ġrock": 3727,
      "Ġwear": 3728,
      "ëį°": 3729,
      "ano": 3730,
      "rag": 3731,
      "Ġsquare": 3732,
      "Ð°Ð½Ð¸": 3733,
      "cast": 3734,
      "lebr": 3735,
      "Ġliterally": 3736,
      "Ġplayed": 3737,
      "Ġheat": 3738,
      "onse": 3739,
      "rict": 3740,
      "Ġinsp": 3741,
      "ids": 3742,
      "Ġpopular": 3743,
      "ëıĦ": 3744,
      "Ġcatch": 3745,
      "Ġmount": 3746,
      "Ġjud": 3747,
      "What": 3748,
      "ÐµÐ±": 3749,
      "RA": 3750,
      "aud": 3751,
      "ÐºÐ¾": 3752,
      "Ġsurface": 3753,
      "Ġconv": 3754,
      "Ġpieces": 3755,
      "Oh": 3756,
      "æĢ": 3757,
      "Ġstyle": 3758,
      "pping": 3759,
      "Ġreading": 3760,
      "Ġconversation": 3761,
      "Ð¾Ð¿": 3762,
      "ä¾Ĩ": 3763,
      "ĠAgain": 3764,
      "Ġbank": 3765,
      "time": 3766,
      "ÑĥÑĤ": 3767,
      "erve": 3768,
      "ĠGreat": 3769,
      "Ġcapt": 3770,
      "Ð°Ð±": 3771,
      "ays": 3772,
      "ĠFin": 3773,
      "ification": 3774,
      "ĠÃ¤r": 3775,
      "Ð°Ñİ": 3776,
      "Ġegg": 3777,
      "ĠWel": 3778,
      "Ġtarget": 3779,
      "ula": 3780,
      "ches": 3781,
      "ani": 3782,
      "OO": 3783,
      "icious": 3784,
      "now": 3785,
      "Ïĥ": 3786,
      "board": 3787,
      "Ġgente": 3788,
      "Ġdro": 3789,
      "ĠEt": 3790,
      "Ġdin": 3791,
      "Ġcos": 3792,
      "Ġauthor": 3793,
      "Ø³": 3794,
      "Ġoch": 3795,
      "Ġemail": 3796,
      "Ġspirit": 3797,
      "Ġsitting": 3798,
      "mas": 3799,
      "Ġstrength": 3800,
      "Ġbigger": 3801,
      "ĠWait": 3802,
      "Ġmat": 3803,
      "Ġpolice": 3804,
      "ressed": 3805,
      "Ġwaiting": 3806,
      "ishing": 3807,
      "Ġdollars": 3808,
      "hood": 3809,
      "ss": 3810,
      "Ġimagine": 3811,
      "ini": 3812,
      "Ġmes": 3813,
      "Ġdise": 3814,
      "idge": 3815,
      "abor": 3816,
      "Ġpet": 3817,
      "Ġhop": 3818,
      "ĠKing": 3819,
      "Ġcomputer": 3820,
      "Ġgold": 3821,
      "Ġnu": 3822,
      "Ġfing": 3823,
      "),": 3824,
      "Ġsecurity": 3825,
      "ruction": 3826,
      "Ġsolution": 3827,
      "ext": 3828,
      "Ġpatter": 3829,
      "icken": 3830,
      "ured": 3831,
      "Ġstandard": 3832,
      "ìĭľ": 3833,
      "Ġdouble": 3834,
      "Î·": 3835,
      "Ġwife": 3836,
      "isa": 3837,
      "Ġdirectly": 3838,
      "aced": 3839,
      "Ġbunch": 3840,
      "ĠÂ¿": 3841,
      "Ð°Ð»ÑĮ": 3842,
      "Ġregard": 3843,
      "Ġsweet": 3844,
      "Ġunique": 3845,
      "ĠâĻ«": 3846,
      "Ġtrain": 3847,
      "ĠGerm": 3848,
      "Î¬": 3849,
      "RE": 3850,
      "Ġbehav": 3851,
      "Ġpred": 3852,
      "ìĥ": 3853,
      "set": 3854,
      "Ġdescription": 3855,
      "Ã©e": 3856,
      "Ġcat": 3857,
      "åĵ": 3858,
      "Ġcollege": 3859,
      "ìĽ": 3860,
      "Ġapplication": 3861,
      "ĠSen": 3862,
      "ask": 3863,
      "Ġcred": 3864,
      "ublic": 3865,
      "Ġmultiple": 3866,
      "Ġni": 3867,
      "Ġpresident": 3868,
      "Ġadded": 3869,
      "Ġrob": 3870,
      "Ġaqui": 3871,
      "Ġhosp": 3872,
      "Ġtools": 3873,
      "Ġgun": 3874,
      "Ġbasic": 3875,
      "Ġlines": 3876,
      "Ġstructure": 3877,
      "ĠRuss": 3878,
      "Ġtotally": 3879,
      "Ġbiggest": 3880,
      "Ġeen": 3881,
      "Ġarg": 3882,
      "Ġ×ľ": 3883,
      "Ġpark": 3884,
      "ĠDes": 3885,
      "Ġcelebr": 3886,
      "Ġfait": 3887,
      "ÐµÐ½ÑĮ": 3888,
      "Ġsuff": 3889,
      "Ġregular": 3890,
      "¨ë": 3891,
      "Ġmine": 3892,
      "ĠKore": 3893,
      "Ġprevious": 3894,
      "Ġpi": 3895,
      "Ġseg": 3896,
      "Ġpolicy": 3897,
      "ĠÐºÐ¾": 3898,
      "ĠTrump": 3899,
      "Ġvacc": 3900,
      "Ã³w": 3901,
      "ĠSy": 3902,
      "Ð¸Ñĩ": 3903,
      "itter": 3904,
      "Ġpolitical": 3905,
      "ras": 3906,
      "Ġals": 3907,
      "ÐµÐ»ÑĮ": 3908,
      "Ġshape": 3909,
      "anz": 3910,
      "Ġonto": 3911,
      "Ġarch": 3912,
      "Ġamb": 3913,
      "agram": 3914,
      "ĠSm": 3915,
      "ctions": 3916,
      "Ġjoin": 3917,
      "bor": 3918,
      "åĽ": 3919,
      "Ġframe": 3920,
      "łĩ": 3921,
      "Ġchoice": 3922,
      "à¯ģ": 3923,
      "ÑĥÑİ": 3924,
      "ĠCor": 3925,
      "ĠSw": 3926,
      "IT": 3927,
      "Ġtend": 3928,
      "ĠEar": 3929,
      "Ġtor": 3930,
      "Ġevents": 3931,
      "Ġclaim": 3932,
      "ĠDa": 3933,
      "ĠMark": 3934,
      "Ġgroups": 3935,
      "Ġeating": 3936,
      "ĠWorld": 3937,
      "Ġrecently": 3938,
      "Ġtaste": 3939,
      "Ġsurv": 3940,
      "à¤": 3941,
      "Ġskills": 3942,
      "ĠÐ¸Ð·": 3943,
      "itted": 3944,
      "Ġshop": 3945,
      "ìĿ´ì": 3946,
      "Ġestab": 3947,
      "ĠëĤĺ": 3948,
      "Ġseconds": 3949,
      "ĠThose": 3950,
      "ĠEnt": 3951,
      "ĠìĦ": 3952,
      "erson": 3953,
      "Ġtown": 3954,
      "Ġcand": 3955,
      "Ġoptions": 3956,
      "Ġing": 3957,
      "VID": 3958,
      "Ġencour": 3959,
      "ĠrÃ©": 3960,
      "âĻª": 3961,
      "Ġentre": 3962,
      "Ġmovement": 3963,
      "ĠBen": 3964,
      "Ġbirth": 3965,
      "Ġwhe": 3966,
      "Ġhang": 3967,
      "ĠEm": 3968,
      "ige": 3969,
      "roll": 3970,
      "Ġunf": 3971,
      "ìĤ": 3972,
      "Ġrid": 3973,
      "Ġspread": 3974,
      "Ġhost": 3975,
      "ald": 3976,
      "ĠEd": 3977,
      "Ġconsum": 3978,
      "UN": 3979,
      "Ġopin": 3980,
      "itar": 3981,
      "ĠMed": 3982,
      "Ġsubject": 3983,
      "Ġpal": 3984,
      "Ġcarry": 3985,
      "Ġagree": 3986,
      "ĠWhile": 3987,
      "Ġcareer": 3988,
      "Ġscient": 3989,
      "Ġsudden": 3990,
      "Ġfile": 3991,
      "zi": 3992,
      "Ġexcept": 3993,
      "éº": 3994,
      "Ġpotential": 3995,
      "ĠAnother": 3996,
      "Ġcomplex": 3997,
      "ĠSim": 3998,
      "endo": 3999,
      "Ġrais": 4000,
      "Ġphysical": 4001,
      "Ġdate": 4002,
      "aker": 4003,
      "ĠCol": 4004,
      "Ġpowerful": 4005,
      "Ġmember": 4006,
      "rap": 4007,
      "Ġspot": 4008,
      "Ġsource": 4009,
      "Ġfem": 4010,
      "Ã©m": 4011,
      "Ġemp": 4012,
      "ji": 4013,
      "iety": 4014,
      "Ġinflu": 4015,
      "Ġdry": 4016,
      "Ġlock": 4017,
      "Ġzero": 4018,
      "ĠUh": 4019,
      "Ġrout": 4020,
      "Ġporque": 4021,
      "Ġ24": 4022,
      "Ġtal": 4023,
      "Ġfolks": 4024,
      "Ġlaunch": 4025,
      "Ġcompon": 4026,
      "ĠWelcome": 4027,
      "Ġkann": 4028,
      "Ã¤n": 4029,
      "ĠÑįÑĤ": 4030,
      "ees": 4031,
      "ĠÙĪ": 4032,
      "Ġanyway": 4033,
      "Ġaudience": 4034,
      "äºº": 4035,
      "Ġslight": 4036,
      "ona": 4037,
      "Ġur": 4038,
      "Ġrelig": 4039,
      "Ġextrem": 4040,
      "Ä±z": 4041,
      "ĠMa": 4042,
      "Î¼": 4043,
      "ĠÃ¶": 4044,
      "Ġallows": 4045,
      "Ġfat": 4046,
      "ĠFace": 4047,
      "Ġnational": 4048,
      "Ġinterview": 4049,
      "ĠMc": 4050,
      "Ã©t": 4051,
      "Ġcute": 4052,
      "ela": 4053,
      "Ġsecret": 4054,
      "ĠWest": 4055,
      "ĠDep": 4056,
      "Ġexerc": 4057,
      "Ġhistor": 4058,
      "Ġprior": 4059,
      "Ġ60": 4060,
      "ava": 4061,
      "acher": 4062,
      "yond": 4063,
      "ĠHa": 4064,
      "Ġeste": 4065,
      "inary": 4066,
      "ĠNorth": 4067,
      "onst": 4068,
      "Ġsmart": 4069,
      "ams": 4070,
      "Ð°Ð»Ð¸": 4071,
      "Ġdar": 4072,
      "ered": 4073,
      "Ġfunny": 4074,
      "ĠOb": 4075,
      "ĠBlack": 4076,
      "Ġrelated": 4077,
      "ĠBu": 4078,
      "Ġsomewhere": 4079,
      "ĠRem": 4080,
      "nes": 4081,
      "mente": 4082,
      "ĠReally": 4083,
      "Ġcreating": 4084,
      "Ġfamil": 4085,
      "Ġsociety": 4086,
      "Ġgel": 4087,
      "Ġtransform": 4088,
      "Äĥ": 4089,
      "Ġinclude": 4090,
      "Ġhol": 4091,
      "like": 4092,
      "ko": 4093,
      "airs": 4094,
      "ĠÐ¿Ð¾Ð´": 4095,
      "Ġperspect": 4096,
      "Ġbes": 4097,
      "Ġparticularly": 4098,
      "Ġshowing": 4099,
      "ĠPart": 4100,
      "Ġqual": 4101,
      "lock": 4102,
      "Ġreality": 4103,
      "hold": 4104,
      "iction": 4105,
      "oon": 4106,
      "Ġvir": 4107,
      "ãģ«": 4108,
      "itary": 4109,
      "Ġdrug": 4110,
      "Ġfeature": 4111,
      "Ġreasons": 4112,
      "Ġ×©": 4113,
      "Ġwrote": 4114,
      "Ġfant": 4115,
      "Ġband": 4116,
      "Ùĥ": 4117,
      "ena": 4118,
      "key": 4119,
      "Ġearth": 4120,
      "dom": 4121,
      "Ġfeatures": 4122,
      "Ġfloor": 4123,
      "Ġspeaking": 4124,
      "Ġtip": 4125,
      "ĠAust": 4126,
      "Ġstock": 4127,
      "Ġchurch": 4128,
      "Ġrac": 4129,
      "ìľ¼ë¡ľ": 4130,
      "à¸Ļ": 4131,
      "ãĤĮ": 4132,
      "ky": 4133,
      "Ġresponse": 4134,
      "ÛĮ": 4135,
      "ulations": 4136,
      "Ġslide": 4137,
      "Ġgradu": 4138,
      "cious": 4139,
      "Ġmeant": 4140,
      "Ġ==": 4141,
      "Ġ×Ĳ×": 4142,
      "ãħ": 4143,
      "Ġkinda": 4144,
      "Ġscene": 4145,
      "Ġmuit": 4146,
      "Ġê°Ģ": 4147,
      "rast": 4148,
      "rest": 4149,
      "Ġplayers": 4150,
      "wa": 4151,
      "Ġbroad": 4152,
      "Ġtomorrow": 4153,
      "ocol": 4154,
      "ĠÑģÐ²": 4155,
      "ĠBar": 4156,
      "Ä±k": 4157,
      "Ġsea": 4158,
      "Ġremove": 4159,
      "Ġremind": 4160,
      "Ð¾Ð¼Ñĥ": 4161,
      "ĠSince": 4162,
      "Ġavec": 4163,
      "cell": 4164,
      "Ð¸Ñħ": 4165,
      "Ġdocument": 4166,
      "Ġê·¸ëŁ": 4167,
      "Ġneigh": 4168,
      "beat": 4169,
      "ĠpÃ¥": 4170,
      "Ġaspect": 4171,
      "Ġded": 4172,
      "lished": 4173,
      "ils": 4174,
      "Ġourselves": 4175,
      "uce": 4176,
      "Ġhey": 4177,
      "ĠÐ¿ÑĢÐ¾": 4178,
      "enty": 4179,
      "Ġassoci": 4180,
      "ados": 4181,
      "umber": 4182,
      "Ġ]": 4183,
      "éĤ£": 4184,
      "nov": 4185,
      "ĠìĻ": 4186,
      "ÑĥÑĩ": 4187,
      "Ġcondition": 4188,
      "ëĬĶëį°": 4189,
      "Ġvalues": 4190,
      "Ġscen": 4191,
      "minist": 4192,
      "Ġcast": 4193,
      "Ġgrowing": 4194,
      "Ġuser": 4195,
      "Ġrespond": 4196,
      "lim": 4197,
      "Ã©r": 4198,
      "ym": 4199,
      "çľĭ": 4200,
      "oses": 4201,
      "sych": 4202,
      "ĠÑĢÐ°Ð·": 4203,
      "Ġappear": 4204,
      "Ġprogress": 4205,
      "ength": 4206,
      "Ġjak": 4207,
      "ĠDis": 4208,
      "Ġpatients": 4209,
      "ĠSer": 4210,
      "Ġgas": 4211,
      "Ã¨re": 4212,
      "ìĸ´ìļĶ": 4213,
      "Ġreci": 4214,
      "ìĿ¸": 4215,
      "Ġsca": 4216,
      "epend": 4217,
      "ÑģÐº": 4218,
      "Ð°Ð¿": 4219,
      "Ġbatter": 4220,
      "Ġveh": 4221,
      "ðŁ": 4222,
      "Ġaccom": 4223,
      "Ġbeat": 4224,
      "Ġpaint": 4225,
      "Ġcontrib": 4226,
      "Ġsad": 4227,
      "Æ°": 4228,
      "ales": 4229,
      "Ġtree": 4230,
      "ba": 4231,
      "Ġborn": 4232,
      "iced": 4233,
      "à®ķ": 4234,
      "band": 4235,
      "Ġmechan": 4236,
      "ĠDet": 4237,
      "Ġcapital": 4238,
      "Ġdeliver": 4239,
      "Ġfear": 4240,
      "ŀĺ": 4241,
      "ĠSouth": 4242,
      "Ġbought": 4243,
      "Ġstress": 4244,
      "Ġvor": 4245,
      "??": 4246,
      "ih": 4247,
      "ìķ¼": 4248,
      "Ġera": 4249,
      "ìĿ´ë": 4250,
      "Ð°Ñı": 4251,
      "isions": 4252,
      "ivity": 4253,
      "Ġhelped": 4254,
      "Ġassist": 4255,
      "Ġplayer": 4256,
      "ran": 4257,
      "Ġimmediately": 4258,
      "Ġmoved": 4259,
      "cie": 4260,
      "ê±": 4261,
      "Ġannoun": 4262,
      "å¿": 4263,
      "ìŀĲ": 4264,
      "Ġproduction": 4265,
      "Ġsummer": 4266,
      "Ġtun": 4267,
      "Ġprograms": 4268,
      "GH": 4269,
      "aling": 4270,
      "ira": 4271,
      "eless": 4272,
      ".)": 4273,
      "Ġaverage": 4274,
      "è¦ģ": 4275,
      "Ġglass": 4276,
      "oman": 4277,
      "ifically": 4278,
      "Ġëĭ¤": 4279,
      "ĠCong": 4280,
      "ĠVer": 4281,
      "Ġtrick": 4282,
      "Ġbegan": 4283,
      "Ġvill": 4284,
      "ê±°": 4285,
      "how": 4286,
      "æŃ": 4287,
      "Ġtill": 4288,
      "Ġ90": 4289,
      "bert": 4290,
      "Ġê¸": 4291,
      "Ġtemperature": 4292,
      "Ã²": 4293,
      "à¹Ī": 4294,
      "Ġgraph": 4295,
      "Ġê·¸": 4296,
      "Ġrot": 4297,
      "Ġmob": 4298,
      "AY": 4299,
      "ael": 4300,
      "Ġrepe": 4301,
      "Ġdevice": 4302,
      "Ġ199": 4303,
      "Ġtele": 4304,
      "Ġkept": 4305,
      "pa": 4306,
      "æĸ": 4307,
      "verse": 4308,
      "Ġstream": 4309,
      "ÐµÑĩ": 4310,
      "ession": 4311,
      "Ġstrugg": 4312,
      "zz": 4313,
      "Ġdegree": 4314,
      "Ġhelping": 4315,
      "Ġsmell": 4316,
      "Ġperhaps": 4317,
      "pro": 4318,
      "Ġcontext": 4319,
      "Ġik": 4320,
      "ĠÐ¿ÐµÑĢ": 4321,
      "Ġcalcul": 4322,
      "éº¼": 4323,
      "bing": 4324,
      "Ġrealize": 4325,
      "lam": 4326,
      "ĠChar": 4327,
      "yt": 4328,
      "ĠìĿ´ì": 4329,
      "Ġdanger": 4330,
      "ĠIm": 4331,
      "aa": 4332,
      "Ġloved": 4333,
      "Ġpurpose": 4334,
      "Ġfinished": 4335,
      "Ġpeace": 4336,
      "Ġot": 4337,
      "Ġglobal": 4338,
      "ÏĢ": 4339,
      "Ġaber": 4340,
      "ĸĪ": 4341,
      "Ġcharacters": 4342,
      "Ġnur": 4343,
      "Ġdamage": 4344,
      "Ġemer": 4345,
      "Ġprec": 4346,
      "ĠWir": 4347,
      "Ġinstit": 4348,
      "ĳ×": 4349,
      "Ġallowed": 4350,
      "bon": 4351,
      "Ġtod": 4352,
      "ÐµÐ³Ð¾": 4353,
      "Ġjetzt": 4354,
      "Ġmedic": 4355,
      "Ġsmaller": 4356,
      "ceed": 4357,
      "Ġlevels": 4358,
      "Ġintell": 4359,
      "We": 4360,
      "Ġsem": 4361,
      "Ġcurrently": 4362,
      "Ġmodern": 4363,
      "Ġcontract": 4364,
      "Ġdetails": 4365,
      "ortunately": 4366,
      "OS": 4367,
      "Ġstates": 4368,
      "Ġadjust": 4369,
      "antage": 4370,
      "ez": 4371,
      "ĠVery": 4372,
      "Ġscale": 4373,
      "Ġrelease": 4374,
      "Ġfaz": 4375,
      "Ġic": 4376,
      "itude": 4377,
      "AC": 4378,
      "ĠPat": 4379,
      "iden": 4380,
      "ŃĲ": 4381,
      "Ġprefer": 4382,
      "ological": 4383,
      "ĠFacebook": 4384,
      "Ġê°Ļ": 4385,
      "Ġ..": 4386,
      "ĠMake": 4387,
      "ĠÐºÐ¾ÑĤÐ¾ÑĢ": 4388,
      "ĠDavid": 4389,
      "ĠAfric": 4390,
      "Ġmode": 4391,
      "ĠCity": 4392,
      "Ġshall": 4393,
      "ĠÑĦ": 4394,
      "imin": 4395,
      "ĠÐ·Ð°": 4396,
      "rom": 4397,
      "ua": 4398,
      "Ġbeyond": 4399,
      "Ġdistrib": 4400,
      "ÐºÑĥ": 4401,
      "ĠDoes": 4402,
      "Ġvict": 4403,
      "rate": 4404,
      "Ġvai": 4405,
      "Ġsuccessful": 4406,
      "Ġhous": 4407,
      "aha": 4408,
      "ests": 4409,
      "ĠEst": 4410,
      "Ġdiscover": 4411,
      "Ġtherefore": 4412,
      "cha": 4413,
      "Ġcup": 4414,
      "Ġpopulation": 4415,
      "ĠIl": 4416,
      "sc": 4417,
      "Ġspent": 4418,
      "rel": 4419,
      "Ġuseful": 4420,
      "Ġtab": 4421,
      "æĿ": 4422,
      "ĠÅ": 4423,
      "Ġìłľ": 4424,
      "Ġconse": 4425,
      "Ġquant": 4426,
      "aya": 4427,
      "Ġbon": 4428,
      "åı¯": 4429,
      "ĠChin": 4430,
      "Ġê²ĥ": 4431,
      "ounds": 4432,
      "ÐµÑĪ": 4433,
      "elle": 4434,
      "Ġice": 4435,
      "21": 4436,
      "Ġkick": 4437,
      "ä¸ĭ": 4438,
      "Ġsteps": 4439,
      "Ġtonight": 4440,
      "Ð½ÑĭÐ¹": 4441,
      "rench": 4442,
      ".'": 4443,
      "Ġgrab": 4444,
      "Ġimplement": 4445,
      "ĠìĪĺ": 4446,
      "Ġmission": 4447,
      "Ġclearly": 4448,
      "Ġappreciate": 4449,
      "èĢ": 4450,
      "Ġfresh": 4451,
      "arm": 4452,
      "ĠTwo": 4453,
      "Ġexec": 4454,
      "Ġprojects": 4455,
      "Ġcommunities": 4456,
      "rible": 4457,
      "Ġregion": 4458,
      "Ġfrequ": 4459,
      "roy": 4460,
      "Ġhowever": 4461,
      "Ġpartners": 4462,
      "anc": 4463,
      "Ġminim": 4464,
      "Ġlat": 4465,
      "Ġfamilies": 4466,
      "Ġevidence": 4467,
      "Ġpun": 4468,
      "raft": 4469,
      "Ġloss": 4470,
      "Ġmap": 4471,
      "Ġanybody": 4472,
      "Ġchanging": 4473,
      "Ġrules": 4474,
      "Ġorganization": 4475,
      "Ġessentially": 4476,
      "ĠRed": 4477,
      "Ġelement": 4478,
      "æĹ": 4479,
      "Ġvirt": 4480,
      "rat": 4481,
      "Ġprint": 4482,
      "ander": 4483,
      "aren": 4484,
      "emos": 4485,
      "Î¿Ïħ": 4486,
      "Ġconditions": 4487,
      "abe": 4488,
      "Ġdance": 4489,
      "Ð¸ÑĢ": 4490,
      "Ġdos": 4491,
      "Ð¾Ñĩ": 4492,
      "ĠQue": 4493,
      "Ġwalking": 4494,
      "Ġtro": 4495,
      "Ġid": 4496,
      "Ġadditional": 4497,
      "Ġfully": 4498,
      "Ġfans": 4499,
      "Ġaddition": 4500,
      "Ġliked": 4501,
      "ĠÃ¼ber": 4502,
      "Ġbow": 4503,
      "di": 4504,
      "Ġmaster": 4505,
      "off": 4506,
      "):": 4507,
      "mber": 4508,
      "Ġë¬": 4509,
      "å¯": 4510,
      "åĪ°": 4511,
      "lause": 4512,
      "Ġoder": 4513,
      "Ġsafety": 4514,
      "Ġreact": 4515,
      "à®¿": 4516,
      "bt": 4517,
      "Ġdisapp": 4518,
      "Ġgirls": 4519,
      "St": 4520,
      "ĠAng": 4521,
      "Ġfaith": 4522,
      "Ġturns": 4523,
      "Ġtight": 4524,
      "Ġmouth": 4525,
      "ami": 4526,
      "zer": 4527,
      "Ġweap": 4528,
      "ĠÐ±ÑĥÐ´": 4529,
      "Ġhospital": 4530,
      "raid": 4531,
      "Ġmicro": 4532,
      "ĠState": 4533,
      "ĠMost": 4534,
      "agn": 4535,
      "Ġdecide": 4536,
      "Ġpatient": 4537,
      "Ġcorner": 4538,
      "Ġdied": 4539,
      "No": 4540,
      "ĠStud": 4541,
      "rend": 4542,
      "empt": 4543,
      "Ġlie": 4544,
      "Ġlif": 4545,
      "ĠBefore": 4546,
      "tÃ³": 4547,
      "ĠSuper": 4548,
      "Ġbell": 4549,
      "60": 4550,
      "Ġprivate": 4551,
      "ĠPaul": 4552,
      "Ġgib": 4553,
      "Ġagre": 4554,
      "´ìĦľ": 4555,
      "Ġsig": 4556,
      "Ġinvestig": 4557,
      "ÑıÑĤ": 4558,
      "ening": 4559,
      "Ġdistance": 4560,
      "Ġwarm": 4561,
      "Ġdigital": 4562,
      "å¾Ī": 4563,
      "iner": 4564,
      "Ġpand": 4565,
      "ĠCOVID": 4566,
      "Ð³Ð¾": 4567,
      "gn": 4568,
      "Ġrace": 4569,
      "Ġproud": 4570,
      "Ġteaching": 4571,
      "ĠÑĤÐ¾": 4572,
      "ìŀ¥": 4573,
      "ĠAllah": 4574,
      "In": 4575,
      "Ġwood": 4576,
      "Ġcolors": 4577,
      "Ġwird": 4578,
      "uj": 4579,
      "idad": 4580,
      "Ġcustomers": 4581,
      "Ġconnected": 4582,
      "Ġlayer": 4583,
      "Ġachieve": 4584,
      "Ġperspective": 4585,
      "ĠColl": 4586,
      "ÙĤ": 4587,
      "Ġcloud": 4588,
      "!!!": 4589,
      "Ġended": 4590,
      "łĩê²Į": 4591,
      "Ġmanagement": 4592,
      "Ġrich": 4593,
      "Ġsubst": 4594,
      "Ġremo": 4595,
      "Ġserve": 4596,
      "Ġresist": 4597,
      "Ġthoughts": 4598,
      "Ġgrowth": 4599,
      "iliar": 4600,
      "Ġrights": 4601,
      "Ġcharge": 4602,
      "Ġconsist": 4603,
      "Ġwerden": 4604,
      "Ġemb": 4605,
      "andom": 4606,
      "Ġhurt": 4607,
      "Ġkan": 4608,
      "ias": 4609,
      "Ð»Ð¾": 4610,
      "Ġshit": 4611,
      "Ġbeg": 4612,
      "Ġreceived": 4613,
      "itation": 4614,
      "Ġmeat": 4615,
      "Ġisso": 4616,
      "ffee": 4617,
      "Ġfamous": 4618,
      "Ġcomfortable": 4619,
      "IL": 4620,
      "ĠBye": 4621,
      "èªª": 4622,
      "åĢĳ": 4623,
      "othes": 4624,
      "Ġmedical": 4625,
      "Ġenjoyed": 4626,
      "Ġhealthy": 4627,
      "Ġwy": 4628,
      "cies": 4629,
      "Ġeffort": 4630,
      "Ġdoctor": 4631,
      "Ġmilitary": 4632,
      "LAU": 4633,
      "Ġgro": 4634,
      "Ġbattle": 4635,
      "Ġfed": 4636,
      "Ġcapac": 4637,
      "Ġafraid": 4638,
      "ivil": 4639,
      "ĠÐ²ÑģÐµ": 4640,
      "Ġlength": 4641,
      "ysis": 4642,
      "Ġbei": 4643,
      "¤í": 4644,
      "Ġorganiz": 4645,
      "org": 4646,
      "inc": 4647,
      "Ġinteract": 4648,
      "ĠChinese": 4649,
      "Ġaccording": 4650,
      "Ġincredible": 4651,
      "Ġkilled": 4652,
      "Ġdaughter": 4653,
      "ĠÏĢ": 4654,
      "ÑĭÐ²": 4655,
      "Ġschools": 4656,
      "ĠÂ«": 4657,
      "ller": 4658,
      "Ġshouldn": 4659,
      "nal": 4660,
      "Ġcris": 4661,
      "Ġchicken": 4662,
      "Ġfaster": 4663,
      "Ġextremely": 4664,
      "Ġoppos": 4665,
      "Ġnous": 4666,
      "Ġ+": 4667,
      "ria": 4668,
      "Ġfinancial": 4669,
      "Ġexciting": 4670,
      "Ġjourney": 4671,
      "×Ļ×Ŀ": 4672,
      "łë": 4673,
      "Ġdisplay": 4674,
      "Ġmemory": 4675,
      "Ġheavy": 4676,
      "Ð½Ðµ": 4677,
      "Ġpassed": 4678,
      "ÑĢÐ¸": 4679,
      "iles": 4680,
      "Ġpsych": 4681,
      "Ġspecifically": 4682,
      "Ġengage": 4683,
      "Ġled": 4684,
      "orge": 4685,
      "ĠDem": 4686,
      "order": 4687,
      "Ġ80": 4688,
      "Ġcream": 4689,
      "esterday": 4690,
      "Ġedge": 4691,
      "ĠÐ¿Ð¾Ð»": 4692,
      "Ġbull": 4693,
      "Ġindic": 4694,
      "ĠktÃ³": 4695,
      "Ġhopefully": 4696,
      "uments": 4697,
      "agen": 4698,
      "Ð½Ð¾Ð³Ð¾": 4699,
      "Ġhate": 4700,
      "cht": 4701,
      "80": 4702,
      "Ġeffic": 4703,
      "Ġì§Ģ": 4704,
      "Ġinternet": 4705,
      "Ġbudget": 4706,
      "Ġproperty": 4707,
      "iday": 4708,
      "Ġìļ": 4709,
      "ĠÐ¼Ð¾Ð¶": 4710,
      "ola": 4711,
      "Ġshowed": 4712,
      "ĠMon": 4713,
      "Ġthousand": 4714,
      "AP": 4715,
      "Ġpoor": 4716,
      "used": 4717,
      "ĠJack": 4718,
      "ĠsÃ¥": 4719,
      "ĥ½": 4720,
      "Ġesc": 4721,
      "Ġsoftware": 4722,
      "Ġquar": 4723,
      "ĠØ¨": 4724,
      "Ġnecessarily": 4725,
      "omen": 4726,
      "iy": 4727,
      "Ġeventually": 4728,
      "ished": 4729,
      "Ġbright": 4730,
      "ED": 4731,
      "Ġspl": 4732,
      "Ġdemand": 4733,
      "Ġthreat": 4734,
      "Ġsir": 4735,
      "Ġreleased": 4736,
      "cket": 4737,
      "ĠâĢ«": 4738,
      "Ġrequired": 4739,
      "Ġvote": 4740,
      "ì¹": 4741,
      "à®¤": 4742,
      "Ġdeveloped": 4743,
      "ĠìĤ¬": 4744,
      "atory": 4745,
      "Ġdir": 4746,
      "cape": 4747,
      "Ġslightly": 4748,
      "Ã¬": 4749,
      "à¹ī": 4750,
      "reet": 4751,
      "Ġdisease": 4752,
      "Ġcourt": 4753,
      "Ġitems": 4754,
      "ĠEarth": 4755,
      "ÑģÑĤÐ¸": 4756,
      "Ð¶Ðµ": 4757,
      "ì²": 4758,
      "Ġchallenges": 4759,
      "ĠBrit": 4760,
      "Ġdesigned": 4761,
      "12": 4762,
      "Ġhearing": 4763,
      "Ġlistening": 4764,
      "zo": 4765,
      "ĠÑģÐ»": 4766,
      "ãģ§ãģĻ": 4767,
      "Ġpero": 4768,
      "Ġwearing": 4769,
      "plic": 4770,
      "Ġchem": 4771,
      "Ġbalance": 4772,
      "Ġba": 4773,
      "Ġreceive": 4774,
      "ima": 4775,
      "Ġsignificant": 4776,
      "ĠÐ¼Ñĭ": 4777,
      "anch": 4778,
      "ĠCr": 4779,
      "ĠCoun": 4780,
      "ê¸Ī": 4781,
      "Ġjobs": 4782,
      "Ġofficial": 4783,
      "Ġperm": 4784,
      "oms": 4785,
      "Ġopportunities": 4786,
      "Ġoverall": 4787,
      "Ġhus": 4788,
      "odes": 4789,
      "Ġnation": 4790,
      "ĠReg": 4791,
      "Ġord": 4792,
      "Ġrestaur": 4793,
      "ĠìĨ": 4794,
      "Ġmel": 4795,
      "vin": 4796,
      "Ġwenn": 4797,
      "ĠkÃ¶n": 4798,
      "æĥ": 4799,
      "Ġopinion": 4800,
      "ãĤĤ": 4801,
      "è¬": 4802,
      "ĠSometimes": 4803,
      "çĤ": 4804,
      "ÑīÐµ": 4805,
      "asc": 4806,
      "OU": 4807,
      "Ġ2020": 4808,
      "Ġdelicious": 4809,
      "iger": 4810,
      "ĠìķĪ": 4811,
      "ole": 4812,
      "Ġhandle": 4813,
      "Ġcit": 4814,
      "Ġíķľ": 4815,
      "ĠfÃ¶r": 4816,
      "ooth": 4817,
      "Ġnecessary": 4818,
      "Ġindepend": 4819,
      "æĦ": 4820,
      "isten": 4821,
      "ham": 4822,
      "ĠÃ©t": 4823,
      "ãĥ³": 4824,
      "Ġmulti": 4825,
      "ÏĮ": 4826,
      "?)": 4827,
      "Ġcampus": 4828,
      "Ġtopic": 4829,
      "Ġrain": 4830,
      "Ġpanel": 4831,
      "ĠSam": 4832,
      "Ġlarger": 4833,
      "audience": 4834,
      "Ġpaid": 4835,
      "Ġeconomic": 4836,
      "olt": 4837,
      "Ġstreet": 4838,
      "ĠCont": 4839,
      "Ġdriving": 4840,
      "ĠìłĢ": 4841,
      "Ġhay": 4842,
      "Ġprofessional": 4843,
      "ĠIntern": 4844,
      "å¸": 4845,
      "Ġinput": 4846,
      "Ġcateg": 4847,
      "Ġcro": 4848,
      "Ġll": 4849,
      "ET": 4850,
      "ÑĭÐ¹": 4851,
      "**": 4852,
      "ĠZe": 4853,
      "BLE": 4854,
      "Ġì¤": 4855,
      "rees": 4856,
      "ĠÐ¯": 4857,
      "ede": 4858,
      "iert": 4859,
      "Ġfold": 4860,
      "Ġdur": 4861,
      "ĠNational": 4862,
      "Ġìĸ´ë": 4863,
      "anced": 4864,
      "Ġfaire": 4865,
      "uted": 4866,
      "Ġking": 4867,
      "Ġwild": 4868,
      "oi": 4869,
      "upbeat": 4870,
      "Ġprevent": 4871,
      "ius": 4872,
      "ĠÃ¨": 4873,
      "Ġwide": 4874,
      "Ġring": 4875,
      "Ġtitle": 4876,
      "Ġstanding": 4877,
      "Ġalthough": 4878,
      "Ġhi": 4879,
      "Ġsauce": 4880,
      "Ġsides": 4881,
      "Ġanimals": 4882,
      "iling": 4883,
      "atives": 4884,
      "ìĹĲìĦľ": 4885,
      "ĠOver": 4886,
      "Ġdesp": 4887,
      "Ġconsidered": 4888,
      "aries": 4889,
      "iers": 4890,
      "Ġeinen": 4891,
      "Ġsister": 4892,
      "Ġëķ": 4893,
      "ĠSure": 4894,
      "ãĤĭ": 4895,
      "riend": 4896,
      "aign": 4897,
      "Ġshown": 4898,
      "Ġsac": 4899,
      "Ġsont": 4900,
      "Ġcentury": 4901,
      "Ġtien": 4902,
      "ĠÎº": 4903,
      "ĠST": 4904,
      "åķĬ": 4905,
      "Ġolder": 4906,
      "iem": 4907,
      "Ġtruly": 4908,
      "ĠSi": 4909,
      "Ġwindow": 4910,
      "iques": 4911,
      "ario": 4912,
      "æ²Ĵ": 4913,
      "Ġlocation": 4914,
      "Îº": 4915,
      "Ġìľ": 4916,
      "vi": 4917,
      "ague": 4918,
      "ĠSorry": 4919,
      "Ġdisp": 4920,
      "Ġhell": 4921,
      "ĠÃī": 4922,
      "Ġtrade": 4923,
      "Ġcritical": 4924,
      "Ġê±": 4925,
      "Ġnamed": 4926,
      "Ġprepared": 4927,
      "ĠHouse": 4928,
      "alu": 4929,
      "Ġtough": 4930,
      "Ġtrip": 4931,
      "Ġsand": 4932,
      "cel": 4933,
      "Ã¼z": 4934,
      "ĠPut": 4935,
      "Ġapart": 4936,
      "isf": 4937,
      "vis": 4938,
      "Ġlibr": 4939,
      "aven": 4940,
      "Ġvie": 4941,
      "Ġeffective": 4942,
      "à¸²": 4943,
      "Ġmagn": 4944,
      "Ġmuito": 4945,
      "Ġêµ": 4946,
      "hal": 4947,
      "Ġlimit": 4948,
      "Ġnine": 4949,
      "Ġwilling": 4950,
      "Ä±ÅŁ": 4951,
      "sp": 4952,
      "ÐµÐ³": 4953,
      "hi": 4954,
      "Ġalt": 4955,
      "ĠJan": 4956,
      "Ġorigin": 4957,
      "ĠUs": 4958,
      "Ġelements": 4959,
      "Ġuses": 4960,
      "Ġhelpful": 4961,
      "Ġflat": 4962,
      "Ġfamiliar": 4963,
      "ĠPark": 4964,
      "Ġcore": 4965,
      "Ġcloser": 4966,
      "Ġactive": 4967,
      "Ġadminist": 4968,
      "CE": 4969,
      "Ð½ÑĭÐµ": 4970,
      "çĦ": 4971,
      "Ġrelative": 4972,
      "Ġmental": 4973,
      "Ġrandom": 4974,
      "Ġpartner": 4975,
      "Ġutil": 4976,
      "phone": 4977,
      "Ġrule": 4978,
      "ww": 4979,
      "Ġìłķ": 4980,
      "Ġschon": 4981,
      "Ġcoffee": 4982,
      "HA": 4983,
      "Ġconnection": 4984,
      "Ġunit": 4985,
      "laughing": 4986,
      "log": 4987,
      "Ġappl": 4988,
      "Ð»Ð°": 4989,
      "usic": 4990,
      "ĠBra": 4991,
      "Ġanywhere": 4992,
      "AUDI": 4993,
      "Ġseparate": 4994,
      "box": 4995,
      "Ġdivid": 4996,
      "Ġtesting": 4997,
      "Ġsick": 4998,
      "Ġweren": 4999,
      "ä»ĸ": 5000,
      "Ġ×ľ×": 5001,
      "Ġadvantage": 5002,
      "Ġtransfer": 5003,
      "'.": 5004,
      "Ġë¹": 5005,
      "Ġfinding": 5006,
      "Ð½Ð¾Ð¹": 5007,
      "Ġì¢ĭ": 5008,
      "Ġfort": 5009,
      "Ġeconomy": 5010,
      "Ġlack": 5011,
      "Ġleaving": 5012,
      "Ġdim": 5013,
      "åİ": 5014,
      "ĠRes": 5015,
      "ØŃ": 5016,
      "Ġdiscussion": 5017,
      "ÐµÐ¿": 5018,
      "Ġges": 5019,
      "duct": 5020,
      "Ġchain": 5021,
      "Ġusers": 5022,
      "ech": 5023,
      "ÅĤa": 5024,
      "Ġdish": 5025,
      "Ġcareful": 5026,
      "Ġteacher": 5027,
      "Ġoptim": 5028,
      "Ġflu": 5029,
      "atically": 5030,
      "Ġreflect": 5031,
      "Ġtreatment": 5032,
      "eed": 5033,
      "iÄĻ": 5034,
      "Ã¹": 5035,
      "à®¾": 5036,
      "Ġequip": 5037,
      "Ġplanning": 5038,
      "Ġsolve": 5039,
      "ãģĿ": 5040,
      "ĠTom": 5041,
      "Ġavoid": 5042,
      "Ġpou": 5043,
      "Ġgreater": 5044,
      "lin": 5045,
      "OL": 5046,
      "ĠLu": 5047,
      "ĠMore": 5048,
      "Ġattract": 5049,
      "Ãªn": 5050,
      "una": 5051,
      "Ġphoto": 5052,
      "eration": 5053,
      "Ġplanet": 5054,
      "Ġcopy": 5055,
      "Ġvisual": 5056,
      "iring": 5057,
      "Ġinternational": 5058,
      "Ġlaughing": 5059,
      "Ġthick": 5060,
      "Ġholding": 5061,
      "Ġbringing": 5062,
      "Ġletter": 5063,
      "Ġburn": 5064,
      "Ġeffects": 5065,
      "itÃ©": 5066,
      "ours": 5067,
      "OT": 5068,
      "Ãªme": 5069,
      "ĠSchool": 5070,
      "×ķ×ª": 5071,
      "ropri": 5072,
      "lig": 5073,
      "Î±Î¹": 5074,
      "Ġadult": 5075,
      "Ġsugar": 5076,
      "Ġride": 5077,
      "Ġhighlight": 5078,
      "Ġnobody": 5079,
      "Ġ21": 5080,
      "Ġchat": 5081,
      "ĠÐ¿ÑĢÐ¸": 5082,
      "Ġinnov": 5083,
      "ungen": 5084,
      "Ġattach": 5085,
      "edom": 5086,
      "åĬ": 5087,
      "yl": 5088,
      "Ġlegal": 5089,
      "Ġrice": 5090,
      "Ġcollabor": 5091,
      "king": 5092,
      "down": 5093,
      "æĻ": 5094,
      "ãĤĬ": 5095,
      "Ġih": 5096,
      "ĠAc": 5097,
      "ously": 5098,
      "Ġrap": 5099,
      "Ġsolid": 5100,
      "Ġgenerally": 5101,
      "Ġpattern": 5102,
      "ali": 5103,
      "à¸Ń": 5104,
      "Ġtransl": 5105,
      "inter": 5106,
      "ault": 5107,
      "Ġë¨": 5108,
      "Ġexpress": 5109,
      "Ġexamples": 5110,
      "Ġchose": 5111,
      "Ġtells": 5112,
      "ÃŃs": 5113,
      "aint": 5114,
      "ĠTell": 5115,
      "ĠMichael": 5116,
      "æ¨": 5117,
      "ĠNumber": 5118,
      "Ġtap": 5119,
      "Ġexperiment": 5120,
      "Ġbenefit": 5121,
      "Ġì°": 5122,
      "Ġsequ": 5123,
      "Ġexpensive": 5124,
      "Ġgeneration": 5125,
      "ĠMany": 5126,
      "Ġadding": 5127,
      "Ġkil": 5128,
      "Ġcampaign": 5129,
      "ĠAnt": 5130,
      "raw": 5131,
      "ommen": 5132,
      "Ġsoul": 5133,
      "jo": 5134,
      "ĠActually": 5135,
      "amm": 5136,
      "ê²ł": 5137,
      "Ġmaxim": 5138,
      "Ġsalt": 5139,
      "Ġcru": 5140,
      "Ġcalling": 5141,
      "ãģĮ": 5142,
      "Ġbasis": 5143,
      "ban": 5144,
      "Ġkeeping": 5145,
      "ĠMor": 5146,
      "eds": 5147,
      "ìĨ": 5148,
      "Ġtodo": 5149,
      "Ð°Ð¼Ð¸": 5150,
      "Ð½Ñı": 5151,
      "Ġlived": 5152,
      "ĠDu": 5153,
      "ãĤī": 5154,
      "å®¶": 5155,
      "force": 5156,
      "å¹´": 5157,
      "ference": 5158,
      "ala": 5159,
      "Ġoccur": 5160,
      "sk": 5161,
      "Ġrecent": 5162,
      "Ġcars": 5163,
      "Ġtraditional": 5164,
      "entle": 5165,
      "²Ī": 5166,
      "Ġheld": 5167,
      "Ġnach": 5168,
      "ĠCenter": 5169,
      "eren": 5170,
      "Ġbin": 5171,
      "Ùģ": 5172,
      "Ġcomme": 5173,
      "Ġreve": 5174,
      "Ġìĺ¤": 5175,
      "Ġexpected": 5176,
      "abil": 5177,
      "Ġfocused": 5178,
      "ov": 5179,
      "ĠiP": 5180,
      "orial": 5181,
      "iro": 5182,
      "Ġetc": 5183,
      "aming": 5184,
      "ĠSon": 5185,
      "Ġyesterday": 5186,
      "Ġstrate": 5187,
      "ĠÑĨ": 5188,
      "Ġëı": 5189,
      "pes": 5190,
      "Ġactivity": 5191,
      "Ġadvice": 5192,
      "Ġopening": 5193,
      "fin": 5194,
      "Ġrela": 5195,
      "éĸ": 5196,
      "Ġinstance": 5197,
      "ĠEveryone": 5198,
      "bl": 5199,
      "pen": 5200,
      "Ġvision": 5201,
      "ĠAlex": 5202,
      "iforn": 5203,
      "Ġtick": 5204,
      "He": 5205,
      "Ġstrategy": 5206,
      "Ġkom": 5207,
      "PE": 5208,
      "ĠGl": 5209,
      "Ġelectric": 5210,
      "15": 5211,
      "Ġdaily": 5212,
      "Ġhusband": 5213,
      "Ġstation": 5214,
      "Ġanalysis": 5215,
      "ynam": 5216,
      "Ġattempt": 5217,
      "Ġbillion": 5218,
      "vant": 5219,
      "Ġforth": 5220,
      "Ġmath": 5221,
      "aly": 5222,
      "Ġbehavior": 5223,
      "ĠMas": 5224,
      "kan": 5225,
      "ĠDay": 5226,
      "Ġbless": 5227,
      "Ġgut": 5228,
      "ĠHigh": 5229,
      "ox": 5230,
      "Ġdress": 5231,
      "Ġjed": 5232,
      "è¯": 5233,
      "åĸ": 5234,
      "Ġexperiences": 5235,
      "ista": 5236,
      "Ġfighting": 5237,
      "å·": 5238,
      "ĠÑģÐº": 5239,
      "Ġmostly": 5240,
      "ause": 5241,
      "Ġpictures": 5242,
      "ÐµÐ½ÑĤ": 5243,
      "Ġmad": 5244,
      "Ġmodels": 5245,
      "ÑĪÐµ": 5246,
      "ĠCount": 5247,
      "ÅĦ": 5248,
      "ÅĤo": 5249,
      "ept": 5250,
      "OM": 5251,
      "ĠAN": 5252,
      "Ġtrouble": 5253,
      "40": 5254,
      "Ġbird": 5255,
      "ulate": 5256,
      "Ġmur": 5257,
      "Ġproduce": 5258,
      "Ġmarried": 5259,
      "bit": 5260,
      "Ġtheory": 5261,
      "íĺ": 5262,
      "Ġleader": 5263,
      "ĠLast": 5264,
      "AA": 5265,
      "èµ": 5266,
      "Ġimages": 5267,
      "Ġexpand": 5268,
      "ĠPor": 5269,
      "Ġpurch": 5270,
      "ĠSan": 5271,
      "ĠChristmas": 5272,
      "ĠAustral": 5273,
      "Ġwid": 5274,
      "ĠMiss": 5275,
      "Ġknowing": 5276,
      "Ġze": 5277,
      "ship": 5278,
      "ku": 5279,
      "ÑħÐ¾Ð´": 5280,
      "ĠInstagram": 5281,
      "ĠIndia": 5282,
      "Ġesta": 5283,
      "ĠCaliforn": 5284,
      "Ġ70": 5285,
      "Ġdrag": 5286,
      "Ġbrush": 5287,
      "Ġnames": 5288,
      "And": 5289,
      "Ġyo": 5290,
      "illa": 5291,
      "Ġsched": 5292,
      "Ġdestroy": 5293,
      "year": 5294,
      "Ġvamos": 5295,
      "ĠÙĦ": 5296,
      "Ã§a": 5297,
      "Ġforgot": 5298,
      "Ð¸Ðµ": 5299,
      "Ġraise": 5300,
      "reme": 5301,
      "íķ´": 5302,
      "ĠGive": 5303,
      "Ġcontain": 5304,
      "rab": 5305,
      "Ġgift": 5306,
      "ĠÑģÐ¿": 5307,
      "Ġrequest": 5308,
      "Ġshut": 5309,
      "Ġdegrees": 5310,
      "Ġbenefits": 5311,
      "ÑĭÐµ": 5312,
      "Ġstudies": 5313,
      "Ġends": 5314,
      "Ġeverywhere": 5315,
      "Ġhero": 5316,
      "oph": 5317,
      "erry": 5318,
      "Ġmaterials": 5319,
      "ened": 5320,
      "NA": 5321,
      "åį": 5322,
      "Ġmuy": 5323,
      "Ġworse": 5324,
      "ä»Ģ": 5325,
      "ĠMad": 5326,
      "Ġdecisions": 5327,
      "ione": 5328,
      "Ġforeign": 5329,
      "laughter": 5330,
      "iber": 5331,
      "ÐµÐ½Ð¸Ñı": 5332,
      "ãħĭ": 5333,
      "Ġrealized": 5334,
      "Ġign": 5335,
      "Ġweak": 5336,
      "ĠÎ¼": 5337,
      "Ġscared": 5338,
      "Ġassum": 5339,
      "AK": 5340,
      "ï¿": 5341,
      "ï¿½": 5342,
      "Ġcovered": 5343,
      "ĠSat": 5344,
      "ĠÐ¾Ð½": 5345,
      "Ġindividuals": 5346,
      "Ġcompared": 5347,
      "11": 5348,
      "ĠAdd": 5349,
      "icles": 5350,
      "Ġcert": 5351,
      "rar": 5352,
      "Ġbrief": 5353,
      "Ġactivities": 5354,
      "Ġfab": 5355,
      "bar": 5356,
      "Ġast": 5357,
      "ĠOther": 5358,
      "Ġclasses": 5359,
      "Ġog": 5360,
      "Ġmissing": 5361,
      "ãģł": 5362,
      "éĿ": 5363,
      "wers": 5364,
      "×©": 5365,
      "Ġintroduce": 5366,
      "Ġequation": 5367,
      "ãģ¾ãģĻ": 5368,
      "Ġnom": 5369,
      "Ġpainting": 5370,
      "ushing": 5371,
      "ĠAP": 5372,
      "Ġencourage": 5373,
      "Ġship": 5374,
      "ittee": 5375,
      "iverse": 5376,
      "ota": 5377,
      "nam": 5378,
      "ãĥ»": 5379,
      "Ġexercise": 5380,
      "ĠÐŃ": 5381,
      "Ġnas": 5382,
      "Ġthousands": 5383,
      "ĠCalifornia": 5384,
      "Ġses": 5385,
      "Ġrow": 5386,
      "ŀĪ": 5387,
      "Ġpandemic": 5388,
      "Ġskill": 5389,
      "bel": 5390,
      "Ġdirector": 5391,
      "Ġmilk": 5392,
      "Ġnut": 5393,
      "Ġmotion": 5394,
      "Ġclosed": 5395,
      "è¨": 5396,
      "Ġcredit": 5397,
      "ahr": 5398,
      "Ġcheese": 5399,
      "Ġaltern": 5400,
      "imately": 5401,
      "Ġsust": 5402,
      "ĠTra": 5403,
      "Ġglad": 5404,
      "Ġhighly": 5405,
      "Ġwa": 5406,
      "Ġreduce": 5407,
      "Ġble": 5408,
      "ador": 5409,
      "inated": 5410,
      "iones": 5411,
      "cient": 5412,
      "Ġdepending": 5413,
      "Ġsharing": 5414,
      "Ġcaught": 5415,
      "rael": 5416,
      "Ġmehr": 5417,
      "Ġpassion": 5418,
      "çĽ": 5419,
      "Ġru": 5420,
      "Ġfarm": 5421,
      "TI": 5422,
      "aves": 5423,
      "ĠRob": 5424,
      "ĠBro": 5425,
      "Ġmotiv": 5426,
      "retch": 5427,
      "rupt": 5428,
      "ĠBig": 5429,
      "Ġalle": 5430,
      "Ġett": 5431,
      "ubs": 5432,
      "ĠJapanese": 5433,
      "ĠHall": 5434,
      "Ð¸Ð»Ð¸": 5435,
      "AUDIBLE": 5436,
      "ç¬": 5437,
      "Ġcells": 5438,
      "ika": 5439,
      "eline": 5440,
      "iler": 5441,
      "Ġì£": 5442,
      "Ġsky": 5443,
      "INAUDIBLE": 5444,
      "ende": 5445,
      "apter": 5446,
      "Ġpin": 5447,
      "Ġgather": 5448,
      "hol": 5449,
      "lection": 5450,
      "Ġsyn": 5451,
      "Ġplug": 5452,
      "round": 5453,
      "Ġuniversity": 5454,
      "hib": 5455,
      "Ġfantastic": 5456,
      "kn": 5457,
      "Ġhole": 5458,
      "ĠRemember": 5459,
      "inct": 5460,
      "aks": 5461,
      "CH": 5462,
      "Ġbroken": 5463,
      "Ġstrateg": 5464,
      "Ġalive": 5465,
      "Ġtank": 5466,
      "Ġcart": 5467,
      "rated": 5468,
      "rie": 5469,
      "ĠStep": 5470,
      "ĠEverything": 5471,
      "Ġbound": 5472,
      "Ġsobre": 5473,
      "Ġcustomer": 5474,
      "¡Į": 5475,
      "urg": 5476,
      "ĠBill": 5477,
      "La": 5478,
      "what": 5479,
      "Ġreaction": 5480,
      "Ġsession": 5481,
      "Ġplans": 5482,
      "ĠìĿ´ëłĩê²Į": 5483,
      "Ġdownload": 5484,
      "ìĻ": 5485,
      "uer": 5486,
      "Ġcab": 5487,
      "Ġinstr": 5488,
      "ifying": 5489,
      "ĠNice": 5490,
      "Ġteams": 5491,
      "Ä±l": 5492,
      "Ġgoals": 5493,
      "isch": 5494,
      "Ġtransport": 5495,
      "Ġanimal": 5496,
      "Ġcosts": 5497,
      "Ġcalls": 5498,
      "Ġsehr": 5499,
      "ìĪ": 5500,
      "rian": 5501,
      "Ġdial": 5502,
      "Ġweather": 5503,
      "à¹Ģ": 5504,
      "ĠÐ²Ð¾ÑĤ": 5505,
      "ĠPlay": 5506,
      "Ġshared": 5507,
      "Ġsmooth": 5508,
      "aba": 5509,
      "Ġleaves": 5510,
      "à®©": 5511,
      "Ġconcent": 5512,
      "Ġshift": 5513,
      "ĠëĲĺ": 5514,
      "ĠGovern": 5515,
      "Ġdemonst": 5516,
      "Ġbutter": 5517,
      "ĠìĹ¬": 5518,
      "Ġsatisf": 5519,
      "Īë¬": 5520,
      "Ġrecognize": 5521,
      "ĠFrench": 5522,
      "Ġvolume": 5523,
      "Ã¤nd": 5524,
      "ÑĥÐ¼": 5525,
      "Ġì§Ħ": 5526,
      "ĠKeep": 5527,
      "owa": 5528,
      "ipped": 5529,
      "ÑģÑĤÑĢ": 5530,
      "Ġdetect": 5531,
      "ĠÏĥ": 5532,
      "Ġlift": 5533,
      "Ġclothes": 5534,
      "ĠStop": 5535,
      "Ãµ": 5536,
      "met": 5537,
      "Ġclin": 5538,
      "Ġarr": 5539,
      "friend": 5540,
      "Ġstuck": 5541,
      "Ye": 5542,
      "hand": 5543,
      "uma": 5544,
      "Ġscri": 5545,
      "Ġfucking": 5546,
      "ctors": 5547,
      "×ª": 5548,
      "Ġjoining": 5549,
      "Ġcette": 5550,
      "ĠØ£": 5551,
      "ĠWhite": 5552,
      "Ġihr": 5553,
      "ÎŃ": 5554,
      "ãģŃ": 5555,
      "Ġincluded": 5556,
      "esso": 5557,
      "Ġacad": 5558,
      "bum": 5559,
      "Ġsab": 5560,
      "ĠÐ´Ð»Ñı": 5561,
      "è¿Ļ": 5562,
      "ufact": 5563,
      "ĠRepublic": 5564,
      "rim": 5565,
      "Ġyellow": 5566,
      "Ġlimited": 5567,
      "TER": 5568,
      "ĠTy": 5569,
      "Ġnotes": 5570,
      "vest": 5571,
      "Ð¸Ð·": 5572,
      "aled": 5573,
      "Ġphase": 5574,
      "anda": 5575,
      "ĠMom": 5576,
      "RI": 5577,
      "Ġimmer": 5578,
      "mal": 5579,
      "Ġinj": 5580,
      "Ġyang": 5581,
      "udible": 5582,
      "Ð°Ð³": 5583,
      "Ġsett": 5584,
      "Ġmagic": 5585,
      "Ġensure": 5586,
      "Ġspring": 5587,
      "Ġshock": 5588,
      "Ġwheel": 5589,
      "Ð¾Ð³Ð´Ð°": 5590,
      "ãĤĪ": 5591,
      "Ġcancer": 5592,
      "Ġroot": 5593,
      "ÐĲ": 5594,
      "gency": 5595,
      "Ġëį": 5596,
      "ii": 5597,
      "Ġoutput": 5598,
      "Ġcommit": 5599,
      "Ġworkers": 5600,
      "ìķĦìļĶ": 5601,
      "ĠÑģÐ°Ð¼": 5602,
      "vey": 5603,
      "Ġpeu": 5604,
      "Ġcivil": 5605,
      "isc": 5606,
      "Ġbrings": 5607,
      "ÑĢÐ°Ð²": 5608,
      "ania": 5609,
      "Äģ": 5610,
      "craft": 5611,
      "mbol": 5612,
      "Ġintellig": 5613,
      "bi": 5614,
      "acing": 5615,
      "you": 5616,
      "Ġbecoming": 5617,
      "ĠDer": 5618,
      "ema": 5619,
      "å°±æĺ¯": 5620,
      "Ġingred": 5621,
      "Ġcommand": 5622,
      "Ġupdate": 5623,
      "Ġprem": 5624,
      "Ġopened": 5625,
      "Ħ¤": 5626,
      "ÐµÐ½Ð¸Ðµ": 5627,
      "Ġgard": 5628,
      "Ġstatement": 5629,
      "Ġscrew": 5630,
      "Ġprote": 5631,
      "Ġcards": 5632,
      "Ġtask": 5633,
      "Ġevening": 5634,
      "Ġstitch": 5635,
      "inen": 5636,
      "ĠBer": 5637,
      "mark": 5638,
      "ĠDad": 5639,
      "ĠÐµÑģÑĤÑĮ": 5640,
      "Ġ×ŀ×": 5641,
      "ìĹĪ": 5642,
      "Ġban": 5643,
      "Ġclim": 5644,
      "Ġfreedom": 5645,
      "Ġnormally": 5646,
      "ÐµÑģÑĮ": 5647,
      "å¦": 5648,
      "Ġprovided": 5649,
      "ĠìŀĲ": 5650,
      "ĠìķĦëĭĪ": 5651,
      "ĠKim": 5652,
      "ieder": 5653,
      "ìĿĮ": 5654,
      "Ġcitiz": 5655,
      "Ġbike": 5656,
      "Ġbak": 5657,
      "Ġnoise": 5658,
      "Ġclimate": 5659,
      "izes": 5660,
      "å¾Į": 5661,
      "Ġincreasing": 5662,
      "ĠTHE": 5663,
      "Ġliqu": 5664,
      "Ġpersonally": 5665,
      "ef": 5666,
      "resp": 5667,
      "Ġlegs": 5668,
      "inder": 5669,
      "Ġped": 5670,
      "Ġë§İ": 5671,
      "Ġdepend": 5672,
      "Ġvariety": 5673,
      "ĠIsrael": 5674,
      "Ġwash": 5675,
      "åĨ": 5676,
      "Ġquiet": 5677,
      "ĠJames": 5678,
      "ĠJew": 5679,
      "Ġforever": 5680,
      "ĠInt": 5681,
      "Ġcounter": 5682,
      "urance": 5683,
      "ĠAnyway": 5684,
      "care": 5685,
      "ĠOnly": 5686,
      "ciÃ³n": 5687,
      "adi": 5688,
      "ĠEv": 5689,
      "ëĭĪê¹Į": 5690,
      "ĠÎ±": 5691,
      "Ġslowly": 5692,
      "ĠÐ¾Ð´": 5693,
      "Ġnoticed": 5694,
      "ieren": 5695,
      "Ġfell": 5696,
      "ĠÐĳ": 5697,
      "ĠmÃªme": 5698,
      "Ġwhenever": 5699,
      "!)": 5700,
      "ĠHy": 5701,
      "å¼": 5702,
      "ords": 5703,
      "usion": 5704,
      "ĠStar": 5705,
      "Ġíĺ": 5706,
      "ĠMac": 5707,
      "ä¸Ĭ": 5708,
      "iven": 5709,
      "Ġìĭľ": 5710,
      "ĠìĹĨ": 5711,
      "ĠTur": 5712,
      "Ġger": 5713,
      "ris": 5714,
      "Ġvez": 5715,
      "ĠÐ»Ñİ": 5716,
      "Ġversus": 5717,
      "Ø§Ø": 5718,
      "ocolate": 5719,
      "Ġplane": 5720,
      "Ġzo": 5721,
      "Ġsuit": 5722,
      "This": 5723,
      "Ġnerv": 5724,
      "ĠAcc": 5725,
      "ÑĥÐ¶": 5726,
      "ìĤ¬": 5727,
      "nh": 5728,
      "eme": 5729,
      "Ġauss": 5730,
      "Ġmeas": 5731,
      "ĠtrÃ¨s": 5732,
      "Ïī": 5733,
      "ÑģÐ»Ð¸": 5734,
      "ĠArt": 5735,
      "ĠSecond": 5736,
      "Ð¾Ð»ÑĮÐºÐ¾": 5737,
      "cho": 5738,
      "itect": 5739,
      "ÐµÑģÑĤ": 5740,
      "Ġboss": 5741,
      "Ġincome": 5742,
      "ł¤": 5743,
      "Ġshad": 5744,
      "Ġappropri": 5745,
      "ĠMal": 5746,
      "opt": 5747,
      "Ġartist": 5748,
      "Ġplays": 5749,
      "others": 5750,
      "ĠInter": 5751,
      "Ġvirus": 5752,
      "Ġhung": 5753,
      "Ġconstant": 5754,
      "Ġscript": 5755,
      "Ġsnow": 5756,
      "ulf": 5757,
      "ket": 5758,
      "Ġdevices": 5759,
      "Ġmetal": 5760,
      "ights": 5761,
      "ìĦ¸": 5762,
      "Ġsales": 5763,
      "Ġveget": 5764,
      "Ġcollection": 5765,
      "Ġvia": 5766,
      "ker": 5767,
      "Ġgotten": 5768,
      "OW": 5769,
      "iÃ©n": 5770,
      "Ġaccur": 5771,
      "Ġwave": 5772,
      "ulty": 5773,
      "ĠAir": 5774,
      "Ġleading": 5775,
      "icing": 5776,
      "Ġcentral": 5777,
      "ĠChristian": 5778,
      "fr": 5779,
      "ĠAlthough": 5780,
      "Ġsongs": 5781,
      "Ġfif": 5782,
      "Ð½ÑĭÑħ": 5783,
      "Ġbelong": 5784,
      "ossible": 5785,
      "ì°": 5786,
      "Ġphotos": 5787,
      "isl": 5788,
      "Ġrelax": 5789,
      "sa": 5790,
      "USIC": 5791,
      "ê·": 5792,
      "Ġmanufact": 5793,
      "ĠTwitter": 5794,
      "Ġdangerous": 5795,
      "Ġhyd": 5796,
      "lear": 5797,
      "iant": 5798,
      "ĠâĢ¦": 5799,
      "Ġsuddenly": 5800,
      "Ġlaugh": 5801,
      "Ġangle": 5802,
      "ĠGot": 5803,
      "Ġworried": 5804,
      "Ð¾Ðµ": 5805,
      "Ġpap": 5806,
      "ĠMart": 5807,
      "eno": 5808,
      "Ġbattery": 5809,
      "ĠÐ¿Ð¾Ñģ": 5810,
      "Ġlights": 5811,
      "Ġarms": 5812,
      "ĠAbs": 5813,
      "mes": 5814,
      "âĢĵ": 5815,
      "useum": 5816,
      "Ġtea": 5817,
      "ĠMic": 5818,
      "Ġformer": 5819,
      "ography": 5820,
      "Ġapplications": 5821,
      "ĠDire": 5822,
      "çĦ¶": 5823,
      "Ġfeedback": 5824,
      "itchen": 5825,
      "yorum": 5826,
      "ued": 5827,
      "igt": 5828,
      "Æ°á»": 5829,
      "osition": 5830,
      "ĠDel": 5831,
      "Ġíķĺë": 5832,
      "ĠBack": 5833,
      "ads": 5834,
      "Ġprime": 5835,
      "ì£¼": 5836,
      "ì£ł": 5837,
      "×ĳ": 5838,
      "Ġmut": 5839,
      "].": 5840,
      "ĠÐĹ": 5841,
      "loc": 5842,
      "kin": 5843,
      "Ġexpert": 5844,
      "Ġalright": 5845,
      "ungs": 5846,
      "Ġsupply": 5847,
      "Ġleadership": 5848,
      "ĠFra": 5849,
      "Ġtypically": 5850,
      "Ġsel": 5851,
      "Ġtrees": 5852,
      "Ġ22": 5853,
      "har": 5854,
      "Ġworst": 5855,
      "Ġbusy": 5856,
      "anto": 5857,
      "ĠUp": 5858,
      "ĠBas": 5859,
      "Ġpresentation": 5860,
      "Ġstrange": 5861,
      "Ġthin": 5862,
      "ÑĤÐµ": 5863,
      "Ġvehicle": 5864,
      "ĠÐ´Ð¾": 5865,
      "cellent": 5866,
      "70": 5867,
      "Ġtired": 5868,
      "Ġcrisis": 5869,
      "Ġtiny": 5870,
      "asy": 5871,
      "Ġran": 5872,
      "éĩ": 5873,
      "Ġforces": 5874,
      "ĠÐ¾Ñĩ": 5875,
      "Ġidentify": 5876,
      "Ġassess": 5877,
      "Ð¸ÑĤÐµ": 5878,
      "SE": 5879,
      "Ġcreative": 5880,
      "çŁ": 5881,
      "Ġdepartment": 5882,
      "Ġinitial": 5883,
      "æĪĳåĢĳ": 5884,
      "ĠDam": 5885,
      "akt": 5886,
      "vere": 5887,
      "Ġinfect": 5888,
      "Ġpump": 5889,
      "áº¡": 5890,
      "Ġviel": 5891,
      "Ġrare": 5892,
      "Ġdot": 5893,
      "ashion": 5894,
      "empl": 5895,
      "Ġflex": 5896,
      "Ġkon": 5897,
      "Ġtruck": 5898,
      "Ġlect": 5899,
      "Ġplastic": 5900,
      "law": 5901,
      "Ġlikes": 5902,
      "Ġrough": 5903,
      "ĠMAT": 5904,
      "íŀĪ": 5905,
      "Ġcommer": 5906,
      "Ġasse": 5907,
      "Ġcake": 5908,
      "Ġactions": 5909,
      "Ġadm": 5910,
      "Ġotherwise": 5911,
      "ĠHealth": 5912,
      "Ġcolle": 5913,
      "à¹Ģà¸": 5914,
      "Ġrub": 5915,
      "å¾Ĺ": 5916,
      "æĶ": 5917,
      "Ġscr": 5918,
      "Ġzum": 5919,
      "ĠHim": 5920,
      "Ġchamp": 5921,
      "Ġconcerned": 5922,
      "Ġ500": 5923,
      "Ġplate": 5924,
      "ĠOut": 5925,
      "Ġdonc": 5926,
      "Ġequipment": 5927,
      "Ġtaught": 5928,
      "lled": 5929,
      "ĠíĻ": 5930,
      "iva": 5931,
      "Ġmotor": 5932,
      "Â»": 5933,
      "Ġguide": 5934,
      "åī": 5935,
      "Ġstopped": 5936,
      "Ġrat": 5937,
      "Ġlabor": 5938,
      "Ġaim": 5939,
      "Ġprepare": 5940,
      "ĠÑĪ": 5941,
      "Ġshooting": 5942,
      "anned": 5943,
      "cript": 5944,
      "Ġenemy": 5945,
      "Ġdepends": 5946,
      "Ġnav": 5947,
      "Ġber": 5948,
      "Ġlands": 5949,
      "Ġunivers": 5950,
      "iu": 5951,
      "Ġfactor": 5952,
      "oking": 5953,
      "Ġcarbon": 5954,
      "but": 5955,
      "ĠLove": 5956,
      "eld": 5957,
      "ĠÎµ": 5958,
      "Ġga": 5959,
      "ĠÃ©s": 5960,
      "Ġbread": 5961,
      "Ġvolt": 5962,
      "íĬ": 5963,
      "Ġwaste": 5964,
      "Ġkeeps": 5965,
      "æīĢ": 5966,
      "Ġstor": 5967,
      "Ġhonor": 5968,
      "Ġunless": 5969,
      "Ġcolum": 5970,
      "ĠëĮĢ": 5971,
      "Ġplants": 5972,
      "Yeah": 5973,
      "Ġincludes": 5974,
      "ä¸Ń": 5975,
      "Ġox": 5976,
      "Ġpeut": 5977,
      "ë§Į": 5978,
      "ìĥģ": 5979,
      "istry": 5980,
      "à¸±": 5981,
      "ĠDepartment": 5982,
      "anta": 5983,
      "Ġfinger": 5984,
      "Ġstretch": 5985,
      "Ġsymbol": 5986,
      "Ġneighbor": 5987,
      "æ¬": 5988,
      "ê°Ħ": 5989,
      "~~": 5990,
      "ĠÑĤÑĭ": 5991,
      "ĠAber": 5992,
      "kes": 5993,
      "Ġmassive": 5994,
      "ĠCH": 5995,
      "ĠSal": 5996,
      "×ł": 5997,
      "ãĤĴ": 5998,
      "Ġdynam": 5999,
      "ache": 6000,
      "ĠPre": 6001,
      "Ġmonitor": 6002,
      "ented": 6003,
      "EO": 6004,
      "Ġraised": 6005,
      "istics": 6006,
      "Ú©": 6007,
      "Ġvou": 6008,
      "iten": 6009,
      "¡°": 6010,
      "Ġbusinesses": 6011,
      "Ġearn": 6012,
      "Ġmobile": 6013,
      "idade": 6014,
      "Ġhabe": 6015,
      "yr": 6016,
      "lict": 6017,
      "Ġconduct": 6018,
      "Ġfederal": 6019,
      "Ġwo": 6020,
      "bu": 6021,
      "Ġnone": 6022,
      "Ġteachers": 6023,
      "ĠØ§ÙĦØ": 6024,
      "éģĵ": 6025,
      "idents": 6026,
      "Ø§ÙĦ": 6027,
      "Ġtrend": 6028,
      "ÐµÐ¶": 6029,
      "Ġalbum": 6030,
      "Ġmich": 6031,
      "based": 6032,
      "à¸µ": 6033,
      "Ġtransition": 6034,
      "ĠÐ½Ð¾": 6035,
      "Ãµes": 6036,
      "host": 6037,
      "edy": 6038,
      "ĠProf": 6039,
      "pan": 6040,
      "ijn": 6041,
      "Ġcapacity": 6042,
      "undo": 6043,
      "Ġ×ĳ×": 6044,
      "Ġbreath": 6045,
      "ĠÐ¼ÐµÐ½": 6046,
      "ĠmÃ¼": 6047,
      "íĻ": 6048,
      "ĠAut": 6049,
      "hington": 6050,
      "Ġnor": 6051,
      "Ġgain": 6052,
      "point": 6053,
      "Yes": 6054,
      "ĠØª": 6055,
      "ĠNa": 6056,
      "Ã¥r": 6057,
      "ĠiÃ§": 6058,
      "ĠMary": 6059,
      "Ġspin": 6060,
      "Ġanti": 6061,
      "åĲ§": 6062,
      "Ġsomehow": 6063,
      "Ġlaws": 6064,
      "Ġmoments": 6065,
      "Ġgre": 6066,
      "Ġmoves": 6067,
      "ĠWould": 6068,
      "Ġpredict": 6069,
      "Ġvra": 6070,
      "Ġ2019": 6071,
      "¶Ħ": 6072,
      "Ġfundament": 6073,
      "25": 6074,
      "Ġpure": 6075,
      "Ġwow": 6076,
      "Ġisland": 6077,
      "Ġinvestment": 6078,
      "Ġbath": 6079,
      "ĠYa": 6080,
      "Ġharder": 6081,
      "Ġtips": 6082,
      "åĹ": 6083,
      "Ġelectron": 6084,
      "ĠBob": 6085,
      "Ġbond": 6086,
      "odies": 6087,
      "ĠAug": 6088,
      "Ġgibt": 6089,
      "Ġchair": 6090,
      "Ġtwice": 6091,
      "wood": 6092,
      "Ġclar": 6093,
      "Ġmask": 6094,
      "Ġhonestly": 6095,
      "Ġ2018": 6096,
      "ties": 6097,
      "',": 6098,
      "Ġpens": 6099,
      "Ġsurprised": 6100,
      "Ġcommunication": 6101,
      "ãģ£ãģ¦": 6102,
      "Ġspr": 6103,
      "Ġwhose": 6104,
      "Ġstars": 6105,
      "×Ĳ×": 6106,
      "ĠâĢĭ": 6107,
      "Ġproperly": 6108,
      "Ġgrew": 6109,
      "osing": 6110,
      "Ġdivers": 6111,
      "AD": 6112,
      "Ġempt": 6113,
      "Ġexpression": 6114,
      "áº¿": 6115,
      "ĠPal": 6116,
      "ãģĬ": 6117,
      "Ġjustice": 6118,
      "Ġpair": 6119,
      "wo": 6120,
      "Ġseat": 6121,
      "orter": 6122,
      "Ġlinks": 6123,
      "ĠMer": 6124,
      "Ġrend": 6125,
      "Ð½Ð¾Ðµ": 6126,
      "upid": 6127,
      "ĠHel": 6128,
      "ĠMarch": 6129,
      "ĠLo": 6130,
      "ÑģÑĮ": 6131,
      "Ġhasn": 6132,
      "Ġevalu": 6133,
      "ãģı": 6134,
      "å¤©": 6135,
      "ilos": 6136,
      "Ġfunding": 6137,
      "Ġven": 6138,
      "uan": 6139,
      "ĠMaster": 6140,
      "ĠOl": 6141,
      "ĠFre": 6142,
      "Ġyap": 6143,
      "ĠSir": 6144,
      "sch": 6145,
      "Ġmistake": 6146,
      "aman": 6147,
      "Ġdinner": 6148,
      "ĠWashington": 6149,
      "Ġorganizations": 6150,
      "ĠÐ¶Ðµ": 6151,
      "aving": 6152,
      "ĠvÃŃ": 6153,
      "Ġbirthday": 6154,
      "Ġbear": 6155,
      "ĠÙģ": 6156,
      "Ġafford": 6157,
      "Ġreven": 6158,
      "Ġrelationships": 6159,
      "rough": 6160,
      "ĠTime": 6161,
      "Ġtag": 6162,
      "ĠSun": 6163,
      "uary": 6164,
      "ĠPo": 6165,
      "car": 6166,
      "abilities": 6167,
      "Ġprison": 6168,
      "Ġlic": 6169,
      "ìłķ": 6170,
      "idden": 6171,
      "Ġspecies": 6172,
      "é»": 6173,
      "Ġfirm": 6174,
      "Ġscore": 6175,
      "Ġdit": 6176,
      "Ġspect": 6177,
      "Ġpel": 6178,
      "Ġcomplicated": 6179,
      "æ¨£": 6180,
      "Ġrank": 6181,
      "Ġopposite": 6182,
      "Ġpicked": 6183,
      "ĠÐºÐ¾Ð½": 6184,
      "eler": 6185,
      "Ġmig": 6186,
      "ĠSl": 6187,
      "ĠNet": 6188,
      "Ġneck": 6189,
      "ĠFrance": 6190,
      "Ġtechnical": 6191,
      "à¸¡": 6192,
      "Ġmiles": 6193,
      "Ġprimary": 6194,
      "Ġsein": 6195,
      "ses": 6196,
      "Ġlaughs": 6197,
      "bra": 6198,
      "ÅĽci": 6199,
      "riage": 6200,
      "Ġnic": 6201,
      "eters": 6202,
      "ĠÃª": 6203,
      "ologies": 6204,
      "ĠIS": 6205,
      "rad": 6206,
      "udo": 6207,
      "Ä±nd": 6208,
      "mar": 6209,
      "Ġexch": 6210,
      "Ġcompetition": 6211,
      "Ġaussi": 6212,
      "ĠServ": 6213,
      "Ġrent": 6214,
      "Ġchocolate": 6215,
      "Ġwieder": 6216,
      "Ġnearly": 6217,
      "Ġspeech": 6218,
      "Ġunc": 6219,
      "Ġparam": 6220,
      "ĠBritish": 6221,
      "Ġremain": 6222,
      "à¸ģ": 6223,
      "urt": 6224,
      "ĠØ¹": 6225,
      "Ġcrack": 6226,
      "ails": 6227,
      "Ġpromise": 6228,
      "Ġpaying": 6229,
      "iÃŁ": 6230,
      "Ġadapt": 6231,
      "Ð°Ð»Ð°": 6232,
      "Ġmovies": 6233,
      "Ġwire": 6234,
      "Ł¬": 6235,
      "æľĥ": 6236,
      "Ġterrible": 6237,
      "ĠsÃ³": 6238,
      "Ġperfectly": 6239,
      "åĳ¢": 6240,
      "ordin": 6241,
      "ĠjÃ¡": 6242,
      "Ġimpossible": 6243,
      "ĠThree": 6244,
      "Ġnh": 6245,
      "Ġturning": 6246,
      "rum": 6247,
      "ĠBel": 6248,
      "igg": 6249,
      "Ġresponsible": 6250,
      "Ð¸Ð¹": 6251,
      "Ġincredibly": 6252,
      "wi": 6253,
      "iano": 6254,
      "Ġhumans": 6255,
      "ĠÃĩ": 6256,
      "Ġsettings": 6257,
      "Ġjoy": 6258,
      "oot": 6259,
      "Ġdealing": 6260,
      "illed": 6261,
      "Ġsurround": 6262,
      "Ġfollowed": 6263,
      "Ġpossibly": 6264,
      "Ġiniti": 6265,
      "sten": 6266,
      "Ġpros": 6267,
      "Ġcandid": 6268,
      "Ġassign": 6269,
      "Ġviolence": 6270,
      "Well": 6271,
      "Ġrise": 6272,
      "PS": 6273,
      "ĠtambÃ©m": 6274,
      "Ġëĵ¤": 6275,
      "iance": 6276,
      "yan": 6277,
      "Ġaudio": 6278,
      "ĠBet": 6279,
      "ĠAmericans": 6280,
      "ĠAss": 6281,
      "ischen": 6282,
      "ìŀħ": 6283,
      "Ġultimately": 6284,
      "Ġpolic": 6285,
      "Ġmajority": 6286,
      "éĢĻåĢĭ": 6287,
      "ĠFinally": 6288,
      "erap": 6289,
      "Ġguard": 6290,
      "ĠMATT": 6291,
      "Ġbrown": 6292,
      "Ð¼Ð¸": 6293,
      "Ġcha": 6294,
      "ĠHoly": 6295,
      "Ġnervous": 6296,
      "ipping": 6297,
      "ÄĻd": 6298,
      "ĠSa": 6299,
      "ĵľë": 6300,
      "¶Ģ": 6301,
      "lie": 6302,
      "çľŁ": 6303,
      "Ġnuc": 6304,
      "ĠApr": 6305,
      "éĽ": 6306,
      "ĠKorea": 6307,
      "ego": 6308,
      "ĠCanada": 6309,
      "ĠkÃ¶nnen": 6310,
      "Ġcompar": 6311,
      "Ġganz": 6312,
      "ĠMais": 6313,
      "Ġtheme": 6314,
      "Ġki": 6315,
      "Ġdrawing": 6316,
      "azon": 6317,
      "ĠOff": 6318,
      "tt": 6319,
      "ĠWind": 6320,
      "Ġtodos": 6321,
      "Ġobvious": 6322,
      "Ð½Ð°Ñı": 6323,
      "IM": 6324,
      "ĠÐł": 6325,
      "well": 6326,
      "Ġblow": 6327,
      "Ġhook": 6328,
      "Ġcircle": 6329,
      "Ġë³´": 6330,
      "Ġarchitect": 6331,
      "ĠKr": 6332,
      "ĠcÃ³": 6333,
      "Ġprotection": 6334,
      "ega": 6335,
      "åĩ": 6336,
      "Ġwatched": 6337,
      "Ġanswers": 6338,
      "Ġdiet": 6339,
      "ivo": 6340,
      "Ġpowder": 6341,
      "Ġyours": 6342,
      "Ġhighest": 6343,
      "çĤº": 6344,
      "FF": 6345,
      "åº": 6346,
      "Ġboys": 6347,
      "Ã¶yle": 6348,
      "Ġlunch": 6349,
      "è¬Ŀ": 6350,
      "ĠII": 6351,
      "Ġsets": 6352,
      "Ġmole": 6353,
      "Ûģ": 6354,
      "Ġwinter": 6355,
      "Ġlucky": 6356,
      "Ġresponsibility": 6357,
      "Ġsignal": 6358,
      "Ġwondering": 6359,
      "Ġax": 6360,
      "Ġcooking": 6361,
      "Ð¾Ð²Ð¾ÑĢ": 6362,
      "leg": 6363,
      "ĠÐ¿Ð¾ÑĤ": 6364,
      "Ġsurprise": 6365,
      "Ġdemocr": 6366,
      "Ġloop": 6367,
      "Ġjag": 6368,
      "Ġcurious": 6369,
      "Ġmarketing": 6370,
      "ÐĿ": 6371,
      "aron": 6372,
      "ĠApple": 6373,
      "Ġvirtual": 6374,
      "Ġ198": 6375,
      "noon": 6376,
      "ĠMet": 6377,
      "Ð¾ÑģÑĤÐ¾": 6378,
      "Ð¾Ð±Ñĭ": 6379,
      "itu": 6380,
      "ĠAw": 6381,
      "Ġbuying": 6382,
      "Ġrestaurant": 6383,
      "ĠBud": 6384,
      "Ġdoubt": 6385,
      "Ġgrant": 6386,
      "Ġverd": 6387,
      "Ġcash": 6388,
      "Ġfaculty": 6389,
      "That": 6390,
      "ĠEin": 6391,
      "å¤ļ": 6392,
      "Ġwed": 6393,
      "itness": 6394,
      "ĠMag": 6395,
      "nel": 6396,
      "Ġnarr": 6397,
      "Ġaccident": 6398,
      "Ġmedium": 6399,
      "ements": 6400,
      "Ġcrow": 6401,
      "night": 6402,
      "ìĿ¼": 6403,
      "ä¹Ł": 6404,
      "Ġlibrary": 6405,
      "Ð°ÑİÑĤ": 6406,
      "ĠtambiÃ©n": 6407,
      "Ġreference": 6408,
      "Ġfourth": 6409,
      "house": 6410,
      "vention": 6411,
      "Ġfilled": 6412,
      "ĠCour": 6413,
      "ibr": 6414,
      "Ġng": 6415,
      "Ġdeveloping": 6416,
      "Ġprovides": 6417,
      "Ġpoll": 6418,
      "Ġtraffic": 6419,
      "arently": 6420,
      "à®Ł": 6421,
      "Ġforms": 6422,
      "Ġclient": 6423,
      "Ġgentle": 6424,
      "Ġmuss": 6425,
      "ĠCongress": 6426,
      "ĠIndian": 6427,
      "cean": 6428,
      "Ġpil": 6429,
      "Ġczy": 6430,
      "stood": 6431,
      "uty": 6432,
      "ĠnÃ¤": 6433,
      "Ġspending": 6434,
      "Ġconstruction": 6435,
      "inaudible": 6436,
      "Ġë§Ī": 6437,
      "Īë¬´": 6438,
      "ĠìĥĿ": 6439,
      "oma": 6440,
      "osen": 6441,
      "ago": 6442,
      "Ġlargest": 6443,
      "ãħĭãħĭ": 6444,
      "Ġuniverse": 6445,
      "bes": 6446,
      "osa": 6447,
      "ĠÐµÐ³Ð¾": 6448,
      "Ġdude": 6449,
      "ĠMAR": 6450,
      "Ġindeed": 6451,
      "ÎµÎ¹": 6452,
      "Ġmanaged": 6453,
      "ĠShould": 6454,
      "So": 6455,
      "Ġapplied": 6456,
      "Ġfairly": 6457,
      "ĠDen": 6458,
      "Ġanaly": 6459,
      "Ġconstantly": 6460,
      "ÑģÐ¿": 6461,
      "How": 6462,
      "ĠSay": 6463,
      "encies": 6464,
      "ĠPC": 6465,
      "Ġeggs": 6466,
      "à®°": 6467,
      "Ġeth": 6468,
      "ĠEntÃ£o": 6469,
      "inar": 6470,
      "iot": 6471,
      "Ġcz": 6472,
      "ĠEuropean": 6473,
      "ãģĪ": 6474,
      "ĠAM": 6475,
      "ĠcÃ¡": 6476,
      "Ġradio": 6477,
      "§Į": 6478,
      "Ġhide": 6479,
      "ä»Ĭ": 6480,
      "ĠStart": 6481,
      "Ġclub": 6482,
      "ĠHope": 6483,
      "Ġefforts": 6484,
      "lusion": 6485,
      "Ġcities": 6486,
      "hone": 6487,
      "Ġreached": 6488,
      "Ġguid": 6489,
      "roid": 6490,
      "Ġharm": 6491,
      "Ġcutting": 6492,
      "Ġbul": 6493,
      "18": 6494,
      "iest": 6495,
      "ĠMex": 6496,
      "Ġiron": 6497,
      "çŁ¥": 6498,
      "Ġafternoon": 6499,
      "Ġhall": 6500,
      "Ġprzy": 6501,
      "Ġgosh": 6502,
      "Ġinfluence": 6503,
      "ĠÐ²Ð¸Ð´": 6504,
      "Ġincreased": 6505,
      "ĠMinister": 6506,
      "Ġdisci": 6507,
      "ĠPeter": 6508,
      "Ġvert": 6509,
      "Ġmenu": 6510,
      "Ġselling": 6511,
      "urally": 6512,
      "Ġquote": 6513,
      "ĠÂ¡": 6514,
      "Ġcontinues": 6515,
      "mpre": 6516,
      "ĠÅŁey": 6517,
      "itution": 6518,
      "ĠÐ½Ð°Ñģ": 6519,
      "cles": 6520,
      "ĠGerman": 6521,
      "czy": 6522,
      "ĠÐ£": 6523,
      "Be": 6524,
      "Ġkitchen": 6525,
      "ĠTry": 6526,
      "ipe": 6527,
      "Ġicon": 6528,
      "arp": 6529,
      "Ġproviding": 6530,
      "ĠTrans": 6531,
      "Ġtechnique": 6532,
      "ĠhÃ¤r": 6533,
      "Ġinfrast": 6534,
      "Ġsusp": 6535,
      "Ã¼ck": 6536,
      "icip": 6537,
      "ĠÐķ": 6538,
      "Ġcin": 6539,
      "ìĸ´ë": 6540,
      "Ġprz": 6541,
      "Ġcomponent": 6542,
      "Ġbye": 6543,
      "ĠBible": 6544,
      "izer": 6545,
      "Ch": 6546,
      "Ġsolutions": 6547,
      "Ġaccompl": 6548,
      "Ġ2016": 6549,
      "IE": 6550,
      "ĠTa": 6551,
      "Ġassume": 6552,
      "Ġliquid": 6553,
      "Ġë¨¹": 6554,
      "Ġquarter": 6555,
      "Ġfemale": 6556,
      "ĠThink": 6557,
      "Ġstatus": 6558,
      "itute": 6559,
      "Ġcoach": 6560,
      "Ġrein": 6561,
      "Ġcombination": 6562,
      "è·": 6563,
      "ĠTer": 6564,
      "Ġobjects": 6565,
      "Ġdistrict": 6566,
      "Ġmakeup": 6567,
      "Ġmurder": 6568,
      "was": 6569,
      "fen": 6570,
      "Ġbowl": 6571,
      "Ġpublished": 6572,
      "Ġsports": 6573,
      "ãģ¡": 6574,
      "Ġidentity": 6575,
      "Ġseemed": 6576,
      "Ġacting": 6577,
      "Ð»Ñİ": 6578,
      "rix": 6579,
      "Ġupload": 6580,
      "Ġhast": 6581,
      "Ġboat": 6582,
      "ĠMod": 6583,
      "rio": 6584,
      "Ġ=": 6585,
      "Ġcycle": 6586,
      "¯¸": 6587,
      "Ġloud": 6588,
      "usted": 6589,
      "coming": 6590,
      "Ġ2017": 6591,
      "Ġont": 6592,
      "Ġlegisl": 6593,
      "Ġstruct": 6594,
      "ĠSomething": 6595,
      "Ġconflict": 6596,
      "Ġupper": 6597,
      "Ġmanager": 6598,
      "Ġmort": 6599,
      "Ġfra": 6600,
      "ĠÄ°": 6601,
      "ĠMike": 6602,
      "ĠWork": 6603,
      "ĠnÃ³": 6604,
      "phere": 6605,
      "ĠìĤ¬ë": 6606,
      "ĠLand": 6607,
      "Ġfilter": 6608,
      "Ġpromot": 6609,
      "æ°": 6610,
      "æĻĤ": 6611,
      "ķ¼": 6612,
      "Ġrecording": 6613,
      "×Ŀ": 6614,
      "Ġassociated": 6615,
      "Ġfuel": 6616,
      "under": 6617,
      "Ġelection": 6618,
      "Ġemployees": 6619,
      "ĠComp": 6620,
      "ÑĢÑĥÐ³": 6621,
      "ĠWo": 6622,
      "rol": 6623,
      "Ġsaved": 6624,
      "ĠHon": 6625,
      "ĠVi": 6626,
      "åĪĨ": 6627,
      "aca": 6628,
      "pret": 6629,
      "Ġwet": 6630,
      "Ġstupid": 6631,
      "Ġlad": 6632,
      "Ġfest": 6633,
      "Ġwake": 6634,
      "ĠÐ¸Ð½": 6635,
      "Ġgreatest": 6636,
      "ĠJim": 6637,
      "Ġseriously": 6638,
      "Ġì¹": 6639,
      "Ġfeelings": 6640,
      "Ġ300": 6641,
      "iation": 6642,
      "Ġbeauty": 6643,
      "Ġìŀĺ": 6644,
      "Ġsan": 6645,
      "ĵł": 6646,
      "Ġ-(": 6647,
      "Ġconscious": 6648,
      "ĠÐ´ÐµÐ»": 6649,
      "bye": 6650,
      "çĻ": 6651,
      "Man": 6652,
      "Ġlets": 6653,
      "Ġshoes": 6654,
      "yd": 6655,
      "ä¹Ī": 6656,
      "Ġdisappe": 6657,
      "ĠCounty": 6658,
      "ĠScott": 6659,
      "Ġbutt": 6660,
      "ĠaquÃŃ": 6661,
      "Ġconfig": 6662,
      "respond": 6663,
      "LAUGH": 6664,
      "©ëĭĪëĭ¤": 6665,
      "Ġdivided": 6666,
      "Ġacqu": 6667,
      "Ġzone": 6668,
      "Ġkomm": 6669,
      "aÃ§Ã£o": 6670,
      "ì§ľ": 6671,
      "cut": 6672,
      "Ġ23": 6673,
      "Ġmaximum": 6674,
      "rog": 6675,
      "Ġruns": 6676,
      "Ġcomponents": 6677,
      "Ġarrived": 6678,
      "Ġconfident": 6679,
      "ÑĢÐ¾Ð²": 6680,
      "Ġheight": 6681,
      "Ġproced": 6682,
      "EM": 6683,
      "ĠÐŃÑĤÐ¾": 6684,
      "ĠMen": 6685,
      "Ġtalks": 6686,
      "Ġconfidence": 6687,
      "ĠChris": 6688,
      "Ġleads": 6689,
      "Ġnose": 6690,
      "fall": 6691,
      "bb": 6692,
      "ĠNothing": 6693,
      "iser": 6694,
      "Ġindependent": 6695,
      "Ġminor": 6696,
      "Ġsym": 6697,
      "len": 6698,
      "cience": 6699,
      "Ġfashion": 6700,
      "Ġsexual": 6701,
      "Ġbun": 6702,
      "here": 6703,
      "Ġsoil": 6704,
      "Ġdiese": 6705,
      "Ġshap": 6706,
      "Ġempty": 6707,
      "Ġjournal": 6708,
      "agon": 6709,
      "ĠTheir": 6710,
      "Ġweekend": 6711,
      "ÃŃt": 6712,
      "Ġerror": 6713,
      "Ġnar": 6714,
      "Ã¸": 6715,
      "è©": 6716,
      "ancy": 6717,
      "ĠìķĬ": 6718,
      "Ġforest": 6719,
      "Ġhacer": 6720,
      "Ġmissed": 6721,
      "ãģķ": 6722,
      "åı¯ä»¥": 6723,
      "Ġevil": 6724,
      "Ġstorage": 6725,
      "Ġsinging": 6726,
      "inha": 6727,
      "Ġknock": 6728,
      "Ġimpress": 6729,
      "ĠÐ¾ÑĩÐµÐ½ÑĮ": 6730,
      "ĠGold": 6731,
      "ĠSur": 6732,
      "ĠPort": 6733,
      "åİ»": 6734,
      "ĠLond": 6735,
      "Ġfazer": 6736,
      "oty": 6737,
      "oto": 6738,
      "Ġanx": 6739,
      "ĠWilliam": 6740,
      "Ġexisting": 6741,
      "place": 6742,
      "ĠCD": 6743,
      "Î³": 6744,
      "ĠCollege": 6745,
      "lor": 6746,
      "ĠEast": 6747,
      "sen": 6748,
      "fach": 6749,
      "oft": 6750,
      "Ġexperienced": 6751,
      "Ġloves": 6752,
      "imm": 6753,
      "Ġpoly": 6754,
      "Ġesse": 6755,
      "ì¤": 6756,
      "ĠGrand": 6757,
      "è§": 6758,
      "cher": 6759,
      "Ġvictim": 6760,
      "ĠGes": 6761,
      "Ð»ÑĮ": 6762,
      "vision": 6763,
      "Ġtall": 6764,
      "Ġlens": 6765,
      "ĠÐ·Ð½Ð°": 6766,
      "ĠBoth": 6767,
      "Ġì²": 6768,
      "Ġsustain": 6769,
      "Ġargument": 6770,
      "Ġfactors": 6771,
      "Ġautomatically": 6772,
      "Ġfruit": 6773,
      "Ġliber": 6774,
      "Ġale": 6775,
      "ĠPress": 6776,
      "ĠBa": 6777,
      "ĠÐ³Ð¾": 6778,
      "Ġhundreds": 6779,
      "that": 6780,
      "ĠRich": 6781,
      "Ġrecipe": 6782,
      "ĠIT": 6783,
      "èĩ": 6784,
      "áº¥": 6785,
      "Ġdescribe": 6786,
      "Ġdriver": 6787,
      "ĠOct": 6788,
      "ĠMat": 6789,
      "Ð´Ðµ": 6790,
      "Ġmeal": 6791,
      "Ġlatest": 6792,
      "Ġtherap": 6793,
      "Ġcompare": 6794,
      "ĠAmazon": 6795,
      "Ġì¢Ģ": 6796,
      "ĠRussia": 6797,
      "Ġstring": 6798,
      "Ġka": 6799,
      "ĠCommun": 6800,
      "Ġdia": 6801,
      "Is": 6802,
      "Ġmillions": 6803,
      "Ġcorpor": 6804,
      "Ġcorrespond": 6805,
      "Ġfixed": 6806,
      "ĠJoe": 6807,
      "Ùİ": 6808,
      "Ġviews": 6809,
      "Ġriver": 6810,
      "Ġstudio": 6811,
      "igger": 6812,
      "Ġflavor": 6813,
      "Ġpresence": 6814,
      "Ġunits": 6815,
      "Ġsaving": 6816,
      "avour": 6817,
      "Ġpesso": 6818,
      "orith": 6819,
      "Ġhers": 6820,
      "ĠNat": 6821,
      "asion": 6822,
      "ĠFrank": 6823,
      "Ð¾ÑĪ": 6824,
      "ÅĤy": 6825,
      "íĦ": 6826,
      "Ġeinem": 6827,
      "Ġfunctions": 6828,
      "uman": 6829,
      "Ġnorth": 6830,
      "ĠìłĦ": 6831,
      "Ġhorse": 6832,
      "vid": 6833,
      "Ġpleasure": 6834,
      "Ð°ÑĪ": 6835,
      "Ã©es": 6836,
      "inda": 6837,
      "Ġtail": 6838,
      "Ġexplore": 6839,
      "ST": 6840,
      "Ġcommercial": 6841,
      "ĠDuring": 6842,
      "arl": 6843,
      "]:": 6844,
      "fit": 6845,
      "Ġrates": 6846,
      "æ³": 6847,
      "MUSIC": 6848,
      "Ġhousing": 6849,
      "Ġeiner": 6850,
      "Ġsituations": 6851,
      "æĭ": 6852,
      "Ġdecre": 6853,
      "Ġappropriate": 6854,
      "ÐµÐ½Ð½Ð¾": 6855,
      "%.": 6856,
      "Ġbac": 6857,
      "Ġwat": 6858,
      "ensity": 6859,
      "Ã¤h": 6860,
      "known": 6861,
      "itz": 6862,
      "Ġemotional": 6863,
      "ervation": 6864,
      "Ġblind": 6865,
      "16": 6866,
      "íĥ": 6867,
      "å¤§å®¶": 6868,
      "Ġjoined": 6869,
      "Ġlocated": 6870,
      "ĠÑģÐ¼": 6871,
      "adas": 6872,
      "berg": 6873,
      "Ġdess": 6874,
      "Ġdear": 6875,
      "eden": 6876,
      "cos": 6877,
      "Ġadopt": 6878,
      "100": 6879,
      "owe": 6880,
      "ĠCheck": 6881,
      "ismo": 6882,
      "Ġsimpl": 6883,
      "Ġangry": 6884,
      "ĠÐ¼ÐµÐ½Ñı": 6885,
      "ĠCam": 6886,
      "Ġpad": 6887,
      "Ġattend": 6888,
      "Ġsample": 6889,
      "æĹ¥": 6890,
      "ĠìĽ": 6891,
      "ĠIN": 6892,
      "ulous": 6893,
      "ĠSar": 6894,
      "ĠShow": 6895,
      "Ġinfrastructure": 6896,
      "ĠAugust": 6897,
      "Ġlesson": 6898,
      "Ġniet": 6899,
      "æİ": 6900,
      "Ġfoi": 6901,
      "Ġbroke": 6902,
      "tr": 6903,
      "çķ": 6904,
      "Ġ45": 6905,
      "Ġgew": 6906,
      "ÑĥÐ¿": 6907,
      "ati": 6908,
      "Ġmaintain": 6909,
      "Ġartists": 6910,
      "inger": 6911,
      "æĿ¥": 6912,
      "erved": 6913,
      "IA": 6914,
      "Ġequals": 6915,
      "Ġoperation": 6916,
      "illy": 6917,
      "ĠëĤ´": 6918,
      "Ġcrowd": 6919,
      "Ġinternal": 6920,
      "Ġtests": 6921,
      "ĠRock": 6922,
      "ĠCons": 6923,
      "ĠëĦĪë¬´": 6924,
      "war": 6925,
      "Ġsou": 6926,
      "Ġchart": 6927,
      "ĠJune": 6928,
      "ĠApril": 6929,
      "gent": 6930,
      "Ġvent": 6931,
      "Ġquand": 6932,
      "ĠKorean": 6933,
      "imo": 6934,
      "çī": 6935,
      "iders": 6936,
      "Ġmountain": 6937,
      "ÑģÑĤÐ°Ð²": 6938,
      "æľĪ": 6939,
      "ijk": 6940,
      "Ġdiscovered": 6941,
      "ĠSund": 6942,
      "ĠSil": 6943,
      "Ġsolo": 6944,
      "Â´": 6945,
      "Ġschol": 6946,
      "ĠEach": 6947,
      "çµ": 6948,
      "Ġbare": 6949,
      "ĠíĮ": 6950,
      "ĠvÃŃde": 6951,
      "Ġingredients": 6952,
      "ĠIts": 6953,
      "Ŀ¼ê³ł": 6954,
      "ĠìĬ": 6955,
      "Ïį": 6956,
      "ĠLee": 6957,
      "Ġscary": 6958,
      "Ġprincip": 6959,
      "Ġspiritual": 6960,
      "ìħ": 6961,
      "ĠHold": 6962,
      "æ²Ĵæľī": 6963,
      "Ġdefine": 6964,
      "ĠLes": 6965,
      "ĠNor": 6966,
      "ĠEnd": 6967,
      "Ġblog": 6968,
      "ĠGreen": 6969,
      "Ð°ÐµÑĤÑģÑı": 6970,
      "part": 6971,
      "eles": 6972,
      "äºĭ": 6973,
      "ĠUnder": 6974,
      "Ġparte": 6975,
      "Ġ35": 6976,
      "Ġsector": 6977,
      "ĠSept": 6978,
      "Ġauth": 6979,
      "à®®": 6980,
      "omin": 6981,
      "Ġclients": 6982,
      "Ġci": 6983,
      "ĠFriday": 6984,
      "eras": 6985,
      "Ġtwe": 6986,
      "ulated": 6987,
      "Ġcultural": 6988,
      "ĠÑģÐ²Ð¾": 6989,
      "ĠëįĶ": 6990,
      "ĠÃº": 6991,
      "Ġparce": 6992,
      "à®²": 6993,
      "Ġtradition": 6994,
      "Ġjudge": 6995,
      "ĠGeneral": 6996,
      "Ġdetermine": 6997,
      "ĠIsn": 6998,
      "ĠPL": 6999,
      "neath": 7000,
      "Ġmatters": 7001,
      "íķ´ì": 7002,
      "!]": 7003,
      "Ð°Ñħ": 7004,
      "Ġpool": 7005,
      "Ġvariable": 7006,
      "Ġvaccine": 7007,
      "Ġcaused": 7008,
      "Ġwest": 7009,
      "ĠYep": 7010,
      "fast": 7011,
      "Ġphilos": 7012,
      "hora": 7013,
      "Ġcontinued": 7014,
      "Ġunfortunately": 7015,
      "ãģį": 7016,
      "æķ": 7017,
      "Ġflight": 7018,
      "Ġwrap": 7019,
      "Ġhuh": 7020,
      "ĠAbsolutely": 7021,
      "Ġpink": 7022,
      "Ġremains": 7023,
      "ĠnÃ©": 7024,
      "Ġfle": 7025,
      "ĠSol": 7026,
      "Ġlosing": 7027,
      "Ġalgorith": 7028,
      "Ġrequires": 7029,
      "Ġfoundation": 7030,
      "ĠBur": 7031,
      "Ġprofession": 7032,
      "ĠMid": 7033,
      "ĠëŃĲ": 7034,
      "can": 7035,
      "ĠMil": 7036,
      "Ġyounger": 7037,
      "Ġappears": 7038,
      "term": 7039,
      "íķĺê³ł": 7040,
      "acle": 7041,
      "ĠLondon": 7042,
      "Ġengineering": 7043,
      "à¸¢": 7044,
      "Ġadvent": 7045,
      "ìĦ¸ìļĶ": 7046,
      "Ġê¸°": 7047,
      "ĠMaj": 7048,
      "ÑĢÐµÐ¼": 7049,
      "ingu": 7050,
      "ĠUK": 7051,
      "uro": 7052,
      "spe": 7053,
      "Ġtent": 7054,
      "Ġreported": 7055,
      "ĠAL": 7056,
      "Hey": 7057,
      "Ġë§Ĳ": 7058,
      "Ġdent": 7059,
      "ĠAustralia": 7060,
      "ĠJanuary": 7061,
      "³´": 7062,
      "agues": 7063,
      "arsh": 7064,
      "rig": 7065,
      "Ġtiene": 7066,
      "à¸£": 7067,
      "Î®": 7068,
      "Ġmachen": 7069,
      "unte": 7070,
      "ÑĥÑģ": 7071,
      "Ġelectr": 7072,
      "Ġtutorial": 7073,
      "Ġplaced": 7074,
      "ĠìĿ´ê±°": 7075,
      "ĠCouncil": 7076,
      "íĸĪ": 7077,
      "°ë¦¬": 7078,
      "ahren": 7079,
      "Ġê·¸ëŀĺ": 7080,
      "Ġprove": 7081,
      "fol": 7082,
      "Ġquer": 7083,
      "Ġcheap": 7084,
      "ĠFather": 7085,
      "ĠPower": 7086,
      "ĵľ": 7087,
      "Ġpurs": 7088,
      "Ġesp": 7089,
      "ĠBre": 7090,
      "ê¸°ë": 7091,
      "omas": 7092,
      "æĥ³": 7093,
      "Ð¸Ð»ÑĮ": 7094,
      "Ġgeht": 7095,
      "oster": 7096,
      "ê³¼": 7097,
      "Ġfiles": 7098,
      "ĠÐ§": 7099,
      "bell": 7100,
      "Ġwhom": 7101,
      "Ġëĺ": 7102,
      "Ġexcellent": 7103,
      "Ġdatab": 7104,
      "ĠgÃ¶": 7105,
      "Ġì§Ħì§ľ": 7106,
      "Ġbelief": 7107,
      "jet": 7108,
      "Ġjack": 7109,
      "Ġswim": 7110,
      "rial": 7111,
      "umin": 7112,
      "auc": 7113,
      "Ġsoll": 7114,
      "Ġessential": 7115,
      "íķĺëĬĶ": 7116,
      "Ġevol": 7117,
      "chaft": 7118,
      "aine": 7119,
      "thlet": 7120,
      "Ġincor": 7121,
      "Ġreports": 7122,
      "Ġdefinition": 7123,
      "kel": 7124,
      "Ġcircum": 7125,
      "Ġproduced": 7126,
      "Ġ×Ľ": 7127,
      "antic": 7128,
      "net": 7129,
      "Ġaward": 7130,
      "Ġdurch": 7131,
      "Ġtransp": 7132,
      "Ġmale": 7133,
      "¦¬ë": 7134,
      "Ġmoon": 7135,
      "ĠGeorge": 7136,
      "Ġflying": 7137,
      "iÃ³": 7138,
      "Ġsources": 7139,
      "Ġplenty": 7140,
      "ĠDemocr": 7141,
      "RO": 7142,
      "Ġ00": 7143,
      "Ġsecure": 7144,
      "ĠBir": 7145,
      "rain": 7146,
      "Ġzur": 7147,
      "Ġefficient": 7148,
      "Ġrepeat": 7149,
      "Ġmethods": 7150,
      "Ġcalm": 7151,
      "Ġdiscussed": 7152,
      "ĠìŀĪëĬĶ": 7153,
      "Ġserver": 7154,
      "anie": 7155,
      "ĠInstead": 7156,
      "Ġideal": 7157,
      "Ġconven": 7158,
      "Ġhoping": 7159,
      "ĠTor": 7160,
      "Ġdepth": 7161,
      "Ġheaven": 7162,
      "ENCE": 7163,
      "Ġhabit": 7164,
      "grad": 7165,
      "Ġflag": 7166,
      "Ġine": 7167,
      "Ġkh": 7168,
      "ĠLI": 7169,
      "Ġfacing": 7170,
      "ĠAU": 7171,
      "ĠTim": 7172,
      "Ġgem": 7173,
      "ĠJul": 7174,
      "Ġela": 7175,
      "izza": 7176,
      "Ġfellow": 7177,
      "Ġquel": 7178,
      "Ġspoke": 7179,
      "Ġcitizens": 7180,
      "uge": 7181,
      "éĥ½": 7182,
      "Ġpages": 7183,
      "Ġfasc": 7184,
      "Ġreligious": 7185,
      "aten": 7186,
      "Ġchapter": 7187,
      "ĠVal": 7188,
      "Ġconsult": 7189,
      "ĠMill": 7190,
      "gl": 7191,
      "oper": 7192,
      "Ġinfin": 7193,
      "Ġmarriage": 7194,
      "Ġmedicine": 7195,
      "ĠÐ´Ð²": 7196,
      "Ġdogs": 7197,
      "Ġinstrument": 7198,
      "ĠExact": 7199,
      "Ã¡n": 7200,
      "Ġ2021": 7201,
      "Ġfer": 7202,
      "Ġwealth": 7203,
      "Ġgrade": 7204,
      "ÑĭÑħ": 7205,
      "Ġcrime": 7206,
      "Ġthread": 7207,
      "Ġessa": 7208,
      "Ġwine": 7209,
      "cohol": 7210,
      "pha": 7211,
      "à¸ĩ": 7212,
      "ogue": 7213,
      "Ġinsurance": 7214,
      "arrator": 7215,
      "ĠSeptember": 7216,
      "Ġvid": 7217,
      "ĠSpirit": 7218,
      "Ġgest": 7219,
      "ĠRussian": 7220,
      "Ġproperties": 7221,
      "Ġarticle": 7222,
      "Ġunderneath": 7223,
      "yer": 7224,
      "Ġjoint": 7225,
      "Ġrelatively": 7226,
      "Ġinch": 7227,
      "Ġdespite": 7228,
      "ĠGree": 7229,
      "Ġclassic": 7230,
      "Ġsupporting": 7231,
      "Ġinstruct": 7232,
      "lusive": 7233,
      "Ġdiagn": 7234,
      "æĬ": 7235,
      "Ġadministration": 7236,
      "Ð°Ð±Ð¾ÑĤ": 7237,
      "ĠOpen": 7238,
      "æīĢä»¥": 7239,
      "ĠÐ¿Ð¾Ðº": 7240,
      "Ġdollar": 7241,
      "Ġconsequ": 7242,
      "ober": 7243,
      "ĠGermany": 7244,
      "Ġterr": 7245,
      "ĠQU": 7246,
      "ĠÐĵ": 7247,
      "ç¾": 7248,
      "Ġstronger": 7249,
      "ÉĻ": 7250,
      "ĠÙĬ": 7251,
      "ĠiPhone": 7252,
      "Ġfabric": 7253,
      "Ã¼h": 7254,
      "Ġenem": 7255,
      "æ¯": 7256,
      "Ġsubt": 7257,
      "EE": 7258,
      "onde": 7259,
      "Ġcrew": 7260,
      "Ġremoved": 7261,
      "Ġlady": 7262,
      "Ġpotentially": 7263,
      "ĠÐĿÐ¾": 7264,
      "yal": 7265,
      "Ġsympt": 7266,
      "Ġarmy": 7267,
      "Ġintroduced": 7268,
      "tes": 7269,
      "Ġaspects": 7270,
      "14": 7271,
      "ĠLou": 7272,
      "Ġ)": 7273,
      "Ġdeploy": 7274,
      "pet": 7275,
      "Ġhan": 7276,
      "ĠWatch": 7277,
      "Ġweapons": 7278,
      "Ġphen": 7279,
      "Ġregister": 7280,
      "Ġeinfach": 7281,
      "Ġsport": 7282,
      "Ġbridge": 7283,
      "Ġinner": 7284,
      "Ġminimum": 7285,
      "Ġwitness": 7286,
      "Ġeso": 7287,
      "Ġvillage": 7288,
      "Ġowner": 7289,
      "¦¬ê³ł": 7290,
      "Ġscream": 7291,
      "iled": 7292,
      "Ġpitch": 7293,
      "bru": 7294,
      "Ġadvance": 7295,
      "ä¸įæĺ¯": 7296,
      "Ġsuppose": 7297,
      "ĠAtt": 7298,
      "ÐµÑĤÑģÑı": 7299,
      "Ġdifferences": 7300,
      "aked": 7301,
      "Ġinterpret": 7302,
      "Ã¦": 7303,
      "iendo": 7304,
      "Ġabsol": 7305,
      "ĠÐ±ÑĥÐ´ÐµÑĤ": 7306,
      "Ġë²": 7307,
      "Ġtrial": 7308,
      "Ġthinks": 7309,
      "lying": 7310,
      "ception": 7311,
      "ĠAfrican": 7312,
      "Ġchemical": 7313,
      "Ġtape": 7314,
      "Ġconversations": 7315,
      "Ġdistribution": 7316,
      "ti": 7317,
      "ĠAI": 7318,
      "Ġflash": 7319,
      "Ġunderstood": 7320,
      "ĠGovernment": 7321,
      "å°ı": 7322,
      "!?": 7323,
      "ĠSk": 7324,
      "ê±°ë": 7325,
      "rier": 7326,
      "TS": 7327,
      "ĠAccording": 7328,
      "ÑİÑĤ": 7329,
      "Ġspons": 7330,
      "ÑĤÐ¾Ð±Ñĭ": 7331,
      "Ġvalu": 7332,
      "erem": 7333,
      "ichtig": 7334,
      "Ġresistance": 7335,
      "ĠGal": 7336,
      "gery": 7337,
      "Ġbegins": 7338,
      "Ġadvanced": 7339,
      "Ġrelevant": 7340,
      "Ġpolitics": 7341,
      "ĠFam": 7342,
      "ĠÃ§ok": 7343,
      "ĠNever": 7344,
      "illing": 7345,
      "Ġfootball": 7346,
      "Ð¸Ð¸": 7347,
      "ĠID": 7348,
      "ĠAfrica": 7349,
      "Ġfingers": 7350,
      "ĠÐ±Ð¾Ð»ÑĮ": 7351,
      "ĠÃ¡": 7352,
      "Ġclip": 7353,
      "ĠLat": 7354,
      "ãĤĦ": 7355,
      "Ġì§Ģê¸Ī": 7356,
      "esse": 7357,
      "Ġvoor": 7358,
      "Ġaside": 7359,
      "æŀ": 7360,
      "Ġtoward": 7361,
      "Ġbat": 7362,
      "Ġvalid": 7363,
      "ĠMens": 7364,
      "Ġcompleted": 7365,
      "Ä±ÄŁ": 7366,
      "Ġpodcast": 7367,
      "ĠBon": 7368,
      "ÛĴ": 7369,
      "ĠJuly": 7370,
      "ila": 7371,
      "Ġpackage": 7372,
      "Ġpulled": 7373,
      "char": 7374,
      "ĠMel": 7375,
      "ois": 7376,
      "Ġsouth": 7377,
      "ĠëĶ": 7378,
      "Ġimportance": 7379,
      "Ġpushing": 7380,
      "Ġisol": 7381,
      "Ġstands": 7382,
      "cill": 7383,
      "ä¼": 7384,
      "ĠðŁ": 7385,
      "ori": 7386,
      "ê°ģ": 7387,
      "Ġhomes": 7388,
      "Ġconcerns": 7389,
      "Ġbiz": 7390,
      "å½": 7391,
      "bie": 7392,
      "Ġbis": 7393,
      "Ġgear": 7394,
      "ĠMS": 7395,
      "Ġhun": 7396,
      "ĠMatt": 7397,
      "áº£": 7398,
      "sey": 7399,
      "ĠSecret": 7400,
      "Ġodd": 7401,
      "ĠMax": 7402,
      "olly": 7403,
      "ford": 7404,
      "ĠSH": 7405,
      "Ġreplace": 7406,
      "Ġnavig": 7407,
      "Ġini": 7408,
      "Ð¸Ñı": 7409,
      "Ġgiant": 7410,
      "Ġmand": 7411,
      "ĠHapp": 7412,
      "TION": 7413,
      "gun": 7414,
      "iamo": 7415,
      "ìŀħëĭĪëĭ¤": 7416,
      "Ġgap": 7417,
      "ĠÃªtre": 7418,
      "Ġclassroom": 7419,
      "Ġhyp": 7420,
      "aki": 7421,
      "è®": 7422,
      "isters": 7423,
      "acks": 7424,
      "ĠÑģÐ¾": 7425,
      "Ġbug": 7426,
      "Ġgrav": 7427,
      "amin": 7428,
      "Ġeveryday": 7429,
      "Ġì¡°": 7430,
      "Ġgarden": 7431,
      "cember": 7432,
      "Ġesto": 7433,
      "åĹİ": 7434,
      "Ø¬": 7435,
      "Ł°": 7436,
      "åģ": 7437,
      "Ġrom": 7438,
      "Ġìłľê°Ģ": 7439,
      "Ġfalling": 7440,
      "Ġfault": 7441,
      "elly": 7442,
      "Ġchest": 7443,
      "ĠÐ»Ð¸": 7444,
      "Ġpotato": 7445,
      "Ġbuildings": 7446,
      "Ġoperating": 7447,
      "Ġpare": 7448,
      "wr": 7449,
      "Don": 7450,
      "ĠFour": 7451,
      "Ġvul": 7452,
      "ĠlÃ¡": 7453,
      "Ġfrust": 7454,
      "ĠDann": 7455,
      "oles": 7456,
      "nya": 7457,
      "Ġì¶": 7458,
      "ĠÑĢÐ°Ñģ": 7459,
      "×Ľ": 7460,
      "ĠaÃŃ": 7461,
      "word": 7462,
      "Ġweapon": 7463,
      "Ġobt": 7464,
      "ĠFall": 7465,
      "ĠSteve": 7466,
      "Ġmixed": 7467,
      "Ġpode": 7468,
      "ĠAS": 7469,
      "ĠLeg": 7470,
      "Ġdesc": 7471,
      "Ġsplit": 7472,
      "Ġemergency": 7473,
      "ĠSing": 7474,
      "Ġprofit": 7475,
      "Ġtypical": 7476,
      "ĠDonc": 7477,
      "Ġannounce": 7478,
      "ĠTex": 7479,
      "Ġsacr": 7480,
      "ternal": 7481,
      "Ġcommittee": 7482,
      "igo": 7483,
      "Ġdiam": 7484,
      "phas": 7485,
      "Ġdefe": 7486,
      "ĠProfess": 7487,
      "Ġdecl": 7488,
      "ÑĥÑĢ": 7489,
      "22": 7490,
      "olf": 7491,
      "ĠMond": 7492,
      "uy": 7493,
      "Ġay": 7494,
      "Ġlem": 7495,
      "Ġlovely": 7496,
      "ĠCould": 7497,
      "Ġguar": 7498,
      "HH": 7499,
      "Ġcarefully": 7500,
      "ĠListen": 7501,
      "ĠÐºÑĢ": 7502,
      "Ġyouth": 7503,
      "ĠTherefore": 7504,
      "Ġdreams": 7505,
      "ĠJeff": 7506,
      "?]": 7507,
      "ĠëĪ": 7508,
      "DA": 7509,
      "Ġbodies": 7510,
      "aux": 7511,
      "Ġtechniques": 7512,
      "Ġmechanism": 7513,
      "×ĵ": 7514,
      "ĠÐ¾Ð½Ð¸": 7515,
      "Ġdesire": 7516,
      "Ã®": 7517,
      "ĠVo": 7518,
      "ques": 7519,
      "ĠÑĥÐ¶Ðµ": 7520,
      "ĠWhoa": 7521,
      "ĠGame": 7522,
      "Ġhal": 7523,
      "anish": 7524,
      "Ġpractices": 7525,
      "500": 7526,
      "Ġsorts": 7527,
      "ups": 7528,
      "ateful": 7529,
      "Ġherself": 7530,
      "Ġguitar": 7531,
      "Ġpropos": 7532,
      "Ġsites": 7533,
      "Ġbeach": 7534,
      "Ġ×¢": 7535,
      "ç¬¬": 7536,
      "Ð½Ñĥ": 7537,
      "Ġdram": 7538,
      "ĠNove": 7539,
      "VE": 7540,
      "rant": 7541,
      "Ġplot": 7542,
      "ĠìĹ¬ê¸°": 7543,
      "ĠCa": 7544,
      "Ġestablished": 7545,
      "Ġ2015": 7546,
      "Ġinspired": 7547,
      "Ġannounced": 7548,
      "ä¸ª": 7549,
      "ĠÑĤÑĢ": 7550,
      "Ġ26": 7551,
      "Ġvoy": 7552,
      "Ġtech": 7553,
      "ìłģ": 7554,
      "Ġprocesses": 7555,
      "onto": 7556,
      "ĠPan": 7557,
      "Ġrapid": 7558,
      "istan": 7559,
      "Ġ197": 7560,
      "Ġreligion": 7561,
      "Ġ28": 7562,
      "Ġsmile": 7563,
      "Ġbab": 7564,
      "ĠÚ©": 7565,
      "ĠVir": 7566,
      "Ġschedule": 7567,
      "Ġexecut": 7568,
      "Ġpron": 7569,
      "Ñį": 7570,
      "ĠÐĿÑĥ": 7571,
      "music": 7572,
      "ìĽĲ": 7573,
      "Ġgan": 7574,
      "ìĭł": 7575,
      "Ġdefault": 7576,
      "Ġbem": 7577,
      "Ùī": 7578,
      "Ġforced": 7579,
      "ĠObviously": 7580,
      "Ġstone": 7581,
      "Ġtie": 7582,
      "Ġdrinking": 7583,
      "Ġserved": 7584,
      "Cause": 7585,
      "Ġconference": 7586,
      "ĠExactly": 7587,
      "ãĥĪ": 7588,
      "łľ": 7589,
      "ìĻĢ": 7590,
      "ĠRa": 7591,
      "Ġfake": 7592,
      "Ġdiff": 7593,
      "ãģ©": 7594,
      "Ġchallenging": 7595,
      "Ġì¤ĳ": 7596,
      "Ïĩ": 7597,
      "ä»Ģéº¼": 7598,
      "Ġintelligence": 7599,
      "rete": 7600,
      "Ġstudying": 7601,
      "Ġappoint": 7602,
      "Ġtan": 7603,
      "ĠÐ¸Ð¼": 7604,
      "Ġcurve": 7605,
      "ĠTeam": 7606,
      "ĠAz": 7607,
      "ĠÐ·Ð´": 7608,
      "ĠMusic": 7609,
      "field": 7610,
      "iration": 7611,
      "Ġfailed": 7612,
      "Ġnovel": 7613,
      "Ġdifferently": 7614,
      "Ġescape": 7615,
      "ĠYo": 7616,
      "ĠOctober": 7617,
      "Ä±yor": 7618,
      "Ġdescribed": 7619,
      "Ġconvert": 7620,
      "acement": 7621,
      "Ġhotel": 7622,
      "isation": 7623,
      "Ġsuis": 7624,
      "ãģĳ": 7625,
      "åŃĲ": 7626,
      "æĢİ": 7627,
      "Ġwalked": 7628,
      "200": 7629,
      "Ġneighborhood": 7630,
      "isp": 7631,
      "ĠLos": 7632,
      "Ġhidden": 7633,
      "Ġ27": 7634,
      "Ð»Ðµ": 7635,
      "Ġphr": 7636,
      "ĠIsland": 7637,
      "ĠStreet": 7638,
      "enda": 7639,
      "hips": 7640,
      "osure": 7641,
      "Ġdefined": 7642,
      "à¸§": 7643,
      "Ġvida": 7644,
      "Ġlabel": 7645,
      "ĠEverybody": 7646,
      "Ġjoke": 7647,
      "iao": 7648,
      "Ø§ÙĨ": 7649,
      "Ġathlet": 7650,
      "...\"": 7651,
      "ĠFire": 7652,
      "Do": 7653,
      "Ġdefense": 7654,
      "Ġentertain": 7655,
      "Ã¡t": 7656,
      "Ġpolicies": 7657,
      "Ġalcohol": 7658,
      "ĠEngine": 7659,
      "Ġgal": 7660,
      "ĠJud": 7661,
      "Ġvolunte": 7662,
      "icks": 7663,
      "eta": 7664,
      "agt": 7665,
      "Ġ×ķ": 7666,
      "ĠmÃ¶": 7667,
      "13": 7668,
      "Ġencoun": 7669,
      "Ġeh": 7670,
      "Ġorange": 7671,
      "Ġabsor": 7672,
      "Ġspaces": 7673,
      "ĠNovember": 7674,
      "êµ¬": 7675,
      "iat": 7676,
      "Ġtam": 7677,
      "cknow": 7678,
      "Ġstorm": 7679,
      "ĠDirector": 7680,
      "Ġpregn": 7681,
      "ĠìĿ¼": 7682,
      "ĠÐ¾Ð¿": 7683,
      "Ġresource": 7684,
      "Ġbard": 7685,
      "new": 7686,
      "ĠDecember": 7687,
      "uits": 7688,
      "Ġweil": 7689,
      "Ġconstruct": 7690,
      "si": 7691,
      "nic": 7692,
      "Ġflour": 7693,
      "Ġrestrict": 7694,
      "Ã¼t": 7695,
      "Ġentirely": 7696,
      "Ġbreaking": 7697,
      "entlich": 7698,
      "Ġtwenty": 7699,
      "Ġcauses": 7700,
      "Ġelev": 7701,
      "ĠSpr": 7702,
      "ĠInternet": 7703,
      "Ġkiss": 7704,
      "Ġoperations": 7705,
      "szy": 7706,
      "ĠëĬ": 7707,
      "Ġscientists": 7708,
      "Ġgrown": 7709,
      "Ġowners": 7710,
      "outs": 7711,
      "Ġcourses": 7712,
      "Ġusual": 7713,
      "Ġinn": 7714,
      "Ġtransm": 7715,
      "Ã±o": 7716,
      "Ġnuest": 7717,
      "ÐºÐ¾Ð²": 7718,
      "Ġcategory": 7719,
      "ĠLife": 7720,
      "ĠPlus": 7721,
      "Ġatmos": 7722,
      "while": 7723,
      "Ġrecords": 7724,
      "ĠdeÄŁ": 7725,
      "ëĭ¤ê³ł": 7726,
      "ĠìĤ¬ëŀ": 7727,
      "Ġrequirements": 7728,
      "inn": 7729,
      "Ġimmig": 7730,
      "Ġdeeper": 7731,
      "ç´": 7732,
      "Ġapps": 7733,
      "Ġcolleagues": 7734,
      "Å¼y": 7735,
      "Ġoffers": 7736,
      "ĠtÃ¡": 7737,
      "Ġcolumn": 7738,
      "laud": 7739,
      "IR": 7740,
      "ĠMs": 7741,
      "Ġexchange": 7742,
      "las": 7743,
      "ĠLaw": 7744,
      "ĠJon": 7745,
      "isse": 7746,
      "rogen": 7747,
      "Ġmoi": 7748,
      "×Ĺ": 7749,
      "Ġsending": 7750,
      "Ġhello": 7751,
      "ÐµÐµ": 7752,
      "ÅĽÄĩ": 7753,
      "Ġsucceed": 7754,
      "Ġsuffering": 7755,
      "Ġadvert": 7756,
      "Ġì£¼": 7757,
      "çŁ¥éģĵ": 7758,
      "Ġreco": 7759,
      "Ä±nÄ±": 7760,
      "ĠÐºÐ¾Ð¼": 7761,
      "alley": 7762,
      "Ġfailure": 7763,
      "iej": 7764,
      "ĠëķĮ": 7765,
      "Ġdrugs": 7766,
      "Ġcuando": 7767,
      "Ġìĸ´ëĸ": 7768,
      "ĠAbout": 7769,
      "Ġquando": 7770,
      "90": 7771,
      "ĠFed": 7772,
      "17": 7773,
      "Sh": 7774,
      "inho": 7775,
      "ĠSunday": 7776,
      "ĠPhil": 7777,
      "Ġacademic": 7778,
      "ĠInc": 7779,
      "Ġmainten": 7780,
      "åĩº": 7781,
      "Ġreward": 7782,
      "erd": 7783,
      "Ġcommitted": 7784,
      "ìĬ¤": 7785,
      "Ð³ÑĢ": 7786,
      "Ġstandards": 7787,
      "Ġkal": 7788,
      "Ġintention": 7789,
      "ĠZh": 7790,
      "Ġacknow": 7791,
      "ä¿": 7792,
      "Ġ===": 7793,
      "ogy": 7794,
      "å§": 7795,
      "Ġfilms": 7796,
      "isk": 7797,
      "Ġteeth": 7798,
      "Ġstruggle": 7799,
      "rd": 7800,
      "uen": 7801,
      "Ġdiss": 7802,
      "ĠDar": 7803,
      "amy": 7804,
      "Ġenemies": 7805,
      "Ġveloc": 7806,
      "ĠCall": 7807,
      "umbs": 7808,
      "Ð¸ÑĤÐµÐ»ÑĮ": 7809,
      "Ġocean": 7810,
      "Ã©d": 7811,
      "ìļ°": 7812,
      "Ġtrem": 7813,
      "iento": 7814,
      "ÐµÑĪÑĮ": 7815,
      "fficient": 7816,
      "Ġbottle": 7817,
      "Ġinstitution": 7818,
      "esty": 7819,
      "ĠHan": 7820,
      "hab": 7821,
      "ëĬĺ": 7822,
      "Ġarrest": 7823,
      "éĤĦ": 7824,
      "Ġletters": 7825,
      "ounce": 7826,
      "íĮ": 7827,
      "An": 7828,
      "Ġcreates": 7829,
      "Ġclock": 7830,
      "Ġdebt": 7831,
      "Ġancient": 7832,
      "ifications": 7833,
      "gi": 7834,
      "But": 7835,
      "ĠTu": 7836,
      "kl": 7837,
      "Ġborder": 7838,
      "Ġook": 7839,
      "ĠBay": 7840,
      "esta": 7841,
      "Ġë³´ì": 7842,
      "Ġwra": 7843,
      "prene": 7844,
      "Ġê²Į": 7845,
      "angle": 7846,
      "Ġbelieved": 7847,
      "iency": 7848,
      "aka": 7849,
      "Ġcritic": 7850,
      "Ġbomb": 7851,
      "Ġham": 7852,
      "ĠÐĽ": 7853,
      "êµŃ": 7854,
      "ĠGuys": 7855,
      "rosoft": 7856,
      "Ġcrim": 7857,
      "etch": 7858,
      "ARR": 7859,
      "Ġsight": 7860,
      "Ð¸Ð½Ð°": 7861,
      "Ġain": 7862,
      "á»ĳ": 7863,
      "ische": 7864,
      "Ġaux": 7865,
      "Ġnumer": 7866,
      "Ġsurvive": 7867,
      "All": 7868,
      "BC": 7869,
      "Ġsz": 7870,
      "Ł¬ë": 7871,
      "Ġjam": 7872,
      "ĠCourt": 7873,
      "Ġalles": 7874,
      "Ġtrigger": 7875,
      "Ðŀ": 7876,
      "Ġformat": 7877,
      "Ġdecades": 7878,
      "Ġces": 7879,
      "Ġsigns": 7880,
      "Ġrobot": 7881,
      "ĠChurch": 7882,
      "Ġaz": 7883,
      "Ġsoup": 7884,
      "ĠTexas": 7885,
      "uten": 7886,
      "ĠÑĩÑĤÐ¾Ð±Ñĭ": 7887,
      "Ġneighb": 7888,
      "ĸ×Ķ": 7889,
      "Ġcommunicate": 7890,
      "Å¡": 7891,
      "Ġelimin": 7892,
      "Ġfrequency": 7893,
      "hern": 7894,
      "idos": 7895,
      "Ġemphas": 7896,
      "Ġmessages": 7897,
      "Ġgender": 7898,
      "ĠWenn": 7899,
      "ĠÐ²Ð¾": 7900,
      "Ġprices": 7901,
      "olo": 7902,
      "ĠÐ¿Ð¾Ð½": 7903,
      "wing": 7904,
      "ĠFil": 7905,
      "Ð°ÐµÐ¼": 7906,
      "ĠCur": 7907,
      "Ġfalse": 7908,
      "Ġfields": 7909,
      "ĠsÃ©": 7910,
      "24": 7911,
      "Ġmac": 7912,
      "uÅŁ": 7913,
      "Ġlayers": 7914,
      "Ġadvoc": 7915,
      "wan": 7916,
      "Ġkar": 7917,
      "ĠÅŀ": 7918,
      "Ġdecor": 7919,
      "Ġwalls": 7920,
      "oe": 7921,
      "issions": 7922,
      "Ġresol": 7923,
      "×¢": 7924,
      "ĠCarol": 7925,
      "ĠVide": 7926,
      "leep": 7927,
      "ĠYOU": 7928,
      "Ġflip": 7929,
      "Ġsurgery": 7930,
      "Ġchop": 7931,
      "UR": 7932,
      ".,": 7933,
      "Ġagency": 7934,
      "Ġwanting": 7935,
      "Ġsolar": 7936,
      "Ġhoriz": 7937,
      "ĠAdam": 7938,
      "Ġstaying": 7939,
      "olic": 7940,
      "Ġgrateful": 7941,
      "Ġremark": 7942,
      "Ġtechnologies": 7943,
      "Ġprotein": 7944,
      "å¿ĥ": 7945,
      "Ð´ÐµÐ»": 7946,
      "ĠMont": 7947,
      "Ġshoulder": 7948,
      "Ġza": 7949,
      "rey": 7950,
      "ĠOoh": 7951,
      "Ġsty": 7952,
      "icar": 7953,
      "Ð¾ÑĤÑĢ": 7954,
      "Ġroute": 7955,
      "ĠTurn": 7956,
      "Ġbom": 7957,
      "Ġdebate": 7958,
      "Ġpossibility": 7959,
      "Ġíķ´ì": 7960,
      "apa": 7961,
      "Ġinvent": 7962,
      "Ã¼rlich": 7963,
      "Ġprofile": 7964,
      "Ġsenior": 7965,
      "ppy": 7966,
      "vas": 7967,
      "Ġmundo": 7968,
      "atever": 7969,
      "Ġapparently": 7970,
      "ener": 7971,
      "×Ĳ": 7972,
      "çŃ": 7973,
      "Ġprecis": 7974,
      "Ġalign": 7975,
      "Ġknife": 7976,
      "ĠRobert": 7977,
      "åĭ": 7978,
      "Ġfool": 7979,
      "Ġinvite": 7980,
      "using": 7981,
      "Ġcircumst": 7982,
      "Ġcapture": 7983,
      "Ġdough": 7984,
      "ĠSand": 7985,
      "Ġseu": 7986,
      "ĠNews": 7987,
      "Ġbite": 7988,
      "Ġneut": 7989,
      "wide": 7990,
      "Ġlecture": 7991,
      "ĠëĺĲ": 7992,
      "Ġoriginally": 7993,
      "Ġchoices": 7994,
      "ĠGar": 7995,
      "Ġverse": 7996,
      "Ġlit": 7997,
      "Ġ196": 7998,
      "íķł": 7999,
      "Ġmeasures": 8000,
      "Ã§Ãµes": 8001,
      "water": 8002,
      "rive": 8003,
      "Ġzijn": 8004,
      "íģ": 8005,
      "ĠBus": 8006,
      "Ġheb": 8007,
      "ÐµÑħ": 8008,
      "ĠKar": 8009,
      "ĠNÃ£o": 8010,
      "Ġkilling": 8011,
      "à®ª": 8012,
      "Ġmirror": 8013,
      "mod": 8014,
      "Ġmol": 8015,
      "Ġcreation": 8016,
      "Ġestim": 8017,
      "Ġatmosphere": 8018,
      "Ġgam": 8019,
      "Ġtables": 8020,
      "isi": 8021,
      "ĠLittle": 8022,
      "Ġtas": 8023,
      "ĠEle": 8024,
      "Ã©l": 8025,
      "Ġscenes": 8026,
      "Ġtone": 8027,
      "Ġaffected": 8028,
      "ĠAUDI": 8029,
      "ĠBrown": 8030,
      "If": 8031,
      "ĠÙĩ": 8032,
      "ĠDaniel": 8033,
      "çľŁçļĦ": 8034,
      "quer": 8035,
      "chi": 8036,
      "íķĺë": 8037,
      "Ġmistakes": 8038,
      "Ġsla": 8039,
      "ãĤ¤": 8040,
      "Ġentr": 8041,
      "ĠÐµÑģÐ»Ð¸": 8042,
      "Ġshout": 8043,
      "Ġportion": 8044,
      "ÑĹ": 8045,
      "Ġpreviously": 8046,
      "á»Ļ": 8047,
      "ĠÐ¿ÑĢÐµÐ´": 8048,
      "Ð¾ÑģÑĮ": 8049,
      "Ġheads": 8050,
      "çİ": 8051,
      "åŃ": 8052,
      "åľĭ": 8053,
      "Ġgrass": 8054,
      "à¸°": 8055,
      "cribe": 8056,
      "ĠquÃ©": 8057,
      "ĠSpanish": 8058,
      "Ġoffered": 8059,
      "ĠÐ±ÑĭÐ»Ð¾": 8060,
      "ĠCloud": 8061,
      "Ġvector": 8062,
      "ĠHuh": 8063,
      "Ġkad": 8064,
      "ifts": 8065,
      "ĠÎ½": 8066,
      "Ġhungry": 8067,
      "Ð¡": 8068,
      "Ġparall": 8069,
      "AND": 8070,
      "ĠvÃŃdeo": 8071,
      "izz": 8072,
      "Ġoccup": 8073,
      "ĠíĶ": 8074,
      "Ġseek": 8075,
      "hes": 8076,
      "Ġdoors": 8077,
      "Ġhouses": 8078,
      "Ġconsidering": 8079,
      "Ġgraduate": 8080,
      "Ġfulf": 8081,
      "è¡Į": 8082,
      "è£": 8083,
      "Ġextreme": 8084,
      "Ġflowers": 8085,
      "itate": 8086,
      "ĠPri": 8087,
      "Ġfundamental": 8088,
      "ÑĩÐ°Ñģ": 8089,
      "è¯´": 8090,
      "Ġtexture": 8091,
      "įĺ": 8092,
      "ĠAND": 8093,
      "à®±": 8094,
      "ĠTem": 8095,
      "Ġnada": 8096,
      "ì§Ħ": 8097,
      "Ġcelebrate": 8098,
      "ums": 8099,
      "Ġpill": 8100,
      "ĠÐ¸Ð»Ð¸": 8101,
      "going": 8102,
      "Ġhip": 8103,
      "Ġsupported": 8104,
      "Ġperman": 8105,
      "Ġagreement": 8106,
      "Ġtym": 8107,
      "Ġëĳ": 8108,
      "ĵ¤ìĿ´": 8109,
      "Ġpurchase": 8110,
      "íĶ": 8111,
      "ĠPlan": 8112,
      "egen": 8113,
      "Ġrecover": 8114,
      "PU": 8115,
      "ĠMicrosoft": 8116,
      "duc": 8117,
      "Ġholes": 8118,
      "Ġdropped": 8119,
      "Ġpig": 8120,
      "Ġending": 8121,
      "Ġattacks": 8122,
      "bec": 8123,
      "Ġren": 8124,
      "Ġrapp": 8125,
      "Ġìļ°ë¦¬": 8126,
      "Ġterror": 8127,
      "Ġ×Ļ": 8128,
      "Ġedit": 8129,
      "Ġao": 8130,
      ".</": 8131,
      "Ġ2000": 8132,
      "ĠUnion": 8133,
      "Ġscientific": 8134,
      "Ġpunch": 8135,
      "ortion": 8136,
      "Ġputs": 8137,
      "ĠMonday": 8138,
      "ĠJer": 8139,
      "EC": 8140,
      "Ġmatrix": 8141,
      "Ġinstitutions": 8142,
      "Ġmont": 8143,
      "Ġexhib": 8144,
      "Ġspeaker": 8145,
      "Ġmeters": 8146,
      ".]": 8147,
      "Ġserving": 8148,
      "Ġdatabase": 8149,
      "ĠLAU": 8150,
      "Ġdamn": 8151,
      "Ġpoder": 8152,
      "!!!!": 8153,
      "ĠíĸĪ": 8154,
      "ĠAUDIENCE": 8155,
      "Ġjun": 8156,
      "ĠAC": 8157,
      "ĠItal": 8158,
      "sec": 8159,
      "ĠYoung": 8160,
      "ruck": 8161,
      "ouve": 8162,
      "à¸Ħ": 8163,
      "çĪ": 8164,
      "Ġë§Įë": 8165,
      "ading": 8166,
      "uration": 8167,
      "ĠPS": 8168,
      "Ðļ": 8169,
      "ĠUnf": 8170,
      "èģ": 8171,
      "oria": 8172,
      "Ġmanif": 8173,
      "Ġsentence": 8174,
      "Ġsigned": 8175,
      "BS": 8176,
      "Ġproof": 8177,
      "ĠMuslim": 8178,
      "Ġnuclear": 8179,
      "ĠÐ³Ð¾Ð²Ð¾ÑĢ": 8180,
      "Ġwoll": 8181,
      "Ġfavour": 8182,
      "ĠWH": 8183,
      "Ġvulner": 8184,
      "Ġclosely": 8185,
      "Ġindex": 8186,
      "ÑĤÐµÑĢ": 8187,
      "achel": 8188,
      "Ġcapable": 8189,
      "ĠBes": 8190,
      "Ġcroch": 8191,
      "ekt": 8192,
      "Ġsheet": 8193,
      "Ġsees": 8194,
      "Ġnaturally": 8195,
      "ĠEngland": 8196,
      "Ġparticipate": 8197,
      "Ġexists": 8198,
      "Ġsharp": 8199,
      "py": 8200,
      "Ġbreakfast": 8201,
      "bow": 8202,
      "Ġtwist": 8203,
      "ç§": 8204,
      "inating": 8205,
      "oti": 8206,
      "ĠFound": 8207,
      "Ġdeux": 8208,
      "Ġselected": 8209,
      "ìłĦ": 8210,
      "osis": 8211,
      "Ġpresented": 8212,
      "Ġlinear": 8213,
      "Ġê´": 8214,
      "Ġkun": 8215,
      "é»ŀ": 8216,
      "Ã´ng": 8217,
      "ĠbÄĻd": 8218,
      "Ġtempor": 8219,
      "Ġcable": 8220,
      "ĠÐ¿ÑĢÐ¾ÑģÑĤÐ¾": 8221,
      "ÐºÐµ": 8222,
      "ĠÑĤÐ°Ð¼": 8223,
      "Ġwinning": 8224,
      "èĥ½": 8225,
      "ĺëıĦ": 8226,
      "Ġ2014": 8227,
      "ĠìĹ¬ë": 8228,
      "ĠUN": 8229,
      "ĠClick": 8230,
      "Ġprepar": 8231,
      "ĠTO": 8232,
      "Ġsua": 8233,
      "ĠHam": 8234,
      "ĠlÃ¤": 8235,
      "Ġabsolute": 8236,
      "Ġengaged": 8237,
      "å¦Ĥ": 8238,
      "ĠHmm": 8239,
      "Ġdash": 8240,
      "TA": 8241,
      "Ã±os": 8242,
      "Ġspo": 8243,
      "çĶŁ": 8244,
      ")]": 8245,
      "Ġtested": 8246,
      "Ġblank": 8247,
      "Ġreject": 8248,
      "Ġassim": 8249,
      "Ġrear": 8250,
      "ĠStr": 8251,
      "Ġcrash": 8252,
      "ĠÐ½Ð°ÑĪ": 8253,
      "Ð¸ÑĤÑģÑı": 8254,
      "Ġcolon": 8255,
      "ĠUnt": 8256,
      "ĠCe": 8257,
      "Ġacid": 8258,
      "éĹ": 8259,
      "Ġkit": 8260,
      "ibilities": 8261,
      "uto": 8262,
      "Ġvaluable": 8263,
      "list": 8264,
      "Ġparties": 8265,
      "ĠMm": 8266,
      "Ġcolour": 8267,
      "Ġcham": 8268,
      "Ġsteel": 8269,
      "ĠImp": 8270,
      "Ġfunds": 8271,
      "ĠDNA": 8272,
      "ĠKen": 8273,
      "inde": 8274,
      "íķ´ìĦľ": 8275,
      "ãĥĥ": 8276,
      "ĠHappy": 8277,
      "ĠUse": 8278,
      "ĠLight": 8279,
      "Ġlip": 8280,
      "Ġauthority": 8281,
      "ĠLong": 8282,
      "ĠIran": 8283,
      "Ġell": 8284,
      "Ġcoordin": 8285,
      "Ġsubm": 8286,
      "Ġrecorded": 8287,
      "ÑĥÑĪ": 8288,
      "Ġdelta": 8289,
      "Ġreform": 8290,
      "ĠStill": 8291,
      "Ġoppon": 8292,
      "Ġallowing": 8293,
      "Ġpatterns": 8294,
      "Ġletting": 8295,
      "Ġsleeping": 8296,
      "Okay": 8297,
      "Ġpizza": 8298,
      "ĠÅĽ": 8299,
      "ĠÐ´Ð¾Ð»": 8300,
      "Ġtalent": 8301,
      "ensions": 8302,
      "Ġenvironmental": 8303,
      "Ġprofessor": 8304,
      "Ġshots": 8305,
      "Ġcontains": 8306,
      "ugar": 8307,
      "yo": 8308,
      "ıĻ": 8309,
      "Ġsequence": 8310,
      "Î¹Î±": 8311,
      "ader": 8312,
      "éł": 8313,
      "Ð°Ñĩ": 8314,
      "ÙĨØ§": 8315,
      "ĠIk": 8316,
      "Ġtous": 8317,
      "uries": 8318,
      "Ġpounds": 8319,
      "Ġexternal": 8320,
      "iments": 8321,
      "Ġvraiment": 8322,
      "ìĭ¤": 8323,
      "Ġhappiness": 8324,
      "Ġprze": 8325,
      "estic": 8326,
      "Ġestablish": 8327,
      "ĠFlor": 8328,
      "Ġrig": 8329,
      "Ġhoney": 8330,
      "Ġpul": 8331,
      "Ġsymptoms": 8332,
      "Ġbrows": 8333,
      "ÐµÐ»Ð¸": 8334,
      "ĠÏĦÎ¿": 8335,
      "Ġshirt": 8336,
      "ĠTechn": 8337,
      "ĠProgram": 8338,
      "ÐµÐ¼Ñĥ": 8339,
      "Ġupset": 8340,
      "Ġguest": 8341,
      "burg": 8342,
      "Ġunlike": 8343,
      "Ġsomewhat": 8344,
      "Ġhanging": 8345,
      "ae": 8346,
      "Ġrum": 8347,
      "Ġphotograph": 8348,
      "ĠLi": 8349,
      "åĽŀ": 8350,
      "Ġstable": 8351,
      "Ġvoltage": 8352,
      "ĠEll": 8353,
      "Ġentreprene": 8354,
      "uses": 8355,
      "assen": 8356,
      "¬¸": 8357,
      "Ġë§İìĿ´": 8358,
      "Ġghost": 8359,
      "Ġsagen": 8360,
      "Ġcombat": 8361,
      "ĠgÃ¶r": 8362,
      "ĠCap": 8363,
      "ĠsÃ£o": 8364,
      "ĠKat": 8365,
      "Ġforma": 8366,
      "Ġsumm": 8367,
      "Ġmarch": 8368,
      "Ġvast": 8369,
      "Ã¼k": 8370,
      "Ġcommitment": 8371,
      "imos": 8372,
      "Let": 8373,
      "Ġdedicated": 8374,
      "iste": 8375,
      "lay": 8376,
      "éĢĻæ¨£": 8377,
      "Ġtopics": 8378,
      "Ġmachines": 8379,
      "ĠParis": 8380,
      "ĠìĿ´ëŁ°": 8381,
      "Ġmini": 8382,
      "Ġmarkets": 8383,
      "Ġko": 8384,
      "Î´": 8385,
      "ville": 8386,
      "Ġgoodness": 8387,
      "Ġframework": 8388,
      "ulture": 8389,
      "Ġbasket": 8390,
      "essa": 8391,
      "Ð°ÑĨÐ¸": 8392,
      "uster": 8393,
      "Ġê¹": 8394,
      "ä½Ĩ": 8395,
      "Ġextent": 8396,
      "ĠMenschen": 8397,
      "Ġconsistent": 8398,
      "Ġauto": 8399,
      "rip": 8400,
      "Ġmere": 8401,
      "à¯Ī": 8402,
      "ÑĶ": 8403,
      "Ġelle": 8404,
      "ĮĢë": 8405,
      "oken": 8406,
      "Ġpulling": 8407,
      "Ġcow": 8408,
      "outhern": 8409,
      "Ġmeetings": 8410,
      "Ġcada": 8411,
      "Ð½ÑĭÐ¼": 8412,
      "iente": 8413,
      "Ġbast": 8414,
      "aning": 8415,
      "Ġfocusing": 8416,
      "road": 8417,
      "Ġroof": 8418,
      "ĠProfessor": 8419,
      "ĠSP": 8420,
      "ÑĢÐ°Ð·": 8421,
      "Ġnood": 8422,
      "Ġ400": 8423,
      "ĠìĿ´ìłľ": 8424,
      "ìŀĪ": 8425,
      "ĠMount": 8426,
      "ÐµÐ¹ÑĩÐ°Ñģ": 8427,
      "Ġ×Ĳ": 8428,
      "Why": 8429,
      "×ŀ": 8430,
      "Ä±nda": 8431,
      "Ġpositions": 8432,
      "Ã¨me": 8433,
      "çı": 8434,
      "ĠÐ´ÑĢÑĥÐ³": 8435,
      "iyor": 8436,
      "Ġpassing": 8437,
      "Ġassemb": 8438,
      "Ġsmoke": 8439,
      "Ġtil": 8440,
      "Ġmuseum": 8441,
      "ÐĶ": 8442,
      "ĠPerson": 8443,
      "Ð½Ð¸Ð¼": 8444,
      "leich": 8445,
      "Ġintent": 8446,
      "Ġsque": 8447,
      "Ġcraft": 8448,
      "ìĪĺ": 8449,
      "orsun": 8450,
      "Ġ150": 8451,
      "Ġbrothers": 8452,
      "vor": 8453,
      "ĠSpeaker": 8454,
      "icians": 8455,
      "Ġofficer": 8456,
      "ĠiÃ§in": 8457,
      "ĠÑĤÐµÐ±": 8458,
      "Ġscratch": 8459,
      "Ġgenerate": 8460,
      "yi": 8461,
      "Ġemotions": 8462,
      "aus": 8463,
      "ì¹ĺ": 8464,
      "45": 8465,
      "ĠLink": 8466,
      "ĠReal": 8467,
      "Ġate": 8468,
      "ĠÐ½Ð°Ð´": 8469,
      "Ġnative": 8470,
      "á»ĩ": 8471,
      "Ä±y": 8472,
      "Ġenorm": 8473,
      "Ġblocks": 8474,
      "Ġfaces": 8475,
      "acc": 8476,
      "iveness": 8477,
      "Ġinches": 8478,
      "uis": 8479,
      "heit": 8480,
      "Ġstreets": 8481,
      "Ġprobability": 8482,
      "asi": 8483,
      "Ġimpl": 8484,
      "Ġà¤": 8485,
      "urday": 8486,
      "Ġfaut": 8487,
      "omy": 8488,
      "Ġpip": 8489,
      "Ġillust": 8490,
      "à®¯": 8491,
      "ĠJun": 8492,
      "Ġlying": 8493,
      "99": 8494,
      "Ġmemories": 8495,
      "Ġpractical": 8496,
      "iana": 8497,
      "onces": 8498,
      "Ġviewers": 8499,
      "ĠThomas": 8500,
      "æĮ": 8501,
      "ĠGirl": 8502,
      "ĠWhether": 8503,
      "Ġinnovation": 8504,
      "Ġdisappoint": 8505,
      "My": 8506,
      "Ġwinner": 8507,
      "Ġig": 8508,
      "Ġratio": 8509,
      "ĠBlue": 8510,
      "ĠSub": 8511,
      "Ġdocuments": 8512,
      "Ġformula": 8513,
      "Ġë©": 8514,
      "ÑĬ": 8515,
      "Ġappeared": 8516,
      "var": 8517,
      "andon": 8518,
      "Ġspray": 8519,
      "mak": 8520,
      "ĠQUES": 8521,
      "KE": 8522,
      "Ġwedding": 8523,
      "Re": 8524,
      "Ð°ÑĤÑĮÑģÑı": 8525,
      "Ġuno": 8526,
      "Ġgall": 8527,
      "íĦ°": 8528,
      "cio": 8529,
      "cers": 8530,
      "ĠÐ¼Ð½Ðµ": 8531,
      "Ġpepper": 8532,
      "ãģĹãģŁ": 8533,
      "ĠFebru": 8534,
      "Ġalternative": 8535,
      "Ġfu": 8536,
      "ĠBasically": 8537,
      "ĠSmith": 8538,
      "Ġgate": 8539,
      "ĠTam": 8540,
      "ĠWhatever": 8541,
      "Ġapproxim": 8542,
      "Ġconcert": 8543,
      "Ġjuice": 8544,
      "ĠEspecially": 8545,
      "Ġdynamic": 8546,
      "Qu": 8547,
      "onder": 8548,
      "ivery": 8549,
      "Ġbang": 8550,
      "Ġrul": 8551,
      "ĠParty": 8552,
      "Ġscholars": 8553,
      "Ġcrying": 8554,
      "jÄħ": 8555,
      "Ð¢": 8556,
      "ĠQUESTION": 8557,
      "rid": 8558,
      "Ġaccurate": 8559,
      "Ã§o": 8560,
      "ĠCool": 8561,
      "coin": 8562,
      "Ġìĥģ": 8563,
      "ĠFo": 8564,
      "ĠprÃ³": 8565,
      "ĠRoman": 8566,
      "ĠÐŁÑĢ": 8567,
      "Ġchecking": 8568,
      "?'": 8569,
      "Ġattached": 8570,
      "ĠIslam": 8571,
      "Ġexperts": 8572,
      "×§": 8573,
      "ĠConst": 8574,
      "ÑĢÐ°Ð½": 8575,
      "Ġshadow": 8576,
      "Ġdelay": 8577,
      "ÐĴ": 8578,
      "Ġorient": 8579,
      "ëĤ": 8580,
      "ellen": 8581,
      "ĠasÃŃ": 8582,
      "ÐºÐ¸Ð¹": 8583,
      "Ġhistorical": 8584,
      "Ġuncom": 8585,
      "omp": 8586,
      "hm": 8587,
      "Ġbil": 8588,
      "Ġplanned": 8589,
      "ĠUnfortunately": 8590,
      "ĠWindows": 8591,
      "Ø´": 8592,
      "Ġencounter": 8593,
      "ĠìĥĿê°ģ": 8594,
      "Ġregarding": 8595,
      "arrass": 8596,
      "Ġrecovery": 8597,
      "ĠHur": 8598,
      "ĠEmp": 8599,
      "ĠsÃŃ": 8600,
      "íķĺê²Į": 8601,
      "Ġdefend": 8602,
      "Ġcet": 8603,
      "asse": 8604,
      "ëĭ¨": 8605,
      "okes": 8606,
      "Ġremote": 8607,
      "ĠØ³": 8608,
[...]
