{"": 50256, "!": 0, "!!": 1432, "!!!": 4589, "!!!!": 8153, "!!!!!": 28493, "!!!!!!": 50199, "!!!!!!!!": 28618, "!!\"": 44556, "!!)": 33826, "!!]": 46990, "!\"": 2963, "!\",": 44815, "!\".": 35323, "à¦¦à¦¬à¦¦à¦²": 13840, "!(": 46824, "!)": 5700, "!*": 32854, "!,": 32652, "!.": 37817, "!..": 44311, "!...": 34205, "!</": 39373, "!?": 7323, "!]": 7003, "Ġà¦®à§İà¦¶": 15267, "!ãĢį": 28534, "\"": 1, "Ġà§Ńà§ªà§¬": 18808, "Ġà¦Ĩà¦īà¦¶à¦Ĺ": 17830, "\",": 2566, "\"-": 34370, "\".": 1883, "Ġà¦Ĩà¦ĩà¦ıà¦¸à¦¸": 18332, "\":": 29290, "\";": 37707, "Ġà¦Ĩà¦¤à¦¶": 21732, "\"?": 8930, "\"]": 23711, "#": 2, "$": 3, "%": 4, "%,": 8923, "%.": 6856, "&": 5, "'": 6, "'!": 30159, "à¦ıà¦¨à¦ĩà¦ī": 15025, "')": 37380, "',": 6098, "'.": 5004, "'...": 37474, "à¦¯à¦¨à¦Ĺà¦°": 16265, "'D": 41063, "'M": 25310, "'RE": 39040, "Ġà§«à§®": 11460, "à§¦à§¬à§¦à§ª": 18010, "']": 48038, "'d": 1116, "'ll": 603, "'m": 478, "'re": 434, "'s": 311, "'t": 380, "'ve": 600, "(": 7, "()": 45191, "à¦¨à¦¤à¦¦": 20396, ")": 8, ")!": 36380, ")\"": 33739, ")(": 29422, "))": 9383, "),": 3824, ").": 3050, ")...": 40144, "):": 4507, ");": 34446, ")?": 25107, ")]": 8245, "*": 9, "*)": 34634, "**": 4852, "Ġà¦¯à¦¬": 13684, "****": 24396, "+": 10, "++": 25472, "+,": 46797, "+.": 45585, ",": 11, ",\"": 2494, "Ġà¦īà¦ĸ": 12529, ",)": 36881, "à¦¶à¦Ńà¦Ļ": 20387, ",-": 44013, ",.": 40698, "Ġà¦¬à¦¶à¦°": 16007, "Ġà¦ħà¦¬à¦¨à¦®": 18531, ",âĢ¦": 42581, ",âĢĭ": 40271, "-": 12, "-\"": 36217, "-'": 49137, "-)": 35129, "-,": 24246, "--": 918, "--\"": 32778, "à¦¨à¦®à¦°": 20075, "à¦£à¦¤": 10922, "--------": 22781, "----------------": 44100, ".": 13, ".\"": 889, ".'": 4443, ".'\"": 28763, ".''": 34928, ".(": 45385, ".)": 4273, ".*": 40538, ".,": 7933, "à¦¯à¦¬à¦²": 20375, "..": 353, "à¦¤à¦¦à¦¶": 14757, "..\"": 25275, "..'": 47145, "..)": 23085, "...": 485, "Ġà§§à§¯à§¨à§¬": 14288, "...\"": 7651, "...'": 42327, "...)": 10050, "...,": 25427, "....": 2751, "à¦ķà¦Ľà§ľ": 13556, "à¦ĩà¦ķà¦ļ": 20111, ".......": 43807, "Ġà¦ħà¦Ĺà¦¨": 18097, "................": 45409, "...</": 41341, "...?": 8964, "...?)": 46498, "Ġà¦«à¦²à¦¶": 13161, "...âĢĭ": 26980, "Ġà¦¹à¦ľà¦¯": 14305, "..]": 23548, ".:": 23495, ".</": 8131, ".?": 41401, ".\\": 36350, ".]": 8147, ".Â»": 49335, "Ġà¦ĵà¦Ŀ": 14900, ".âĻª": 40847, ".ï¿½": 42521, "/": 14, "/.": 48550, "à¦ıà¦°à¦ĩà¦®à¦§": 18150, "0": 15, "00": 628, "000": 1360, "0000": 33202, "Ġà¦īà¦²": 10607, "Ġà¦ªà¦°à¦²": 12756, "Ġà¦ĩà¦¹": 11592, "à¦°à¦¶à¦ķ": 14565, "Ġà¦ªà¦¦à¦ļ": 13328, "à¦Łà¦ļ": 12791, "à¦īà¦ıà¦ĩà¦ļà¦ĵà¦°": 16231, "Ġà¦¤à¦ªà¦¶": 16133, "à¦¹à¦°à¦ķ": 13811, "1": 16, "10": 3279, "100": 6879, "à¦°à¦¬à¦¹à¦¨": 21199, "101": 47520, "11": 5348, "110": 43435, "12": 4762, "120": 28829, "125": 48804, "13": 7668, "130": 42438, "14": 7271, "140": 49258, "15": 5211, "Ġà¦«à¦°à¦®à¦Ł": 20120, "16": 6866, "160": 44158, "17": 7773, "18": 6494, "180": 37078, "19": 3405, "2": 17, "20": 2009, "200": 7629, "2000": 25743, "2015": 46081, "2016": 41103, "2017": 38987, "2018": 35023, "2019": 30620, "2020": 23095, "2021": 35016, "21": 4436, "22": 7490, "23": 9356, "24": 7911, "25": 6074, "250": 23538, "Ġà¦ħà¦¨à¦²": 10880, "27": 10076, "à¦¹à¦ľ": 11205, "à¦Īà¦®": 11871, "3": 18, "30": 3446, "Ġà¦ĸà¦¬à¦°à¦Ł": 12566, "3000": 43160, "Ġà¦Ĩà¦ĩà¦¨à¦Ł": 12967, "Ġà¦ħà¦¬à¦¹": 11440, "33": 10191, "Ġà§®à§¨": 12249, "35": 8794, "350": 36027, "à¦¦à¦Ł": 11309, "360": 34099, "Ġà¦Ĩà¦«à¦ľ": 12851, "Ġà¦¬à¦ķà¦°": 12625, "à§Łà¦ķà¦°à¦£": 12493, "4": 19, "40": 5254, "à¦¤à¦ªà¦°": 13741, "Ġà¦Ĩà¦¸à¦ĵà§Ł": 17344, "Ġà¦«à¦ķà¦°": 15628, "à¦ıà¦²à¦ĵ": 17201, "à¦ľà¦¡": 13912, "45": 8465, "450": 48957, "à§§à§¯à§¯à§©": 16169, "à§ľà¦Ń": 14060, "Ġà§§à§¯à§«à§¬": 13318, "Ġà¦īà¦ªà¦¶à¦®": 14938, "5": 20, "50": 2803, "500": 7526, "5000": 44557, "à¦¨à§Łà¦¨à¦ĩ": 18682, "Ġà§ªà§¦à§¨": 17602, "Ġà§§à§®à§§à§ª": 19584, "Ġà¦ĩà¦¨à¦Ńà§Ł": 19563, "à¦¨à¦¤à¦²": 13622, "Ġà¦¨à§Łà¦¨à¦ķ": 18317, "à¦°à¦ķà¦Ĺà¦£": 19004, "Ġà§¨à§¦à§¨à§®": 20419, "à¦ķà¦¬à¦¸": 19600, "6": 21, "60": 4550, "à¦¹à¦°à¦ª": 15707, "61": 31537, "62": 28052, "63": 29491, "Ġà§§à§®à§§à§¨": 19395, "Ġà§§à§®à§Ńà§¯": 16824, "à§ªà§©": 15237, "67": 22452, "68": 27102, "69": 30908, "7": 22, "70": 5867, "Ġà¦ĩà¦īà¦«": 18197, "71": 29985, "72": 28890, "73": 33396, "74": 34026, "Ġà§§à§¯à§¦": 11901, "750": 45396, "76": 25026, "Ġà§ªà§«à§«": 17512, "78": 30693, "79": 32042, "8": 23, "80": 4702, "Ġà§¨à§®à§¦": 14423, "81": 32875, "82": 32848, "83": 31849, "84": 25494, "à¦Ĭà¦¨": 19287, "86": 22193, "87": 23853, "à¦ĩà¦ķà¦¬": 16919, "Ġà¦ķà¦ĩà¦¸": 21115, "9": 24, "90": 7771, "900": 23943, "91": 29925, "à¦ªà¦¦à¦¹": 21821, "93": 26372, "94": 27032, "Ġà¦¬à¦°à¦¯": 15718, "96": 22962, "97": 23247, "98": 22516, "99": 8494, "999": 49017, ":": 25, ":\"": 31330, "à¦Ĺà¦²à¦¯": 21048, "à¦Łà¦Ĺà¦¤": 21492, "Ġà¦¬à¦ķ": 10624, ":ãĢĮ": 45876, ";": 26, ";;": 35746, "<": 27, "</": 3433, "<|endoftext|>": 50257, "=": 28, "Ġà¦§à¦®à¦ķ": 13114, "=\"#": 34106, "=#": 49872, "==": 2945, ">": 29, ">-": 33335, "><": 29986, "></": 48986, ">>": 893, "?": 30, "?!": 3529, "?!\"": 35271, "?!?": 38825, "?!?!": 44587, "?\"": 1811, "?\",": 29359, "?\".": 25760, "?'": 8569, "?)": 4827, "?,": 22753, "?-": 38337, "?.": 27552, "?..": 46863, "?...": 32865, "?</": 27381, "??": 4246, "à¦¡à¦²à¦«": 16259, "????": 25629, "?]": 7507, "à¦ľà¦«à¦«à¦°à¦ª": 20096, "?ãĢį": 30949, "@": 31, "A": 32, "AA": 5265, "Ġà§§à§¯à§«à§Ń": 13336, "AAAAAAAA": 32729, "Ġà¦ªà¦¥à¦¸à¦Ń": 13868, "AC": 4378, "ACE": 23866, "à¦¶à¦°à¦ŀ": 19972, "Ġà¦ĩà¦īà¦ıà¦¨": 11595, "ACT": 42936, "AD": 6112, "ADA": 45852, "ADAS": 37760, "ADE": 41671, "AF": 40418, "AG": 50228, "à¦¨à¦¨": 10566, "AI": 48698, "AJ": 36404, "AK": 5340, "à¦ķà¦¸à¦ľ": 15030, "AKI": 23225, "AL": 3427, "ALD": 35502, "à¦Ĺà¦Ł": 11566, "ALK": 24477, "à¦ķà¦ªà¦ŀ": 15921, "ALLY": 23327, "AM": 2865, "AMA": 38136, "AME": 31296, "AN": 1770, "Ġà¦Ĩà¦²à¦¬à¦¦": 21429, "ANC": 31885, "AND": 8070, "ANE": 29348, "Ġà¦«à¦²à¦¨": 12419, "Ġà§¬à§Ńà§©": 18215, "ANNA": 40682, "ANO": 48129, "ANS": 25711, "à¦¨à¦ªà¦¤": 12243, "AP": 4715, "APP": 8749, "APPLAUSE": 10181, "AR": 1899, "ARA": 26715, "Ġà¦ķà¦¤à¦ľà¦¨": 13259, "ARE": 28186, "ARI": 39545, "ARIN": 36304, "ARK": 36402, "ARON": 43191, "ARR": 7859, "ARRATOR": 9979, "ARRY": 49968, "ARS": 31343, "Ġà§¨à§©à§Ń": 15118, "ARY": 24634, "AS": 3160, "ASE": 26462, "ASH": 24036, "ASON": 26556, "à¦¦à¦Ļ": 19678, "Ġà¦Ĩà¦ĩà¦¨à¦ĩ": 20398, "AT": 2218, "ATA": 44811, "à§§à§¯à§¨à§ª": 20047, "à¦¦à¦¨à¦ĩ": 17026, "ATHAN": 49779, "ATHER": 39811, "ATION": 22528, "ATOR": 9041, "ATT": 43321, "AU": 2340, "AUDI": 4993, "AUDIBLE": 5436, "AUDIENCE": 37152, "AUDIO": 29937, "AUL": 22624, "AY": 4299, "Ab": 23695, "Abs": 46417, "Ac": 43705, "Acc": 47943, "Act": 30338, "Ġà¦¬à§ľà¦°": 15830, "Adam": 32937, "Add": 36189, "Af": 32104, "After": 24288, "Ag": 37968, "Ġà¦¸à§ľà¦ķ": 10844, "Air": 46016, "Al": 9171, "Alex": 22993, "All": 7868, "Allah": 26022, "Alright": 30184, "Ġà¦Ĩà¦°à¦¹": 16833, "à¦°à¦·": 11755, "à¦·à¦ļà¦¨": 14604, "Americans": 34860, "An": 7828, "And": 5289, "Andrew": 38805, "Ang": 23156, "Angel": 43643, "à¦ªà¦Ŀ": 15275, "à¦¤à¦¬à¦§à¦°": 19007, "Another": 46028, "Ant": 35807, "Any": 29647, "App": 9132, "Ġà¦ªà¦°à¦®à¦¬": 14650, "à¦ªà¦¦": 10683, "Ġà§§à§©à§«": 13332, "Arin": 47405, "Art": 32925, "Arthur": 42646, "à¦¯à¦ķà¦°": 10884, "Ash": 32648, "Ask": 47802, "à§§à§¯à§¨à§¬": 20892, "Assistant": 27763, "Ġà§®à§¦à§Ń": 18684, "Att": 38151, "Ġà¦¸à¦Ł": 15591, "à§Łà¦®à¦ĵ": 19213, "Aust": 47215, "Aut": 49769, "Aw": 36477, "Ay": 31983, "B": 33, "BA": 9295, "BACK": 40880, "BB": 30366, "BC": 7869, "BE": 10207, "à¦·à¦ķà¦¦": 11074, "BERG": 46233, "BERT": 22184, "à¦¤à¦«": 11291, "Ġà¦Ĩà¦²à¦ª": 17624, "BLANK": 37592, "BLE": 4854, "BLEEP": 34542, "Ġà§§à§®à§©à§©": 18345, "BN": 32006, "à¦ıà¦ķà¦ĩà¦¸à¦Ļ": 15893, "Ġà¦īà¦ªà¦¸à¦°": 11609, "Ġà¦ªà¦°à¦ļ": 17442, "à¦ľà¦®à¦¨": 18468, "BS": 8176, "BSCRI": 31622, "BT": 33853, "BU": 41743, "Ġà¦°à¦ķà¦®à¦Ń": 16688, "Ba": 33407, "Baby": 39767, "Back": 28404, "Bar": 38666, "Bay": 29853, "Be": 6524, "Ġà¦īà¦ĩà¦²à¦¬": 21831, "Before": 49731, "à¦§à¦¨à¦¶": 14551, "Ġà¦Ĳà¦Ń": 21736, "Big": 32023, "Bill": 49783, "Bir": 41786, "Ġà¦¥à¦®à¦¥à¦®": 14520, "Black": 29802, "Blue": 45231, "Bo": 22493, "Bob": 22547, "Bon": 42145, "Ġà¦ļà¦®à¦¤à¦ķ": 19203, "Books": 48386, "Both": 24268, "Box": 34980, "Boy": 31378, "Br": 22170, "Bra": 45606, "Brad": 44435, "Bre": 43034, "Brian": 29462, "Brid": 47738, "Brien": 47999, "Bro": 43295, "Bry": 26727, "Bryan": 34940, "Bu": 28110, "But": 7835, "By": 27690, "Bye": 32825, "C": 34, "Ġà¦¬à¦¸à¦¤à¦Ń": 15515, "CAR": 35270, "Ġà§¬à§¬": 11717, "à¦ķà¦²à¦ľ": 16508, "CE": 4969, "CER": 28313, "CH": 5462, "CHEERING": 41294, "CHUCK": 40308, "CI": 25240, "CK": 9419, "CL": 22458, "à¦²à¦ķà¦Ń": 12322, "COM": 34939, "CON": 45541, "Ġà¦¶à¦¤à¦°à¦ŀ": 20049, "Ġà¦¬à§Łà¦¸à¦ķ": 18547, "CRI": 28046, "CROSSTALK": 39721, "CS": 26283, "à¦¾": 10259, "CTOR": 28587, "CTV": 41391, "CU": 25864, "CUBE": 39882, "Cal": 31279, "Call": 46113, "Cam": 31030, "Camer": 39027, "Camera": 48009, "Cameraman": 44689, "à¦¶à¦¸": 11531, "Cap": 46671, "Car": 24437, "Care": 41394, "Carl": 35203, "Cause": 7585, "Ch": 6546, "Cha": 46368, "Char": 25291, "Chat": 41683, "Ġà¦ªà¦¥à¦ķ": 15683, "Check": 47769, "Child": 35117, "Cho": 44473, "à¦¤à¦°à¦ª": 11644, "à¦¨à¦¡à¦¸": 19262, "à¦ķà§ľà¦¶": 19171, "Christian": 46580, "Cl": 9966, "Class": 44621, "Clint": 28243, "Clintus": 29549, "Cloud": 32787, "à¦ľà¦ªà¦¦à¦ķ": 21141, "Cola": 42441, "Coll": 35294, "à¦¦à¦¨à¦®": 14627, "Ġà¦Ĩà¦°à¦ıà¦¨à¦ı": 16044, "Comm": 39206, "Comment": 26413, "Commentary": 35077, "Con": 9838, "Conf": 43874, "Cong": 30602, "Connell": 37335, "Connie": 38102, "Cont": 29821, "Cool": 50145, "Cor": 29020, "Could": 46497, "Cr": 38750, "Cra": 46796, "Cre": 44637, "Crowd": 43849, "Cry": 38477, "Cs": 33290, "Cu": 35222, "CÃ³mo": 28342, "D": 35, "DA": 7509, "DAY": 38391, "DB": 27735, "DC": 25619, "à¦ĩà§Łà¦°": 20818, "DE": 22296, "DEN": 41190, "DER": 30500, "DI": 3085, "DIA": 38931, "Ġà¦¶à¦·": 17521, "DING": 49748, "DIO": 49021, "DJ": 48383, "DO": 26649, "Ġà§¯à§¦": 11373, "DR": 9301, "à¦²à¦ĺ": 11844, "DY": 34891, "Da": 32409, "à¦¤à¦ĸ": 14599, "Dam": 37442, "Ġà¦¤à¦¹à¦¶": 17087, "Daniel": 32628, "Das": 40781, "à¦®à¦ķà¦¥": 17298, "Dave": 34075, "Ġà¦§à¦ķ": 18371, "Day": 38495, "à¦Ńà§Ł": 11089, "Dear": 42712, "Del": 40848, "Der": 49853, "Des": 29543, "Det": 41444, "à¦ĩà¦ıà¦«": 17648, "Die": 29928, "Dire": 47747, "Dis": 38742, "Do": 7653, "Does": 30323, "Don": 7450, "Ġà¦§à¦°à¦¨à¦Ł": 15111, "Down": 34402, "à¦®à¦¸à¦¹": 12274, "Drive": 41624, "Du": 46266, "E": 36, "EC": 8140, "ECH": 36880, "ECT": 39904, "ED": 4731, "EE": 7258, "EEEE": 31817, "EEP": 32810, "EER": 25056, "EERING": 27607, "EL": 3158, "à¦¬à¦°à¦¦": 12349, "Ġà¦Ńà¦Ĺà¦¬": 13013, "ELL": 8763, "ELLE": 33420, "ELLER": 38025, "ELLI": 44202, "EM": 6683, "EMA": 24891, "EN": 2195, "ENA": 40998, "ENCE": 7163, "Ġà§®à§®à§©": 18910, "ENE": 35190, "ENGLISH": 47997, "Ġà¦Ŀà¦Ł": 14364, "ENNIS": 45283, "ENS": 30174, "ENT": 9536, "ENTE": 30752, "ENTS": 49751, "EO": 6004, "EOVER": 31825, "EP": 8929, "ER": 1598, "Ġà§©à§§à§Ń": 16069, "ERO": 37494, "à¦ķà¦ĺà¦°": 14451, "ERT": 31479, "ES": 2358, "ESCO": 47024, "ESE": 28161, "à¦ªà¦Ļ": 13750, "Ġà§®à§§": 12268, "Ġà¦¨à¦Ĺà¦°à¦ķ": 14497, "ET": 4850, "Ġà¦Ĩà¦ļà¦°à¦£à¦ķ": 16083, "EX": 39814, "EZ": 42329, "Ed": 27061, "Ġà§©à§Ńà§Ń": 16559, "Eh": 42810, "Ġà¦¥à¦®à¦¸à¦¨": 17356, "Ellie": 42258, "Em": 22285, "à§Łà¦ķà¦ĵ": 16257, "End": 36952, "Eng": 31254, "Ent": 42837, "Ep": 47617, "Er": 28135, "Eric": 34125, "Ġà¦¶à¦¹à¦°à¦ĵ": 20442, "Est": 29545, "Et": 48205, "Eu": 37611, "Euro": 30056, "Europe": 32293, "Even": 25931, "à§§à§¯à§¯à§§": 15536, "Everyone": 29033, "Everything": 44099, "Evet": 43482, "Ġà¦¬à¦ľ": 11149, "Exc": 33553, "F": 37, "Ġà¦Ľà¦²à¦ļ": 19684, "FBE": 26468, "à¦¥à¦²à¦Ł": 18671, "FE": 28182, "Ġà§§à§¯à§¬à§§": 13282, "FF": 6345, "FFFF": 47427, "FI": 38568, "FL": 31455, "à¦¤à¦°à¦¸à¦®": 18067, "FORE": 47696, "FP": 45882, "FR": 34658, "FS": 29318, "FT": 25469, "FX": 36092, "Father": 44773, "Fe": 29341, "Female": 37402, "Ġà¦ķà¦¸à¦¬": 13229, "Ġà¦ĸà§ľà¦¦à¦¹": 17468, "Fil": 39933, "Fin": 50068, "Finally": 44259, "Fine": 41415, "Fire": 45651, "First": 27454, "Fit": 49901, "Fl": 25680, "Flow": 31091, "Fonda": 35286, "Ġà¦ĵà¦ĩà¦¦": 12587, "Form": 49855, "Fr": 40305, "Frank": 47566, "Fre": 47537, "Fred": 44484, "Free": 45479, "From": 26219, "Fun": 46947, "G": 38, "à¦¦à¦¨à¦¶": 12570, "GAN": 27699, "GB": 8769, "GE": 9177, "GER": 34389, "GG": 27561, "GH": 4269, "GHT": 41976, "GI": 26252, "à¦¦à§Łà¦Ł": 19440, "GLISH": 41920, "GM": 25152, "à¦ªà¦Ĺ": 11601, "GR": 23971, "GS": 24446, "GU": 32298, "Game": 32700, "Gary": 31798, "Ge": 22766, "Gen": 26647, "General": 46302, "Ġà§§à§¦à§¦à§¦à§¦": 18133, "Girl": 25192, "Give": 31186, "à¦¹à¦Ń": 12104, "à§¦à§¦à§¦à§¦": 18358, "Gold": 49585, "Ġà¦®à¦°à¦¬": 14649, "Got": 37373, "à¦īà¦ªà¦¯": 20038, "Gra": 37858, "Graeme": 46395, "Grand": 45076, "Great": 30604, "Green": 46854, "Greg": 48254, "Group": 48711, "Gs": 33715, "Gu": 25627, "GÃ¼lme": 45293, "H": 39, "HA": 4983, "à¦ķà¦ķà¦²": 21413, "à¦łà¦ľà¦¨à¦¦": 21803, "HAM": 47035, "HAN": 24496, "HD": 22859, "HE": 23728, "HEN": 46097, "HH": 7499, "HHH": 35446, "à¦¬à¦ªà¦¨à¦ķ": 18454, "HI": 49038, "Ġà¦ıà¦®à¦¨à¦Ń": 12552, "HO": 22585, "à¦¯à¦ľà¦¨à¦ķ": 12527, "HY": 25501, "HYUN": 46625, "Ha": 23745, "Ham": 43662, "Happy": 31496, "Har": 49571, "Harry": 47304, "Have": 25659, "Hay": 39075, "He": 5205, "à§«à§§": 15947, "Help": 48934, "Her": 27934, "Ġà¦Ĩà¦ªà¦¤à¦¤": 17685, "Hey": 7057, "Ġà§§à§®à§¬à§®": 17155, "High": 40185, "His": 26864, "Hmm": 40527, "Ho": 35633, "Hola": 48529, "Hold": 42347, "Home": 47974, "Hope": 46959, "Host": 29644, "How": 6462, "à¦¦à¦ľà¦¨": 21150, "Huh": 33214, "Hy": 38792, "Hyun": 48279, "à¦īà¦īà¦īà¦ī": 21409, "I": 40, "IA": 6914, "IAM": 30202, "IAN": 33794, "IB": 39081, "IC": 2532, "ICA": 22772, "Ġà¦¦à¦®à¦ķ": 13663, "ICEOVER": 31992, "ICES": 40407, "à¦ĩà¦Ńà¦ľ": 15478, "ICIA": 44480, "Ġà¦ıà¦¨à¦¡": 12141, "ICO": 36568, "ID": 2777, "IDE": 29283, "à¦ıà¦«à¦ıà¦®": 21776, "IE": 6550, "IEL": 24212, "IES": 37166, "Ġà¦¶à¦®": 12775, "IFA": 35340, "à¦·à¦ķ": 10489, "à¦·à§İ": 15483, "à¦²à¦Ĩà¦¨": 21926, "IGN": 38455, "II": 9503, "III": 28952, "IK": 22670, "IL": 4620, "ILL": 8621, "ILY": 36980, "IM": 6324, "IN": 1464, "à¦ļà¦ķà¦Ĺà¦£": 20633, "INAUDIBLE": 5444, "à¦·à¦¦à¦¸à¦¹": 18323, "INDISTINCT": 43248, "Ġà¦ĺà¦°à¦Ľ": 16258, "ING": 3017, "INGING": 24763, "INGS": 40434, "INK": 24856, "INO": 40901, "INS": 22354, "INT": 29398, "INTER": 38120, "INTERPOSING": 46873, "Ġà¦¸à¦¬à¦°": 15167, "à§¨à§¦à§§à§¬": 12841, "IP": 9139, "IR": 7740, "IRE": 30263, "IS": 2343, "ISA": 26183, "Ġà¦ľà¦¨à¦Ń": 19413, "Ġà§§à§¨à§«à§¦": 18842, "Ġà§®à§¬": 11973, "ISS": 30090, "ISSA": 29001, "à¦¨à¦¬à¦¶à¦°": 19756, "ISTIN": 40346, "ISTINCT": 40578, "IT": 3927, "ITA": 40829, "ITCH": 43071, "ITE": 31540, "à¦Ńà¦¬à¦ªà¦°": 15401, "ITT": 35582, "ITY": 28853, "à§Ī": 10375, "IVE": 34146, "à¦¡à¦Ĩà¦ª": 21124, "IZ": 24374, "Ich": 29081, "Id": 42739, "If": 8031, "Il": 37961, "Im": 31128, "Imp": 43329, "In": 4575, "Inaudible": 24986, "à¦°à¦Ĩà¦°à¦ĵ": 21790, "Ins": 43984, "Inst": 28411, "Int": 25597, "à¦¬à¦ļà¦°": 13406, "Ġà¦Ĩà¦ĩà¦ıà¦¸à¦ıà¦«": 16432, "Intro": 50247, "Is": 6802, "Isn": 48310, "It": 3522, "J": 41, "JA": 27818, "JE": 48474, "JI": 43038, "JIN": 38475, "JO": 37523, "JUN": 42802, "à¦Łà¦¨à¦Ĺà¦°": 19111, "Jac": 31736, "Jack": 23174, "Jacob": 38691, "Jake": 49501, "Jam": 37834, "James": 32263, "Jamie": 47121, "Jan": 46356, "Japanese": 48354, "Jared": 31835, "Jason": 38267, "Ġà§ªà§§à§¨": 16582, "Jeff": 33887, "Jen": 30555, "Jenn": 40286, "Jennifer": 49524, "Jenny": 47546, "Jeremy": 29438, "Jess": 27604, "Jessica": 33576, "Jesus": 37521, "Ji": 49096, "Jim": 36806, "Jin": 37340, "Ġà¦Ńà¦²à¦Ń": 20846, "Joe": 23981, "à¦²à¦¬à¦¦": 16938, "Jon": 33938, "Jordan": 33523, "Josh": 29006, "Judge": 46717, "Jul": 29130, "Julia": 49727, "Ġà¦ħà¦¬à¦ľ": 12794, "Justin": 49371, "K": 42, "à§®à§©": 16135, "KE": 8522, "KEN": 40136, "KI": 27731, "KK": 43210, "KN": 34559, "KNOWN": 44505, "KO": 37719, "KS": 31558, "KY": 31796, "Kap": 35372, "KapÄ±": 37520, "Katie": 41776, "Kay": 30711, "Ġà¦«à¦ķà¦¨": 18570, "Keep": 41856, "Kelly": 44688, "Ken": 39492, "Kendra": 37530, "Kevin": 45146, "Kim": 26861, "King": 39239, "Kit": 45626, "Kn": 49276, "Korean": 44285, "L": 43, "à¦¬à¦£": 11435, "LAN": 36527, "LAU": 4633, "LAUGH": 6664, "LAUGHING": 42216, "LAUGHS": 24352, "Ġà¦°à¦®à¦ľ": 11734, "LAUSE": 9174, "Ġà§§à§¯à§§à§§": 14766, "LD": 23704, "LE": 2634, "LED": 23459, "LER": 30494, "LES": 29517, "LET": 43727, "LEX": 23472, "à¦ªà¦ľà§Ł": 14287, "LI": 48718, "LIE": 50144, "LING": 41717, "LL": 24010, "à¦ıà¦¸à¦ıà¦²à¦Ń": 20184, "LOL": 32038, "LP": 45196, "LR": 31722, "à§§à§§à§¯à§": 19198, "à¦®à¦ļ": 10940, "La": 5478, "Lab": 37880, "Last": 42385, "Laugh": 38303, "Laughing": 24742, "à¦²à¦¥à¦ķ": 16577, "à¦Ĩà¦¨": 11064, "à¦ĸà¦Ľ": 11020, "Lee": 39548, "Les": 43701, "Let": 8373, "Life": 25900, "à¦¥à¦¸à¦ļ": 19657, "Lilly": 49387, "Link": 26822, "Listen": 35819, "Little": 42929, "Lo": 31645, "à¦£à¦ľà§Łà¦¨": 12863, "Looking": 47711, "Lord": 35040, "Lou": 46316, "Love": 24394, "Lu": 45908, "Luc": 43628, "M": 44, "MA": 9998, "à§Łà¦¹": 11866, "MAND": 39468, "MANDARIN": 40911, "MB": 47554, "MC": 39261, "à¦¤à¦ķà¦ľ": 15454, "MER": 42620, "Ġà¦Ĩà¦ľà¦Ĺà¦°": 13808, "MIN": 42190, "MK": 48855, "Ġà¦¬à§İà¦¸à¦°": 12683, "Ġà¦ıà¦®à¦ıà¦²à¦ı": 17365, "Ġà¦®à§Łà¦Ļ": 18976, "MON": 35486, "à¦®à¦ĩ": 12224, "à¦°à¦ĸà¦£": 21173, "Ġà¦¹": 10288, "MUSIC": 6848, "MY": 25859, "Ma": 30290, "Mac": 34355, "Mad": 33432, "Mag": 37445, "Make": 35650, "Male": 30171, "Man": 6652, "Mania": 45637, "à¦¯à¦ķà¦°à¦£": 16639, "Ġà¦ĸà¦°à¦Ĺ": 15168, "Mart": 29612, "Mary": 29681, "Master": 40854, "Mat": 42325, "Matt": 23483, "Max": 36025, "à¦°à¦£à¦¸à¦®": 19533, "Maybe": 29727, "Mc": 46716, "à¦ķà¦¡": 12671, "Med": 42954, "Mel": 41510, "Men": 30505, "Mer": 45757, "Mi": 49380, "Mic": 48831, "Ġà§Ńà§¯à§¯": 18462, "Michael": 23277, "Mike": 25519, "Min": 30031, "Miss": 47205, "Missy": 47840, "Mm": 47598, "Mo": 29396, "Ġà¦Ĩà¦Ĺà¦·": 13255, "Mon": 32498, "Moo": 47695, "Moon": 46015, "More": 33986, "Most": 49101, "Mother": 41689, "Ġà¦ķà§Ł": 10554, "Ms": 26386, "Mus": 22088, "Music": 8710, "Musik": 43417, "My": 8506, "MÃºsica": 38725, "à¦®à¦°à¦¤": 11443, "N": 45, "NA": 5321, "à¦·à¦ľà¦¨à¦ķ": 13360, "Ġà¦ļà§ľà¦Ľ": 15988, "à¦Ĩà¦ĩà¦ıà¦¸à¦ıà¦²": 21317, "NER": 24499, "NET": 35554, "NEY": 45317, "NG": 30237, "NI": 42496, "NIE": 34279, "NING": 28481, "NIS": 22460, "Ġà¦°à¦ĵà¦¶à¦¨": 12861, "NOISE": 26877, "NON": 34292, "NOUN": 33378, "NOUNCER": 34387, "NS": 42003, "NT": 30817, "NY": 27647, "Na": 33824, "Narrator": 9075, "Nat": 49310, "Nathan": 50072, "à¦ıà¦¸à¦ĩà¦ıà¦ķ": 15496, "Net": 31890, "Never": 37857, "Ġà¦Ĩà¦ªà¦¨à¦ľà¦¨à¦¦": 18278, "News": 35766, "Next": 31002, "Nice": 37717, "Nick": 44387, "Nico": 35137, "No": 4540, "Non": 47914, "Ġà¦Łà¦¨à¦ķ": 15208, "Note": 49250, "Nothing": 42130, "Ġà¦ıà¦²à¦ª": 13267, "NÃ£o": 48204, "O": 46, "OC": 30087, "à§¨à§¦à§¦à§¦": 14632, "OFF": 45825, "OG": 45978, "OH": 31187, "OK": 9443, "OL": 5046, "OLD": 33203, "OLL": 35787, "OM": 5251, "OMAN": 26418, "OME": 23344, "ON": 1928, "ONA": 49659, "à¦¨à¦īà¦²": 14248, "ONEY": 49209, "Ġà§§à§¯à§¯à§«": 12661, "ONY": 48235, "OO": 3783, "Ġà¦¯à¦ĸ": 20969, "OOK": 24213, "OOM": 26345, "OOO": 44136, "à¦®à¦¸à¦ļ": 14963, "OOOOOOOO": 40466, "à¦ķà¦¯": 12059, "OR": 2483, "ORA": 36860, "Ġà¦ĺà¦°à¦¬à¦¨": 13748, "Ġà¦Ĩà¦ĩà¦ĵà¦¸": 16193, "ORIA": 22361, "ORT": 25319, "ORTER": 39351, "ORY": 38847, "OS": 4367, "OSE": 40097, "OSH": 26255, "OSS": 35683, "OSSTALK": 39624, "OST": 28067, "OT": 5068, "OTH": 28200, "OTHER": 48467, "OTT": 29525, "OU": 4807, "OUGH": 34723, "OUL": 46598, "OULD": 50246, "OUR": 29127, "OUT": 27276, "OW": 5769, "Ġà¦Ĺà¦²à¦¸": 17536, "à¦¡à¦ĵà¦®": 16973, "Ob": 45483, "Of": 23919, "Off": 29745, "Oh": 3756, "Ok": 26616, "Okay": 8297, "Ol": 38056, "Old": 49032, "à¦ļà¦¶": 11747, "Once": 47062, "à¦¤à¦ªà¦¨": 15426, "Only": 35773, "Ooh": 44648, "Open": 45569, "Ops": 36179, "à¦Łà¦¬à¦²à¦Ł": 21520, "Orange": 41206, "Os": 31376, "Our": 24466, "Out": 28353, "Over": 33093, "P": 47, "à¦¹": 10297, "Ġà¦Ĩà¦Ľà§ľ": 12986, "à¦°à¦°à¦ŀ": 17349, "PE": 5208, "Ġà¦Ĩà¦¬": 10393, "à¦ªà¦¨à¦®": 21197, "à¦Ĩà¦°à¦ıà¦¸à¦ıà¦¸": 21904, "PI": 31701, "Ġà¦ıà¦°à¦²": 21593, "PLE": 37616, "Ġà¦ªà¦¥à¦ļà¦²à¦¤": 18819, "à§Łà¦¤à¦²": 15466, "PO": 34885, "POS": 41916, "POSING": 46724, "Ġà¦ĺà¦°à¦¨": 17755, "Ġà¦ľà¦ª": 15958, "PS": 6273, "PU": 8115, "à¦°à¦¬à¦Ľà¦°": 18968, "Pac": 45604, "Pad": 50112, "Pal": 29141, "Par": 46087, "Park": 37905, "Part": 37012, "Pass": 39529, "Pat": 29331, "Paul": 26434, "à¦īà¦Łà¦°à¦°": 20048, "People": 35069, "Per": 23232, "Perfect": 48153, "Peter": 28947, "Ph": 24382, "Phone": 39932, "Pl": 33710, "Play": 24262, "Ġà¦Łà¦Ĺà¦¬à¦Ĺ": 16216, "Plus": 32111, "Pod": 40742, "Pods": 39720, "Ġà¦ħà¦ªà¦Ń": 18705, "Pop": 38677, "Por": 24907, "Power": 46057, "Pr": 30519, "Pre": 42844, "Ġà¦ĸà§ľà¦Ĺà¦¹à¦¸": 20516, "Ġà¦ıà¦ĩà¦Ń": 12681, "Produ": 42370, "Prof": 43227, "Ps": 23043, "Put": 37594, "Q": 48, "Ġà¦¸à§İà¦ķ": 13695, "QU": 26078, "QUE": 41724, "Qu": 8547, "Que": 24011, "Queen": 47924, "Query": 35550, "Ġà¦ıà¦ķà¦Ń": 15137, "R": 49, "RA": 3750, "RAY": 48023, "RC": 28437, "RE": 3850, "REAM": 28649, "REE": 44542, "RET": 36535, "REW": 26543, "REY": 29233, "RI": 5577, "RIA": 41125, "RIS": 9698, "RISADAS": 38952, "à¦ĩà¦¬": 10740, "RNA": 37377, "RO": 7142, "RP": 28516, "RR": 35714, "RS": 43580, "Ġà§©à§ªà§«": 16359, "Ra": 41873, "Rad": 48444, "Rah": 42077, "Ray": 35737, "Re": 8524, "Read": 40702, "Real": 45261, "Really": 26459, "Rec": 48883, "à¦¶à¦Ĺà¦²": 20544, "Redner": 35338, "Rednerwechsel": 35382, "Reg": 40888, "Rel": 49029, "Rem": 39170, "Rep": 25554, "Reporter": 35918, "Res": 33274, "Rh": 31121, "Rhett": 38110, "Rich": 44654, "à¦°à¦¡à¦ĵà§Ł": 16964, "Ro": 26235, "Rob": 26332, "Robert": 47960, "Rock": 39061, "Ron": 45532, "Run": 42639, "Ryan": 32106, "S": 50, "SA": 8886, "SAY": 40853, "Ġà¦¨à¦°à¦ĸ": 20839, "SD": 23969, "SE": 5879, "à¦®à¦«à¦²": 17308, "Ġà¦®à¦²à¦¹": 20262, "SINGING": 29859, "SL": 47012, "SM": 26693, "SN": 32481, "Ġà¦ıà¦°à¦®": 17188, "à§İ": 10388, "SOUND": 28625, "SP": 27921, "SPD": 42450, "SPEAK": 33898, "SPEAKING": 37414, "SQL": 39934, "à¦ĩà¦¸à¦ª": 21929, "ST": 6840, "STA": 28075, "STALK": 39557, "STE": 39285, "STR": 49440, "à¦ļà¦ľà¦¨à¦ĩ": 20214, "Sa": 45393, "Sab": 47556, "Sad": 47801, "Sal": 39013, "Sam": 28743, "Sarah": 48878, "Save": 46899, "Say": 42263, "à¦Ĩà¦ķà¦°": 16806, "Sch": 31560, "Scott": 46488, "Ġà¦ľà¦¨à¦¸à¦®à¦ķ": 14237, "à¦°à¦Ł": 10637, "Sean": 49658, "Sec": 29511, "See": 26869, "Sen": 38340, "Ser": 31859, "Set": 42718, "Sh": 7774, "Sha": 23429, "Shaun": 34512, "She": 9526, "Sho": 39751, "Should": 38580, "Show": 27692, "Si": 35885, "Sil": 34384, "Sim": 39392, "Since": 44294, "Singing": 36354, "Sir": 43318, "Sl": 46922, "Sm": 26578, "Sn": 43690, "So": 6455, "Some": 24882, "Something": 45431, "Son": 40710, "Sorry": 29761, "Sound": 44830, "Ġà¦ħà¦ªà¦°à¦Ł": 14014, "Space": 44306, "Ġà§¨à§¬à§§à§§": 19588, "St": 4520, "Sta": 43546, "Star": 24659, "Start": 33996, "Ġà¦Ńà¦°à¦²": 19468, "à¦ĩà¦¸à¦¹": 14208, "Step": 23624, "Stephen": 39908, "Steve": 28910, "Stevie": 37145, "Still": 47156, "Stop": 26163, "Str": 45324, "Stud": 42665, "Student": 40762, "Su": 46413, "Sub": 39582, "Sud": 42545, "Sun": 42455, "Super": 30152, "Sur": 36616, "Sure": 31618, "Sw": 38373, "SÃŃ": 30463, "T": 51, "TA": 8241, "TAKE": 45304, "à¦°à¦ĩà¦²": 18238, "Ġà¦¶à¦°à§İ": 13639, "TER": 5568, "Ġà¦¯à¦®à¦¦": 20527, "TH": 9620, "THE": 41847, "TI": 5422, "Ġà§§à§¨à§¨": 13758, "TION": 7413, "TM": 42023, "Ġà¦ħà¦¯à¦¤": 15427, "Ġà§«à§§à§ª": 17739, "TOR": 36400, "Ġà¦ķà¦°à¦°": 16804, "TR": 25936, "TS": 7327, "TT": 28178, "à¦ıà¦ķà¦¦": 12586, "TY": 23433, "Ta": 35676, "Take": 25891, "Talk": 33210, "à¦ªà¦ľà¦²": 14233, "Team": 38588, "Tech": 36050, "Tell": 36152, "Ter": 43352, "Text": 50198, "Th": 2434, "Ġà§¨à§¦à§¨": 10602, "Thanks": 27917, "That": 6390, "The": 2278, "Ġà¦ľà¦¨à¦ªà¦°": 20371, "There": 9077, "These": 28858, "They": 8829, "This": 5723, "Those": 45413, "Thr": 47256, "Three": 46696, "Tiffany": 37953, "Tim": 32278, "Time": 22233, "à¦§à¦²": 13342, "Tod": 22249, "Today": 27676, "à§§à§¯à§ªà§¬": 18797, "Tom": 23442, "Tony": 48622, "Too": 40980, "Top": 50118, "à¦ĸà¦Ĺ": 14252, "Tra": 38971, "Trans": 33339, "Tre": 46009, "Ts": 33424, "Tu": 41405, "Tube": 41173, "Turn": 50182, "Tw": 42070, "Two": 33594, "Ty": 22464, "Tyler": 39843, "U": 52, "UA": 35227, "UB": 23553, "UC": 23967, "à§Łà¦°à¦¨": 14263, "UD": 9438, "à¦ķà¦°à¦¤": 16309, "Ġà¦ıà¦¬à¦¦": 20777, "UI": 46324, "UL": 10253, "ULL": 42615, "Ġà§«à§«à§¦": 14340, "UN": 3979, "à¦¹à¦ĩ": 14126, "à¦¤à¦°à¦£à¦ķ": 14676, "UNKNOWN": 47774, "UNT": 41872, "UP": 22917, "UR": 7932, "URE": 35916, "US": 3447, "USE": 44626, "USIC": 5791, "Ġà¦®à¦¸à¦ķ": 21536, "USTIN": 35659, "UT": 8709, "UU": 23687, "Uh": 27727, "Um": 40937, "Ġà¦ıà¦ķà¦¯": 12405, "Unis": 39489, "Up": 22164, "Us": 29211, "V": 53, "à¦ĩà¦²à¦ªà¦²": 20914, "VE": 7540, "VEL": 46149, "VEN": 29016, "VER": 9398, "VES": 46467, "VI": 25322, "VID": 3958, "VIE": 33238, "VIN": 27487, "Ġà¦ĩà¦ķà¦¬": 11345, "Ġà¦Ĩà¦¶à§Ł": 20664, "VOICEOVER": 33890, "VPN": 45998, "VR": 44358, "Ver": 36929, "Very": 31733, "Vi": 41093, "Via": 46477, "Vict": 39981, "Video": 46287, "View": 30203, "à¦¬à¦¹à¦¤": 13339, "à¦ĸà¦ªà¦¤": 14631, "W": 54, "à¦¸à¦«à¦²à¦¤": 21449, "WAN": 42843, "WAY": 44372, "WE": 37937, "WER": 37598, "WH": 28206, "WOO": 46383, "WOR": 48126, "à¦Ļà¦²": 12508, "WW": 44048, "Ġà¦ıà¦²à¦Ĺà¦°": 20376, "War": 45696, "Was": 30974, "Watch": 36204, "We": 4360, "Welcome": 35251, "Well": 6271, "West": 37943, "Wh": 2471, "What": 3748, "à¦ĩà¦¸à¦Ļ": 11645, "à¦īà¦ŀ": 14436, "Which": 33785, "While": 46075, "White": 47589, "Ġà¦ªà¦ŀ": 10927, "Whoa": 43074, "Why": 8429, "Ġà§®à§ªà§¯": 18996, "Wind": 45813, "à¦°à¦®à¦¹à¦²": 20943, "Wo": 44993, "à§Łà¦¨à¦Ĺà¦ŀ": 14361, "Work": 28846, "World": 37881, "Would": 35256, "à§ľà¦ª": 14076, "X": 55, "à¦Łà¦°à¦ª": 20542, "Xi": 41577, "Y": 56, "YA": 34349, "YAN": 25326, "Ġà§Ńà§¯à§«": 18881, "YN": 22315, "YO": 28821, "Ġà§§à§¨à§§à§¨": 19280, "YY": 40570, "Ya": 26795, "Ye": 5542, "Yeah": 5973, "Yes": 6054, "Yo": 27728, "You": 3223, "Young": 36605, "à¦°à¦®à¦²": 17927, "Z": 57, "ZA": 39431, "ZY": 26888, "ZZ": 30108, "Ze": 44571, "[": 58, "\\": 59, "\\'": 40894, "]": 60, "à¦¨à¦®à¦¨": 10599, "],,": 43192, "].": 5840, "]..": 29721, "]:": 6844, "]?": 33129, "][": 43926, "^": 61, "^^": 30932, "_": 62, "Ġà¦Ĺà¦°": 10852, "____": 23757, "`": 63, "a": 64, "aa": 4332, "aaS": 45515, "aaa": 22714, "Ġà¦Ķà¦ľ": 16425, "aal": 38950, "Ġà¦Ĩà¦ĩà¦ıà¦²à¦ĵà¦°": 21326, "aat": 40841, "ab": 455, "aba": 5509, "abad": 32776, "Ġà§¬à§Ńà§¬": 18165, "à¦£à¦®": 10797, "abe": 4488, "Ġà¦Ńà¦¬à¦¨à¦Ł": 12449, "Ġà¦¸à¦°à¦¬à¦¤": 18657, "aben": 25071, "aber": 23298, "abet": 9058, "à¦¨à¦ļà¦°": 12632, "à¦īà¦¨à¦²": 11744, "à¦Ĩà¦ĩà¦Ĩà¦ĩ": 18884, "abil": 5177, "abile": 33288, "à¦ªà§ľà¦ķ": 21711, "abilities": 6167, "ability": 2310, "abis": 22588, "abl": 32212, "able": 712, "abled": 8909, "ables": 2965, "à¦ĩà¦Łà¦ª": 20112, "Ġà¦īà¦¡à¦ĵà§Ł": 21991, "ably": 1188, "abo": 41265, "à¦¬à¦°à¦ª": 14923, "abolic": 26956, "abor": 3816, "abord": 26100, "Ġà¦ıà¦ĩà¦°à¦ķà¦®à¦ĩ": 21970, "abouts": 41620, "Ġà¦Ĺà¦°à¦¹": 17243, "à¦Ĺà¦ķà¦°": 14057, "à¦¦à§Łà¦Ń": 19189, "abus": 41797, "aby": 2509, "abyrin": 46800, "abyte": 34529, "abytes": 24538, "ac": 326, "aca": 6628, "à¦ĥ": 10508, "acaks": 23825, "acaksÄ±n": 29703, "acakt": 40707, "acam": 47190, "acao": 50195, "acas": 43786, "acaÄŁ": 10064, "Ġà¦¹à¦°à¦®à¦¨à¦ª": 16763, "Ġà¦ĩà¦īà¦ıà¦¨à¦ľ": 20800, "acc": 8476, "accept": 24870, "acceptable": 29888, "acci": 43870, "acciÃ³n": 49354, "à¦ĸà¦²à¦¤": 18662, "à¦īà¦ľà¦²": 19947, "ace": 617, "aced": 3839, "acement": 7621, "acements": 41140, "Ġà¦Ľà¦¦": 12858, "aces": 2116, "aceut": 23645, "aceutical": 24218, "acey": 29059, "ach": 608, "acha": 27442, "ache": 6000, "à¦°à¦«à¦²": 15095, "achel": 8188, "à¦¨à§Łà¦¨à¦ª": 15173, "Ġà¦ĸà¦²": 11646, "acher": 4062, "à¦ļà¦ľà¦¨à¦ķ": 13272, "à¦¨à¦ľà§Ł": 21791, "achine": 34922, "aching": 2834, "achment": 23908, "acho": 46574, "achsen": 31625, "acht": 3589, "achte": 26136, "Ġà¦Ĩà¦ĵà¦¨": 20806, "achtet": 48833, "achts": 47850, "achu": 29220, "Ġà§§à§®à§©à§¬": 19024, "à¦Ĺà¦¬à¦¸": 19681, "aci": 22086, "acia": 28000, "acial": 25980, "acie": 30805, "Ġà§§à§Ńà§Ńà§¦": 20330, "acing": 5615, "acio": 24571, "à¦¨à¦¦à§Ł": 18803, "à¦¤à¦²à¦ķ": 13608, "aciones": 9188, "acions": 43724, "acious": 22641, "à¦¹à¦¤à¦ķ": 19008, "Ġà§§à§®à§¦à§¦": 14915, "aciÃ³n": 3482, "acja": 23395, "acje": 29293, "à¦ľà¦Ļ": 13152, "acjÄĻ": 29924, "ack": 501, "acked": 25949, "acker": 23599, "à§ľà¦ľ": 14134, "acks": 7424, "acle": 7041, "acles": 9918, "à¦ķà§ľ": 11428, "Ġà§®à§¯à§¯": 18181, "acre": 27540, "acs": 44937, "act": 578, "à¦ªà§İà¦¸": 14125, "à¦ľà§Łà¦¸": 19892, "acting": 41090, "action": 2894, "Ġà¦ĺà§ľ": 12299, "activ": 23397, "ĠĠĠĠĠĠĠ": 12596, "actively": 45679, "actly": 46831, "Ġà¦ķà¦¬à¦ľ": 15104, "Ġà§§à§Ńà§«à§¬": 21840, "à¦Łà¦°à¦¯": 15295, "actus": 34775, "acula": 41422, "Ġà¦ľà§Łà¦¶": 14700, "acun": 34935, "acy": 2551, "acyj": 31285, "à¦®à¦¥": 14875, "aczego": 39329, "à¦ļà¦Ľ": 14691, "acÄ±": 47327, "acÄĥ": 44929, "ad": 345, "ada": 1538, "adaki": 48457, "adamente": 27858, "à¦Łà¦°à¦¸": 11338, "adas": 6872, "adata": 24695, "à¦ªà¦·": 11113, "à¦ĺà¦ľ": 16363, "add": 25224, "adder": 29901, "addin": 41284, "ade": 762, "adece": 25978, "Ġà¦®à¦Ĺ": 12777, "à¦°à¦¤à¦ĩ": 16325, "Ġà¦ıà¦¨à¦¥": 20598, "Ġà¦ıà¦°à¦¸": 20850, "adem": 49290, "Ġà¦¬à¦¨à¦ķà¦°": 14771, "adequ": 34209, "ader": 8312, "à¦Ĩà¦Ĺà¦¸": 15221, "ades": 2977, "adesh": 26338, "adh": 46908, "adi": 5688, "adia": 42343, "adian": 42985, "adic": 43341, "adin": 39961, "ading": 8166, "à¦ªà¦°à¦°": 13534, "adle": 41212, "ado": 1573, "adomo": 40633, "ador": 5409, "adora": 23020, "adore": 49095, "à¦®à¦ķà¦°à¦£": 11856, "adors": 29816, "ados": 4181, "à¦ĸà¦ª": 11528, "adows": 33480, "adox": 23029, "ads": 5834, "à¦¥à¦ķà¦¤": 14680, "adura": 25154, "ady": 880, "adÄ±": 35287, "adÄ±m": 33324, "ae": 8346, "aeda": 43973, "ael": 4300, "af": 2792, "à¦ľà¦¨à¦ªà¦°": 19846, "afar": 47030, "afe": 24248, "aff": 2518, "affe": 23629, "Ġà§®à§§à§Ń": 19182, "affle": 29264, "affles": 40349, "afft": 29445, "à¦Ĩà¦ĩà¦ıà¦²": 21007, "Ġà¦ıà¦¸à¦ıà¦¸à¦ıà¦«": 18837, "ag": 559, "aga": 9286, "again": 39372, "Ġà¦ıà¦«à¦ı": 14167, "agar": 29124, "agara": 38816, "age": 609, "aged": 2980, "à¦ªà¦¦à¦Ĺ": 14767, "à¦ĩà¦Ľ": 11129, "agen": 4698, "agens": 27936, "ager": 3557, "agers": 8776, "ages": 1660, "à¦¨à¦ĩ": 11062, "aggi": 46893, "aggio": 30763, "à¦®à¦®à§Ł": 14842, "aghetti": 24402, "Ġà¦¶à¦ĵà¦ķ": 20291, "à§ĩ": 10260, "aging": 3568, "agit": 32730, "Ġà§®à§®à§¦": 15088, "agles": 33300, "agn": 4535, "agna": 35697, "à¦¸à¦¦à¦¸": 13887, "agner": 22720, "ago": 6442, "agog": 31599, "agogue": 42207, "agon": 6709, "agram": 3914, "Ġà¦°à¦¹à¦®à¦¤": 12109, "agt": 7665, "agu": 31686, "agua": 48692, "ague": 4918, "agues": 7063, "agus": 32813, "agÄĻ": 40748, "ah": 545, "aha": 4408, "à¦ªà¦ļ": 11562, "à¦¸à¦¨à¦ĵ": 15380, "ahahaha": 30284, "Ġà¦Ĩà¦ľà¦®à¦Ĺà§ľ": 21436, "ahh": 44251, "ahi": 27783, "à§ĭà¦ģ": 10722, "à¦«à¦īà¦²": 21128, "ahlt": 44950, "Ġà¦Ķà¦·à¦§": 12140, "aho": 25825, "ahon": 45080, "ahr": 5398, "ahren": 7079, "à¦ħà¦¬à¦¶": 12156, "ai": 1301, "aiah": 23657, "à¦ļà¦ķà¦Ł": 17810, "aide": 41980, "Ġà¦¨à§Łà¦¨à¦ª": 21368, "aign": 4897, "ail": 864, "ailable": 32699, "à¦ĩà¦ľà¦Ĺ": 18790, "ailed": 24731, "ailing": 23315, "Ġà§¦à§§à§Ńà§§à§¨": 19400, "ails": 6227, "aime": 24461, "aimer": 43378, "ain": 491, "aina": 43054, "aine": 7119, "ained": 3563, "ainen": 30416, "Ġà¦¨à¦ĩà¦®": 19295, "aining": 3686, "ains": 2315, "aint": 5114, "ainted": 26278, "à¦īà¦¶à¦¨à¦¸": 19594, "air": 1246, "aire": 9020, "aired": 22686, "à¦ĩà¦®": 10840, "airs": 4094, "airy": 47413, "ais": 1527, "aiser": 34786, "aisia": 47858, "aison": 29527, "aisse": 40714, "ait": 1001, "aj": 1805, "Ġà¦¸à¦¬à¦ķà¦Ł": 12908, "ajcie": 47276, "à¦®à¦¶": 11153, "ajes": 29362, "aji": 29319, "à¦Ŀà¦ķ": 13440, "aju": 33166, "Ġà¦Ĩà¦¹à¦®à¦¦": 11133, "ajÄħc": 38757, "ak": 514, "aka": 7849, "akah": 40060, "à¦ķà¦Łà¦¨": 14910, "akap": 49904, "akat": 39051, "ake": 619, "aked": 7301, "aken": 9846, "aker": 4003, "à¦¸à¦ļà¦°": 19552, "akes": 3419, "à¦·à¦ĸ": 14532, "aki": 7421, "à¦¡à¦ĵà§Ł": 12709, "aking": 2456, "akis": 39128, "akk": 44310, "Ġà§Ńà§«à§§": 18501, "akov": 39879, "akra": 34401, "aks": 5461, "aksi": 45042, "akt": 5886, "akte": 48036, "akter": 33557, "aktu": 37535, "Ġà¦§à¦°à¦ª": 15803, "akukan": 42774, "à¦¡à¦§": 15681, "al": 304, "ala": 5159, "Ġà¦¸à¦°à¦¤": 16434, "alal": 43753, "alam": 23819, "à¦¬à¦¶à¦°": 14163, "à¦¥à¦²à¦¬à¦¨": 12789, "Ġà§¨à§«à§¦": 12031, "alarÄ±": 47289, "alay": 35951, "ald": 3976, "aldo": 37623, "ale": 1220, "aleb": 26053, "aled": 5573, "Ġà§¦à§¨à§Ń": 21745, "Ġà¦®à¦¹à¦²à¦ķ": 17148, "ales": 4229, "alet": 49744, "aley": 29172, "alez": 37646, "aleÅ¼": 45494, "aleÅ¼y": 37169, "alf": 1678, "à¦īà¦ĩà¦ĺ": 20422, "algia": 30928, "algic": 38010, "ali": 5103, "Ġà¦Ĩà¦§à¦Ł": 15579, "alid": 31509, "à¦¶à¦Ĺà¦®": 21980, "alies": 48872, "alin": 24861, "aling": 4270, "alion": 35791, "alis": 48581, "Ġà¦ªà¦°à¦ª": 16110, "alition": 31897, "ality": 1860, "aliÅĽmy": 33955, "alk": 667, "all": 336, "Ġà¦ıà¦ĩ": 10352, "Ġà¦ħà¦ķà¦²": 13492, "allahi": 24079, "à¦īà¦Łà¦Ł": 19394, "Ġà¦ħà¦¯": 11780, "alled": 8907, "allen": 31181, "aller": 22414, "alles": 37927, "alley": 7762, "alling": 24021, "allo": 37104, "Ġà¦Ĩà¦°à¦¶": 13253, "allows": 38811, "alls": 39655, "ally": 379, "aln": 39980, "alnya": 38656, "alnÄ±z": 42751, "Ġà¦ĸ": 10334, "alog": 44434, "alom": 40780, "alon": 34979, "alone": 24806, "Ġà¦ħà¦¬à¦ķ": 11553, "als": 1124, "alsa": 24816, "also": 41551, "alt": 3198, "alta": 37896, "alted": 35906, "alten": 23276, "alter": 43420, "altet": 39931, "alth": 1302, "alties": 26471, "altra": 38865, "altres": 31425, "altro": 47484, "alts": 49489, "altung": 29631, "alu": 4929, "aluable": 38060, "aly": 5222, "à¦¶à§Łà¦¬": 19530, "alÄ±": 26778, "à¦¯à¦¥à¦Ń": 12714, "am": 335, "ama": 2404, "amaan": 41270, "amam": 31608, "aman": 6147, "amar": 45207, "Ġà§¯à§¨à§Ń": 19473, "amat": 39143, "amation": 30477, "amaz": 30148, "amb": 2173, "amba": 23337, "ambled": 43390, "à¦®à¦²à¦¬": 19391, "ambre": 48230, "ame": 529, "amed": 3475, "à§¯à§¨": 16103, "amen": 22403, "ament": 2466, "amental": 44538, "amente": 3439, "amento": 8824, "amentos": 28775, "aments": 28401, "à¦¬à¦ŀ": 13530, "ames": 1632, "amet": 49083, "ami": 4526, "à¦²à¦¨à¦²à¦ļ": 20726, "Ġà¦Ĩà¦°à¦ıà¦¸à¦ª": 16971, "amientos": 43466, "amiliar": 27393, "amily": 30282, "amin": 7428, "à¦¡à¦¬à§Ł": 18929, "aming": 5184, "amis": 47971, "amiÄĻ": 23806, "amm": 5136, "à¦®à¦ļà¦°": 15481, "Ġà§®à§«à§Ń": 19859, "à¦¨à¦ļ": 11248, "Ġà¦ļà¦ļ": 20619, "ammers": 48414, "à¦ĩà¦°": 10502, "amorph": 50232, "amos": 2151, "amoto": 35858, "amour": 42921, "amous": 22314, "amp": 1215, "ampa": 26625, "amped": 36970, "ampf": 30157, "ampoo": 25168, "amps": 23150, "ams": 4070, "Ġà§ªà§¯à§¨": 16887, "amura": 43914, "amus": 45897, "amy": 7804, "amÄ±": 48688, "amÄ±z": 42449, "an": 282, "ana": 2095, "anal": 29702, "anan": 29915, "ĠĠĠĠĠĠĠĠĠĠĠĠĠĠĠĠ": 14292, "anbul": 35335, "anc": 4463, "anca": 40835, "ance": 719, "anced": 4864, "ancer": 28347, "ances": 2676, "anch": 4778, "anche": 22806, "anci": 38840, "ancia": 22862, "ancial": 22716, "ancies": 32286, "ancing": 8779, "anco": 34300, "ancy": 6717, "and": 474, "anda": 5575, "andaag": 37033, "Ġà§®à§¦à§¯": 18905, "andan": 39762, "à¦ĺà¦¦": 11123, "andel": 26406, "anden": 28762, "ander": 4483, "anders": 41430, "andez": 37003, "andi": 49460, "andid": 48810, "andin": 37563, "anding": 42389, "ando": 1806, "andom": 4606, "andon": 8518, "Ġà§Ńà§§à§ª": 18401, "andro": 29173, "ands": 2967, "à¦ļà¦¬": 11425, "andÄ±r": 49428, "ane": 1929, "Ġà¦¬à¦ļà¦¨": 15447, "Ġà¦ªà¦°à¦¬": 13131, "Ġà¦ıà¦ıà¦¸à¦Ĩà¦ĩ": 12779, "aney": 40584, "ang": 656, "anga": 26005, "Ġà¦¬à¦ķà¦¬à¦ķ": 17017, "ange": 933, "Ġà¦¤": 10296, "à¦Ŀà¦®": 14282, "à¦ĩà¦¡": 10784, "anger": 3176, "à¦ķà¦Ĺ": 11186, "Ġà¦ıà¦¬": 10350, "angi": 43481, "anging": 9741, "angle": 7846, "angled": 39101, "Ġà¦ıà¦²à¦®": 17150, "angs": 28686, "anguard": 36259, "anh": 50214, "anha": 37899, "ani": 3782, "ania": 5609, "anic": 30732, "anie": 7155, "à¦®à¦¤à§İà¦ªà¦°à¦¤": 17869, "aning": 8415, "anish": 7524, "aniu": 25849, "Ġà¦®à¦Ĺà¦ľà¦§": 21528, "anja": 48675, "ank": 657, "à¦ıà¦¨à¦Ń": 21729, "à¦¡à¦īà¦ĩà¦¨": 18493, "anki": 27203, "ankind": 40588, "anking": 29411, "à¦¤à¦ľà¦¨à¦ķ": 14592, "ann": 969, "anna": 1795, "à¦ľà¦¨à¦Ĺà¦£": 15143, "à¦¹à¦ª": 12674, "anned": 5943, "Ġà§«à§©": 11444, "annen": 44792, "anner": 9805, "anners": 25792, "anni": 35832, "annie": 43433, "Ġà¦Ĩà¦²à¦®à¦ķ": 13484, "Ġà§©à§©à§«": 16138, "annt": 39878, "à¦Ĩà¦°à¦¸": 11612, "annya": 24225, "annÃ©e": 36533, "ano": 3730, "anor": 29330, "anos": 31035, "anov": 38990, "ans": 599, "ansa": 38734, "Ġà¦ľà¦ĵà¦¹à¦°à¦²": 14527, "anse": 47661, "ansen": 49247, "anship": 27140, "ansing": 44829, "anska": 30074, "anson": 34195, "anst": 41384, "answer": 43904, "ant": 394, "anta": 5983, "antage": 4370, "antal": 40542, "antas": 49153, "ante": 2879, "à¦²à¦¶à¦¹à¦°": 15587, "Ġà¦¸à¦ķ": 10527, "anten": 29646, "anter": 39918, "antes": 9327, "antha": 31303, "Ġà¦ĵà¦®": 11520, "antic": 7128, "antically": 49505, "antics": 45298, "Ġà¦«à¦²à¦ķ": 13566, "Ġà¦ıà¦¸à¦®à¦¸": 18571, "antis": 37952, "antly": 3627, "anto": 5857, "antom": 25796, "anton": 46041, "antry": 42057, "ants": 1719, "antu": 47846, "à¦¦à§Łà¦ª": 21655, "anu": 48136, "anut": 35352, "any": 1325, "anya": 8791, "anyak": 23031, "anych": 34644, "anyon": 28070, "anz": 3910, "Ġà¦®à§Łà¦°": 20030, "à¦ķà¦Łà¦ķ": 12368, "anÃ§a": 22930, "Ġà§©à§Ńà§®": 17032, "anÄ±": 35869, "anÄ±n": 26081, "anÄ±z": 36079, "ao": 25548, "ap": 569, "apa": 7961, "apan": 3140, "apanese": 30873, "apat": 22602, "ape": 41153, "Ġà§«à§Ńà§¬": 18653, "aper": 2332, "Ġà¦¶à¦¤à¦¤à¦®": 14441, "à¦ªà¦¦à¦¸": 13957, "à¦«à¦°à¦īà¦²": 18560, "aphrag": 45557, "api": 35891, "apo": 37615, "apolis": 26296, "à¦¨à¦¡à¦°": 21319, "apons": 48071, "à¦¬à¦²à¦Ľ": 13345, "à¦²à§Łà¦¸à¦¹": 13823, "app": 1746, "appa": 25637, "appe": 46408, "à¦²à¦ķà¦¸": 20780, "appelle": 25543, "apper": 34456, "à§®": 10534, "applause": 9138, "Ġà¦¹à¦¨à¦¹à¦¨": 21316, "appro": 35821, "Ġà§§à§©à§¨à§«": 21771, "appy": 27425, "aprÃ¨s": 48240, "aps": 2382, "Ġà¦¬à¦¸à¦¬": 11145, "apt": 2796, "apter": 5446, "aqu": 23761, "aque": 23179, "ar": 289, "ara": 2419, "arah": 34420, "arak": 23346, "Ġà¦ıà¦ĸà¦¨à¦ķ": 12835, "Ġà¦ĩà¦īà¦ıà¦¸à¦ıà¦Ĩà¦ĩà¦¡": 17142, "araoh": 34788, "aras": 35867, "Ġà¦Ĺà¦łà¦¨à¦Ĺà¦¤": 18452, "araus": 46483, "arb": 31630, "arbeit": 24024, "arbeiten": 43918, "arc": 40088, "arch": 1178, "arching": 36499, "à¦Ĩà§ľ": 13988, "ard": 515, "Ġà§®à§®à§¯": 19218, "ardan": 24087, "à¦¯à¦®à¦¨": 10866, "arded": 22803, "arden": 28086, "Ġà¦Ĩà¦īà¦«": 21027, "ardi": 38126, "Ġà¦¹à¦¦": 12850, "à¦Ĩà¦Ľ": 14848, "ards": 2287, "ardÄ±": 47676, "are": 543, "area": 35425, "ared": 1642, "arel": 37675, "arella": 34704, "Ġà¦ıà¦®à¦ĵà¦ª": 19183, "aremos": 23118, "aren": 4484, "Ġà§®à§¦à§¬": 19500, "arent": 1898, "Ġà¦¹à¦ķà¦°": 20616, "arently": 6420, "à¦¡à¦ıà¦«": 15121, "ares": 8643, "arespace": 45337, "à¦ķà¦¶à¦¤": 17363, "à¦ĩà¦¹": 11298, "areth": 40414, "arett": 25033, "arette": 23362, "arettes": 26282, "arez": 39948, "arf": 30224, "arg": 33544, "argent": 29757, "ari": 3504, "aria": 9831, "arial": 44745, "ariamente": 45149, "Ġà¦¹à¦¨": 10652, "arians": 24831, "arias": 35027, "ariat": 41115, "aries": 4889, "ariest": 45556, "arily": 3289, "à¦«à¦²à¦ĩ": 19829, "arina": 37512, "aring": 1921, "ario": 4912, "arios": 9720, "aris": 27489, "à¦ĩà¦Ńà¦Ł": 17409, "à¦ĺà¦¬à¦¬": 19612, "arius": 27440, "ark": 809, "arkan": 45173, "arken": 38962, "à¦Ĩà¦®à¦¤": 20851, "arl": 6843, "arla": 34148, "arle": 36153, "à¦¨à¦Łà¦°": 19457, "arlos": 39734, "arm": 4452, "arma": 36159, "arme": 35890, "armed": 38375, "à¦¯à¦ķà¦Ł": 19537, "arn": 1083, "Ġà§§à§®à§§à§§": 21394, "arner": 22916, "Ġà§¬à§¨à§ª": 16937, "arning": 2341, "arnish": 40686, "arnos": 24979, "à¦¯à¦¦à¦°": 18045, "arnya": 38039, "aro": 9708, "aron": 6372, "aroo": 47937, "aros": 48970, "around": 25762, "arp": 6529, "arr": 2284, "arrass": 8596, "arrator": 7215, "Ġà§¨à§¯à§¯": 15531, "Ġà§Ńà§©à§ª": 18285, "arrive": 47614, "arry": 25516, "ars": 685, "arsa": 29720, "à¦Ńà¦¬à¦¨": 11668, "arsh": 7064, "arsi": 32742, "Ġà¦Ĩà¦¬à¦¡": 19358, "art": 446, "à¦¤à¦ĸà¦¨à¦ĩ": 19061, "Ġà¦ĸà¦°à¦ļ": 11026, "arted": 47350, "Ġà¦¸à¦¬à¦ĩ": 11719, "à¦¨à¦¤à¦¤": 13631, "artet": 32347, "à¦ĸà¦ľà¦¨à¦ķà¦Ń": 18352, "arthy": 42305, "arti": 40155, "artment": 3033, "Ġà¦Ńà¦ľà¦¨": 15864, "à¦ĵà¦®": 11814, "artz": 45929, "à¦¹à¦ļ": 16870, "arus": 31241, "ary": 822, "arya": 29313, "aryn": 39008, "arz": 49763, "à§Łà¦¬à¦¨": 21534, "arÃ©": 36832, "à¦Ĺà¦¸à¦ĩ": 21178, "Ġà§¯à§®à§¨": 18318, "arÄ±m": 31260, "as": 296, "asa": 9994, "asaki": 44366, "asan": 40336, "Ġà¦ıà¦¨": 10633, "asc": 4806, "ascal": 27303, "ascular": 22084, "ase": 651, "ased": 1937, "Ġà¦ķà¦¥à¦ķ": 17756, "ases": 1957, "ash": 1299, "à¦łà¦¦": 12137, "Ġà¦ıà¦ķà¦¨": 12219, "à¦§à¦¶": 12808, "à¦¦à¦¶à¦¨": 15612, "Ġà¦¸à¦¤à¦°": 11077, "ashion": 5894, "asi": 8483, "asia": 25251, "à¦§à¦ķà¦°": 13353, "asing": 3349, "asion": 6822, "asis": 26632, "asive": 23686, "ask": 3863, "Ġà¦¸à¦¹à¦ľà¦²à¦Ń": 13400, "asket": 26207, "asking": 47211, "à§¨à§¦à§¦à§©": 14774, "à¦°à¦¦à¦Ł": 17494, "asmine": 28151, "aso": 35281, "ason": 1258, "asonable": 36169, "asonic": 39460, "asons": 3646, "asp": 9375, "aspberry": 26240, "ass": 640, "Ġà¦ľà¦¨à¦¯": 18948, "à¦ļà¦®à¦¨": 16827, "assadors": 38982, "asse": 8604, "assed": 46447, "assemb": 29386, "assemble": 37319, "assen": 8356, "Ġà§§à§¯à§¯à§¬": 12129, "asses": 26615, "assic": 35685, "assing": 42705, "assis": 25844, "assium": 27609, "associ": 49146, "asst": 48435, "assumed": 45714, "assung": 40828, "Ġà¦¸à¦«à¦Łà§Ł": 20712, "ast": 525, "Ġà¦¸à¦²à¦®à¦¨": 12468, "aste": 9079, "asted": 34440, "asten": 47552, "aster": 1727, "astern": 32579, "Ġà¦ħà¦¸à¦¤à¦¤": 18817, "astes": 40246, "asti": 24080, "astian": 28129, "astic": 2750, "astically": 22808, "Ġà¦¬à¦¨à¦Ł": 21598, "asting": 30587, "asto": 33869, "astre": 49199, "à§§à§¯à§¨à§©": 20765, "asty": 9820, "asu": 45612, "asure": 2508, "à¦ĩà¦ªà¦¡": 20044, "asury": 25058, "asy": 5871, "à¦ķà¦¶à¦ķ": 19601, "à¦ħà¦¨à¦²": 12700, "asÄ±na": 47973, "asÄ±nda": 33119, "at": 267, "ata": 3274, "atable": 31415, "atal": 40478, "atamente": 25354, "atan": 25649, "Ġà¦īà¦ªà¦²à¦¬": 12051, "atas": 37892, "atch": 852, "atched": 24102, "atcher": 49871, "atchet": 36080, "atching": 29569, "ate": 473, "ated": 770, "ateful": 7529, "ateg": 2968, "ategory": 48701, "Ġà¦ľà§ľ": 10810, "ately": 1592, "atem": 26851, "aten": 7186, "ater": 771, "à¦®à¦¸à¦°": 17274, "aterial": 40364, "Ġà¦ıà¦Ĩà¦ĩà¦ľ": 16749, "ates": 1024, "à¦¹à¦¤à¦Ń": 15540, "ateurs": 25929, "atever": 7969, "atge": 45993, "ath": 998, "atha": 29441, "athan": 9390, "ather": 1172, "Ġà¦ľà¦²à¦§": 16351, "Ġà§ªà§¦à§¦": 11850, "athi": 42715, "athlon": 41269, "Ġà¦¨à¦¬à¦¸": 18660, "athy": 9527, "ati": 6908, "atic": 2399, "atically": 5030, "atics": 30292, "à§§à§¯à§®à§©": 16921, "atif": 36850, "Ġà§¦à§§à§¦": 17445, "Ġà¦ħà¦ªà¦²": 20758, "atin": 22685, "ating": 990, "ation": 399, "ational": 1478, "ations": 763, "à¦ıà¦¨à¦Ĩà¦°": 20728, "atiques": 48731, "atisf": 25239, "atisfied": 38502, "Ġà¦ıà¦¸à¦¬": 10662, "Ġà¦¬à¦ķà¦Ľ": 18740, "ativas": 35725, "ative": 1166, "à¦¡à¦¬à¦¦": 19020, "atives": 4884, "ativity": 30142, "à¦¡à¦¦à¦²": 18586, "ativos": 36945, "atk": 33525, "atl": 48630, "ato": 2513, "atoire": 45575, "aton": 25781, "atoon": 37586, "ator": 1639, "atore": 43148, "atori": 39842, "atories": 30077, "atorio": 48028, "atorium": 41679, "ators": 3391, "atory": 4745, "atos": 26818, "atra": 33593, "à¦ĺà¦°": 10837, "atri": 31674, "à¦Łà¦¯": 14629, "ats": 1720, "atson": 23939, "atsu": 29023, "Ġà¦ĩà¦ıà¦«à¦Ł": 19579, "att": 1591, "Ġà§Ńà§«à§¯": 18405, "attack": 44514, "Ġà¦¶à¦¹à¦°à¦ĩ": 21135, "atte": 30466, "atted": 32509, "atten": 32733, "attend": 49548, "atter": 1161, "Ġà¦ıà¦ĩà¦°": 13939, "à¦¬à¦°à¦£à¦ķ": 14849, "atters": 37690, "attform": 49952, "Ġà¦ķà¦²à¦¹à¦¬": 21515, "attle": 3327, "atto": 37491, "attutto": 48285, "Ġà¦¤à¦ĵà¦«": 20546, "Ġà¦ıà¦®à¦ıà¦¨à¦ª": 19493, "à¦®à¦¨à¦ľ": 19660, "ature": 1503, "atures": 3377, "atus": 37926, "Ġà§§à§¬à§¦à§«": 21398, "à¦§": 10300, "au": 1459, "auc": 7113, "aucoup": 8611, "aud": 3751, "audience": 4834, "audio": 46069, "Ġà¦¬à¦¦": 11715, "Ġà¦Ĩà¦ķà¦¦": 18120, "auf": 9507, "Ġà¦¤à¦¸à¦°": 20748, "auft": 28245, "à¦ļà¦¬à¦Ľà¦°": 20056, "à¦¬à¦²à¦ª": 16558, "aukee": 33581, "ault": 5107, "Ġà¦īà¦ªà¦ª": 13343, "aur": 3463, "aurais": 44608, "aurus": 40913, "aus": 8463, "ause": 5241, "auso": 32310, "aut": 1375, "auth": 40198, "author": 34224, "auto": 41988, "Ġà¦®à¦ļà¦®à¦ļ": 19702, "Ġà§ªà§§à§©": 16752, "aux": 7511, "av": 706, "ava": 4061, "à¦ıà¦ĩà¦ļà¦ı": 18866, "avait": 38307, "aval": 46868, "avam": 22561, "à¦ªà¦¶à¦ķ": 21071, "avana": 29867, "avant": 35034, "avas": 37331, "avat": 39559, "avaÅŁ": 38733, "ave": 946, "à¦Łà¦°à¦ķ": 12865, "aven": 4940, "à¦«à¦¤à¦ķ": 20655, "aves": 5423, "avez": 25975, "à¦¦à¦°à¦¦": 18442, "avia": 23015, "avian": 43108, "avic": 41053, "avier": 25384, "avil": 22891, "avilion": 39388, "à¦§à§Ł": 19249, "aving": 6152, "avior": 38387, "Ġà§į": 10868, "avo": 25713, "Ġà¦Ŀà¦¨à¦Ŀà¦¨": 17239, "avor": 1924, "avored": 22120, "à¦ĩà¦ĵà§Ł": 11759, "avour": 6817, "Ġà¦®à¦¹à¦°": 15498, "avÃŃa": 26594, "aw": 1607, "Ġà¦ħà¦§": 10449, "awan": 41814, "Ġà¦¬à¦°à¦ª": 17074, "awat": 38036, "Ġà¦ī": 10318, "aways": 27545, "awi": 38402, "awia": 34953, "awk": 31451, "awl": 47451, "Ġà§©à§Ń": 11251, "awning": 35880, "Ġà¦Ĩà¦«à¦°": 12282, "awsze": 28354, "awy": 41961, "ax": 2797, "axis": 24633, "axter": 47333, "axy": 9191, "ay": 320, "aya": 4427, "Ġà¦Ĺà¦£à¦¸à¦Ļ": 20506, "ayd": 43389, "aye": 33449, "ayed": 47315, "à¦īà¦¸": 11167, "aying": 32600, "ayo": 48947, "ays": 3772, "Ġà¦ľà¦²à¦ĸ": 18376, "Ġà§¯à§§à§¦": 16797, "az": 921, "à¦ļà¦°à¦£": 12257, "azar": 22795, "à¦¦à¦°à¦Ĺà¦ŀ": 13660, "Ġà¦§à¦®": 17262, "azi": 26637, "azing": 2118, "à§¨à§¦à§§à§«": 12928, "azioni": 27569, "azo": 29722, "azon": 6317, "azu": 8813, "azuje": 43317, "azy": 33235, "azz": 9112, "azzi": 33910, "aÃ§Ã£o": 6670, "à¦ľà¦®à¦ķ": 17971, "aÃ±": 23217, "aÄĩ": 43379, "aÄŁÄ±": 42247, "à¦Ĩà¦ľà¦®": 18264, "aÅŁ": 41149, "b": 65, "ba": 4231, "baar": 43468, "bab": 24301, "baby": 35036, "bach": 32096, "back": 3207, "background": 44418, "à¦¸à¦²à¦®à¦¨": 17758, "bad": 27580, "Ġà§©à§¬à§Ń": 17282, "bagai": 39923, "bage": 9742, "bags": 44047, "bah": 37346, "bahn": 39865, "bai": 35144, "bait": 41274, "baj": 9338, "bak": 44111, "bal": 2645, "balance": 29215, "balanced": 40251, "ball": 3129, "Ġà§¯à§«à§ª": 19194, "ban": 5144, "band": 4235, "bands": 30014, "bane": 28116, "à¦ŀà¦ĩ": 20106, "bank": 25423, "bar": 5356, "bard": 29984, "bardziej": 40392, "bare": 30682, "baren": 43552, "bars": 42162, "bart": 47504, "à¦¬à¦ĩà¦®": 16342, "à¦¦à§Łà¦Ĺ": 17429, "based": 6032, "Ġà¦¤à¦¦": 11980, "bau": 26820, "baum": 46641, "bay": 42484, "bb": 6692, "bbe": 39042, "bbie": 32383, "Ġà¦Ĩà¦²": 10387, "bbles": 45176, "be": 650, "Ġà§«à§Ńà§®": 17097, "beans": 40488, "bear": 26738, "beat": 4169, "bec": 8123, "Ġà§§à§®à§Ńà§ª": 17566, "à¦¦à¦¨à¦¸à¦¹": 17073, "à¦°à¦¤à¦Ĺ": 20102, "bed": 2883, "bedingt": 39295, "bee": 24872, "beeld": 34040, "Ġà¦ıà¦ķà¦§": 13537, "beeping": 43616, "before": 45301, "beh": 29437, "à¦¨à¦¦à¦²": 21845, "à¦¹à¦īà¦¦": 13054, "beit": 9407, "à¦ķà¦¤à¦Ł": 16779, "beiter": 29565, "beitet": 32401, "à¦¸à¦°à¦¬à¦°": 21604, "bek": 25714, "bel": 5390, "à¦ķà¦®à¦¤": 12230, "à¦Ĺà¦¨à¦¸": 13729, "believably": 41268, "bell": 7100, "bels": 38383, "belt": 42593, "ben": 1799, "bench": 47244, "bene": 41605, "ber": 607, "Ġà§¯à§ªà§«": 18582, "bereich": 48422, "berg": 6873, "berger": 42226, "berish": 43189, "berly": 32907, "bern": 26848, "bero": 46659, "Ġà¦¶à¦¤à¦¶à¦¤": 15290, "berry": 9099, "bers": 1616, "bert": 4290, "berty": 48501, "bery": 26736, "bes": 6446, "besondere": 44222, "best": 25331, "Ġà¦Ńà¦°": 10671, "between": 32387, "bew": 47465, "à¦¥à¦¦à¦£": 13502, "bi": 5614, "bia": 26975, "à¦ĺà¦°à¦ķ": 20196, "bie": 7392, "bies": 23177, "big": 37660, "bij": 30418, "bike": 30283, "à§Łà¦®à¦Ĺ": 15384, "Ġà¦ıà¦¸à¦Ĩà¦°": 16248, "bildung": 35588, "bilir": 30959, "bility": 39802, "Ġà¦īà¦ªà§ľ": 13496, "binary": 48621, "bing": 4324, "bins": 49198, "bior": 33362, "bir": 10119, "Ġà§ªà§Ńà§ª": 18080, "birds": 31473, "birth": 29367, "bish": 27074, "bit": 5260, "bits": 34010, "bl": 5199, "bla": 36138, "black": 36141, "blade": 41825, "ble": 638, "à¦ķà¦ĺà¦£": 18320, "Ġà§§à§¬à§¯": 14639, "blem": 1113, "bles": 8806, "bli": 32117, "à§Łà¦Ń": 11489, "blick": 38263, "blind": 47494, "à§ľà¦ĺà¦°": 18262, "Ġà¦ħà¦®à¦°à¦¤": 15962, "block": 28830, "blowing": 43788, "blue": 42113, "bly": 25021, "Ġà¦Ĩà¦ĵà¦¸": 19404, "bnb": 36237, "bo": 1763, "board": 3787, "boarding": 43925, "Ġà¦Ľà¦Ĺ": 17228, "boat": 31883, "bod": 47466, "body": 1067, "Ġà¦ķà¦ķà¦ķ": 21666, "bokki": 31487, "à¦£à¦°à¦¸": 17460, "bold": 42515, "bolt": 39477, "bon": 4351, "à¦Łà¦®à¦¹à¦²à¦¬": 19782, "bones": 44954, "bons": 33568, "Ġà¦ªà¦¦à¦Ń": 19985, "book": 2939, "Ġà¦¸à¦ªà¦ķ": 15170, "boom": 48969, "bor": 3918, "borah": 37288, "borg": 33151, "§à§": 10324, "borne": 23739, "boro": 46669, "borough": 24987, "Ġà¦¸à¦²à¦®": 18870, "à¦Ĩà¦°à¦ĩà¦īà¦°": 18151, "à¦ĩà¦¡à¦ķ": 18767, "Ġà¦ħà¦ªà¦¤à§İà¦ªà¦°à¦¤": 15533, "bourg": 43638, "bourne": 24905, "bout": 30722, "bow": 8202, "à¦¥à¦Ľ": 21118, "box": 4995, "boxing": 45047, "Ġà§§à§¯à§®à§®": 12795, "boys": 31638, "br": 1443, "bra": 6198, "bracht": 23404, "brahim": 38837, "bral": 32728, "brance": 39829, "brand": 30476, "brar": 30280, "bras": 38182, "bre": 2672, "bread": 31051, "Ġà§§à§¯à§«à§ª": 13225, "breaker": 43847, "à¦¸à¦Łà¦¸": 20602, "breaks": 35656, "breat": 47674, "bres": 46823, "brevi": 34471, "à¦¤à¦Ł": 11349, "à¦¸à¦¹à¦¸": 18249, "à¦·à¦ķà¦Ł": 21674, "à¦ķà¦²à¦¤": 21553, "bringen": 39455, "bringing": 44992, "bro": 9120, "broken": 37947, "bros": 29781, "bru": 7294, "à¦ķà§ľà¦ķ": 21330, "bs": 929, "bsp": 22424, "bst": 9690, "bt": 4517, "bu": 6021, "buat": 45143, "buch": 39742, "bucks": 24599, "à¦¶à¦²à¦Ĺà¦¤à¦Ń": 18281, "buds": 36608, "bug": 44455, "buh": 47322, "à¦¥à¦¬": 11516, "building": 28126, "built": 23018, "Ġà¦¨à¦¬à¦¨": 12176, "bula": 37775, "bull": 37290, "bum": 5559, "bumps": 41655, "bung": 36776, "à¦°à¦¥à¦®à¦Ł": 13243, "burg": 8342, "burger": 41787, "à¦¬à¦ķà¦¥": 21898, "Ġà¦ıà¦°à¦¬": 21763, "burse": 37665, "burst": 46239, "bury": 22536, "Ġà¦Ĩà¦ĩà¦¡à¦¬": 21441, "buster": 41148, "but": 5955, "à¦ıà¦¥": 21941, "buzzer": 24845, "by": 2322, "bye": 6650, "bÃ©": 27166, "bÃ¼r": 49057, "c": 66, "ca": 496, "cade": 30340, "cado": 27713, "cak": 27481, "Ġà¦Ĩà¦¶à¦«": 13994, "Ġà¦¸à¦¬à¦§à¦°à¦£": 18853, "cal": 9895, "cale": 37088, "call": 45459, "à¦ĩà¦¨à¦ķ": 11880, "calm": 45142, "à¦¬à¦ķà¦¨": 14177, "came": 3005, "camera": 31135, "camp": 24640, "can": 7035, "cando": 29585, "à¦®à¦£à¦°": 18651, "cap": 9485, "cape": 4747, "car": 6166, "carbon": 39294, "card": 22259, "cards": 40604, "care": 5685, "cart": 44672, "à¦ķà¦°à¦ķà¦®": 16369, "case": 9765, "cases": 46505, "cast": 3734, "caster": 42640, "casting": 48860, "à¦²à¦ķà¦£": 18035, "cation": 46252, "cause": 523, "caust": 27661, "cave": 50126, "cc": 1914, "cca": 22394, "cciones": 35560, "à¦¨à¦ķà¦²": 14735, "cco": 49552, "ccoli": 26334, "ce": 384, "cean": 6428, "ceans": 22928, "ced": 1232, "cede": 29815, "Ġà¦īà¦ĩà¦ķà¦¸": 21170, "Ġà¦ıà¦«à¦ıà¦¨à¦ıà¦¸": 21526, "ceed": 4357, "Ġà¦Ĺà¦Ĺà¦²à¦¸": 20811, "à¦ıà¦ĸ": 12135, "ceks": 26428, "ceksin": 32961, "cekt": 47179, "cel": 4933, "celand": 27673, "cell": 4164, "à¦ĩà¦¡à¦¬": 17379, "cellent": 5866, "cely": 42879, "cem": 26422, "cember": 7432, "cemos": 38173, "Ġà¦Ĩà¦²à¦ľ": 13037, "cence": 25434, "Ġà¦ķà¦°à¦¬à¦°": 21153, "cendo": 33199, "cent": 2207, "center": 50085, "centered": 36814, "centric": 45300, "cents": 36976, "century": 32889, "cep": 27493, "cept": 1336, "ception": 7311, "ceptions": 22393, "cer": 1776, "cera": 41034, "ceral": 47879, "Ġà¦ıà¦²à¦ķ": 15312, "cers": 8530, "cert": 48999, "ces": 887, "cess": 780, "cession": 29881, "cesso": 43611, "cessor": 25432, "cessors": 45700, "ceu": 31271, "Ġà¦Ĳà¦ķà¦¤": 19342, "Ġà§©à§ªà§ª": 16807, "ceÄŁiz": 24746, "ch": 339, "cha": 4413, "chae": 44521, "chaft": 7118, "Ġà§«à§§": 11509, "à¦ĩà¦ħà¦ķ": 17892, "chan": 3484, "Ġà¦ħà¦Ŀ": 15431, "changing": 27123, "chant": 24628, "char": 7374, "à¦Ĺà¦¤à¦¦": 13604, "charged": 25064, "charger": 48942, "chas": 41299, "Ġà¦Ĺà¦°à¦ľ": 20057, "chau": 33276, "che": 1876, "à¦¬à¦¦à¦°": 15723, "Ġà¦ıà¦²à¦ļ": 19318, "cheer": 43088, "cheerful": 45685, "à¦¬à¦¨à¦ļà¦°": 18700, "cheers": 28857, "Ġà§©à§¯à§Ń": 17345, "chemical": 34114, "chemistry": 48353, "chen": 2470, "cher": 6759, "ches": 3781, "Ġà¦ķà¦«": 11762, "Ġà§«à§©à§®": 17022, "chet": 36433, "chez": 30196, "chi": 8036, "Ġà¦Łà¦®": 11805, "chieden": 40433, "chief": 30189, "chien": 33972, "Ġà¦¸à¦ĵà¦ľ": 15129, "Ġà¦ıà¦¡à¦¬": 21172, "chin": 32167, "chine": 36675, "à¦¥à¦Ļ": 17354, "chio": 31033, "Ġà§«à§Ń": 11439, "chlag": 40869, "chlagen": 44496, "chlossen": 29002, "chluss": 41372, "chmal": 25751, "chn": 1377, "chnet": 46248, "chnitt": 32064, "cho": 5738, "chod": 29914, "chodzi": 34616, "à§ľà¦ĺ": 21856, "chos": 27251, "à¦¸à¦®à¦ķ": 14613, "chs": 28346, "Ġà¦¬à¦ĸà¦°": 21266, "cht": 4701, "Ġà¦Ĩà¦ĩà¦¨": 10553, "à¦¯à¦ķà¦ķ": 21043, "chter": 26690, "à¦°à§İà¦¸": 19549, "chu": 29013, "chuck": 25340, "à¦°à¦°à¦®": 12927, "chuckling": 32312, "chuss": 36695, "chutz": 34816, "chw": 34655, "chy": 28629, "à¦¨à¦ľ": 11131, "chÄĻ": 23006, "ci": 537, "cia": 2755, "cial": 1013, "cially": 1909, "ciamo": 42052, "Ġà¦¤à¦«à¦¸": 12046, "ciaÅ¼": 42673, "cible": 32128, "cida": 37200, "Ġà§Ńà§Ńà§®": 17994, "cidos": 46579, "cie": 4260, "cience": 6699, "Ġà¦Ĩà¦ĩà¦ıà¦¸à¦ĵ": 16830, "cient": 5412, "cier": 27674, "cies": 4629, "cieÅ¼": 40082, "cific": 22856, "cil": 3208, "cile": 28886, "ciliation": 27870, "cill": 7383, "cimento": 28317, "à¦¡à¦²à¦¸à¦¹": 20021, "cing": 2175, "cio": 8529, "cion": 10015, "cional": 42395, "ciones": 23469, "cios": 23132, "cious": 4139, "Ġà§ªà§Ń": 11371, "cipe": 46687, "cipher": 41763, "Ġà¦ıà¦ıà¦²": 19246, "ciplinary": 24560, "cir": 23568, "cis": 26720, "cision": 40832, "cit": 45135, "cito": 32030, "city": 26536, "ciu": 30795, "Ġà§Ńà§¬à§©": 19324, "à¦ªà¦°à¦¸": 19609, "ciÃ³n": 5687, "ciÄħ": 34381, "ciÄĩ": 39162, "ciÄŁim": 47726, "cja": 34056, "cje": 44261, "à¦Łà¦®à¦Ł": 19649, "cjon": 45677, "cjÄĻ": 41960, "ck": 547, "cka": 39342, "à¦®à¦¨à¦¬": 18627, "cked": 44118, "Ġà¦¹à¦¸à¦ª": 13029, "cker": 9178, "cket": 4737, "à¦°à¦®à¦¶": 11984, "cking": 25723, "cknow": 7678, "cko": 41416, "cks": 2761, "à¦Ńà¦¦": 13238, "à§§à§¯à§©à§®": 19951, "cl": 3474, "cla": 46265, "clamation": 41411, "clapping": 31293, "à¦Ļà¦ļ": 11665, "cle": 2160, "clear": 43679, "clears": 43496, "cled": 24804, "cles": 6520, "Ġà§®à§©à§®": 18548, "Ġà§§à§¯à§¯à§®": 12455, "Ġà¦¦à¦®à§Łà¦¨": 21614, "clipse": 27197, "clock": 9023, "clockwise": 48685, "cloud": 44495, "club": 40607, "à¦¯à¦¸à¦¬": 15210, "à¦ļà¦¸à¦¹": 16279, "co": 1291, "coal": 28037, "coat": 36788, "cock": 29779, "cod": 26560, "code": 22332, "cohol": 7210, "coin": 8562, "coins": 36989, "col": 8768, "cole": 27247, "coll": 33891, "colm": 32274, "colo": 46086, "color": 23851, "colored": 42820, "com": 1112, "comb": 38763, "come": 1102, "comed": 22726, "comes": 9055, "comfort": 27289, "coming": 6590, "comings": 49886, "à¦ªà¦¨à¦ķ": 13278, "commerce": 26926, "committee": 47235, "commun": 25451, "Ġà¦¶à¦Ń": 21541, "compass": 25052, "compl": 43856, "con": 1671, "Ġà§®à§¯à§ª": 18882, "conds": 28750, "conduct": 38150, "conf": 24697, "confidence": 47273, "cong": 40275, "connect": 9826, "cono": 45846, "conom": 2291, "conomic": 31646, "Ġà¦ªà¦°à¦ļà¦°": 21190, "Ġà§§à§®à§§à§«": 19877, "const": 25279, "cont": 9000, "control": 40905, "controlled": 49344, "cool": 28155, "coon": 48092, "à¦¨à¦ķà¦°": 13084, "Ġà¦¨à¦Łà¦°": 13960, "à¦īà¦¸à¦Ł": 19558, "Ġà¦ªà¦Ļ": 12352, "à¦¤à¦°à¦°": 21427, "cos": 6877, "cost": 27718, "cot": 48477, "cott": 34000, "count": 26050, "country": 39337, "course": 31913, "cous": 39939, "Ġà¦ħà§Ł": 12516, "à¦²à¦¬à¦ŀ": 21352, "Ġà¦Ĺà¦¤à¦ķ": 10757, "cra": 39302, "craft": 5611, "crates": 50243, "Ġà¦Ĩà¦ļà¦°à¦¨": 14066, "cream": 30277, "creat": 35546, "crew": 28909, "cri": 1142, "cribe": 8056, "à¦Ĩà¦ľà¦ĩ": 18732, "cribing": 39541, "cript": 5944, "Ġà¦īà§İà¦ªà¦¤": 12432, "criptions": 34173, "crire": 39572, "crit": 32255, "cro": 23401, "cros": 42471, "cross": 35418, "crosstalk": 49782, "à§Łà¦¸à¦¹": 14779, "cry": 46555, "Ġà§¨à§¦à§¨à§«": 14368, "ct": 349, "ctar": 46412, "Ġà§©à§¨à§®": 15518, "ctica": 29041, "cticamente": 50250, "ction": 882, "ctional": 41048, "ctions": 3916, "à¦ľà¦¶à¦ķ": 20221, "ctor": 1672, "à¦¤à¦¬à¦ľ": 20946, "ctors": 5547, "ctory": 35758, "cture": 42919, "Ġà¦°à¦ŀ": 12032, "cue": 31765, "cul": 2444, "à¦¡à¦ļ": 17792, "Ġà¦ļà¦®à¦ķ": 11570, "culiar": 26626, "culo": 25436, "culos": 32397, "culosis": 49379, "cultural": 50155, "culus": 36002, "à¦ĩà¦²à¦¨": 16794, "Ġà¦ıà¦¸à¦Ł": 14112, "current": 49827, "cus": 1149, "cuss": 2169, "cussion": 25049, "cussions": 38899, "cut": 6672, "cuts": 26158, "cuz": 49789, "cy": 1344, "cych": 31306, "cycl": 34080, "à¦²à¦ŀ": 14796, "cycles": 41661, "cyj": 42949, "cz": 3689, "cza": 41524, "czas": 30989, "cze": 9680, "czenia": 38517, "czenie": 39043, "czne": 38491, "Ġà¦ªà¦¦à¦ĩ": 19923, "czy": 6522, "à¦¨à¦Ńà¦Ļ": 15997, "czyÄĩ": 33967, "czÄĻ": 41151, "Ġà¦ĺà¦°à¦Ł": 13523, "cÃ³mo": 46614, "cÃ³w": 29268, "cÃ¼": 49694, "cÃŃa": 31298, "cÄ±": 31803, "cÄ±k": 47587, "cÄħ": 32557, "cÄĻ": 37965, "d": 67, "da": 2675, "à¦¥à¦¤à¦²": 20034, "dade": 45894, "dag": 39877, "dah": 40232, "dal": 36694, "dale": 30534, "dam": 10170, "damn": 25324, "Ġà¦Ĺ": 10312, "à¦ħà¦Ńà§Łà¦¨à¦Ĺà¦°": 20327, "das": 27476, "Ġà¦¹à¦¬à¦¸": 20367, "à¦ıà¦¨à¦ıà¦¨à¦ķ": 17393, "dated": 32164, "daughter": 34633, "day": 810, "days": 45563, "dd": 24810, "de": 1479, "deal": 46394, "death": 50000, "dec": 42821, "ded": 9207, "deep": 38422, "à¦°à¦ªà¦¶": 20595, "defense": 49268, "defined": 37716, "degree": 34368, "Ġà§Ńà§¨à§Ń": 18105, "Ġà¦¤à¦¦à¦¨": 10730, "den": 1556, "Ġà§«à§©à§©": 18185, "dens": 32468, "à§İà¦¸à¦ķà¦Ĺà¦£": 19929, "depend": 36763, "depth": 25478, "der": 1068, "dern": 35520, "à¦Łà§Ł": 15633, "dert": 49799, "Ġà¦ıà¦¨à¦Ĩà¦°à¦¬": 14792, "à¦īà¦¦à¦ķ": 13628, "dessus": 42401, "dest": 23748, "Ġà¦¬à§Łà¦ķ": 17863, "determ": 49136, "dev": 40343, "develop": 35464, "df": 45953, "di": 4504, "did": 38169, "Ġà¦¨à¦·": 11231, "dies": 22018, "dig": 25259, "Ġà¦°à¦£à¦ķ": 13595, "à¦īà¦Łà¦ķ": 18759, "Ġà¦ķà¦¤à¦ľà¦¨à¦ķ": 17557, "ding": 3584, "dings": 29432, "dio": 41256, "dir": 35043, "à¦°à¦ĵà¦°": 18267, "direct": 44868, "à¦£à¦¬à¦¨": 13731, "disciplinary": 30520, "dish": 40974, "display": 35238, "displaystyle": 38993, "dist": 42649, "Ġà¦īà¦¤à¦²": 17975, "dle": 2285, "dled": 43130, "à§§à§¯à§¦à§¦": 21915, "dling": 35543, "do": 2595, "doc": 39966, "dock": 48341, "does": 48409, "Ġà§İ": 14833, "dogs": 42008, "doing": 42013, "dollar": 40485, "dom": 4121, "Ġà¦īà¦ľà¦¬": 13966, "done": 45939, "dong": 29368, "doo": 48302, "à¦¦à¦°": 10441, "Ġà¦ķà¦°à¦ļ": 18716, "dos": 33749, "dot": 43494, "down": 5093, "à¦¤à¦¨à¦ĸ": 16753, "dragon": 41050, "Ġà¦¬à§ľà¦ª": 15125, "draw": 48848, "Ġà¦Ĩà¦ĩà¦ķ": 12746, "drive": 45524, "driven": 25456, "driver": 23609, "driving": 47094, "dro": 45869, "drop": 23332, "drum": 38301, "à¦¸à¦ķà¦Ń": 16063, "dt": 39488, "du": 769, "duc": 8117, "duct": 5020, "duction": 40335, "duino": 36262, "dul": 49716, "dullah": 42324, "dy": 3173, "dz": 28168, "à¦ĩà¦¡à¦²": 13096, "dzy": 39858, "dÄ±": 26608, "dÄ±r": 23091, "e": 68, "ea": 29791, "ead": 2056, "à¦¤à¦°à¦ĵ": 14881, "east": 22835, "eau": 22290, "eb": 34727, "ebe": 48593, "ec": 3045, "ecd": 26565, "ech": 5023, "eches": 27789, "ect": 557, "ected": 39963, "ection": 10183, "ective": 22909, "Ġà¦²à¦Ľ": 20814, "ed": 292, "eda": 8801, "edaan": 43534, "edar": 34385, "à¦²à§ľ": 16826, "edd": 38786, "eddar": 40218, "ede": 4858, "eded": 37679, "edel": 39246, "eden": 6876, "eder": 10020, "edere": 36395, "edereen": 41623, "edes": 48490, "Ġà¦¬à¦ĩà¦®": 12203, "Ġà¦²": 10323, "à¦®à¦¤à¦ķ": 14212, "eding": 9794, "Ġà¦ħà¦¸à¦ļ": 13516, "edo": 26351, "edom": 5086, "edor": 34897, "edral": 24764, "eds": 5147, "edsiÄĻ": 38395, "edsiÄĻbior": 40494, "edu": 22938, "educ": 32604, "edy": 6038, "ee": 1653, "eed": 5033, "eee": 37954, "à¦·à§Łà¦¸": 21893, "Ġà¦Ĺà§ľ": 10685, "eenth": 46066, "ees": 4031, "eez": 22544, "ef": 5666, "eff": 30774, "effect": 46168, "effective": 45122, "à¦ıà¦«à¦ıà¦²": 14450, "eg": 1146, "ega": 6335, "egal": 38221, "egan": 43118, "ege": 2828, "egen": 8113, "eger": 30744, "ego": 6308, "egree": 26359, "Ġà§«à§«à§¬": 18500, "egÃ³l": 38079, "à§Łà¦ķà¦¦": 13301, "Ġà¦Ĩà¦ĩà¦ıà¦¨à¦ıà¦¸": 17067, "eight": 36309, "eil": 30684, "Ġà¦ıà¦ŀ": 14667, "ej": 40779, "ek": 916, "eka": 36361, "eken": 41021, "eker": 25926, "Ġà¦īà§İà¦ªà¦²": 14753, "eking": 38437, "ekk": 29010, "ekkÃ¼r": 31629, "eko": 34241, "eks": 24785, "ekt": 8192, "el": 338, "ela": 4053, "Ġà¦¦à¦Ļ": 15280, "elas": 32098, "elcome": 29504, "eld": 5957, "à¦Łà¦Ĺà¦£à¦¨": 16884, "Ġà§§à§Ńà§¨": 14664, "electric": 33243, "electronic": 33128, "eled": 31689, "Ġà¦īà¦ªà¦¶": 14818, "eler": 6185, "Ġà¦ķà¦ĩà§Ł": 16096, "eleri": 44501, "eles": 6972, "eless": 4272, "à¦ĩà¦¯": 15966, "elets": 37220, "elf": 1967, "eli": 10148, "elia": 26091, "elier": 46273, "à¦ıà¦ĩà¦ļà¦ĩ": 19592, "elim": 23205, "elin": 31173, "eline": 5440, "elines": 9173, "eliness": 25307, "Ġà§¨à§¯": 11031, "ell": 898, "ella": 9885, "elle": 4434, "elled": 41307, "ellen": 8581, "à¦¥à¦¬à¦°": 14983, "Ġà§¯à§¬à§®": 19787, "elli": 41129, "à¦¨à¦¹": 11073, "Ġà¦ĵà¦¬": 11216, "à¦°à¦¸à¦Ĺ": 21348, "à§Łà¦¶": 13677, "ellschaft": 22055, "à¦ľà¦¨à¦ª": 12783, "elly": 7442, "eln": 9878, "à§¯": 10590, "elong": 25490, "elp": 28591, "els": 1625, "else": 44408, "elsh": 26248, "à¦°à¦īà¦ªà¦°": 20301, "à¦°à¦¨à¦®": 20471, "elt": 2018, "elu": 34813, "elujah": 26138, "Ġà¦ļà¦¶à¦®": 12764, "ely": 736, "elyn": 49449, "em": 443, "ema": 5619, "emaal": 28368, "emaker": 49523, "Ġà¦Ĩà¦°à¦¬à¦ķ": 17272, "Ġà¦¹à§Łà¦Ľ": 15023, "à¦ıà¦ķà¦¥": 18941, "emark": 26721, "emary": 37529, "emas": 26062, "emat": 8615, "à¦Ĺà¦ĺà¦¨": 14911, "ematically": 40197, "ematics": 37541, "emb": 33748, "ember": 1304, "eme": 5729, "à¦®à¦Ŀ": 15485, "à¦°à¦¬à¦ļ": 14071, "ement": 1712, "Ġà§«à§¨à§«": 16288, "ements": 6400, "emer": 29660, "emet": 24370, "emetery": 25558, "à¦Ĩà¦ĩà¦ıà¦®": 13372, "Ġà¦°à¦®à¦°à¦®": 14058, "emic": 3438, "emics": 38014, "emie": 32163, "à¦«à§Ł": 20008, "emit": 31443, "emitism": 49208, "à¦¤à¦ĸà¦¨à¦ĵ": 20329, "emo": 36221, "emon": 36228, "emor": 26357, "emos": 4485, "Ġà¦ıà¦·": 15970, "empl": 5895, "emplo": 9066, "Ġà¦§à¦°à¦²": 12112, "à¦¦à¦¨à¦ķ": 11840, "empt": 4543, "emption": 26033, "ems": 9097, "emu": 37552, "emy": 3633, "à¦¦à¦§à¦¤à¦¨": 16289, "en": 268, "ena": 4118, "enan": 45008, "enario": 49120, "enary": 42245, "Ġà¦īà¦ĩà¦²": 11581, "enc": 22660, "ence": 655, "Ġà¦Ľà¦¯": 14672, "Ġà§¦à§§à§¬": 16542, "ences": 2667, "ench": 40765, "enci": 30322, "à¦ªà§ľ": 10974, "encial": 26567, "encias": 37246, "encie": 36220, "encies": 6464, "à¦ĩà¦²à¦ķ": 13644, "ency": 3020, "end": 521, "enda": 7639, "à¦Ĺ": 10292, "endas": 45252, "ende": 5445, "ended": 3502, "enden": 8896, "ender": 3216, "à¦ĩà¦ªà¦ķ": 16292, "endes": 34533, "endeu": 36202, "Ġà¦ĩà¦¨à¦«à¦°à¦®": 13021, "ending": 2029, "endo": 3999, "endra": 27332, "endre": 37850, "ends": 2581, "endum": 27574, "Ġà¦Łà¦¡": 18642, "ene": 1450, "eneca": 44852, "ened": 5320, "enee": 35674, "à¦°à§Łà¦ľà¦¨": 20317, "ener": 7971, "energetic": 44970, "energy": 49016, "enes": 25973, "Ġà¦ķà¦¸à¦°à¦¤": 15264, "Ġà¦°à¦¹à¦®à¦¤à¦Ĺà¦ŀ": 15530, "enf": 26939, "eng": 1501, "enga": 31494, "engage": 45949, "enge": 3032, "enger": 10210, "Ġà§¨à§«à§§": 15315, "enges": 47077, "engine": 25609, "engo": 30362, "ength": 4206, "enh": 39123, "à¦Ĩà¦Łà¦ķà¦ķ": 15711, "enin": 49939, "ening": 4559, "à¦¡à¦¯": 16006, "eniz": 40372, "enk": 32160, "enko": 49737, "enment": 26797, "enn": 1857, "à¦¤à¦¨à¦ķ": 13295, "Ġà¦ħà¦ĩ": 16043, "ennes": 42886, "ennial": 29705, "à¦¿à¦ģ": 11307, "eno": 5808, "Ġà¦Ĳà¦Ĺ": 20161, "ens": 694, "ensa": 23364, "ensation": 35292, "ensch": 26590, "à¦§à¦ķà¦Ł": 20996, "ense": 1288, "à§Ńà§¬": 16332, "enseful": 30398, "ensemble": 43004, "ensen": 32934, "enser": 30041, "enses": 9085, "ensible": 30633, "ensing": 22481, "ension": 3378, "à¦²à¦Ľ": 11075, "ensions": 8302, "ensitive": 34465, "ensity": 6859, "ensive": 2953, "enson": 31232, "ensor": 23153, "ensored": 50173, "à¦Ĺà¦¦": 10983, "ent": 317, "enta": 8938, "à¦§à¦¶à¦¤à¦ķ": 14533, "entar": 32067, "ente": 1576, "ented": 6003, "enteen": 29542, "à¦Ĩà¦°à¦ıà¦«": 14278, "entes": 9240, "à¦Łà¦Ĺà¦£": 17966, "enti": 23012, "ential": 2549, "entially": 3137, "Ġà¦¬à¦¨à¦¸": 15760, "entin": 47300, "enting": 49265, "ention": 1251, "entle": 5165, "entlich": 7698, "ently": 2276, "à¦ıà¦«à¦ıà¦¸": 15467, "entre": 24570, "entric": 32939, "entry": 48766, "ents": 791, "enty": 4179, "environ": 46848, "eny": 43100, "à¦¦à¦¦": 11368, "enza": 23691, "enzie": 32203, "enÃ§a": 48866, "eon": 27015, "Ġà¦Ĩà¦ĩà¦ļ": 14316, "ep": 595, "epend": 4217, "à¦§à¦°à¦¦": 21676, "epherd": 26449, "à¦ľà¦ķ": 10921, "à¦¬à¦¤": 10653, "ept": 5250, "epy": 46983, "Ġà¦«à¦¨": 12816, "er": 260, "era": 1663, "eral": 2790, "erald": 24250, "erap": 6289, "erapeut": 24046, "eras": 6985, "eration": 5053, "erc": 2869, "erca": 36127, "erd": 7783, "erdem": 35055, "erdings": 28519, "ere": 323, "ereal": 46036, "erecht": 48561, "ered": 4073, "eredith": 28714, "erei": 40256, "Ġà§¨à§¦à§¦à§§": 11746, "erel": 39796, "erella": 42842, "erem": 7333, "eremi": 36758, "eremiah": 38200, "à¦Łà¦ķà¦Ł": 12263, "à§¯à§¯à§¯": 19065, "Ġà§§à§¨à§ª": 13579, "eren": 5170, "erer": 29566, "eres": 9931, "ereum": 24585, "ereye": 41333, "erez": 28735, "à¦ĵà¦Ĩà¦ĩà¦ª": 17025, "à¦¹à¦·": 16310, "eria": 41568, "Ġà§¬à§©à§©": 17487, "à¦ĩà¦ļà¦Ĺ": 21659, "erin": 31602, "ering": 1794, "Ġà¦¶à¦°": 10608, "erkt": 49015, "erm": 966, "erma": 39994, "ermaid": 32124, "Ġà§¨à§¦à§¦à§¬": 11821, "erme": 31081, "ermo": 46096, "ern": 1248, "erna": 22250, "ername": 28704, "erne": 48135, "ernen": 25657, "à¦°à¦¸à¦¬à¦ķ": 19416, "ernt": 46165, "ero": 2032, "Ġà¦«à¦°à¦°": 16308, "Ġà§©à§¬à§¬": 16771, "erry": 5318, "ers": 433, "ersch": 22300, "erson": 3953, "ersonic": 44725, "Ġà§§à§®à§®à§Ń": 16398, "ert": 911, "erta": 22765, "ertain": 1408, "ertas": 49215, "à¦®à§Ł": 10634, "erten": 39990, "ertime": 37923, "erting": 27187, "à¦ıà¦ı": 13098, "erton": 42112, "ertos": 45152, "erus": 37287, "erv": 1978, "ervation": 6864, "erve": 3768, "erved": 6913, "erver": 38241, "erves": 9054, "ervice": 25006, "ervices": 47480, "Ġà¦¤à¦¹à¦¨": 20186, "erweise": 44071, "ery": 2109, "es": 279, "à¦łà¦¬": 13708, "à¦ľà¦¨à¦§": 18876, "esc": 37890, "esch": 22320, "ese": 1130, "esearch": 10177, "Ġà§«à§Ńà§Ń": 18380, "Ġà§ªà§¯à§¬": 17403, "eses": 23639, "Ġà¦Ĩà¦īà¦Łà¦¡": 14935, "Ġà¦¸à¦¯à¦¤à¦¨": 21181, "esian": 42434, "esin": 40697, "esis": 9374, "eso": 41189, "esome": 2988, "à¦¬à¦ĸ": 13361, "espace": 45792, "esper": 34698, "espÃ¨re": 29997, "esque": 47457, "ess": 442, "essa": 8391, "esse": 7357, "à¦¤à¦²": 10830, "à¦īà¦¸à¦¨": 20849, "essel": 47166, "Ġà¦¬à¦§": 12431, "essential": 48143, "à¦®à¦¶à¦¤": 14239, "esses": 32393, "ession": 4311, "essional": 44226, "essions": 9069, "essment": 38471, "esso": 5557, "essÃ¤": 44026, "est": 377, "esta": 7841, "estab": 33542, "estar": 39791, "este": 8887, "à¦ļà¦¯à¦¨": 21885, "esteem": 35301, "esten": 38743, "estens": 42624, "ester": 3011, "esterday": 4690, "à¦łà¦ķà¦Ĺà¦£": 21947, "esters": 38561, "à¦Łà¦¨à¦Ĺ": 21597, "estial": 33741, "estic": 8326, "esting": 8714, "estion": 31342, "à¦ķà¦Ľ": 11154, "à§§à§¯à§«à§«": 18465, "eston": 44750, "Ġà§ªà§«à§¦à§¦": 19098, "estones": 34853, "estra": 32036, "estre": 41135, "estro": 32389, "estruct": 43056, "estry": 47433, "ests": 4409, "esty": 7819, "estyle": 9985, "estÃ¤": 43439, "esus": 26739, "à¦¯à¦®à¦ĵ": 17823, "Ġà¦¸à¦¹": 10430, "Ġà¦Ĩà¦²à¦ķ": 14143, "et": 302, "eta": 7664, "etaan": 37128, "etah": 47947, "etas": 35120, "etch": 7858, "etchup": 26399, "ete": 3498, "Ġà¦°à¦ķà¦®": 10993, "Ġà¦Ĩà¦ªà¦°": 19865, "eter": 2398, "Ġà¦¹à¦Ĺà¦ĵà§Ł": 20269, "eterm": 35344, "eters": 6202, "etes": 37996, "eth": 3293, "à¦¯à¦¦à§Ł": 21051, "ether": 1666, "eti": 24566, "etic": 3532, "etical": 27800, "etically": 22652, "Ġà¦¬à¦īà¦®": 15793, "eties": 43469, "etime": 9764, "etin": 38645, "eting": 9880, "Ġà¦ĵà¦ļ": 19515, "eton": 26342, "etos": 49476, "etr": 27965, "Ġà§¬à§§à§©": 17475, "etrical": 32283, "etry": 9889, "ets": 1385, "ett": 3093, "à¦¤à¦°à¦¯": 16593, "ette": 3007, "etted": 46508, "etten": 30759, "etter": 27296, "à¦ĩà¦ľà¦Ń": 16049, "à¦·à¦ĵ": 12495, "ettle": 28444, "etto": 23778, "ettre": 40681, "Ġà¦¯à¦¤à¦ľà¦¨": 18498, "ettu": 42747, "etty": 38204, "etu": 41236, "etus": 40506, "ety": 2210, "etz": 10074, "etzen": 24797, "etzt": 3524, "etzung": 38584, "etÃ©": 41739, "eu": 23685, "eun": 34566, "Ġà¦īà§İà¦ķà¦£": 13629, "à¦¯à¦ķà¦Ń": 20395, "Ġà§©à§Ńà§¦": 13379, "even": 27170, "ever": 1054, "à¦²à¦®à¦ŀ": 21825, "everyone": 36060, "ew": 1023, "ex": 3121, "exc": 27855, "exhales": 47782, "à§§à§¯à§ªà§«": 18217, "existing": 36447, "à¦¬à¦Łà¦Ł": 15952, "expensive": 27409, "expl": 23040, "explosion": 49984, "ext": 3828, "ey": 2030, "eye": 25488, "eyed": 37860, "ez": 4371, "eza": 28604, "à¦īà¦Ł": 10670, "f": 69, "Ġà§¯à§«": 11771, "face": 2868, "faced": 48691, "fach": 6749, "facing": 44046, "fact": 44919, "à¦¬à¦°à¦£à¦ĵ": 20868, "fahren": 34394, "fal": 36474, "fall": 6691, "fallen": 24425, "à¦Ĩà¦¸à¦®": 18542, "family": 44433, "Ġà¦ľà¦¨à¦¦à¦°à¦¦": 20361, "à¦¯à¦²à¦ķ": 19134, "à¦¤à¦°à¦ĸà¦£": 21196, "à¦¬à§Ł": 11079, "fashion": 34636, "fashioned": 37998, "fast": 7011, "fat": 35293, "Ġà¦ľà¦¹": 11541, "fe": 2106, "fect": 1836, "fecture": 47612, "fed": 33712, "feed": 37036, "feeding": 42231, "feh": 33865, "feit": 37434, "feito": 35417, "fel": 29874, "feld": 25115, "felt": 41894, "fen": 6570, "Ġà¦Ĩà¦£": 18676, "fendim": 30462, "fendimiz": 46658, "fer": 612, "fera": 45635, "ference": 5158, "fern": 28958, "fert": 34784, "fest": 32348, "ff": 602, "à¦°à¦īà¦ĩà¦ķ": 16349, "Ġà¦¤à¦°à¦«": 11259, "ffective": 29122, "ffee": 4617, "à¦°à¦£à¦ķà¦²": 15945, "ffentlich": 22805, "ffer": 38145, "ffff": 25388, "ffffff": 47175, "ffic": 3341, "fficial": 37661, "fficiency": 49086, "fficient": 7816, "fficients": 31739, "ffiti": 36199, "à¦¸à¦ªà¦¨": 13325, "fia": 22054, "fic": 1786, "ficiente": 26863, "fiction": 32041, "field": 7610, "Ġà¦ķà¦ĩà¦®": 20646, "Ġà¦ĩà¦īà¦ıà¦¸à¦¬": 14919, "fik": 31230, "Ġà§®à§§à§¯": 19776, "fill": 31072, "filled": 35596, "film": 37023, "fin": 5194, "find": 35072, "finden": 43270, "finder": 38977, "Ġà§ªà§¦": 10925, "fir": 42382, "Ġà§¯à§Ń": 12037, "fires": 36197, "first": 29581, "Ġà¦ħà¦¬à¦¨": 11608, "fit": 6845, "Ġà¦®à¦łà¦¬": 13979, "Ġà§Ńà§«à§Ń": 18621, "fl": 3423, "flan": 39037, "flanzen": 50063, "fle": 38921, "flies": 24471, "flight": 43636, "Ġà§¯à§¨": 12336, "flo": 43645, "à¦ķà¦¦": 10565, "flower": 30794, "flowing": 43955, "flows": 33229, "flu": 49253, "à¦ıà¦«à¦¡": 14061, "Ġà¦ĩà¦ĩà¦ĩ": 16931, "focused": 44062, "fol": 7082, "Ġà¦ļà¦°à¦ļ": 18353, "folg": 23910, "folk": 39705, "à¦Ĩà¦²à¦®": 14338, "à§Łà¦®à¦¨": 12491, "food": 35549, "Ġà¦ıà¦¸à¦ı": 13498, "for": 2994, "force": 5156, "forcement": 9382, "ford": 7404, "forder": 30943, "fore": 845, "foreign": 49003, "forest": 36629, "form": 837, "formation": 8663, "forme": 44562, "formed": 22892, "forming": 48610, "fort": 2728, "fortable": 10124, "forth": 44779, "Ġà¦Ĩà¦¦à¦¨": 13305, "à¦īà¦¨à¦¶": 17493, "founded": 49547, "founder": 33348, "four": 23251, "fox": 38416, "fps": 50084, "fr": 5779, "frage": 40449, "à¦ļà§Łà¦ĵ": 17265, "frames": 43277, "à¦¨à¦Łà¦¨à¦ķ": 19325, "fred": 47613, "Ġà¦ļà¦²à¦ļ": 10792, "frei": 42072, "fried": 22773, "friend": 5540, "friendly": 22864, "friends": 29027, "frist": 48754, "Ġà¦ľà¦«": 20579, "Ġà¦¸à¦²": 11496, "fruit": 33564, "fry": 35299, "à¦¨à§Łà¦¨à¦¸à¦¹": 16883, "ft": 844, "fta": 49046, "à¦¨à¦ĵà¦ķ": 16268, "Ġà¦¸à¦¦à¦°à¦¦": 14513, "fter": 828, "ftig": 34765, "Ġà¦¸à¦¸à¦ª": 20930, "à¦ıà¦®à¦ķ": 14127, "ful": 906, "full": 32818, "fully": 2277, "fulness": 26872, "Ġà¦¤à¦Ľà¦°": 15930, "function": 22845, "Ġà¦¸à¦«à¦¦": 21874, "funded": 43589, "funding": 45033, "fur": 48057, "fy": 22522, "fÃ¤h": 44616, "fÃ¶": 49323, "à¦¬à¦²à§Ł": 15610, "fÃ¼hr": 29189, "à¦ľà¦ĵà§Ł": 12474, "g": 70, "ga": 3680, "gado": 30135, "gae": 45534, "ĠĠĠĠĠĠĠĠĠĠĠ": 15637, "gal": 9800, "gam": 33815, "Ġà§¨à§¦à§©": 15038, "gan": 1275, "à¦¬à¦¤à¦Ł": 19619, "gangen": 47152, "gano": 35255, "gar": 2976, "gard": 36260, "gart": 49330, "gary": 36214, "à¦°à¦ª": 10549, "gasp": 42267, "gasping": 47230, "gasps": 22901, "gate": 22514, "ge": 432, "Ġà¦¦à¦¶": 10848, "gebaut": 42858, "à¦¯à¦¸à¦Ļ": 16702, "à¦·à¦£à¦¸à¦®": 19983, "ged": 3004, "gee": 31577, "Ġà¦®à¦¥": 13529, "geh": 27057, "gehen": 24985, "geht": 46227, "à¦°à¦ķ": 10345, "geld": 49591, "gem": 26322, "geme": 31964, "gement": 48122, "gen": 1766, "Ġà¦Ĩà¦°à¦«": 15260, "gency": 5595, "gend": 9395, "gende": 27429, "gender": 22174, "Ġà¦¬à¦¬à¦¸": 21848, "generation": 30372, "genes": 47986, "genommen": 29270, "gens": 23212, "gent": 6930, "à¦Īà¦«": 17458, "geois": 49670, "Ġà¦¨à§ľ": 11641, "geons": 30636, "geord": 36161, "ger": 1321, "gere": 34899, "geries": 32217, "gers": 9458, "gery": 7337, "ges": 2880, "gesamt": 34818, "gesch": 23378, "gesetz": 33506, "gesetzt": 42283, "gest": 2629, "gestellt": 26293, "get": 847, "à§§à§§à§®": 19177, "à¦Ĩà¦ĩà¦«": 16284, "gettable": 43312, "à¦°à¦¬à¦£à¦ķ": 21306, "gg": 1615, "gga": 33462, "ggak": 24116, "à¦¯à¦®à¦¤": 12244, "gger": 39381, "ggi": 22771, "à¦²à¦ª": 10877, "gh": 9030, "à¦īà¦°": 10897, "gi": 7834, "gia": 40550, "à¦Ŀà§ľ": 11577, "gie": 9997, "gies": 25480, "giggles": 32975, "giggling": 45856, "gil": 29965, "gili": 34074, "gin": 1494, "à¦®à¦ĸ": 12659, "ging": 3249, "gins": 23320, "à¦®à¦¹à¦®": 17862, "à§Ŀà¦¸": 21322, "give": 25850, "à¦ĸà¦ĸ": 15441, "gl": 7191, "glass": 28851, "gle": 22631, "gli": 41443, "glich": 8856, "glio": 47002, "à¦¹à¦®": 10433, "gments": 37148, "gn": 4568, "go": 1571, "Ġà¦īà¦ªà¦ķà¦°à¦£à¦ĵ": 21787, "going": 8102, "gom": 30851, "gomery": 34036, "Ġà¦¸à¦¤": 10660, "gone": 39743, "à¦®à¦ľà§Ł": 21753, "gor": 26465, "Ġà§¬à§Ńà§¨": 18674, "à¦īà¦¨à¦Ł": 13178, "à¦Ĩà¦Ļ": 16089, "govern": 35329, "gow": 34968, "gr": 861, "Ġà¦Ĺà¦łà¦£": 20735, "grad": 7165, "grade": 8692, "grades": 22626, "graduate": 47187, "gram": 1342, "gran": 42381, "grand": 32902, "graph": 34091, "grass": 38663, "grav": 36418, "gre": 33248, "great": 40753, "green": 27399, "à¦¿à¦ĥ": 11027, "gren": 45968, "gres": 45189, "gress": 3091, "Ġà¦ħà¦¥à¦°": 13338, "grid": 35320, "griff": 32783, "Ġà§®à§ªà§®": 17427, "groaning": 46723, "groans": 37580, "ground": 2921, "à¦ķà¦ªà¦Ł": 17377, "grow": 26685, "grown": 38413, "growth": 49747, "grund": 23701, "grunting": 37371, "grunts": 37727, "grupp": 37768, "grÃ©": 36341, "à¦ıà¦¸à¦ıà¦¨": 21559, "Ġà¦¹à¦ļ": 10463, "gu": 2794, "Ġà¦ĵà¦Ļ": 20845, "guard": 27547, "Ġà¦¸à¦¹à¦ķà¦°": 11929, "guitar": 38442, "gun": 7414, "Ġà¦¶à¦¤à¦¬": 14857, "à¦¯à¦¤à¦ķ": 17806, "guru": 32266, "Ġà¦ķà¦·à¦²": 21956, "guy": 39344, "gy": 1480, "gypt": 9176, "h": 71, "ha": 1641, "hab": 7821, "haba": 42016, "habitude": 47470, "habt": 35641, "had": 26326, "hadow": 31933, "haft": 25127, "à¦°à¦ľà¦²": 18230, "hail": 48909, "hair": 46135, "hait": 49966, "hak": 37253, "hake": 34593, "hal": 4947, "Ġà¦¬à¦¨à¦Ĺ": 13209, "hale": 8996, "hales": 37507, "half": 25461, "hall": 43864, "à¦Ĺà¦£à¦¶": 20731, "Ġà¦®à¦¶à¦ķ": 15022, "ham": 4822, "hammer": 39985, "han": 3451, "hana": 39907, "hand": 5543, "handed": 25407, "hando": 28190, "hang": 23850, "hanol": 35735, "Ġà§¨à§Ńà§¦à§¦": 19880, "hape": 42406, "Ġà¦¨à¦ĵà¦¹": 17888, "haps": 3591, "har": 5854, "à¦¦à¦¹à¦¨": 21491, "hare": 31932, "harma": 29171, "hart": 42535, "Ġà¦ħà¦¬à¦¸à¦°à¦ª": 12438, "Ġà¦¦à¦²à¦¬à¦¦": 15178, "haul": 39423, "à¦¯à¦ķà¦®à¦ª": 19276, "haus": 23321, "have": 24284, "hay": 47464, "Ġà¦¶à¦®à¦°": 20272, "he": 675, "hea": 27799, "head": 1934, "headed": 28409, "heads": 29481, "Ġà¦¨à¦²à¦¬": 19225, "healthy": 26767, "heard": 42915, "Ġà¦ħà¦°à¦¬": 12864, "hearted": 25471, "heavy": 37157, "hed": 27096, "Ġà¦ıà¦ĩà¦ļà¦ª": 14600, "heen": 42276, "heet": 38164, "hehe": 23500, "hei": 42674, "heid": 26013, "Ġà§¯à§«à§Ń": 18673, "heimer": 23542, "hein": 44448, "Ġà¦ķà¦ļà¦ķà¦ļ": 20267, "heit": 8480, "heiten": 38754, "heits": 24260, "à¦§à¦®à§Ł": 18063, "held": 23504, "à¦ĩà¦Łà¦Ń": 21288, "helm": 48319, "help": 37451, "hem": 28005, "hen": 2932, "her": 511, "here": 6703, "à¦Ĩà¦®à¦«": 19464, "heric": 23920, "herical": 34340, "hern": 7894, "à¦°à¦Ĺà§ľ": 16218, "hertz": 35655, "hes": 8076, "hesia": 42464, "hesion": 38571, "Ġà¦¤à¦Ľà¦²": 19379, "het": 9092, "Ġà¦ıà¦Łà¦°": 17151, "hetto": 40556, "heure": 23084, "heus": 42209, "à¦®à¦¤à¦¸à¦¹": 17418, "hews": 46415, "à¦īà¦Ĩà¦°": 17230, "hguru": 37014, "hh": 3454, "Ġà¦Łà¦°": 12614, "à¦ĩà¦ľà¦°": 15242, "hi": 4954, "hib": 5455, "hic": 32582, "Ġà¦²à¦¬à¦£à¦¯": 21454, "hil": 42829, "Ġà¦®à¦Ĺà¦°": 17000, "à¦²à¦Ĺà¦Ĺ": 18251, "à¦¯à¦¤à¦®": 10876, "hind": 37573, "hing": 571, "hington": 6050, "hini": 45600, "hip": 1210, "hips": 7640, "hir": 24118, "hire": 25966, "Ġà§¯à§¯à§«": 18300, "hist": 33236, "histoire": 29093, "hit": 37068, "hl": 22950, "hm": 8587, "hma": 22061, "hmen": 9547, "hmm": 10250, "Ġà¦ħà¦ªà¦¬": 12071, "hnlich": 35646, "ho": 1289, "hod": 2926, "hodou": 43887, "hoe": 33810, "hof": 35128, "hog": 27084, "hol": 5449, "hold": 4104, "à¦¸à¦Ńà¦°": 20480, "à¦¤à¦°à¦¸": 12916, "Ġà§§à§¯à§ªà§§": 14094, "holes": 37894, "holm": 32479, "home": 25336, "homme": 38073, "hon": 34914, "hone": 6487, "hong": 46507, "Ġà¦ıà¦ĩà¦¯": 19069, "hood": 3809, "hoon": 30429, "hoot": 24467, "hooting": 47011, "hop": 9050, "hope": 47485, "Ġà§¯à§¦à§¨": 18415, "hor": 2335, "hora": 7013, "hores": 39356, "horn": 31990, "horse": 45079, "Ġà§§à§®à§ªà§¦": 17631, "host": 6037, "à§Łà¦Ł": 12194, "hots": 27495, "Ġà¦ĸà¦¨à¦¨": 12181, "houette": 28191, "Ġà¦«à¦°à¦¸": 18048, "house": 6410, "houses": 29578, "hov": 28057, "hovah": 48755, "hoven": 33654, "how": 4286, "hower": 48780, "hr": 1703, "hrlich": 34188, "hst": 38857, "ht": 357, "hta": 39903, "htaking": 46275, "hte": 23904, "hthal": 49123, "Ġà¦ıà¦ķà¦ªà¦°": 12086, "hua": 30107, "Ġà§¬à§¦à§©": 18710, "Ġà¦īà¦¨": 10556, "Ġà¦Ĩà¦²à¦¬à¦¦à¦°": 14645, "huma": 42043, "Ġà§Ńà§¬à§ª": 18796, "hun": 42898, "hur": 31655, "Ġà¦Ĩà¦Ĺà¦¸": 10846, "hwa": 41235, "hy": 3495, "Ġà¦Łà¦¨à¦ª": 21591, "hythm": 34494, "hyuk": 42661, "à¦ŀà¦¨": 21806, "hyung": 44326, "hÃ£": 36320, "hÃ¤lt": 28068, "hÃ¤ng": 34591, "hÃ©s": 34913, "hÃ©sitez": 45587, "hÃµes": 31819, "hÃ¶": 33195, "i": 72, "ia": 654, "iable": 9364, "Ġà§§à§¯à§ªà§¨": 13921, "iad": 38069, "iada": 39018, "iage": 47876, "à¦£à¦ł": 13984, "iajÄħ": 48125, "ial": 831, "iale": 25051, "ially": 2270, "à¦Ńà¦°à¦¶": 12356, "iam": 2918, "Ġà¦¬à¦°à¦ķà¦²": 16855, "à¦¦à¦¬à¦°": 15568, "iamo": 7415, "ian": 952, "iana": 8497, "iance": 6276, "Ġà§§à§¬à§¦à§®": 21518, "iander": 29317, "à¦·à¦ķà¦®à¦£": 21133, "Ġà¦¸à¦¹à¦®à¦°à¦£": 21309, "iano": 6254, "ians": 2567, "iant": 5798, "iantes": 46269, "iantly": 42580, "iao": 7648, "iar": 9448, "iary": 29104, "ias": 4609, "Ġà¦ľà¦¨à¦īà¦¦": 21940, "iat": 7676, "Ġà¦ıà¦ķà¦ļ": 13024, "iation": 6642, "à¦ıà¦¸à¦Ĩà¦ĩà¦Ĩà¦°": 17252, "iau": 45274, "iaÅĤ": 8908, "iaÅĤa": 25605, "iaÅĤem": 36368, "ib": 897, "Ġà§§à§®à§Ńà§«": 17036, "ibal": 34764, "iban": 23586, "ibe": 47622, "ibel": 44685, "Ġà¦¬à¦ļà¦¸": 13771, "iber": 5331, "iberal": 46364, "ibi": 25515, "à¦Ĺà¦ª": 11607, "ibile": 30898, "ibilidad": 33989, "ibilities": 8261, "ibility": 2841, "Ġà¦ļà¦®": 11476, "ible": 964, "à¦ªà¦§": 14428, "Ġà§§à§Ńà§¯à§®": 21101, "à¦ªà§ľà¦¤": 20002, "ibly": 3545, "ibo": 27776, "ibr": 6414, "Ġà§§à§¯à§«à§¯": 13651, "ic": 299, "ica": 2262, "icable": 43023, "icaid": 23840, "ical": 804, "ically": 984, "icamente": 23653, "ican": 8914, "icana": 44864, "icano": 38028, "icans": 34332, "icar": 7953, "icas": 9150, "icate": 8700, "icated": 3587, "icating": 30541, "ication": 8758, "ications": 24847, "icaÃ§Ã£o": 37823, "ice": 573, "iced": 4233, "iceless": 41817, "icem": 46343, "iceps": 35552, "icer": 31250, "ices": 1473, "ich": 480, "icha": 48710, "iche": 9304, "à¦ĩà¦ĩà¦ī": 18613, "à¦ķà¦Łà¦°": 14934, "icherung": 48659, "à¦ĩà¦¨à¦·": 18543, "icho": 33082, "icht": 1405, "Ġà§®à§¯à§§": 18972, "ichten": 24681, "ichtet": 40387, "ichtig": 7334, "ichtlich": 41971, "ichts": 44508, "ici": 8787, "Ġà¦ıà¦¡à¦¸": 15341, "à¦¶à¦¹à¦°à¦Ł": 14730, "ician": 9027, "icians": 8455, "iciary": 38801, "icias": 48042, "icide": 9584, "icides": 43393, "icie": 28434, "iciency": 42081, "icient": 24549, "icing": 5776, "Ġà¦ıà¦¥à¦¨": 18322, "Ġà¦ĩà¦ķà¦®": 18899, "icional": 33010, "iciones": 29719, "icios": 26817, "icious": 3784, "icip": 6537, "icism": 26356, "icit": 8876, "icity": 44198, "Ġà¦¡à§Łà¦ļ": 15534, "ick": 618, "Ġà¦ªà¦¥à¦ļ": 12598, "icken": 3830, "icker": 33804, "ickers": 36928, "Ġà¦®à¦¨à¦¤à¦²": 20551, "ickets": 38748, "icki": 41356, "à¦²à¦ķ": 10401, "icks": 7663, "ickt": 40522, "à¦¬à¦Ńà¦Ļ": 20539, "icle": 3520, "icles": 5350, "ico": 2789, "Ġà¦ĵà¦¨": 11911, "Ġà§§à§¯à§©à§¨": 14149, "icorn": 23115, "icos": 9940, "ics": 1167, "ict": 985, "Ġà¦ıà§ľ": 11254, "Ġà¦Ĩà¦ĩà¦ıà¦ıà¦«": 21490, "iction": 4105, "ictional": 23611, "Ġà¦¬à¦°à¦¬": 15607, "Ġà¦¶à¦°à¦¦": 14646, "icularly": 29695, "icus": 36496, "icut": 28097, "icy": 2632, "Ġà§¬à§¯à§¯": 17946, "id": 327, "ida": 2887, "idable": 38089, "idad": 4580, "idade": 6014, "Ġà¦®": 10284, "idal": 22151, "idamente": 49663, "idan": 31675, "idar": 48133, "Ġà¦ķà§ľ": 11382, "iday": 4708, "à¦¦à¦¯": 13177, "idaÄĩ": 46898, "à¦¯à¦¨à¦¤": 14273, "idden": 6171, "ide": 482, "ided": 2112, "à¦ķà¦²à¦¸": 16189, "idelity": 33343, "iden": 4380, "idence": 2778, "idences": 41298, "idency": 23343, "ident": 1078, "idental": 47023, "identally": 36578, "idente": 40114, "identified": 40613, "idents": 6026, "ideo": 24589, "ider": 1438, "iderman": 47811, "iders": 6936, "ides": 1875, "idet": 39741, "idez": 45170, "idge": 3815, "Ġà¦ħà¦ªà¦ķà¦°": 12716, "idian": 34681, "iding": 2819, "idir": 33031, "idis": 40920, "à§İà¦ªà¦¦": 17711, "ido": 2925, "idor": 29718, "idores": 38835, "idos": 7895, "ids": 3742, "idy": 38836, "idÃ¤n": 33823, "idÃ©": 35146, "idÃ©e": 34281, "ie": 414, "ieben": 38243, "iec": 35733, "iece": 46566, "ied": 1091, "ieder": 5653, "iedo": 36035, "Ġà¦¸à¦°à¦²à¦°": 16446, "à¦¸à¦¥": 15338, "iedzieÄĩ": 22078, "ief": 2521, "à¦¨à¦Ĺà¦¤à¦Ń": 20408, "iegen": 33633, "à¦ıà¦¸à¦ĩ": 12200, "ieht": 39850, "iej": 7764, "à¦ĸà¦¸à§ľ": 19487, "iel": 1187, "ield": 1789, "Ġà¦Ĩà¦¦à¦®à¦ľ": 15949, "Ġà§§à§¯à§Ńà§¯": 12844, "ieli": 23099, "iell": 32562, "à§Łà¦ªà¦°": 16033, "iels": 44189, "à¦ªà§ľà¦Ĺ": 18940, "iem": 4907, "iemand": 39362, "iembre": 49772, "ieme": 44940, "Ġà¦¸à¦¬à¦ľ": 11571, "ien": 1053, "ience": 1182, "ienced": 47592, "Ġà§¨à§ªà§¦": 14004, "iencia": 30592, "iencies": 31294, "iency": 7848, "iend": 1174, "ienda": 30498, "iende": 45816, "iendo": 7304, "iene": 10174, "ienen": 22461, "ieni": 35462, "Ġà¦Łà¦ķà¦¦à¦ĩ": 18811, "ienie": 27385, "ienna": 26143, "à¦¤à¦®à¦²": 21262, "iennent": 28977, "iens": 24594, "ienst": 27366, "ient": 1196, "iente": 8413, "Ġà§®à§¨à§¬": 20135, "iento": 7814, "à¦īà¦¬à¦¸à¦¹": 20370, "ientras": 22148, "ients": 2448, "ientÃ´t": 33844, "ienza": 42331, "ier": 811, "à¦§à¦¨": 10609, "ieran": 38516, "à¦²à¦®à¦°": 14412, "ieren": 5695, "ieri": 45980, "iern": 49584, "Ġà§¨à§¦à§©à§«": 19689, "Ġà¦Ĺà¦£à¦¨": 12030, "à¦¦à¦ķà¦¸": 14440, "Ġà¦ĸà§İà¦¨": 17452, "iers": 4890, "iert": 4859, "ierte": 23123, "ierten": 29632, "à¦·à¦¤à¦®": 20747, "à¦°à¦¬à¦¨": 11651, "ierungs": 40908, "ierz": 34602, "ies": 530, "iese": 39158, "iesen": 30383, "ieso": 32272, "iest": 6495, "iesta": 38804, "Ġà¦ĵà¦ķà¦¸": 15347, "iet": 1684, "iete": 40462, "ieten": 25868, "ietet": 45531, "ieth": 38449, "à¦·à¦ļ": 19084, "à¦¸à¦ª": 10507, "iety": 4014, "Ġà§®à§¬à§¯": 19347, "à¦°à¦²à¦¤à¦®": 20679, "Ġà¦¬à§ľà¦ķ": 17743, "ieux": 35371, "iev": 9037, "à¦Ĩà¦¹à¦²": 21129, "à§ľà¦Ľ": 11108, "ieved": 46515, "ievers": 42394, "ieves": 28648, "ieving": 30244, "ievous": 42111, "iew": 1093, "iewaÅ¼": 27806, "Ġà¦¤à¦ĸà¦¤": 18812, "ieza": 35597, "ieÃŁ": 39245, "ieÃŁen": 40687, "if": 351, "ifa": 29634, "Ġà¦¯à¦ľ": 13730, "ife": 863, "ifen": 25076, "ifer": 9361, "iferation": 44987, "iff": 3661, "à¦°à¦®à¦¦": 20195, "iffe": 31387, "Ġà¦«à¦ľ": 12612, "Ġà¦ıà¦²à¦Ĺ": 15790, "Ġà¦Īà¦·à§İ": 17643, "Ġà¦ıà¦²à¦ıà¦¸": 17638, "ifiable": 30876, "ific": 1089, "ifica": 43377, "ificaciÃ³n": 40802, "ifically": 4278, "ificant": 35277, "ificar": 25625, "ification": 3774, "ifications": 7833, "Ġà¦¹à¦ĵà§Ł": 10505, "à§Į": 10371, "ifie": 42726, "ified": 2587, "ifier": 9902, "ifiers": 23463, "à¦®à¦£": 11221, "ifik": 45475, "ifique": 28134, "ifiques": 48463, "iform": 8629, "iforn": 5203, "à¦¥à¦«": 18290, "ift": 2008, "ifter": 30846, "ifting": 10106, "ifts": 8065, "ifty": 37177, "iful": 2069, "Ġà¦²à¦ĸà¦¨à¦ī": 15386, "ify": 2505, "ifying": 5489, "ig": 328, "iga": 9900, "igail": 44582, "igan": 9552, "igans": 49088, "igare": 46956, "à¦¯à¦ĵà§Ł": 21494, "igator": 28895, "ige": 3969, "igen": 3213, "Ġà¦®à§İà¦¸à¦ľ": 17644, "Ġà§©à§ª": 11214, "igent": 25002, "iger": 4810, "igers": 24756, "Ġà¦ªà¦°à¦¶à¦®à¦£": 20609, "igg": 6249, "igger": 6812, "à¦¬à¦¨à¦¡": 20942, "à¦°à¦®à¦£à¦Ĺ": 19694, "Ġà¦ĩà¦ķà¦¤": 19469, "iggling": 24542, "iggly": 46737, "iggs": 32555, "igh": 910, "igher": 2867, "ighing": 24412, "Ġà¦¯": 10311, "ight": 397, "ights": 5761, "à¦¶à¦¹à¦°": 12452, "à¦«à¦ľà¦ĸ": 19789, "Ġà¦¶à¦«": 11292, "Ġà¦¨à¦°à¦¬": 21883, "à¦Ĩà¦ĩà¦¨à¦¶": 16626, "igkeiten": 37545, "Ġà¦ľà¦²à¦Ľà¦¬": 20181, "à¦Ĩà§Łà¦¤à¦¨": 16150, "igmat": 46496, "ign": 788, "ignant": 36818, "igne": 26341, "à¦ľà¦ħà¦°": 16690, "igner": 36596, "igning": 9676, "ignment": 41134, "ignon": 41846, "igns": 42636, "ignty": 26919, "igo": 7483, "igon": 47578, "igor": 47131, "à¦®à¦Ĺà¦¤": 13348, "igrade": 41278, "igram": 33737, "igraph": 42034, "igration": 36045, "Ġà¦Ľà¦²à¦Ľ": 17156, "igt": 5828, "igten": 41498, "à§§à§¯à§Ńà§©": 16397, "Ġà¦¤à¦¹à¦¸": 16831, "à¦¥à¦Ĺà¦¤": 21034, "iguous": 30525, "ih": 4247, "ihad": 43837, "ihat": 41650, "ihen": 29842, "ihi": 48747, "ihin": 36902, "ihn": 37493, "ihood": 34262, "ihu": 44344, "ii": 5597, "iiii": 42526, "iin": 31463, "ij": 1718, "à¦°à¦°à¦«à¦ķ": 20642, "ijah": 32630, "Ġà§§à§®à§¨": 14675, "ije": 37697, "iji": 26539, "ijk": 6940, "ijke": 33611, "ijn": 6041, "ijo": 24510, "Ġà¦ıà¦ķà¦ļà¦²": 21992, "ik": 1035, "ika": 5439, "ikal": 41216, "Ġà¦ıà¦®à¦Ĩà¦°": 16048, "ikat": 36300, "ike": 1123, "iked": 44070, "ikel": 41486, "à¦¤à¦¨à¦¯": 19640, "Ġà¦ľà¦Ĺà¦¤à¦ķ": 17314, "ikes": 8916, "ikh": 22400, "iki": 9850, "Ġà¦ķà¦°à¦¨": 13085, "ikit": 48183, "ikk": 26301, "ikka": 31688, "ikke": 38735, "ikle": 40177, "Ġà¦ıà¦ª": 10770, "iks": 23292, "iksi": 39664, "ikt": 9874, "ikte": 34165, "iku": 24320, "ikum": 35518, "ikut": 49971, "il": 388, "ila": 7371, "ilage": 48066, "ilah": 45014, "à¦²à¦Łà¦ķ": 21752, "ilant": 25824, "ilantro": 41160, "ilar": 2202, "ilate": 48104, "ilated": 45678, "ilateral": 37751, "Ġà¦ķà¦ľ": 16067, "ild": 793, "ilda": 34121, "Ġà§ªà§¦à§§": 15956, "ile": 794, "iled": 7292, "ilee": 33914, "ileen": 42914, "Ġà¦ıà¦ķà¦ĺà¦£": 17471, "iler": 5441, "ileri": 45091, "iles": 4680, "à¦¹à¦ķà¦°": 12062, "ili": 2312, "ilia": 24169, "ilian": 48666, "à¦ľà§Łà¦Ł": 21738, "iliar": 4600, "iliary": 38550, "iliation": 22002, "Ġà¦ľà¦¨à¦ªà¦¦": 12722, "ilight": 27797, "ilik": 41470, "ilim": 26026, "iling": 4883, "ilingual": 38219, "Ġà¦¸à¦«à¦²à¦Ń": 12833, "ilit": 34050, "ilities": 3064, "ility": 1140, "iliyor": 34845, "iliz": 47043, "iliÅĽmy": 43912, "ill": 373, "illa": 5291, "illah": 32703, "Ġà¦ĩà¦¨à¦«à¦°": 17223, "illar": 30635, "illary": 46367, "à¦®à¦ĵà¦²": 20243, "ille": 3409, "illed": 6261, "à¦Ĺà¦°": 10497, "illery": 25857, "à¦·à¦£à¦Ł": 14835, "Ġà¦ĸà¦°à¦ļà¦ĵ": 14810, "illi": 31922, "illing": 7345, "Ġà¦¨à¦ľà¦°à¦¦": 11836, "illions": 46279, "Ġà¦Ĩà¦ĩà¦®": 15831, "illon": 30961, "illos": 47476, "ills": 2565, "illy": 6917, "à¦¨à§Łà¦ľ": 21823, "à¦¬à¦¹": 10720, "à¦¤à¦ĵà§Ł": 15754, "ilos": 6136, "ilot": 31516, "ils": 4174, "Ġà¦®à¦Łà¦°à¦¸": 15177, "ilt": 2352, "Ġà§©à§©à§©": 15200, "Ġà¦īà¦łà¦Ľ": 11544, "ily": 953, "ilyn": 41078, "ilÃł": 10039, "im": 332, "ima": 4775, "imaan": 40338, "imag": 25228, "image": 26624, "imagin": 44976, "à¦¨à§Łà¦¨": 10650, "iman": 25504, "imana": 36497, "imar": 49396, "Ġà¦®à¦¦à¦¦à¦ª": 17957, "imasu": 47029, "imat": 33862, "imate": 2905, "imated": 33008, "imately": 5401, "à¦°à¦īà¦¡": 17306, "imbap": 46304, "à¦Ń": 10308, "ime": 1312, "à¦¤à¦¸à¦¬": 19676, "imens": 37294, "iment": 2328, "imento": 10030, "imentos": 34626, "iments": 8321, "imer": 9713, "imerk": 45063, "imes": 1532, "imet": 26123, "imeter": 9685, "Ġà¦ħà¦«à¦²": 14349, "imi": 10121, "à¦¡à§Łà¦¨": 14007, "imientos": 34841, "imin": 4395, "imir": 26935, "à¦ħà¦ª": 12526, "imize": 43890, "imizi": 40813, "imm": 6753, "Ġà¦īà§İà¦ĸà¦¨à¦¨": 20380, "immen": 32076, "à¦¬à¦²à¦¸": 14477, "immers": 43107, "imming": 40471, "à§Łà¦¨à¦¸à¦¹": 15314, "immune": 49031, "immung": 38412, "imo": 6934, "imon": 25098, "Ġà¦ĸà§ľà¦ĸà§ľ": 21917, "imos": 8372, "imoto": 42277, "imp": 8814, "à¦¬à¦®à¦Ļ": 20737, "important": 41654, "importe": 38320, "impression": 36107, "Ġà¦ħà¦¬à¦¸à¦°à¦ķ": 18857, "imsical": 49945, "à¦¯à¦ĸ": 13189, "in": 259, "ina": 1426, "inaire": 38431, "inal": 2071, "Ġà¦ĺà¦°à¦¦": 19801, "inals": 33961, "Ġà¦¸à¦°à¦²à¦Ń": 20553, "inar": 6470, "inars": 24627, "inary": 4066, "Ġà¦Ĩà¦ľà¦®à¦¤": 17094, "à¦·à¦£à¦Ĺ": 13923, "inated": 5410, "inating": 8205, "ination": 2486, "Ġà¦¸à¦®": 10325, "inator": 31927, "inaudible": 6436, "inaÃ§Ã£o": 40788, "inc": 4647, "incarn": 41801, "ince": 1236, "à¦®à¦¦à¦ª": 12415, "Ġà§¦à§¨à§ª": 21961, "including": 50010, "à¦ľà¦¸à¦ľ": 15212, "income": 30673, "inct": 5460, "Ġà§§à§®à§¦": 12987, "inctions": 49798, "ind": 471, "inda": 6837, "inde": 8274, "indeer": 44749, "Ġà¦¨": 10291, "inder": 5669, "indest": 33155, "indet": 49419, "indi": 10255, "inding": 9245, "Ġà§ªà§Ńà§¦": 16041, "Ġà¦¶": 10306, "indre": 28786, "indruck": 41824, "indung": 41442, "indust": 29850, "industrie": 50046, "ine": 533, "inea": 31940, "ined": 2001, "inee": 22036, "inees": 27558, "inek": 48421, "inel": 40952, "inely": 33592, "inement": 30229, "inen": 5636, "Ġà¦®à¦®à¦¤": 11058, "inental": 38653, "iner": 4564, "inery": 23194, "ines": 1652, "inese": 48629, "iness": 1324, "à§©à§©à§©": 21370, "à¦ĩà¦²à¦ĩ": 19920, "infect": 26260, "infl": 27850, "inflamm": 45684, "inform": 37811, "Ġà¦¡à¦ķà¦Ł": 20941, "ing": 278, "inga": 41705, "inge": 8735, "Ġà¦Ĩà§Łà¦¨": 12343, "inger": 6911, "ingers": 40180, "inging": 8716, "ingle": 26209, "à¦ķà¦«": 12163, "Ġà¦ļà¦®à¦ļ": 18459, "ings": 1109, "ingt": 23190, "à¦°à¦ªà¦Ļ": 20251, "ingu": 7050, "inguÃ©m": 25985, "inh": 10085, "inha": 6727, "inhas": 28881, "inho": 7775, "inhos": 29140, "ini": 3812, "à¦ıà¦¸à¦ĵ": 15916, "ining": 1760, "inis": 25555, "inished": 35923, "Ġà§¨à§¦à§¦à§®": 11540, "iniz": 9328, "inizi": 46222, "ink": 475, "inka": 38989, "inken": 35061, "inker": 40467, "inki": 41917, "Ġà¦ķà¦ĸà¦¨à¦ĩ": 12408, "Ġà¦¦à¦ĸà¦²à¦ķ": 14095, "inkles": 23870, "inkling": 45258, "Ġà¦Ľà§Łà¦¶": 16431, "inku": 48669, "inky": 22998, "inn": 7729, "inned": 45508, "à¦¸à¦°à¦£": 11399, "Ġà¦Ĩà¦«à¦¶": 19166, "ino": 2982, "Ġà¦ıà¦¤à¦¬à§ľ": 15936, "Ġà¦Ĩà¦¨à¦ķ": 15220, "inqu": 37384, "ins": 1292, "inse": 22134, "insi": 22870, "inski": 38984, "insky": 44153, "Ġà§©à§¦à§¦à§¦": 14321, "insp": 31637, "Ġà¦ľà¦¨à¦¬": 13911, "install": 40166, "instant": 48142, "instr": 50024, "insula": 27186, "int": 686, "à¦°à¦®à¦£à¦ª": 16071, "Ġà¦Ńà¦¦à¦ķ": 20582, "à¦Ľà¦Ł": 12401, "integr": 31131, "à¦ľà¦ķà¦ĵ": 20761, "intelligible": 27356, "intend": 24226, "intendent": 27563, "à¦¦à¦£": 11177, "intense": 33406, "inter": 5106, "interest": 27685, "interpret": 41935, "inters": 35388, "Ġà§¬à§¨à§®": 17246, "Ġà¦ķà¦ĩà¦°": 12442, "introdu": 38132, "ints": 8654, "intÃ©": 36934, "intÃ©rieur": 39166, "inum": 26731, "invest": 31498, "iny": 3519, "inya": 28507, "inyl": 22946, "inÃ¤": 32097, "io": 1004, "iod": 2695, "iology": 46457, "ion": 313, "Ġà¦īà¦°à¦¬": 21758, "ional": 1966, "ionar": 33639, "ione": 5328, "ioned": 37579, "Ġà¦ķà¦ķà¦ª": 17068, "iones": 5411, "Ġà¦®à¦°à¦Ľ": 15273, "iono": 49020, "ions": 626, "iony": 46184, "ior": 1973, "iors": 9337, "ios": 2717, "iosa": 37050, "iosis": 48783, "iosity": 40729, "ioso": 23540, "iot": 6471, "ious": 851, "iously": 8994, "à§§à§¦à§¯": 20675, "iovascular": 30313, "Ġà¦Ĩà¦²à¦Ĺ": 13973, "ioxid": 30565, "ioÃ¨": 35983, "ip": 647, "ipe": 6527, "ipedia": 26633, "à¦®à¦²à¦Ĺ": 15402, "ipes": 38689, "iph": 24595, "à¦ľà¦¨à¦Ĺà¦£à¦ķ": 21240, "iping": 46440, "ipl": 34442, "ipp": 2488, "ipped": 5529, "à¦·à¦ķà¦¬": 15124, "ippers": 31323, "Ġà¦¡à¦¸": 18626, "ipping": 6297, "ipple": 23476, "ipples": 37674, "ippy": 48363, "ips": 2600, "ipse": 48041, "ipt": 22439, "ipts": 48908, "iqu": 3221, "ique": 1925, "iquement": 27703, "iquer": 23909, "iques": 4911, "iquÃ©": 27968, "ir": 347, "ira": 4271, "à¦Łà¦ĵà¦°": 21493, "iral": 35083, "iram": 40359, "iran": 40111, "iras": 23342, "iration": 7611, "ird": 1271, "irdi": 36455, "ire": 621, "Ġà¦Ńà¦¦": 11890, "ired": 1824, "irement": 28575, "à¦ļà¦°à¦£à¦ķ": 18833, "irens": 44511, "ires": 3145, "irez": 50231, "Ġà¦īà¦²à¦Ł": 12988, "irie": 32924, "iries": 38619, "irim": 37465, "iring": 5057, "irit": 2911, "iritual": 47923, "à¦¬à¦ķà¦Ĺà¦£": 18610, "irl": 1648, "irler": 38608, "irm": 3692, "irmi": 49110, "iro": 5182, "iron": 2088, "à¦Ľà¦ĺ": 21633, "irrel": 24704, "irring": 30845, "Ġà¦ľà¦²à¦¸": 12983, "irse": 36097, "irsin": 43384, "irsiniz": 34054, "irst": 653, "Ġà¦Ĩà¦ĩà¦¨à¦Ĺ": 15941, "irt": 2498, "irteen": 27114, "irting": 36575, "irts": 9899, "irtschaft": 32896, "irty": 9340, "irus": 9619, "à¦°à¦®à¦¬à¦°": 12781, "is": 271, "isa": 3837, "Ġà¦®à¦¨à¦Ĺà§ľ": 14804, "isance": 46852, "Ġà¦ĸà¦¤à¦®": 13198, "isation": 7623, "isations": 47791, "isc": 5606, "Ġà¦īà¦¤à¦°": 14616, "isce": 49596, "iscern": 42074, "iscernible": 42758, "isch": 5494, "ische": 7864, "ischen": 6282, "à§§à§¯à§©à§©": 19674, "isches": 35889, "iscilla": 49413, "isco": 8610, "Ġà¦°à¦¨à¦¬": 17659, "iscover": 40080, "ise": 908, "ised": 2640, "iseen": 44234, "isel": 39711, "à¦¬à¦Ľà¦°": 11106, "iser": 6694, "ises": 3598, "isesti": 35216, "iset": 42907, "isexual": 38505, "isf": 4937, "ish": 742, "Ġà¦°à¦°": 16546, "ished": 4729, "isher": 9807, "à¦®à¦£à¦¦": 16423, "ishi": 27537, "ishing": 3807, "ishment": 30273, "à¦·à¦ķà¦¶": 20348, "à¦ĺà¦ł": 18091, "ishops": 48056, "isi": 8021, "Ġà¦¹à¦°à¦¹": 15877, "isiaj": 22356, "isiej": 50117, "isiert": 42266, "isierung": 32531, "isin": 33787, "Ġà§§à§«à§«à§¦": 20668, "ising": 3436, "isini": 47321, "ision": 1991, "isions": 4252, "isis": 28436, "isiÃ¨me": 44000, "isiÃ³n": 36515, "isk": 7797, "à¦ħà¦ªà¦¸": 21945, "isko": 43442, "iskt": 23606, "isl": 5788, "ism": 1434, "à¦¦à§Łà¦¬": 14795, "ismatic": 34088, "Ġà§Ńà§©à§¦": 16415, "ismo": 6882, "Ġà§§à§¯à§¨à§¦": 13539, "ismus": 25327, "à¦§à¦²à¦ķ": 19227, "à¦¯à¦¦à¦²": 14172, "isoft": 47929, "isol": 29273, "ison": 2770, "isons": 23886, "isp": 7631, "ispering": 35237, "ispers": 31018, "isphere": 31048, "à¦¯à§Łà¦¨": 11935, "iss": 891, "issa": 10138, "à¦¯à¦ªà¦ķ": 14431, "issant": 29492, "isse": 7746, "issement": 31931, "issements": 44928, "Ġà¦ľà¦¨à¦¸": 10987, "issenschaft": 26657, "issent": 25450, "isser": 23714, "isses": 40487, "issez": 43033, "issible": 41073, "issimo": 34966, "ission": 3106, "issions": 7922, "Ġà¦ıà¦¸à¦°": 19895, "isso": 41279, "isson": 30472, "à¦ıà¦¸à¦ı": 13839, "isst": 45802, "issy": 28617, "issÃ¤": 38354, "ist": 468, "ista": 5236, "istan": 7559, "Ġà¦§à¦°à¦£à¦Ł": 20829, "istani": 46301, "Ġà¦«": 10329, "à¦¬à¦²à¦¡à¦¨": 14858, "iste": 8375, "isted": 33250, "istem": 43958, "isten": 4821, "istent": 25367, "ister": 1964, "isters": 7423, "istes": 22368, "isti": 45308, "istic": 3142, "istical": 42686, "à¦¬à¦·": 20458, "istics": 6006, "Ġà¦ıà¦ĺà¦Łà¦¨": 13986, "istine": 42745, "à¦¬à¦¨à¦¦": 16088, "istles": 29923, "istling": 37174, "isto": 9334, "istoire": 27053, "istol": 34431, "iston": 47345, "istor": 23882, "istors": 46976, "istry": 5980, "ists": 1751, "isty": 38618, "istÃ¤": 24954, "isu": 25871, "isure": 28084, "Ġà¦®à¦Ĺà¦ľ": 14169, "isz": 23848, "isÃ©": 22118, "isÃ©e": 50027, "isÃ©s": 47151, "it": 270, "ita": 2786, "Ġà¦Ĺà¦łà¦¨à¦ķ": 16772, "Ġà¦«à§Ł": 12069, "itaire": 30914, "ital": 1686, "Ġà¦¸à¦®à¦¨": 11118, "itan": 9670, "itar": 3981, "à¦ķà¦¸à¦¬à¦ľ": 13707, "itary": 4109, "Ġà¦ħà¦¬à§Łà¦¬": 14182, "Ġà¦Ĩà¦ªà¦¨à¦ľà¦¨": 14032, "itate": 8086, "à¦°à¦ªà¦¦": 18266, "itates": 30035, "à¦Łà¦ĩà¦¨": 16350, "itation": 4614, "itations": 31265, "Ġà¦ķà¦¦à¦®à¦¤à¦²": 14275, "itch": 1549, "itched": 41328, "itchen": 5825, "itchens": 47314, "ite": 642, "itect": 5739, "ited": 1226, "iteit": 45967, "itel": 38906, "itely": 1959, "iten": 6009, "iter": 1681, "ites": 3324, "itesse": 46720, "Ġà¦Ĺà§ľà¦Ľ": 16341, "itez": 32049, "ith": 355, "ithe": 45381, "ither": 1839, "ithm": 32674, "ithmetic": 41179, "iti": 8707, "itic": 44592, "ities": 1088, "itime": 33228, "iting": 1748, "ition": 849, "itional": 2628, "à§¯à§¯à§": 15899, "itions": 2451, "à¦¬à¦¨à¦¤": 16401, "à¦¤à¦ĺ": 16074, "itive": 2187, "itives": 38970, "itiÃ©": 45484, "itness": 6394, "ito": 3528, "Ġà¦ıà¦¸à¦ĩà¦ī": 21086, "itor": 3029, "itors": 9862, "à¦¬à¦¸à¦®à§Ł": 11343, "itous": 39831, "its": 1208, "itsu": 35711, "itt": 593, "à¦ĩà¦«à¦ĵ": 21870, "itte": 9786, "itted": 3944, "ittee": 5375, "ittees": 23403, "ittel": 47265, "itten": 2987, "ittens": 39449, "itter": 3904, "itters": 38873, "à¦¨à¦¬à¦Ĺà¦ł": 21558, "itting": 2414, "ittle": 703, "itto": 34924, "itty": 10016, "ittÃ¤": 45666, "itu": 6380, "Ġà§®à§«à§®": 19306, "à§§à§¦à§§": 21875, "itude": 4377, "Ġà¦Ĳà¦ĸ": 16451, "itung": 35563, "à¦¥à¦¤": 11156, "itures": 41869, "itus": 30973, "itute": 6559, "itution": 6518, "itutional": 41859, "ity": 507, "itz": 6862, "à¦¤à¦ķà¦Ł": 16845, "itzerland": 22932, "Ġà¦Ĺà¦¤à¦¬à¦Ľà¦°": 13187, "à¦¡à¦¸à¦¨": 14053, "itÃ¤ten": 49289, "itÃ©": 5066, "Ġà¦¸à¦®à¦²": 16637, "Ġà¦¶à¦¤à¦ķà¦°": 12445, "iu": 5951, "ium": 2197, "iums": 47954, "ius": 4872, "iv": 592, "iva": 5931, "ivable": 34376, "ival": 3576, "à¦ĩà¦ķà¦Ĩà¦ª": 17759, "ivamente": 23957, "ivan": 24193, "ivas": 24759, "ivat": 44701, "ive": 488, "ived": 3194, "ivel": 36504, "ively": 3413, "iven": 5709, "iveness": 8477, "ivent": 38683, "iver": 1837, "ivering": 48940, "ivers": 1762, "à¦£à¦°": 12078, "iverse": 5376, "iversity": 2550, "iverso": 36969, "ivery": 8549, "ives": 1539, "ivesse": 40812, "ivi": 33448, "Ġà§«à§®à§Ń": 18503, "ivid": 1843, "ividad": 33490, "ividade": 41121, "ividades": 41938, "ividual": 33323, "ivil": 4639, "iving": 2123, "ivities": 43539, "ivity": 4253, "ivo": 6340, "à¦¤à¦ķà¦®": 21356, "à¦¬à¦ıà¦ĩà¦¡": 16501, "Ġà¦®à¦¤à¦²à¦¬": 13142, "ix": 970, "Ġà§®à§©à§Ń": 19195, "ixe": 42369, "ixed": 40303, "ixel": 34599, "ixes": 36005, "à¦ķà¦ľà¦¨à¦ĵ": 15617, "ixon": 23226, "à¦ķà¦Łà¦²": 12672, "ixÃŃ": 33226, "iy": 4727, "iya": 23622, "iye": 30306, "iyet": 34747, "iyi": 40541, "iyim": 46966, "iyor": 8436, "iyorsun": 24556, "à¦ªà¦Łà¦²": 17713, "iyoruz": 26233, "iz": 590, "Ġà§§à§§à§§": 13427, "izable": 22395, "izaciÃ³n": 27603, "izada": 39600, "izado": 27441, "izar": 9736, "à¦ħà¦¹": 17523, "ization": 2144, "à¦īà¦ªà¦ķ": 14455, "izaÃ§Ã£o": 27467, "ize": 1125, "ized": 1602, "izen": 23161, "izens": 31586, "izer": 6545, "izers": 22525, "izes": 5660, "izi": 24300, "iziert": 43590, "izin": 36367, "izing": 3319, "izione": 35740, "Ġà§®à§¨à§©": 19055, "izon": 24057, "izophren": 38695, "izz": 8072, "izza": 7176, "izzard": 31062, "izzy": 49393, "iÃ£o": 24660, "à¦ĩà¦¨à¦ª": 16661, "iÃ§Ãµes": 38038, "iÃ¨me": 24541, "iÃ¨re": 10195, "iÃ¨rement": 29922, "iÃ¨res": 39408, "iÃ©": 50078, "iÃ©n": 5770, "iÃ³": 7138, "iÃ³n": 2560, "iÃŁ": 6230, "iÃŁe": 47828, "Ġà¦ĩà¦īà¦ıà¦¨à¦¬": 11539, "Ġà¦ķà¦¬à¦°": 11404, "Ġà¦Ĩà¦ĩà¦¨à¦®à¦¨": 12757, "iÄĻ": 5034, "iÄĻcy": 47303, "iÄĻdzy": 49485, "iÄŁ": 24392, "iÄŁi": 32402, "iÅĤ": 40622, "iÅŁ": 9496, "j": 73, "ja": 2938, "Ġà¦Ĩà¦ĩà¦ıà¦«à¦¸": 19586, "jach": 45059, "jack": 33614, "jadi": 30574, "jae": 31760, "jak": 36230, "jal": 22600, "jam": 24267, "Ġà¦ıà¦ĩà¦ī": 21241, "à¦¬à¦ļà¦¨": 14763, "jang": 26925, "jar": 10150, "à¦²à¦¹à¦ķ": 19221, "jat": 44254, "jaw": 22199, "jay": 46451, "jaz": 34820, "jcie": 43474, "jd": 37109, "je": 2884, "ject": 1020, "jed": 40543, "jego": 39738, "jek": 27023, "Ġà¦ķà¦Łà¦¨": 14930, "jem": 30833, "Ġà§¨à§«à§«": 15378, "jenigen": 48176, "jeong": 45942, "à¦Łà¦°à¦¬": 14219, "Ġà¦ªà¦¥à¦ĩ": 16549, "jest": 39291, "jet": 7108, "jets": 25349, "ji": 4013, "jiang": 41098, "à¦ıà¦ķà¦¬": 13970, "jing": 38863, "jis": 40371, "jm": 35195, "jo": 5134, "job": 50208, "joint": 48613, "Ġà¦«à¦²à¦ĵ": 15735, "jor": 2337, "à¦·à¦¨à¦ķ": 19136, "jour": 8696, "Ġà¦¦à¦ĩ": 13111, "Ġà¦¨à¦¥": 11615, "joy": 1994, "js": 25530, "jsk": 32625, "ju": 8954, "jud": 9218, "jug": 42068, "juk": 31140, "jun": 10010, "juna": 44469, "jung": 29773, "just": 3424, "jut": 44090, "jÃ¤": 38476, "jÃ¤hr": 49418, "jÃ¤n": 48365, "à§Łà¦£à¦Ĺà¦ŀ": 11313, "jÄħ": 8555, "Ġà¦ĭà¦£": 11115, "jÅĽÄĩ": 44536, "k": 74, "ka": 2330, "kaa": 47068, "kaar": 34399, "kach": 41326, "kad": 34985, "kah": 37605, "kaha": 36572, "à¦¨à§Łà¦¨à¦¬": 19990, "kam": 39917, "kami": 48737, "kan": 5225, "kannt": 29680, "kap": 34334, "à¦Ĩà¦ĩà¦ľ": 12303, "karang": 28847, "kas": 32876, "Ġà¦°à¦Ĺà¦°à¦Ĺ": 20876, "kay": 789, "ke": 330, "kea": 39153, "ked": 34601, "à¦¹à¦¸à¦ľ": 21687, "à¦īà¦°à¦¨": 16055, "keeper": 23083, "keepers": 43153, "keeping": 25769, "kef": 47531, "kehr": 22833, "keit": 9238, "à¦¨à§Łà¦¨à¦¬à¦ŀ": 21049, "kek": 41888, "kel": 7124, "keley": 23047, "kelijk": 43976, "kell": 43723, "keln": 32099, "kelt": 25798, "kem": 29597, "ken": 2653, "kennt": 41838, "ker": 5767, "kers": 24259, "kes": 5993, "ket": 5758, "key": 4119, "Ġà§®à§Ńà§©": 18847, "à¦¨à¦®à¦§": 18302, "à¦·à¦¦à¦¸à¦ļ": 21021, "ki": 2984, "kich": 48349, "kick": 42427, "kids": 35015, "kie": 22872, "kiego": 42349, "kiej": 45145, "kiem": 26116, "kien": 42134, "kil": 33534, "kill": 34213, "kim": 25112, "kin": 5843, "Ġà¦ĸà¦ª": 14445, "king": 5092, "à¦¦": 10277, "kit": 22681, "kiye": 31137, "à§Łà¦ĸ": 12809, "kke": 47764, "kl": 7837, "à¦¸à¦ķà¦Ĺ": 14677, "klich": 9056, "klore": 45044, "klÃ¤r": 45988, "Ġà§§à§®à§¬à§ª": 17950, "kn": 5457, "Ġà§©à§§à§ª": 15869, "known": 6861, "ko": 4093, "kok": 33754, "kol": 36620, "à¦¤à¦ķà¦¸": 20557, "Ġà§§à§©à§ª": 13675, "Ġà§®à§¦à§«": 18295, "kook": 38318, "kop": 43855, "à¦łà¦¯": 19339, "kov": 33516, "kr": 38553, "kra": 42913, "kraft": 47288, "kre": 27885, "krit": 34580, "kry": 43298, "krÃ¤": 42319, "ks": 1694, "ksam": 28665, "ksen": 39296, "à¦ªà¦ķà¦°à¦£": 20697, "ksom": 32663, "kt": 2320, "à¦Ĺà¦łà¦ķà¦¦": 18844, "kten": 47120, "ktion": 9780, "Ġà¦®à¦ĵà¦¦": 13031, "ktor": 28359, "ktÃ³": 43073, "ku": 5279, "kum": 49576, "kun": 22531, "kung": 40100, "kur": 33503, "kus": 35080, "Ġà¦Ĩà¦¤": 10618, "ky": 4133, "Ġà¦Ĺà¦¦à¦°": 21036, "kÃ³w": 23849, "kÃ¶": 34990, "kÄħ": 26304, "à¦ľà¦²à¦ª": 15724, "à¦łà¦ķà¦Ł": 15317, "l": 75, "la": 875, "lab": 44990, "à¦²à¦Ĺà¦²": 19837, "lad": 9290, "ladÄ±": 43041, "ladÄ±m": 37282, "laf": 33037, "lag": 27298, "lage": 22519, "lagen": 29177, "à¦¶à¦¬à¦¨": 14918, "à¦ľà¦¤": 10970, "laimed": 22642, "laimer": 35220, "lair": 24319, "à¦£à¦¦à¦£": 21232, "lait": 35235, "lak": 41472, "lam": 4326, "lama": 40868, "lamation": 43233, "lan": 8658, "lance": 37271, "land": 1661, "à¦ªà¦£à¦ķ": 16201, "lands": 10230, "lane": 46121, "lang": 25241, "à¦«à¦°à¦®": 15639, "lar": 2200, "Ġà¦ķà¦¡": 17736, "laration": 36087, "larda": 40658, "lardan": 41188, "à§İà¦¤": 19415, "larÄ±": 10197, "à¦¤à¦¯": 14716, "larÄ±nÄ±": 31046, "las": 7743, "Ġà¦īà¦Ńà§Łà¦ķ": 14549, "lasse": 40255, "lassen": 44898, "lasses": 25479, "Ġà¦°à¦®à¦¯": 15459, "lasting": 29346, "Ġà¦ıà¦¨à¦Ĺ": 14087, "Ġà§«à§®à§«": 17593, "lated": 38539, "latego": 24195, "lation": 24278, "à¦²à¦°à¦Ĺà¦£": 20798, "laud": 7739, "lauf": 36488, "laugh": 33181, "laughing": 4986, "laughs": 3608, "laughter": 5330, "laus": 22590, "lause": 4512, "lav": 36243, "lave": 27995, "law": 5901, "laws": 33476, "lax": 25923, "lay": 8376, "Ġà¦®à¦ĵà¦¸": 16803, "ld": 348, "lden": 35963, "Ġà¦ıà¦®à¦¨à¦¸à¦¬": 19341, "le": 306, "leader": 47716, "leading": 28012, "lean": 28499, "leans": 24008, "lear": 5797, "learning": 47204, "lease": 1122, "leased": 41087, "leb": 28512, "leben": 41467, "lebr": 3735, "lect": 1809, "lection": 5450, "lectric": 38421, "led": 1493, "ledge": 3042, "à¦¸à¦ķà¦ķ": 14238, "leen": 28238, "leep": 7927, "left": 41761, "leg": 6363, "lege": 35754, "legen": 22936, "legt": 22745, "à¦²à¦īà¦¦": 14557, "lei": 35436, "leich": 8445, "leigh": 45533, "leist": 46820, "lek": 29205, "à¦¿à¦Ĥ": 10386, "leme": 47240, "lement": 3054, "à¦Ĩà¦®à¦¤à¦²": 17988, "len": 6698, "à§§à§¯à§¦à§¬": 21323, "leness": 45887, "length": 45390, "leo": 41041, "ler": 1918, "lerde": 40893, "lere": 29904, "à¦¶à¦®": 11478, "lerin": 22417, "lerini": 33760, "Ġà§®à§Ń": 11977, "lerweile": 36055, "les": 904, "à§¨à§®": 11802, "lesia": 48507, "less": 1832, "Ġà¦¸à§İ": 12048, "lessness": 26663, "lest": 35745, "let": 2631, "Ġà¦ĸà¦¨à¦¨à¦ķ": 14806, "Ġà¦īà¦ªà¦¬": 12541, "lett": 32547, "lette": 36563, "à¦¨à¦¸à¦Ł": 21248, "lev": 28316, "levant": 25638, "à¦°à¦¬à¦¤": 12418, "lever": 38099, "lex": 2021, "ley": 3420, "leye": 46303, "à¦¶à¦¸à¦ļ": 20336, "leÅŁ": 33284, "li": 2081, "à¦¦à¦ĵà§Ł": 14218, "Ġà¦Ĺà¦²": 10709, "liamo": 49926, "lib": 38270, "lic": 1050, "lica": 44266, "lich": 1739, "liche": 10185, "lichen": 10193, "licher": 25215, "liches": 45502, "lichkeit": 41096, "Ġà¦®à¦¤à¦¨à¦ĩ": 20238, "lict": 6017, "licting": 36580, "lide": 31264, "lie": 6302, "lied": 39459, "lier": 2753, "liers": 23646, "lies": 24119, "à¦¬à¦ķà¦¸à¦¹": 16850, "lieÃŁ": 24476, "lieÃŁen": 38665, "lieÃŁlich": 44697, "life": 9073, "lift": 29814, "lifting": 34724, "lig": 5073, "liga": 25668, "ligen": 35158, "ligh": 36641, "light": 2764, "lightly": 44872, "Ġà¦Ĩà¦Łà¦ĺ": 20827, "Ġà¦Ĩà¦ķà¦¬à¦°à¦ķ": 16770, "à¦ıà¦¨à¦°": 21648, "Ġà¦°à¦¥": 12416, "à¦Ŀà¦ªà¦¥": 13462, "like": 4092, "lim": 4197, "lime": 40941, "à¦Łà¦ľà¦¨à¦°": 18692, "lin": 5045, "line": 1889, "linear": 28263, "Ġà¦ıà¦ĸà¦¤": 13564, "liner": 36849, "à¦ľà¦ª": 11045, "liness": 32268, "ling": 1688, "lingen": 39900, "à¦«à¦²à¦Ń": 20823, "lingt": 45219, "lington": 45996, "lining": 31079, "link": 22473, "lins": 49682, "à¦ıà¦¨à¦Ĩà¦ĩ": 19987, "lish": 1933, "lished": 4173, "Ġà§Ńà§®à§«": 18533, "list": 8264, "listed": 34890, "lists": 36693, "lit": 23062, "liter": 40632, "liv": 45997, "live": 45273, "lived": 46554, "lively": 37553, "liyor": 49309, "liÅĽmy": 38452, "lk": 43308, "ll": 285, "lla": 3505, "llah": 31884, "llan": 32919, "lle": 2447, "lled": 5929, "Ġà¦īà¦ªà¦¸": 10631, "à¦®à¦°à¦£à¦¶à¦ķ": 19191, "ller": 4658, "Ġà¦ħà¦¬à¦¸à¦°à¦Ĺ": 20278, "à¦Ĩà¦ļà¦°à¦£": 19126, "à¦Łà¦Ĩà¦īà¦Ł": 16320, "Ġà¦ĩà¦¸à¦¨": 21382, "lling": 2669, "llo": 1913, "Ġà¦ıà¦¸à¦ıà¦¨": 19205, "llow": 1202, "lls": 43909, "Ġà¦ľà§Łà¦¦": 13020, "à¦¡à¦ıà¦®": 17370, "lo": 752, "load": 2907, "loc": 5842, "lock": 4102, "locks": 34896, "loe": 22349, "log": 4987, "logo": 38212, "lol": 34606, "Ġà¦īà¦ĩà¦ľà¦¡": 14864, "à§İà¦«à¦°": 13025, "loo": 38511, "à¦¨à§Łà¦¨à¦¶": 12747, "looked": 30953, "à¦ļà¦°à¦ķ": 16129, "loop": 46623, "lor": 6746, "lord": 22839, "lords": 37370, "los": 9389, "lot": 43571, "loud": 29221, "lov": 28257, "love": 28459, "à¦°à¦Ńà¦Ļ": 14107, "lower": 34598, "loyd": 30285, "lr": 40987, "à§ĭà¦Ĥ": 11784, "lt": 2282, "ltry": 49010, "lu": 2781, "lud": 1471, "lude": 32334, "luded": 44412, "à§İà¦ĵ": 20626, "luence": 40432, "luent": 43518, "luk": 42563, "Ġà¦ħà¦«à¦¶": 17850, "lungen": 45434, "lungs": 49876, "lus": 3063, "lusion": 6485, "lusive": 7233, "à§®à§®": 14574, "à¦¨à§Łà¦¨à¦®à¦¨": 17588, "ly": 356, "lya": 45106, "lying": 7310, "lymp": 9793, "lyn": 9896, "lynn": 31921, "lys": 44193, "lÃ¤": 22882, "lÃ©": 29728, "lÃ¼": 25288, "à¦¤à¦¨à¦ĵ": 14972, "lÄ±": 9811, "lÄ±k": 22359, "lÄ±nda": 27967, "lÄ±ÅŁ": 40840, "m": 76, "ma": 1696, "maal": 30371, "maan": 39625, "mac": 37065, "machen": 43981, "machine": 46061, "Ġà¦ĩà¦¬à¦²": 16413, "Ġà¦Ĩà¦®": 10341, "madÄ±": 46107, "mag": 37941, "à¦¨à¦¸à¦®": 11799, "main": 49417, "mak": 8520, "make": 38705, "à¦ıà¦ĩà¦ļà¦¬": 18821, "à¦°à¦ļà¦ķ": 15870, "Ġà¦Ĩà¦²à¦¬": 12402, "mal": 5579, "male": 45760, "mals": 34978, "mam": 23678, "man": 1601, "à¦ıà¦°à¦ªà¦°à¦ĩ": 14524, "manas": 36226, "mand": 22396, "mani": 43717, "mania": 37268, "à¦¤à¦ķà¦ķ": 14912, "mans": 44734, "manship": 42782, "manuel": 31385, "map": 24223, "mar": 6209, "mara": 37925, "à¦·à¦¯": 15455, "mares": 32760, "mark": 5638, "Ġà¦®à¦¨à¦ĸ": 16414, "markets": 48850, "marks": 37307, "markt": 38552, "Ġà¦ıà¦£": 18696, "mas": 3799, "mass": 47386, "Ġà¦ĩà¦ĩà¦īà¦¤": 21640, "masÄ±": 23477, "à¦·à§Łà¦ĩ": 15677, "à¦Łà¦ľà¦¨": 13963, "à¦ªà¦£": 10977, "math": 24761, "matic": 25915, "max": 41167, "à¦ł": 10338, "maya": 24600, "maybe": 39380, "mayÄ±": 42819, "mayÄ±n": 32541, "à¦°à¦¹à¦¸à¦¹": 21283, "mb": 2504, "mber": 4508, "mble": 8737, "mbol": 5612, "Ġà¦²à¦ķà¦¹": 20014, "me": 1398, "meal": 32914, "med": 1912, "meden": 43883, "medi": 3130, "medim": 48730, "mee": 42952, "meg": 42800, "Ġà§§à§¦à§ª": 13132, "Ġà¦ıà¦¡": 10909, "mellow": 47342, "melon": 22710, "Ġà¦ľà¦¨à¦Ĺà¦£à¦ĵ": 17886, "member": 38249, "men": 2558, "meno": 43232, "mens": 45743, "ment": 518, "Ġà¦¸à¦®à¦§": 15875, "à¦ķà¦·à¦£": 19631, "mente": 4082, "Ġà¦¶à¦°à¦¤": 14684, "mentioned": 46842, "ments": 1117, "mer": 936, "mera": 35984, "Ġà¦ħà¦ªà¦²à¦ķ": 17141, "mercial": 39260, "meric": 1555, "mern": 44243, "Ġà¦®à¦ĩà¦°": 18552, "mes": 5814, "mesan": 43826, "mesi": 30314, "met": 5537, "metal": 39857, "meter": 33058, "metics": 31236, "metro": 45400, "metros": 29570, "Ġà¦Ĩà¦¦à¦²à¦¤": 18631, "à¦Ĩà¦Łà¦²": 19917, "mi": 3057, "mia": 29958, "à¦®à¦īà¦¦": 13195, "mid": 25394, "midt": 39000, "mie": 25210, "mies": 38374, "mil": 28674, "mile": 44927, "Ġà§®à§¯à§®": 18841, "millimeter": 38274, "million": 40388, "min": 2367, "à¦°à¦¨à¦¦": 13733, "minded": 23310, "ming": 2810, "mingham": 34164, "minist": 4192, "Ġà§§à§¬à§¬": 13688, "minster": 45688, "à¦°à¦ĩà¦¸": 18256, "Ġà§Ńà§®à§¨": 19834, "miral": 35905, "mis": 45634, "mission": 29797, "mist": 48709, "mit": 3508, "mith": 41708, "Ġà¦ľà§Łà¦¤": 15548, "mittel": 33960, "miyor": 28585, "miyorum": 29291, "Ġà¦ĵà¦ĩ": 10510, "Ġà§¨à§©à§§": 15480, "mm": 2174, "mma": 29577, "mmm": 37090, "mn": 40459, "mniej": 47658, "mo": 3280, "mod": 8014, "modern": 42359, "moi": 29292, "moil": 43683, "mom": 42544, "mon": 3317, "monary": 46386, "Ġà¦²à¦¸": 12171, "mons": 27229, "mont": 28720, "month": 23534, "moon": 33895, "mooth": 30803, "mor": 40220, "more": 3138, "mos": 3415, "most": 1761, "mot": 29778, "à¦¯à¦¹": 11930, "motion": 44968, "mount": 45275, "mouth": 22357, "mp": 2455, "mpfen": 45316, "mpre": 6516, "ms": 2592, "mt": 42744, "à¦ıà¦«à¦ıà¦¸à¦ıà¦²": 20140, "mud": 31916, "muffled": 47503, "Ġà¦ĸà¦¬": 14914, "mumbling": 39528, "mun": 23717, "mund": 35578, "munition": 31262, "à¦Łà¦¨à¦¸à¦¹": 18761, "music": 7572, "mut": 38326, "muÅŁ": 30378, "my": 2226, "mÃ¤": 22437, "mÃ¤n": 43946, "mÃ¤ÃŁ": 32450, "mÃ¤ÃŁig": 43132, "mÃªme": 27770, "mÃ¼ÅŁ": 38211, "Ġà¦ķà¦Ł": 11370, "n": 77, "na": 629, "nad": 36567, "naden": 45578, "nae": 45362, "à§§à§¯à§¯à§": 12411, "nahme": 32796, "nahmen": 24221, "nai": 44661, "naire": 32551, "naires": 49551, "Ġà¦ıà¦®à¦ıà¦¨à¦ıà¦¸": 20981, "à¦¶à¦°à§İ": 16852, "nal": 4660, "nam": 5378, "à¦£à¦¤à¦®": 16344, "named": 33465, "Ġà¦Ĺà¦Ń": 10934, "naments": 23680, "Ġà¦ıà¦¹à¦¨": 17107, "à¦Ļà¦ķ": 17622, "nant": 25928, "nants": 41508, "nap": 37252, "Ġà¦ĸà¦¸à¦²": 20062, "narrator": 48634, "Ġà§¯à§¯à§¬": 18979, "à¦°à¦Ļ": 12241, "national": 43387, "Ġà¦Ĩà¦¡à¦¬": 16296, "Ġà§§à§¨à§§à§«": 20474, "nd": 273, "Ġà¦¨à¦Ĺà¦°à¦ª": 16404, "à¦®à§Łà¦²": 20535, "ne": 716, "nea": 22160, "neath": 7000, "Ġà§ªà§ªà§¦": 15975, "neck": 47921, "nect": 1569, "ned": 9232, "nee": 48210, "neg": 28561, "Ġà¦°à¦®": 11858, "neh": 30540, "à§ªà§Ń": 14669, "nehmer": 38370, "à¦¸à¦ĵà§Ł": 11794, "nek": 23255, "nel": 6396, "nell": 8903, "nelle": 37365, "Ġà¦ķà¦ļà¦ķ": 19936, "nem": 25989, "nement": 25995, "nen": 2866, "à¦°à¦¥à¦²": 17469, "neo": 42164, "ner": 1193, "ners": 2999, "nes": 4081, "à¦ŀ": 10362, "à¦£à¦¨à¦Ĺà¦°": 13689, "ness": 1287, "net": 7129, "neten": 43462, "netes": 22334, "new": 7686, "ney": 2397, "à¦ķà¦¨à¦Ĺà¦°": 14859, "nez": 28018, "ng": 872, "nga": 23165, "ngth": 3674, "ngulo": 37308, "nh": 5728, "ni": 3722, "à§Łà¦¦à¦ª": 12679, "nic": 7692, "nica": 32687, "nicas": 40672, "nicos": 48674, "nie": 2766, "Ġà¦§à¦°": 10402, "niejs": 30295, "niejsze": 44258, "à¦ķà¦¤à¦¦": 19165, "nies": 40549, "niest": 38896, "night": 6402, "à§İà¦«": 13123, "nikÃ³w": 47447, "nim": 39223, "nin": 22955, "nine": 46140, "ning": 773, "ningar": 29895, "ningen": 23137, "nings": 24451, "nio": 41084, "à¦°à¦«": 10661, "nisse": 31481, "nite": 24843, "nity": 28120, "niÄĻ": 35938, "nn": 26384, "no": 1771, "noc": 26694, "noch": 41608, "noise": 42641, "à¦ªà¦¦à¦¬": 18093, "nolds": 28849, "Ġà¦ıà¦¨à¦Ĩà¦°à¦ıà¦¸": 15819, "non": 30092, "noon": 6376, "Ġà¦ļà¦¹": 19048, "à¦ĸà¦¦": 13403, "normal": 23157, "à¦°à¦¤à¦°à¦¤": 16751, "nosis": 46080, "nost": 36414, "not": 2247, "note": 22178, "nothing": 49518, "nous": 47008, "nov": 4185, "nova": 39486, "now": 3785, "nox": 29129, "à§®à§¯": 16438, "noÅĽÄĩ": 23293, "ns": 3695, "nsinn": 46134, "nt": 580, "nte": 9358, "à§§à§¯à§¯à§¦": 14970, "Ġà§§à§Ńà§¯à§¬": 21772, "à¦£à¦ªà¦¨": 16241, "number": 41261, "nun": 47518, "à¦¯à¦¬à¦ĩà§Ł": 15539, "Ġà§¯à§¬à§«": 18316, "nuts": 29251, "ny": 1634, "nya": 7457, "nych": 9399, "à¦¹à¦°à¦£à¦¸": 12996, "nymi": 31813, "nyt": 38335, "Ġà¦ĩà¦¨à¦ª": 15055, "nÃŃ": 28988, "nÄ±n": 33484, "Ġà¦®à¦¨à¦ķ": 13113, "nÄĽ": 31617, "o": 78, "oa": 23254, "oard": 25774, "ob": 996, "à¦ıà¦¸à¦ĩà¦ıà¦¸": 19481, "à¦¹à¦¨à¦Ĺà¦°": 20524, "obed": 44904, "oben": 46213, "ober": 7243, "à¦Łà¦¬à¦ķ": 19293, "obia": 24613, "obic": 22234, "à¦²à¦¬à¦¤": 21725, "Ġà¦¸à¦ļà¦°": 13632, "object": 41070, "obook": 35876, "obra": 24393, "à¦¬à¦ļà¦ķ": 16537, "Ġà¦¬à¦Łà¦¤à¦²": 13944, "obyl": 49913, "oc": 905, "oca": 24035, "à¦·à¦¨à¦ĩ": 21636, "ocal": 36483, "ocaly": 22665, "ocalypse": 30183, "ocalyptic": 47407, "ocar": 47993, "ocate": 42869, "ocation": 27943, "occ": 43280, "occup": 46819, "och": 8997, "ochond": 40172, "ocide": 27791, "ock": 1560, "ocket": 31380, "ockey": 46164, "ocking": 31730, "ocks": 35507, "Ġà§©à§©": 11198, "ocol": 4154, "ocolate": 5719, "ocr": 3617, "ocracy": 38186, "ocratic": 38883, "ocre": 42454, "ocument": 30439, "ocumented": 35739, "Ġà§§à§®à§¦à§«": 20885, "à¦Łà¦¤à¦ĩ": 15206, "ocused": 33176, "ocy": 31078, "od": 378, "à¦°à¦Ŀ": 13449, "odar": 43211, "ode": 1429, "Ġà¦Ľà§Łà¦ľà¦¨": 12340, "odel": 41147, "oden": 33482, "Ġà¦¦à¦ªà¦¦à¦ª": 19866, "odes": 4789, "à¦·à¦£à¦Ĺà¦£à¦¨": 19315, "odi": 30727, "odia": 35926, "odie": 49257, "odies": 6087, "oding": 8616, "odka": 30707, "odle": 30013, "odles": 35192, "Ġà§ªà§«à§ª": 17423, "odor": 34024, "odore": 34239, "odox": 22189, "à¦¤à¦²à¦Ĺ": 19768, "odu": 34873, "odus": 32419, "ody": 843, "Ġà¦°à¦ķà¦®à¦Ł": 21399, "odynamic": 34988, "odynamics": 35483, "à¦ħà¦¬à¦¸à¦°": 14543, "oe": 7921, "of": 2670, "off": 4506, "Ġà¦Ĩà¦¸à¦¨à¦ĵ": 19231, "oft": 6750, "og": 664, "oga": 9833, "Ġà¦ıà¦¨à¦ıà¦¸à¦¡à¦¬": 21576, "ogen": 8799, "ogene": 23360, "ogeneous": 31112, "ogenic": 25473, "ogenous": 45519, "ogens": 35325, "oger": 42719, "ogether": 9622, "ogg": 36754, "ogi": 27202, "ogie": 39031, "ogle": 3127, "oglo": 45841, "ogly": 38353, "ogn": 2912, "ogo": 23515, "ogr": 47810, "à¦§à¦°à¦ª": 19815, "Ġà¦ıà¦¸à¦ıà¦®à¦ıà¦¸": 12820, "Ġà¦¤à¦²à¦¬": 12440, "ograph": 3108, "Ġà¦ħà¦ľà¦¸": 13624, "ographers": 47222, "à¦ľà¦īà¦¦": 12295, "ographical": 48434, "ographics": 29933, "ography": 5820, "ogue": 7213, "ogy": 7794, "oh": 1445, "Ġà§§à§¯à§«à§¨": 12768, "ohn": 2359, "ohner": 49935, "oi": 4869, "à¦°à¦ªà¦¤": 10849, "Ġà¦§à§ľ": 17079, "Ġà¦ıà¦ıà¦ĩà¦ļ": 14312, "oine": 44454, "oint": 3600, "ointed": 33041, "oir": 9043, "à¦¬à¦ķà¦®": 20378, "oires": 40483, "ois": 7376, "oise": 38800, "oit": 27845, "oj": 37224, "ok": 453, "Ġà§¯à§«à§¦": 15289, "okay": 26061, "oke": 2949, "oked": 9511, "okee": 49319, "oken": 8406, "à§§à§¯à§®à§¯": 16722, "okes": 8606, "à¦§à¦¨à¦¸à¦¹": 17056, "oking": 5953, "Ġà¦ıà¦ķà¦ķà¦Ń": 13704, "okol": 49207, "à¦Ĺà¦ªà¦¥": 19795, "oks": 25500, "Ġà§§à§§à§¨": 13275, "okus": 38480, "ol": 401, "ola": 4711, "olan": 23754, "oland": 30063, "Ġà§¯à§§à§§": 15276, "olare": 43141, "Ġà¦®à¦¦à¦¦": 14104, "olate": 48278, "old": 2641, "oldown": 40625, "olds": 31518, "ole": 4812, "Ġà¦¶à¦ª": 11940, "oler": 27035, "oles": 7456, "olesome": 45880, "olf": 7491, "oli": 9384, "olia": 29760, "olic": 7940, "olics": 33763, "olie": 49448, "olin": 31178, "olina": 39750, "Ġà§Ńà§Ńà§§": 18773, "à¦°à¦®à¦£à¦ĵ": 16466, "olit": 33704, "olith": 29131, "olithic": 42878, "oll": 1833, "olla": 27160, "ollar": 30486, "ollen": 26669, "ollo": 22388, "ollow": 49082, "olly": 7403, "à¦ªà¦¡": 14110, "olo": 7902, "olog": 1132, "ologia": 24103, "ologic": 36661, "ological": 4383, "à¦łà¦ľà¦¨": 17157, "Ġà¦¸à¦®à¦¤à¦²à¦Ń": 20121, "ologies": 6204, "ologique": 43136, "ologist": 9201, "à¦Ĩà¦¶": 12256, "ologne": 44162, "ologue": 42298, "ology": 1793, "ologÃŃa": 29987, "olon": 38780, "olor": 36182, "olph": 31154, "à§§à§¯à§¨à§§": 19385, "olt": 4837, "olu": 39754, "olut": 2308, "olutely": 2553, "olution": 3386, "à§İà¦¸à¦ķà¦¸à¦¹": 15892, "olve": 37361, "olved": 29110, "Ġà§©à§ªà§¨": 16453, "olÃ©": 47530, "olÃ³g": 27629, "om": 298, "oma": 6440, "oman": 4277, "omas": 7092, "omat": 34295, "Ġà§§à§¯à§¬à§¬": 13143, "omb": 3548, "ombres": 29947, "ome": 423, "à¦ĩà¦¨à¦¹": 17671, "omedical": 41086, "omen": 4726, "à¦ĺà¦ĩ": 21041, "à§İà¦¬": 14301, "à§§à§§à§ª": 18168, "omet": 649, "à¦°à¦«à¦¤": 13606, "ometers": 34675, "omething": 23445, "ometimes": 45890, "Ġà¦ķà¦¦à¦¬": 21462, "ometric": 29470, "ometry": 34730, "omez": 42028, "omi": 9220, "omial": 47429, "omiast": 25086, "à¦Īà¦°": 21401, "omics": 29884, "omie": 40120, "omin": 6981, "omina": 49217, "omination": 46970, "à§Ń": 10539, "ominous": 44581, "omm": 1204, "omma": 30243, "à§«à§®": 15117, "ommen": 5132, "Ġà¦Ĩà¦°à¦ıà¦¸": 16733, "ommt": 22230, "ommy": 10165, "omn": 38131, "omnia": 45438, "à¦ıà¦®à¦ĩà¦ı": 13395, "omon": 24488, "omorph": 32702, "omos": 40934, "omp": 8586, "oms": 4785, "omy": 8488, "on": 266, "ona": 4037, "onak": 40213, "Ġà¦¨à¦Ĺà¦°à¦°": 21523, "onas": 38027, "once": 26015, "onces": 8498, "oncÃ©": 43752, "ond": 684, "Ġà¦°à¦¤à¦¨": 12233, "onde": 7259, "onden": 37982, "onder": 8548, "ondere": 33447, "à¦īà¦¦": 10881, "onders": 49308, "ondo": 27720, "onds": 10166, "ondu": 31295, "one": 546, "à¦§à¦¨à¦§": 19009, "onen": 32923, "onent": 30365, "onents": 40496, "oner": 32949, "ones": 2213, "oney": 1308, "ong": 556, "à¦®à¦·": 15430, "ongo": 25729, "ongs": 42478, "à¦«à¦²à¦¤": 17049, "Ġà§ªà§®à§«": 16999, "onian": 43294, "Ġà¦ıà¦¤à¦Ł": 11630, "onie": 32242, "Ġà¦«à¦¯": 16638, "only": 25202, "à¦ķà¦ľà¦¨à¦¸à¦¹": 19968, "onna": 784, "onnaise": 30925, "onne": 22419, "onnen": 34269, "onner": 38885, "ono": 8957, "Ġà¦Ĩà§Łà¦ķà¦°": 12481, "onomy": 23423, "onos": 50059, "ons": 892, "à¦ķà¦Ĩà¦ª": 11941, "onse": 3739, "à¦·à§Łà¦¶": 13039, "onsider": 35879, "onsieur": 22293, "à¦²à¦ķà¦Ĺ": 17358, "onst": 4068, "ont": 896, "onta": 45442, "onte": 10219, "ontec": 35444, "onter": 41806, "ontin": 23039, "onto": 7556, "onton": 45529, "onut": 40075, "ony": 2526, "onya": 44727, "à¦Ĩà¦ĩà¦¬": 12732, "à¦¸à¦¦à¦¬": 18092, "Ġà¦ļà¦°à¦«à¦ķ": 21972, "oo": 1986, "ood": 1816, "oof": 29496, "à¦®à¦¶à¦ķ": 16713, "ook": 1212, "ooked": 29262, "ookie": 39611, "ooky": 24091, "ool": 1092, "ools": 29298, "oon": 4106, "à¦ļà¦¶à¦¤": 16450, "Ġà§¯à§§à§ª": 18728, "à¦ĸà¦ľà¦¨à¦ķ": 12506, "ooooo": 47116, "à¦¤à¦¨à¦¸à¦¹": 15812, "oor": 28656, "oot": 6259, "ooth": 4817, "op": 404, "opa": 33097, "opard": 22918, "opath": 27212, "ope": 1114, "oped": 27277, "opedia": 47795, "Ġà¦¬à¦Ĺà¦²": 15752, "oper": 7192, "operation": 43493, "opers": 33338, "opes": 30545, "opez": 34560, "Ġà¦Ĩà¦¬à¦¹à¦ĵà§Ł": 21828, "oph": 5317, "Ġà§§à§®à§®à§©": 16754, "ophile": 49242, "ophobia": 39026, "ophone": 32561, "ophren": 38562, "ophy": 29087, "opia": 22376, "opian": 38447, "opic": 40216, "oping": 26125, "opl": 33224, "oplan": 49768, "ople": 548, "à¦¨à§Łà¦ķ": 15661, "opod": 46684, "à¦¨à¦°à¦Ĺ": 19946, "opolit": 39176, "opoly": 27891, "opot": 45225, "à¦Ĩà¦¹à¦¤à¦°": 17158, "opping": 32799, "ops": 3370, "opt": 5747, "opus": 23280, "à¦¶à¦Ńà¦ķ": 19680, "oqu": 29826, "oque": 29743, "or": 284, "ora": 3252, "à¦īà¦ªà¦¨": 15249, "orage": 29226, "à¦¸à¦¨à¦Ł": 16819, "orama": 32988, "orang": 37909, "orar": 42967, "oras": 40928, "oration": 9357, "orb": 30907, "orc": 36003, "ord": 765, "ordable": 36793, "ordan": 8968, "Ġà¦Ľà§Łà¦¬": 15127, "à¦¦à¦¶à¦¤à¦®": 19058, "order": 4687, "à§§à§": 10400, "ordin": 6241, "ordinate": 37326, "ording": 3357, "ordnung": 31829, "ordo": 23872, "Ġà¦¬à¦°à¦ķà¦¤à¦®à§Ł": 17328, "ordre": 48981, "ords": 5703, "ordu": 28655, "ordum": 41627, "ore": 418, "orean": 25885, "ored": 2769, "orem": 37956, "à¦ķà¦¶": 10948, "Ġà¦¯à§İà¦¸": 17618, "ores": 2706, "orest": 38620, "oret": 26262, "orf": 28030, "org": 4646, "Ġà¦¬à¦°à¦£": 12372, "orge": 4685, "à¦¶à§Ł": 11690, "orgt": 36698, "ori": 7386, "oria": 8172, "orial": 5181, "orian": 37832, "Ġà¦ĵà¦°à¦¸": 16345, "à¦·à¦£à¦ľà¦¨": 17473, "Ġà¦¦à¦¶à¦ķà¦Ĺ": 19521, "oriented": 27414, "ories": 2083, "Ġà¦ķà¦¤à¦²": 20632, "original": 29042, "origine": 49168, "oring": 3662, "Ġà¦ķà§Łà¦°": 14354, "oris": 46198, "orit": 50017, "orith": 6819, "ork": 1284, "orld": 3445, "orm": 687, "ormal": 24440, "orman": 46060, "ormuÅŁ": 46336, "orn": 1865, "Ġà¦¬à¦Ľà¦°": 10423, "orneys": 28487, "Ġà§¨à§¦à§©à§©": 21998, "orns": 27128, "à¦Ĩà¦°": 10780, "à¦°à¦¹à¦¨à¦ķ": 16099, "Ġà¦ıà¦¸à¦ıà¦«à¦Ĩà¦ĩ": 18703, "Ġà¦ľà¦¨à¦ĺà¦¨à¦¤": 18191, "orr": 24362, "orro": 47385, "orrow": 3162, "orry": 2005, "ors": 830, "orsa": 38822, "orsch": 27457, "à¦£à¦²à¦¤": 18699, "à¦Ĺà¦²à¦¦": 14752, "orsun": 8450, "ort": 477, "orta": 36403, "à¦īà¦¥à¦Ĺ": 18511, "à¦ªà¦²à¦¸": 12752, "Ġà¦Ĺà§ľà¦¨": 14813, "orter": 6122, "Ġà¦¬à¦£": 12168, "ortex": 36143, "orth": 2652, "ortic": 48816, "ortion": 8136, "orton": 36184, "orts": 3299, "ortun": 1584, "Ġà¦īà¦Ľ": 17063, "ortunately": 4366, "ortune": 27172, "oru": 32963, "orum": 36543, "orus": 26867, "ory": 827, "os": 329, "osa": 6447, "osaic": 42261, "osas": 42393, "Ġà¦¬à¦ĩà¦ªà§ľ": 18955, "osaurs": 23244, "osaurus": 49366, "à¦¬à¦²": 10466, "oscope": 41659, "ose": 541, "osed": 1744, "osely": 24253, "osen": 6441, "oser": 22150, "oses": 4201, "osexual": 22255, "osh": 3019, "Ġà§Ńà§Ńà§«": 17392, "oshima": 47989, "oshing": 27656, "Ġà¦®à¦¨à¦®à¦°": 18000, "à¦ķà¦°à¦£à¦ĩ": 21521, "osing": 6110, "Ġà¦Ĺà¦łà¦¨à¦¸à¦¹": 19996, "osis": 8211, "osit": 9598, "osition": 5830, "Ġà¦Ĩà¦²à¦¨": 20373, "osium": 42161, "oso": 9869, "osos": 33894, "osp": 2763, "ospace": 35682, "à¦Ńà¦ķ": 11190, "à¦Ĩà¦ľà¦ĵ": 16378, "osphere": 44877, "ospheric": 25145, "oss": 772, "ossa": 9978, "à¦°à¦Łà¦¨": 14353, "ossen": 22573, "ossible": 5785, "ossing": 35652, "ossip": 27971, "ost": 555, "osta": 8638, "ostat": 39036, "à¦īà¦¬à§Ł": 18946, "oster": 7096, "osters": 40427, "à¦Ńà¦ľà¦¨": 19634, "osto": 22756, "Ġà¦ķà¦®à¦¬": 11966, "osure": 7641, "ot": 310, "ota": 5377, "otal": 38180, "otch": 32785, "ote": 1370, "otechn": 31843, "otechnology": 43594, "oted": 23325, "Ġà¦ĵà¦°à¦ĵ": 21990, "à¦·à¦¨à¦¬": 21585, "Ġà¦°à¦¤à¦¨à¦ª": 17251, "oth": 900, "othe": 24863, "other": 802, "à¦¬à¦¨à¦°": 20194, "otherapy": 23208, "othermal": 47280, "others": 5750, "othes": 4624, "othing": 9107, "oths": 38265, "Ġà§®à§«à§©": 18907, "oti": 8206, "otiation": 26618, "otic": 9411, "otics": 42131, "otine": 39658, "Ġà¦ĩà¦ĸà¦¤": 17001, "à¦¡à¦°à¦ķ": 19228, "otional": 41692, "otive": 22459, "otle": 30773, "oto": 6738, "otom": 42939, "oton": 27794, "Ġà¦īà¦¹": 11792, "ots": 1971, "ott": 1521, "otta": 22967, "Ġà¦ħà¦¯à¦¥": 13079, "à¦®à¦°à¦£": 11252, "otti": 37514, "Ġà¦Ĩà¦°à¦Ĩà¦°": 19659, "à¦°à¦¥à¦®à¦ľà¦¨": 18838, "oty": 6737, "Ġà¦ħà¦ªà¦¹": 13108, "à§¨à§«à§¦": 19477, "Ġà§¬à§ªà§Ń": 18530, "otzdem": 23934, "ou": 263, "oubl": 46680, "ouble": 33147, "oubt": 26705, "oubtedly": 32135, "ouch": 2220, "ouched": 36740, "oud": 1861, "oue": 41785, "oufl": 36503, "oug": 513, "ough": 581, "ougher": 26955, "oughing": 25875, "oughs": 34445, "ought": 930, "oul": 3298, "ould": 429, "oulder": 28792, "oule": 26757, "oun": 1733, "ounce": 7826, "ounced": 37879, "à¦®à¦²à¦®à¦¤": 14296, "ounces": 25540, "ound": 554, "ounded": 37706, "ounding": 24625, "ounds": 4432, "à¦Ńà¦Ń": 18755, "ounge": 27066, "ount": 792, "ountain": 22838, "ounter": 47489, "ounty": 33450, "oup": 1250, "oupe": 23266, "our": 396, "ourage": 44720, "ource": 2948, "ources": 2749, "ourcing": 41849, "à¦īà¦¨à¦¹à¦²": 21764, "oure": 44283, "à¦ĩà¦īà¦Ń": 16439, "à¦łà¦ĸ": 20175, "ouring": 40510, "ours": 5067, "à¦ªà¦®à¦¨": 13656, "ourt": 33403, "ous": 563, "ouse": 1316, "oused": 45478, "Ġà§¬à§¦à§®": 18562, "ousing": 24220, "ously": 5098, "ousse": 28521, "Ġà¦ķà¦¶": 15849, "out": 346, "Ġà¦Ŀà¦ķà¦Ŀà¦ķ": 14040, "outer": 23985, "outez": 48903, "outh": 2178, "Ġà¦ľà§Łà¦ĩ": 18159, "à¦ļà¦¨à¦¶": 20468, "outhern": 8409, "outine": 45075, "outing": 24500, "outs": 7711, "ouv": 22941, "ouve": 8162, "à¦²à¦¸à¦¬": 19677, "ouvert": 43315, "oux": 30209, "ov": 5179, "ova": 27924, "ovan": 47936, "ove": 1682, "over": 3570, "overs": 25348, "ovich": 44844, "ovy": 38223, "ow": 305, "owa": 5528, "owad": 22647, "owan": 37345, "owana": 40458, "owane": 23066, "à¦¦à¦¨à¦¯": 21308, "owanie": 22028, "owany": 23341, "à¦¬à¦¬à¦°": 11445, "owaÅĤ": 30105, "owe": 6880, "owed": 24347, "à¦°à¦£à¦ĵ": 13589, "owego": 26576, "Ġà¦łà¦ķà¦¬": 21091, "ower": 968, "owers": 23054, "owi": 24503, "à¦Łà¦¨à¦ķ": 13998, "owing": 9637, "owitz": 22799, "owiÄħ": 47886, "owment": 47966, "own": 648, "à¦°à¦¡à¦ķ": 14683, "owner": 34679, "owners": 28608, "ownik": 44895, "Ġà¦īà¦®à¦ª": 19941, "ows": 1509, "owser": 30947, "Ġà¦Ĩà¦ĵà§Łà¦®": 21866, "owy": 10089, "à¦ļà¦ľ": 19605, "owym": 31691, "owÄħ": 30297, "ox": 5230, "oxide": 46053, "oy": 939, "oya": 24642, "oyo": 26251, "oys": 44131, "oyu": 45269, "Ġà¦®à¦¹à¦¬": 15151, "oÅĽci": 44468, "p": 79, "pa": 4306, "pable": 30454, "Ġà¦¬à¦¤à¦°": 17940, "paced": 47038, "pack": 9539, "Ġà¦¦à¦²à¦¬à¦¦à¦²": 13647, "Ġà¦Ĩà¦Ĺà¦¨": 15161, "pai": 43502, "paid": 35035, "pak": 45944, "pal": 31862, "pan": 6040, "pannt": 36424, "pants": 46462, "panze": 48410, "paper": 22104, "par": 2181, "para": 48978, "parable": 42012, "paragus": 49537, "pared": 45573, "parent": 38321, "Ġà¦ĩà¦īà¦ı": 19901, "park": 31239, "part": 6971, "party": 23409, "à¦ķà¦ĺà¦¨": 20990, "pass": 9216, "passen": 44270, "à¦·à¦Ł": 11584, "path": 31852, "patient": 29752, "pause": 38831, "pay": 22038, "payer": 38443, "payers": 35087, "pciÃ³n": 39859, "pe": 494, "peace": 43099, "peare": 22446, "pecially": 2084, "pect": 1043, "Ġà¦ļà¦Ł": 10729, "à¦ķà¦¶à¦¨à¦ĵ": 19997, "ped": 3452, "pedo": 41933, "pee": 39544, "à§§à§¦à§¬": 21778, "pei": 46238, "pek": 32659, "pekt": 23533, "à§§à§¯à§¨à§Ń": 20071, "pell": 49241, "pelled": 33000, "pen": 5200, "à¦¸à¦¬à¦®": 18608, "pent": 22786, "à¦¡à¦°à¦¸": 21123, "per": 610, "pered": 40004, "perform": 26765, "performance": 50242, "Ġà¦ķà¦°à¦ķ": 20055, "pero": 49565, "à¦£à¦Ń": 11725, "à¦Łà¦°à¦ĵà§Ł": 21819, "à¦ļà§Ł": 10813, "personal": 36649, "Ġà¦ľà¦¬à¦°à¦¦à¦¸": 15346, "pes": 5190, "pet": 7275, "petto": 42801, "peut": 22282, "pex": 29420, "à¦¯à¦¬à§Łà¦¸": 15144, "peÅĤ": 31457, "peÅĤnie": 48054, "pf": 25302, "pflicht": 45430, "pg": 49861, "ph": 950, "pha": 7211, "à¦ªà§ľà¦¶": 20890, "phalt": 39910, "Ġà¦ħà¦ªà¦¤": 15071, "phants": 30173, "phas": 7485, "phase": 43331, "phem": 41245, "phen": 47059, "phere": 6605, "phet": 8999, "phin": 48522, "phis": 26153, "phon": 29285, "phone": 4977, "phones": 9142, "phonetic": 43226, "phony": 28616, "phoria": 50107, "phr": 44598, "Ġà¦ĵà¦ıà¦¸à¦¡": 15680, "pi": 22630, "piano": 39892, "pic": 37509, "pical": 34061, "picious": 47067, "pie": 9144, "Ġà¦ĵà¦¤à¦ª": 15281, "pieces": 47488, "piej": 39699, "piel": 36037, "pielt": 43929, "pier": 45119, "Ġà§«à§Ńà§«": 17836, "pine": 40412, "ping": 3381, "pipe": 50042, "pir": 9501, "pis": 40516, "à¦²à¦ĺà§ľ": 20144, "pl": 564, "pla": 29684, "place": 6742, "places": 34840, "plain": 34821, "à¦§à¦¹à¦¸": 16554, "plane": 36390, "Ġà¦¹à¦¤à¦¬": 13067, "plants": 42433, "plat": 39975, "plate": 37008, "platz": 34755, "play": 2858, "Ġà¦Łà¦ĩà¦Ł": 19125, "playful": 41092, "playing": 32944, "plays": 45755, "ple": 781, "pleasant": 26498, "please": 40764, "à¦°à¦Ĺà¦¨": 15551, "plement": 43704, "pler": 22732, "ples": 2622, "Ġà¦ĩà¦ĸà¦ĵà§Ł": 20434, "à¦ħà¦Ł": 14657, "Ġà¦ļà¦ªà¦²": 17220, "plets": 31023, "à¦«à§ľ": 18945, "plic": 4770, "plicity": 24428, "plin": 48102, "à¦Ļà¦¨": 11970, "plings": 26921, "à¦ªà¦ķà¦¬": 21132, "ploy": 2384, "ploys": 49522, "Ġà¦ªà¦¦à¦ķà¦Ł": 18954, "ply": 2724, "à¦ļà¦ªà¦°": 14395, "po": 2259, "pod": 43388, "point": 6053, "Ġà¦ħà¦¬à¦¤à¦°à¦¨": 20552, "poke": 48776, "à§Łà¦ķà¦¤": 12892, "pole": 48518, "polit": 27461, "politik": 46424, "à¦Łà¦¸à¦Ļ": 17374, "Ġà¦Ĺà¦ł": 11282, "à¦ħà¦¬à¦°": 17361, "à¦¬à¦¶à¦¤": 13872, "popular": 42376, "poque": 34995, "por": 2816, "pora": 47076, "port": 2707, "porte": 44614, "porter": 37356, "à¦®à¦¨à¦¬à¦®": 17845, "pos": 30010, "pose": 43501, "position": 38078, "post": 23744, "Ġà¦ķà¦ĩà¦¬": 17698, "pound": 44806, "Ġà¦ħà¦°à¦ķ": 14701, "power": 9513, "powered": 27178, "powers": 47953, "pox": 42871, "pp": 427, "ppa": 34827, "Ġà§¯à§«à§§": 19833, "pped": 3320, "Ġà¦Ĩà¦®à¦Ŀ": 21278, "pper": 3717, "à¦ªà¦¤à¦¨": 15226, "pping": 3759, "ppings": 28968, "ppo": 27000, "pps": 49184, "ppt": 42562, "ppy": 7966, "pr": 1424, "pra": 43255, "pract": 42559, "pre": 3712, "pread": 22141, "prech": 22895, "prechen": 38951, "preh": 40128, "prem": 29403, "prend": 32725, "prene": 7844, "Ġà§¨à§¦à§§": 14508, "presa": 42492, "presented": 36589, "à§©à§¦": 11637, "pret": 6629, "pri": 36391, "à§İà¦¸à¦ķà¦ķ": 14030, "prints": 25788, "prise": 8900, "prised": 42093, "à§§à§¯à§©à§«": 19547, "prising": 26203, "prisingly": 34408, "prit": 24047, "pro": 4318, "prob": 41990, "problem": 47419, "process": 41075, "prochen": 23902, "à¦ľà¦¨à¦ķà¦Ń": 14314, "product": 33244, "production": 40827, "prof": 29175, "Ġà§§à§¯à§¨à§Ń": 14583, "profits": 32480, "program": 32726, "prom": 28722, "à¦ĩà¦¶à¦¤": 15690, "prot": 33629, "prov": 49911, "prove": 46955, "prowad": 35019, "pruch": 45788, "prus": 49074, "prÃ©s": 34002, "prÃ¼": 48715, "ps": 1878, "à¦¬à¦¸à¦Ń": 17738, "à¦¦à¦°à¦¬à¦¨à¦ķ": 16592, "à¦°à¦«à¦Ł": 16962, "psy": 29182, "pt": 662, "pta": 47366, "pted": 25383, "ptic": 32307, "ption": 1695, "ptions": 9799, "à¦£à¦¬à¦ķ": 21987, "pts": 39280, "pture": 35603, "pty": 39420, "pu": 34859, "punk": 27133, "punkt": 31744, "pur": 35801, "purpose": 42601, "pus": 31624, "put": 2582, "à¦Łà¦Ĺà¦²": 13849, "py": 8200, "q": 80, "qi": 26344, "qing": 40055, "qu": 358, "qua": 34787, "qual": 22345, "qualified": 46094, "à¦¬à¦Ń": 11286, "Ġà¦Ńà¦°à§İà¦¸à¦¨": 16177, "quarter": 43363, "Ġà¦°à¦Ļà¦Ł": 17313, "que": 1077, "Ġà¦¸à¦°à¦ĩ": 20593, "quela": 41462, "à§İà¦®": 17012, "quelle": 32743, "quency": 48154, "quent": 28842, "quently": 47519, "quer": 8035, "ques": 7519, "Ġà¦ľà¦¨à¦ķà¦¨": 20343, "à¦Ĺà¦£à¦«": 19343, "quez": 39009, "à¦ıà¦¸à¦ıà¦²à¦Ĩà¦°": 18170, "à¦Ľà¦ļ": 16622, "quiera": 35134, "quila": 42232, "quin": 29360, "quinho": 27339, "quir": 45568, "Ġà¦Ĩà¦¨à§Łà¦¨": 15398, "quisite": 34152, "à¦ķà¦¬à¦Ľà¦°": 14856, "à¦Ĺà¦¬à¦¤": 14461, "quote": 25016, "à¦ĩà¦®à¦°": 14460, "à¦¥à¦°à¦Ł": 16412, "r": 81, "ra": 424, "rab": 5305, "Ġà§¯à§©": 12080, "raciÃ³n": 46205, "ract": 1897, "raction": 26766, "racy": 40932, "rad": 6206, "Ġà¦°à¦ľà¦¤à¦ľà§Łà¦¨": 19120, "radas": 48906, "Ġà¦ľà¦Łà¦²": 14748, "rades": 34668, "Ġà¦ķà¦¤à¦ĩ": 14974, "rados": 40491, "rael": 5416, "Ġà¦®à¦¹": 10437, "raft": 4469, "rag": 3731, "à§Łà¦¨à¦Ĺ": 16223, "Ġà§§à§¦à§§à§¦": 20663, "ragon": 25997, "ragt": 32243, "à¦¨à¦ļà¦¨": 15688, "à¦Łà¦°à¦ªà¦¨": 15162, "rai": 34554, "raid": 4531, "rail": 44765, "rain": 7146, "Ġà¦ľà¦ľ": 11798, "rained": 31774, "Ġà¦¬à¦°à¦®à¦ļ": 20769, "rait": 8645, "raits": 29323, "raj": 48690, "Ġà§«à§«": 11272, "rakt": 32249, "raktion": 39694, "ral": 2155, "rale": 47282, "rals": 34179, "ram": 2356, "rama": 29762, "Ġà¦ĺà¦Łà¦ķ": 13949, "ramble": 48382, "rament": 44764, "ramento": 34706, "ramer": 44772, "ramient": 37910, "ramos": 30227, "ran": 4257, "rance": 32493, "ranch": 49702, "rand": 3699, "Ġà¦ĸà¦®": 19845, "à¦¡à§Łà¦ļ": 21802, "ranean": 24584, "rang": 32926, "à¦ªà¦ļà¦°": 14521, "à¦ľà§Łà¦¬à¦°à¦£": 20479, "rans": 25392, "rant": 7541, "Ġà¦Ĩà¦°à¦¬": 10968, "rap": 4007, "raph": 2662, "rar": 5352, "rare": 35559, "ras": 3906, "rast": 4148, "raszam": 41378, "rat": 4481, "rate": 4404, "rated": 5468, "rategy": 37464, "Ġà¦Ĺà¦¦": 12507, "ratic": 25198, "rating": 8754, "ration": 2405, "Ġà¦īà¦¸": 12154, "rative": 30457, "rato": 43037, "Ġà¦§à¦°à¦®": 19802, "rators": 34886, "ratos": 35401, "rats": 25869, "ratulations": 9280, "rau": 48907, "rauen": 46640, "raul": 25074, "raum": 31502, "Ġà¦¬à¦ĩà¦Ľ": 13404, "ravel": 33085, "raw": 5131, "à¦ķà¦Ĺà¦¨": 15889, "à¦®à¦®à¦¹": 20098, "rawn": 29603, "ray": 3458, "rays": 36212, "raz": 30695, "raÃ§Ã£o": 37864, "rd": 7800, "re": 265, "Ġà¦ķà¦¬à¦²": 12057, "à¦Łà¦ķà¦¥": 16226, "read": 2538, "reading": 35908, "ready": 1201, "real": 9342, "really": 41613, "ream": 1572, "reaming": 38072, "reas": 37868, "reat": 620, "reated": 26559, "reath": 35976, "reating": 44613, "reb": 22692, "rebbe": 39487, "à¦Ĩà¦¹à¦¤": 13867, "rece": 44209, "recht": 31495, "reci": 3326, "à¦ıà¦ķà¦¸à¦®à§Ł": 14954, "record": 38500, "rect": 2554, "à¦¯à¦ĵ": 11417, "red": 986, "redict": 24945, "Ġà¦ĩà¦Ńà¦¨": 20046, "ree": 701, "à¦²à¦°à¦°": 15500, "reen": 1492, "reens": 9098, "rees": 4856, "reet": 4751, "ref": 33115, "reg": 3375, "à¦ķà¦¶à¦¨à¦§à¦°": 20167, "regierung": 25839, "regist": 48933, "Ġà§®à§©à§ª": 18364, "regular": 26713, "reh": 9017, "à§ģ": 10271, "reib": 38606, "reiben": 25946, "reibt": 31174, "à¦ļà¦Ĺ": 12594, "reichen": 29119, "à¦ŀà¦ľà¦¨": 20012, "rel": 4419, "Ġà¦īà¦ªà¦ķà¦°à¦£": 12004, "relax": 50162, "Ġà¦Ńà§ľ": 19771, "rels": 40874, "rem": 2579, "reme": 5301, "rement": 37934, "remlin": 47154, "remo": 44172, "remos": 28343, "ren": 1095, "renal": 23658, "à¦¤à¦¤": 10760, "rences": 38983, "rench": 4442, "renched": 42388, "rencies": 25000, "Ġà¦Ĺà¦¤": 10457, "rend": 4542, "Ġà¦Ĩà§Łà¦¤": 13292, "rendo": 46501, "à§§à§¯à§Ńà§¬": 17218, "rene": 32252, "reno": 48207, "rent": 1753, "Ġà§¨à§¯à§ª": 14772, "Ġà¦Ĩà¦®à¦ľ": 12751, "à¦®à¦¤à¦ĩ": 19919, "represented": 38293, "rer": 9797, "res": 495, "rese": 49838, "à¦ŀà¦°": 11662, "resh": 3644, "Ġà§§à§¯à§©à§ª": 14214, "resident": 44625, "reso": 38021, "resp": 5667, "respace": 45245, "à¦¸à¦ĸà¦¨": 19575, "respond": 6663, "respons": 28930, "ress": 735, "resse": 22603, "ressed": 3805, "resser": 37278, "resses": 40352, "à¦ľà¦¨à¦Ń": 18605, "ression": 2775, "ressive": 22733, "resso": 29652, "rest": 4149, "restrial": 34539, "ret": 1505, "retch": 5427, "retched": 45928, "rete": 7600, "reten": 35383, "reto": 47330, "rets": 9675, "à¦¥à¦¡": 14313, "reu": 30844, "rev": 40382, "rew": 2236, "rey": 7950, "Ġà¦ıà¦®à¦ıà¦¨": 17693, "rh": 48759, "ri": 470, "ria": 4668, "riad": 45192, "riage": 6200, "riages": 30891, "rial": 7111, "rian": 5501, "rians": 28145, "rias": 35051, "rib": 2024, "rible": 4457, "à¦§à¦ļà¦¨": 18409, "ribution": 30783, "ric": 1341, "Ġà¦¬à¦¨à¦¦à¦ª": 15192, "à¦ĩà¦īà¦ıà¦¨à¦¬": 15888, "Ġà§§à§®à§©à§®": 19282, "ricanes": 43524, "à¦¬à¦®à¦£": 21299, "rices": 24373, "à¦ĩà¦¤": 10794, "à¦¥à¦ªà¦¤": 12836, "richten": 40825, "ricia": 28635, "rick": 9323, "rico": 23776, "à¦·à¦®à¦¤": 10716, "rict": 3740, "ricting": 37714, "ricular": 42750, "rid": 8558, "ride": 25502, "Ġà¦Ĩà¦¨à¦«": 15804, "ridges": 43292, "rie": 5469, "rieb": 31775, "rieben": 24027, "ried": 2428, "Ġà§¬à§©à§¨": 16721, "rien": 27378, "riend": 4896, "à¦ıà¦¸à¦¸": 11047, "rier": 7326, "à¦°à§Ł": 10525, "ries": 2244, "à¦ķà¦²à¦Ł": 20782, "rif": 22575, "rift": 35742, "rig": 7065, "right": 1938, "à¦¹à¦ķ": 11105, "rijk": 36360, "Ġà§¨à§§à§©": 14456, "à¦Ľà¦«": 21499, "rike": 40669, "ril": 24216, "rill": 37480, "rils": 48789, "rim": 5565, "riment": 30591, "à¦ĩà¦²à¦¬": 16796, "riminal": 46885, "Ġà¦¨à¦ļ": 14663, "Ġà¦®à¦¨à¦ľ": 12629, "à¦¬à¦Ĺà¦¤à¦Ń": 21374, "à¦ĩà¦¨à¦¸à¦¹": 15140, "ring": 2937, "ringe": 38895, "rings": 25782, "Ġà§¯à§ªà§®": 19014, "rints": 47523, "rio": 6584, "rios": 37994, "rip": 8400, "rique": 22343, "Ġà¦ħà¦®": 10949, "rire": 38920, "rires": 47313, "ris": 5714, "Ġà§ªà§Ńà§Ń": 18619, "rishna": 45643, "rising": 42125, "risk": 33263, "Ġà¦ıà¦ķà¦¦à¦«": 17029, "à§¯à§©": 12940, "rit": 3210, "rite": 35002, "riters": 39335, "rites": 30931, "rition": 32938, "ritis": 24580, "Ġà¦®à¦¨à¦ĵ": 17492, "ritos": 42887, "Ġà§®à§ªà§©": 18579, "Ġà¦¬à¦¹à¦¨à¦ķ": 13015, "riv": 29994, "rive": 8003, "river": 32416, "rix": 6579, "riz": 24959, "riÃ¨re": 22166, "riÃ³": 44802, "ro": 340, "road": 8417, "roads": 30342, "Ġà¦¸à¦Ń": 10495, "Ġà¦¦à¦²à¦Ń": 16614, "robe": 24489, "à¦¨à¦¸à¦ªà¦Ł": 20027, "roc": 24174, "Ġà¦¬à¦¸à¦ķ": 17799, "rocket": 37463, "Ġà¦Ĩà¦¹à¦¸": 11452, "rodu": 2323, "roe": 36177, "roffen": 30594, "rog": 6675, "rogen": 7747, "roid": 6490, "à¦°à¦¹à¦¨à¦¯": 15772, "rok": 31621, "rol": 6623, "role": 29114, "roleum": 40615, "roll": 3970, "rolle": 45344, "rolled": 28850, "roller": 22922, "Ġà§¬à§®à§®": 18688, "rollo": 34609, "Ġà¦¸à¦¹à¦²": 20978, "rom": 4397, "romagn": 23746, "Ġà¦ªà¦°à¦®": 11505, "ron": 2044, "rone": 26446, "rones": 25562, "ronic": 10011, "ronics": 37042, "à¦ĭà¦£": 13270, "ront": 10001, "ronting": 45507, "room": 2861, "rooms": 32346, "root": 44147, "roots": 35729, "rop": 1513, "à¦īà¦¥": 11741, "rophe": 27194, "rophy": 40826, "ropic": 39173, "ropol": 24832, "ropolis": 46470, "ropolitan": 28358, "roportion": 27910, "ropri": 5072, "rops": 49715, "ropy": 27514, "ror": 2874, "rors": 9734, "ros": 2635, "roscop": 38006, "rose": 37841, "rosoft": 7856, "rospect": 28713, "ross": 1887, "rost": 27494, "Ġà§§": 10536, "Ġà¦ıà¦ĩà¦¡": 13122, "rough": 6160, "round": 5453, "rounded": 50167, "rounds": 43457, "Ġà¦ĵà¦®à¦ķ": 21189, "rov": 24088, "rove": 32467, "row": 1892, "à¦¤à¦ķà¦°à¦£": 11736, "rows": 28251, "roy": 4460, "royable": 45976, "roz": 27857, "à¦¤à¦§à¦°": 16115, "rs": 22943, "Ġà¦¨à¦°à¦¨": 17721, "ru": 894, "ruce": 41158, "ruck": 8161, "ruct": 1757, "ruction": 3826, "Ġà¦¦à¦°à¦¦à¦°": 21673, "Ġà¦¥à¦²": 14535, "ructure": 2885, "ructured": 46847, "ructures": 44513, "rud": 47130, "rue": 41729, "ruff": 50154, "Ġà§¬à§ªà§¬": 18891, "ruk": 25126, "à¦¨à¦²à¦Ľ": 19977, "ruktur": 31543, "rul": 35972, "rule": 44197, "rum": 6247, "à¦Ľà¦ķ": 12997, "running": 45482, "Ġà¦°à§Łà¦Ł": 11976, "rupt": 5428, "à¦Ĺà¦Ľ": 11266, "à¦²à¦¬à¦°": 13783, "rust": 22326, "rut": 24316, "ry": 627, "Ġà¦ªà¦Łà¦ªà¦°": 19076, "rylic": 24007, "ryn": 32532, "ryw": 47705, "à¦Ľà§Łà¦¨": 19390, "Ġà¦Ĩà¦°à¦ķ": 13503, "Ġà¦¬à¦ĩà¦¤": 13047, "rÃ¡": 30218, "à¦Ńà¦²à¦Ń": 17168, "rÃ£o": 36837, "Ġà¦ªà¦¨": 11397, "rÃ¤ge": 40917, "rÃ¤n": 33766, "rÃ¥": 24972, "rÃ¥n": 43178, "rÃ¨s": 32524, "Ġà¦¨à¦¤": 10521, "rÃ©al": 50014, "rÃ©e": 37735, "Ġà¦¹à¦ĵà¦¨": 18981, "Ġà¦¯à¦¤à¦Ł": 11721, "rÃ³d": 43678, "rÃ¼": 31759, "rÃł": 39212, "rÃŃ": 40577, "rÃŃa": 37183, "rÄħ": 32881, "s": 82, "sa": 5790, "à¦¸à¦°à¦¦": 15142, "Ġà¦īà¦²à¦Łà¦ª": 19988, "sama": 37275, "Ġà¦«à¦°à¦®": 11491, "saw": 31287, "à§Łà¦°à¦¸": 21664, "sc": 4417, "sca": 44239, "Ġà¦¤à¦¹à¦®": 20033, "sce": 22919, "scene": 47798, "scenes": 36324, "sch": 6145, "schaft": 37363, "Ġà¦Ĩà¦¨à¦²": 12287, "scheid": 29811, "schein": 23672, "scheinlich": 25553, "school": 22779, "Ġà¦Ĩà¦ľà¦Ĺ": 15693, "screaming": 23698, "screams": 29443, "Ġà§§à§®à§Ń": 12439, "se": 405, "Ġà¦ªà¦°à¦·": 17531, "season": 28862, "seat": 43152, "sec": 8159, "second": 27375, "sect": 9632, "à¦·à¦ķà¦¤": 11963, "sections": 40329, "security": 31004, "sed": 45036, "Ġà¦ıà¦¸à¦ıà¦¸à¦¬": 17109, "seen": 22008, "sehen": 27750, "sei": 43665, "sein": 33042, "seits": 44033, "sek": 26141, "sel": 790, "self": 927, "à¦ªà¦¸à¦®": 14555, "selling": 30427, "sels": 26604, "selves": 2036, "à¦īà¦¬à¦¨": 19872, "à¦§à¦¶à¦¤à¦°": 15750, "semble": 37227, "Ġà¦ıà¦ķà¦¸à¦ª": 19160, "sen": 6748, "sent": 49315, "seok": 47050, "à¦ĵà¦ĩ": 11834, "sequently": 46027, "Ġà¦¶à§Łà¦¤": 12484, "service": 39279, "ses": 6196, "set": 3854, "seven": 44476, "sex": 28774, "sey": 7399, "sh": 2716, "shaped": 23103, "shaw": 49813, "she": 9611, "shelf": 46626, "shi": 46226, "shield": 35975, "shift": 47445, "à¦¬à¦°à¦ªà¦¤": 19686, "ship": 5278, "shire": 22294, "à¦ıà¦¤à¦¦": 15313, "shirts": 25892, "à¦¨à§Łà¦¨à¦ĵ": 19186, "sho": 31321, "shop": 29431, "shore": 27195, "Ġà§®à§¨à§¨": 18402, "shots": 35491, "show": 34436, "si": 7691, "side": 1812, "sided": 30941, "sigh": 35143, "sighs": 23074, "sight": 28654, "sil": 30605, "sim": 30937, "à¦°à¦ī": 19767, "Ġà¦ĩà¦²à¦¶": 21568, "sings": 40755, "à¦ĸà¦¬à¦°à¦Ł": 17122, "site": 30417, "six": 35066, "size": 27553, "à§Łà¦«à¦²": 20614, "sk": 5161, "à¦Łà¦¬à¦°": 20771, "à¦ľà¦¸à¦ªà¦¤": 18020, "skin": 45299, "sky": 25810, "Ġà¦ķà¦¥": 10418, "slow": 32008, "Ġà¦Ľà§ľ": 10817, "smith": 39599, "à¦Ĺà¦²à¦ĵ": 18860, "sna": 28045, "so": 539, "soci": 3276, "social": 48600, "Ġà¦Ĩà¦ªà¦¸à¦¹": 16663, "Ġà¦ļà¦°à¦«": 13908, "sol": 30926, "sold": 45537, "sole": 9481, "som": 24154, "some": 23189, "something": 31681, "son": 3015, "sonaro": 45733, "song": 38762, "soo": 27970, "soon": 34605, "sorry": 47545, "sound": 41834, "source": 41676, "sover": 23799, "sp": 4952, "space": 24824, "spe": 7053, "à¦·à¦¶": 14579, "speaks": 31016, "specific": 29258, "speed": 22746, "spl": 46535, "à¦ĩà¦²à¦®": 18193, "spring": 30757, "squ": 33292, "sque": 44516, "ss": 3810, "ssa": 39516, "ssen": 8718, "à¦¨à¦ŀ": 20407, "Ġà¦ľà¦²à¦Ļ": 18403, "st": 372, "sta": 9140, "stad": 48299, "stadt": 34511, "stag": 37077, "Ġà¦Ĩà¦Ľà¦®": 17882, "Ġà¦²à§ľ": 10899, "stal": 9196, "stalk": 34805, "à¦łà¦ĩ": 18758, "stanbul": 43928, "stand": 1115, "standen": 33946, "standing": 8618, "star": 9710, "stars": 46903, "start": 24419, "starter": 33969, "à¦¸à¦ķà¦®à¦£": 19435, "à¦Łà¦Ļ": 15406, "static": 34632, "Ġà¦°à¦¬à¦¸à¦¨": 19159, "staw": 22580, "ste": 2941, "sted": 30115, "stein": 9089, "à¦°à§Łà¦ķà¦°": 17816, "à¦Ĺà¦®à¦¸à¦¹": 17538, "stellung": 30016, "stem": 1099, "sten": 6266, "Ġà¦¨à¦Łà¦°à¦¡": 16792, "Ġà¦ıà¦Ĩà¦ĩà¦Ł": 20413, "ster": 3120, "sterdam": 27608, "sterreich": 34111, "sters": 10130, "stes": 45355, "sti": 39505, "à¦ªà¦¬": 11881, "sticks": 22789, "still": 40306, "à¦¥à¦ľ": 20875, "stock": 23914, "stoff": 23636, "ston": 8805, "Ġà§§à§§à§": 11243, "stones": 38702, "stood": 6431, "à¦¨à§Łà¦¶": 13559, "stoppable": 43006, "Ġà§§à§Ńà§Ńà§®": 21624, "à¦¨à¦¶à¦¤": 17367, "story": 24513, "str": 9733, "à¦ĺà¦ĵ": 19639, "stre": 26421, "stream": 9291, "string": 37045, "strings": 50035, "stro": 27616, "stroke": 42706, "strom": 38673, "strong": 28063, "stru": 30615, "stud": 28349, "sty": 25134, "à¦īà¦¨à¦ķ": 15014, "stÃ¤": 24019, "Ġà§«à§©à§¦": 16913, "Ġà¦°à¦£à¦ľà§Ł": 21836, "à¦§à¦¨à¦®": 15091, "sub": 30131, "such": 39974, "sud": 49800, "suite": 33136, "Ġà§¨à§¦à§§à§¨": 11314, "sung": 32052, "super": 48172, "supp": 36622, "sur": 36054, "susp": 31065, "suspenseful": 34743, "sw": 25884, "sweise": 36233, "sy": 3187, "sych": 4202, "system": 28215, "à¦ªà¦¹": 15453, "szy": 7706, "szych": 45021, "à¦¥à¦®": 10424, "à¦ıà¦ıà¦«à¦ª": 19773, "sÄ±n": 22133, "sÄ±nÄ±z": 44814, "t": 83, "ta": 1328, "taa": 43695, "table": 23811, "tag": 25030, "à¦ĩà¦¸à¦®à§Ł": 14430, "tails": 39384, "Ġà§©à§§à§«": 15209, "tak": 49771, "take": 27612, "taking": 48625, "tal": 32831, "talk": 29302, "tam": 37323, "à¦¨à¦ľà¦¨à¦¸à¦¹": 20356, "tant": 35717, "tar": 23480, "tat": 27321, "tawa": 36254, "taÄĩ": 42931, "taÅĤ": 46426, "te": 975, "tech": 25970, "techn": 29113, "à¦°à¦¬à¦®à§Ł": 14727, "teen": 9791, "teenth": 46897, "teil": 30766, "tek": 47611, "à¦¹à¦¬à¦¹": 18275, "temps": 30537, "ten": 1147, "tense": 39595, "teok": 25352, "teokbokki": 34357, "ter": 391, "tera": 23833, "tered": 40665, "teri": 34345, "tering": 34200, "Ġà¦¸à¦¹à¦ľ": 10872, "term": 7039, "termin": 29725, "tern": 2231, "ternal": 7481, "terror": 48024, "ters": 1559, "à§¯à§«": 12733, "tes": 7269, "test": 31636, "text": 25111, "tez": 47616, "th": 392, "à¦ĩà¦²à¦°": 13571, "than": 24852, "thank": 40683, "that": 6780, "the": 3322, "Ġà§§à§®à§¬à§§": 16620, "them": 47959, "theme": 36965, "à¦²à¦ªà¦¥à¦®à¦¨": 19096, "ther": 616, "Ġà¦¤à¦¹": 15456, "thern": 8846, "thers": 2273, "these": 42678, "thest": 36356, "à¦¦à¦ķà¦ķ": 13162, "thing": 825, "à¦¹à¦§à¦¨": 21074, "thinking": 39873, "third": 25095, "thirds": 38507, "à¦²à¦Ļ": 11176, "thlet": 7120, "thm": 10194, "thms": 42945, "Ġà¦°à¦ļ": 11943, "thood": 38283, "those": 49833, "though": 3222, "thought": 43135, "three": 27583, "thren": 40300, "Ġà¦¹à¦Łà¦²": 14222, "à¦Ľà¦¬": 11529, "ths": 32184, "Ġà§¬à§§à§¦": 15915, "thy": 28433, "ti": 7317, "tic": 40907, "tier": 25402, "ties": 6097, "tight": 41738, "Ġà¦ĩà¦Ĩà¦ĩ": 20007, "till": 47189, "tim": 31208, "time": 3766, "timer": 38013, "tin": 23159, "ting": 783, "tir": 24000, "tit": 27689, "à¦¦à¦¶": 10972, "tles": 23995, "to": 1353, "tober": 44715, "toi": 49222, "toire": 47144, "ton": 1756, "tone": 41656, "tones": 46272, "too": 32599, "à¦«à¦¯": 19337, "à¦¦à¦«à¦¤à¦°à¦ķ": 21151, "town": 30401, "tr": 6903, "à¦Ĺà¦®à¦¤": 17227, "à¦ķà¦¬à¦ķ": 19466, "trad": 43831, "trans": 24999, "tre": 3599, "trl": 28269, "tro": 38604, "ts": 1373, "tschaft": 22165, "tsÃ¥": 25441, "tt": 6319, "tte": 46739, "tu": 9179, "tuber": 34645, "tur": 24906, "turn": 33886, "tv": 24641, "à¦¶à§Łà¦ķ": 20270, "à¦°à¦²à¦ª": 20534, "tx": 38773, "ty": 874, "tyard": 37041, "tycznie": 45586, "à¦°à¦ķà¦Ń": 20467, "tz": 23643, "tÃ³": 4547, "tÄ±": 28163, "tÄ±m": 41186, "Ġà¦Ĩà¦ĸà¦®": 20637, "u": 84, "ua": 4398, "à¦ļà¦²à¦ĩ": 20473, "uais": 35469, "ual": 901, "ually": 671, "uan": 6139, "Ġà¦Ĩà¦ĩà¦ªà¦¡": 20070, "à¦Īà¦¨à¦īà¦¦": 20766, "à¦¯à¦Łà¦¨à¦®à¦¨": 16981, "uary": 6164, "uate": 10107, "uated": 27275, "uates": 27710, "uating": 32438, "Ġà§§à§®à§®à§®": 16073, "uations": 37570, "ub": 836, "Ġà¦¤à¦°à¦Ļ": 12584, "ubby": 35654, "ube": 1977, "uben": 34844, "à¦°": 10261, "ubernetes": 22457, "à¦°à¦¨à¦¨": 19581, "ubine": 47866, "ubl": 32144, "ublic": 3865, "ublik": 48620, "ublique": 42105, "ubs": 5432, "ubscribe": 9493, "uc": 1311, "uca": 32072, "ucc": 39407, "Ġà¦ĭà¦Ĺ": 16461, "ucch": 32621, "ucci": 30670, "uce": 4176, "uced": 41209, "uch": 625, "ucha": 26042, "uchar": 31084, "Ġà¦īà¦¦à¦¬": 17545, "à¦²à¦ĵà§Ł": 11285, "ucher": 41843, "uchi": 30026, "uchs": 37503, "ucht": 10084, "uci": 34144, "uciones": 46649, "uciÃ³n": 30813, "uck": 1134, "ucken": 49720, "Ġà¦Ĩà¦īà¦¶": 15032, "ucking": 33260, "uckland": 33717, "uckle": 32540, "uckles": 9193, "à¦Łà¦°à¦Ł": 15493, "uckt": 47800, "à¦¬à¦ª": 10616, "uclear": 30335, "à¦ķà¦¶à¦¨": 11130, "uction": 27549, "ud": 532, "à¦¨à¦¸à¦Ń": 11152, "udd": 26656, "udding": 49797, "ude": 2303, "uded": 23285, "uden": 32940, "udent": 24064, "uder": 28230, "udes": 10131, "à¦¸à¦®à¦£": 16032, "udi": 26000, "udible": 5582, "uding": 33703, "udo": 6207, "udos": 35063, "uds": 32083, "ue": 622, "ued": 5827, "Ġà¦ħà¦°": 10443, "uel": 3483, "à¦ĩà¦¨à¦²": 16079, "à¦¦à¦§": 13789, "uelle": 23635, "uellement": 31816, "ueller": 33467, "uely": 48863, "uem": 50116, "uen": 7801, "uencia": 47377, "Ġà¦¤à¦Ł": 19226, "uep": 23547, "ueprint": 29017, "uer": 5486, "uerdo": 22412, "ues": 1247, "uesday": 9775, "à¦«à¦¸": 11493, "uesta": 25316, "uestas": 47794, "uesto": 22057, "uestos": 42738, "à¦·à¦£à¦¸à¦¹": 15382, "Ġà§ªà§«à§®": 17281, "uez": 31221, "uf": 2947, "ufact": 5563, "à¦²à¦ªà¦Ł": 19890, "uff": 1245, "uffed": 48553, "ufficient": 30664, "à¦®à¦¡à¦Ĺ": 21665, "uffled": 33974, "uffs": 28296, "à¦°à¦¬à¦¸": 14297, "uft": 25005, "ug": 697, "à¦¶à¦Ĺà¦®à¦¨": 19364, "Ġà¦ĵà¦Łà¦¸": 17812, "ugar": 8307, "uge": 7181, "ugen": 27915, "ugene": 33103, "uger": 44953, "uges": 39064, "ugg": 3562, "uggage": 27159, "uggle": 31726, "uggling": 29921, "ugh": 1984, "ughing": 2974, "ughs": 2585, "ught": 1599, "ughter": 2395, "à§Łà¦®à¦¬": 15906, "ugi": 24780, "à¦ľà¦²à¦¤": 20746, "Ġà¦Ĺà¦ľà¦²": 14950, "Ġà¦ľà¦¨à¦¬à¦¹": 13705, "à¦ķà¦¨à¦¶": 21609, "uh": 3232, "uhan": 24729, "ui": 3077, "uin": 9445, "Ġà¦ıà¦¨à¦ĩà¦¸": 15516, "à¦¬à¦¹à¦£à¦®à¦¨": 17415, "uing": 9635, "uins": 44790, "uir": 34498, "uire": 43612, "uis": 8479, "uish": 33786, "uit": 1983, "uitar": 24917, "à¦°à¦¦à¦²à¦ķ": 21681, "uiten": 42928, "à¦¤à¦°à¦ķà¦®": 19080, "uitive": 48314, "uito": 22703, "uits": 7688, "Ġà¦Ĺà¦¸à¦ª": 21757, "uiÃ§Ã£o": 40593, "uj": 4579, "ujah": 24679, "Ġà¦Ĩà¦ľà¦ĩ": 13008, "à¦¤à¦®à¦¸": 21767, "ujin": 37005, "ujourd": 32202, "uju": 45652, "Ġà¦īà¦¦à§Ł": 13263, "ujÄħc": 44733, "à¦¦à¦°à¦¸à¦¹": 18258, "uk": 2034, "à¦Ĩà¦°à¦ıà¦¸": 13599, "ukan": 22324, "à¦Ĺà¦²à¦Ĺ": 15420, "Ġà¦²à¦°": 11788, "uko": 39476, "uks": 27999, "ukt": 46315, "uku": 24164, "ul": 425, "ula": 3780, "ulan": 40701, "ular": 1040, "ulares": 47129, "ulars": 42891, "Ġà¦¬à§Łà¦°": 16968, "ulate": 5256, "ulated": 6987, "ulates": 26192, "Ġà¦¨à¦°à¦®": 12162, "ulation": 2776, "ulations": 4136, "ulative": 22678, "à¦²à¦ļà¦ķ": 16381, "ulators": 39265, "à¦ªà¦ªà¦¤": 13432, "uldade": 48504, "ule": 2271, "uled": 45893, "ulen": 35671, "ulent": 23405, "uler": 26318, "ules": 3473, "ulf": 5757, "uli": 25484, "ulif": 38365, "uliflower": 39876, "Ġà¦¬à¦²à¦¬à¦¤": 17701, "à¦¶à¦§à¦°à¦¦": 16875, "ull": 858, "ulla": 26891, "ullah": 29605, "ulle": 34217, "ullen": 32516, "ullie": 27206, "ully": 2150, "à¦¤à¦°à¦Ļ": 13455, "ulos": 28348, "ulous": 6893, "ulously": 25038, "ulp": 39646, "Ġà¦¸à¦ĸ": 12463, "uls": 9468, "à¦ĩà¦ķà¦¸": 19258, "ulsion": 22973, "ulsive": 32657, "ult": 723, "Ġà¦Ĩà¦¶à¦¨": 19911, "ults": 33361, "ultur": 26099, "ultura": 49944, "à¦Ĩà¦ľ": 11056, "ulture": 8389, "ulty": 5773, "à¦ķà¦¤à¦°": 12845, "Ġà§©à§¦à§¦": 11560, "ulus": 26107, "uly": 3540, "um": 449, "uma": 5544, "uman": 6829, "umb": 2860, "umba": 49353, "umbai": 33376, "umber": 4182, "umbers": 36353, "umbing": 34236, "à¦ļà§Łà¦Ł": 16473, "à¦²à¦Ńà¦®": 19928, "à¦¸à¦ķà¦¦": 12255, "à¦°à¦®à¦°": 14188, "umbs": 7808, "ume": 2540, "umed": 28189, "Ġà§ªà§¯à§®": 16988, "ument": 2206, "umental": 43311, "uments": 4697, "à§«à§¨": 15583, "umes": 10018, "à§Łà¦ķà¦ĩ": 17800, "umin": 7112, "uming": 24919, "umm": 40879, "ummer": 30906, "ummy": 8620, "Ġà§©à§Ńà§ª": 16449, "umo": 40904, "ump": 1420, "umph": 24963, "umping": 35313, "à¦¸à¦¤à¦°": 16951, "umpy": 36142, "ums": 8099, "umsy": 41965, "umu": 30034, "umuz": 34884, "un": 409, "una": 5051, "unal": 33304, "unch": 1680, "unching": 46079, "à¦īà¦¬": 11228, "Ġà§Ńà§«à§¨": 17477, "unction": 32627, "und": 997, "à¦ĸà¦®": 11946, "undai": 43014, "Ġà¦¬à¦²à¦Ł": 13271, "unden": 10028, "under": 6617, "undert": 34267, "undo": 6043, "undos": 36518, "undred": 3159, "undy": 49996, "une": 2613, "uned": 43703, "à¦°à¦®à¦¶à¦ĩ": 15001, "à¦¥à¦Ĺà¦ŀ": 19333, "ung": 1063, "unge": 27588, "ungen": 5084, "ungkin": 26105, "ungs": 5846, "uni": 24307, "uning": 37726, "unintelligible": 31460, "union": 42137, "unity": 45105, "univers": 41421, "unk": 3197, "unken": 39071, "Ġà§ªà§®à§¯": 17627, "Ġà§§à§¯à§§à§¦": 14797, "unku": 49910, "unky": 25837, "unn": 34963, "unning": 25589, "Ġà¦®à¦¸à¦²": 12638, "uns": 26684, "unt": 2760, "unta": 46380, "unte": 7070, "à§§à§¯à§ªà§¨": 19015, "Ġà¦¦à¦ĸà¦²à¦¸à¦¹": 21777, "Ġà§§à§¯à§¨à§«": 14559, "unto": 24052, "Ġà¦ıà¦ķà¦¬à¦ļà¦¨": 21253, "untu": 45605, "Ġà¦Ĩà¦ĩà¦¨à¦ľ": 11072, "unun": 38411, "unuz": 33923, "unya": 27521, "unÃ¤chst": 42121, "Ġà§Ńà§®à§§": 18655, "Ġà§§à§®à§«": 12549, "up": 1010, "upa": 25686, "upbeat": 4870, "Ġà§§à§¯à§ªà§®": 12879, "upid": 6127, "upl": 44810, "Ġà§¬": 10504, "ups": 7528, "upun": 34572, "ur": 374, "ura": 2991, "urable": 25863, "urai": 27012, "ural": 1807, "urally": 6512, "à¦ŀà¦¦": 12125, "urance": 5683, "uranÃ§a": 44214, "urar": 28586, "Ġà¦Ķà¦ªà¦¨": 12907, "urat": 44108, "urate": 33144, "uration": 8167, "à¦ĵà¦®à¦°": 16659, "urch": 2476, "Ġà¦Ĩà¦²à¦®": 10752, "urday": 8486, "ure": 540, "à¦®à¦£à¦ª": 15235, "ured": 3831, "uren": 9873, "urer": 9858, "Ġà§§à§ªà§¯": 14198, "ures": 1303, "urez": 46790, "à¦°à¦ħà¦¨": 21844, "urg": 5476, "urgence": 44607, "urger": 26880, "urgical": 46736, "uri": 9744, "uria": 37299, "uries": 8318, "uring": 1345, "urious": 24274, "à¦°à¦Ĩà¦²": 21973, "urity": 3051, "urm": 26717, "urn": 925, "Ġà¦ĵà¦ªà¦°": 10656, "uro": 7052, "uros": 8977, "urous": 37867, "Ġà¦ļà¦ĩ": 20130, "urpose": 31345, "urrection": 38451, "urry": 30614, "urs": 2156, "ursday": 10125, "ursed": 47267, "urst": 48273, "urt": 6224, "uru": 8739, "urun": 36207, "ury": 2598, "us": 301, "à¦®à¦ķà¦¸": 20318, "à§İà¦¸à¦ķà¦°": 11765, "Ġà§§à§¯à§§": 14992, "usan": 39634, "usc": 32601, "usch": 41172, "use": 438, "used": 4717, "à¦Ĺà¦£à¦Ł": 21359, "à¦ķà¦ĵà¦®": 18088, "uses": 8355, "useum": 5816, "ush": 1498, "à¦ıà¦°à¦®à¦§": 16880, "ushima": 49754, "ushing": 5371, "usi": 33016, "usic": 4990, "using": 7981, "usion": 5704, "usions": 27255, "usive": 23053, "uso": 24431, "usp": 22490, "uss": 2023, "ussa": 45380, "ussen": 29202, "ussia": 39942, "Ġà§§à§Ńà§§à§Ń": 21948, "usst": 26340, "ussy": 26394, "ust": 381, "usta": 28652, "ustain": 27219, "uste": 41389, "usted": 6589, "uster": 8393, "ustered": 38624, "ustering": 48673, "Ġà§¬à§©à§¬": 17181, "Ġà§§à§¯à§¯": 11712, "usto": 48260, "ustom": 2239, "ustomed": 34977, "usu": 41083, "usz": 22378, "ut": 325, "à¦²à¦ªà¦¥": 12093, "utable": 32148, "utan": 30624, "utar": 32142, "Ġà§ªà§¬": 11380, "utch": 9349, "utches": 49307, "ute": 1169, "uted": 4866, "uten": 7886, "Ġà§¨à§¦à§¦à§¦à§¦": 21698, "Ġà¦Ĩà¦¨à¦«à¦²": 20314, "uters": 48396, "utes": 1819, "Ġà¦ķà¦²à¦¨": 20364, "uteur": 42312, "uth": 2910, "Ġà¦Ńà¦Ĺà¦¬à¦¤": 17696, "uti": 29161, "Ġà§ªà§«à§©": 17899, "Ġà¦Ĺà¦Ĺà¦¨à¦¬": 20835, "à¦¹à¦¬": 10861, "ution": 1448, "utions": 3666, "à¦ļà§Łà¦ķ": 17254, "à¦¡à¦¬à¦°": 21678, "uto": 8262, "utor": 22163, "utors": 30751, "utos": 34640, "utral": 43574, "uts": 3648, "Ġà§§à§Ńà§¬": 13478, "utta": 27145, "utter": 9947, "uttering": 32224, "utto": 28698, "uty": 6432, "à¦¶à¦¨à¦¸": 12950, "uu": 9750, "Ġà¦®à¦ľà¦¬": 12823, "à¦¹à¦²à¦¬": 18470, "uuuu": 43779, "uv": 9350, "uve": 31564, "uvo": 43744, "uvre": 34171, "uw": 36824, "ux": 2449, "uxe": 43344, "uy": 7493, "uya": 37199, "Ġà¦¦à¦°à¦¦": 13649, "uyorsun": 40419, "uyorum": 41277, "uyu": 42694, "uz": 3334, "uzu": 48323, "Ġà§®à§¨à§¦": 16740, "uzzy": 30601, "uÃ§": 42688, "uÃ§Ã£o": 36770, "uÃ©": 42423, "à¦¬à¦ľà¦¨à¦¦": 12430, "uÃŁ": 43796, "uÃŁen": 41560, "uÄŁ": 22135, "uÅŁ": 7913, "v": 85, "va": 2757, "Ġà¦ªà¦¥à¦Ĺ": 17915, "vacc": 48976, "vad": 29886, "vag": 42586, "vais": 42984, "vak": 43506, "val": 3337, "vale": 46583, "Ġà¦ıà¦®à¦ĩ": 19778, "valuation": 46504, "value": 29155, "values": 46033, "van": 9768, "vana": 39259, "vania": 47542, "vant": 5219, "vantage": 23408, "var": 8517, "à§ľà¦¬": 11303, "vari": 34033, "vas": 7967, "vasive": 39211, "vat": 23352, "à¦¶à¦²à¦¬": 19083, "à¦¨à¦¡": 11116, "ve": 303, "veck": 33676, "ved": 937, "veda": 45716, "veer": 49143, "veis": 22479, "vel": 779, "veland": 27028, "vell": 48592, "velmente": 39786, "velop": 1388, "Ġà¦ĩà¦¨à¦°": 19278, "velt": 27196, "vem": 31651, "ven": 553, "Ġà¦Ĩà¦īà¦Ĺ": 20521, "venes": 41541, "venge": 46112, "venidos": 40668, "à¦ªà¦¥à¦ķ": 21955, "vens": 33302, "vent": 2475, "venth": 37439, "vention": 6411, "ventional": 46105, "Ġà§§à§¯à§§à§¬": 15051, "venue": 29307, "ver": 331, "verage": 3623, "verb": 25809, "verbs": 43348, "vere": 5887, "vern": 1659, "vero": 39332, "vers": 840, "verse": 4308, "version": 29153, "verstÃ¤nd": 36068, "vert": 3281, "à¦Łà¦¶à¦¨": 18537, "verts": 36999, "à¦¨à§Ł": 10771, "very": 448, "ves": 977, "vest": 5571, "vet": 9771, "vette": 41440, "vey": 5603, "veyard": 38202, "Ġà¦ľà¦¨à¦Ĺà¦£": 10941, "vi": 4917, "Ġà¦¬à¦¹à¦¨": 11617, "vial": 22640, "viamente": 23347, "vic": 25537, "vid": 6833, "vida": 32500, "videmment": 22639, "video": 40876, "vidia": 43021, "à¦Ĩà¦¸à¦²": 12702, "à¦¨à¦Ĺà¦°": 10878, "view": 1759, "Ġà§§à§¨à§Ń": 13457, "vik": 42252, "Ġà¦īà¦¨à¦ķ": 20202, "ville": 8386, "vin": 4796, "vine": 41243, "ving": 798, "vio": 28226, "viol": 23566, "violent": 48473, "vious": 1502, "viously": 2110, "vir": 46551, "à¦ªà¦ķà¦¹": 16234, "vis": 4938, "vised": 24420, "visible": 48990, "vision": 6763, "Ġà¦ħà¦¨à¦ķ": 16457, "Ġà¦¸à¦®à§Ł": 10398, "vity": 23110, "viv": 27810, "vl": 42977, "vo": 3080, "à¦°à¦¹à¦®à¦¤": 20836, "vocal": 42809, "voice": 42268, "voir": 8823, "vol": 9646, "Ġà¦²à¦¡": 20654, "volt": 47610, "voor": 26188, "voorbeeld": 39006, "vor": 8453, "vordan": 48658, "à¦īà¦Ĺà¦²": 19140, "Ġà§©à§Ńà§¬": 16514, "voy": 35176, "vre": 34869, "vs": 36959, "vt": 49297, "vu": 32257, "à¦¡à¦Ł": 11869, "Ġà§®à§ªà§¦": 17165, "vÃ¤nd": 30499, "vÃ¤r": 48631, "Ġà¦¨à¦Ľ": 15797, "w": 86, "wa": 4151, "wach": 50038, "wagen": 28717, "wah": 37360, "wait": 26040, "wal": 29530, "wald": 33262, "wali": 40054, "Ġà¦¨à¦¸": 12490, "walker": 38980, "à¦ĩà¦²à¦«": 16256, "wan": 7916, "wand": 33114, "à¦¤à¦ªà¦¦": 19031, "war": 6925, "ward": 1007, "wards": 2015, "ware": 3039, "warm": 49240, "warming": 48076, "wart": 29587, "warts": 43134, "warz": 31991, "was": 6569, "wash": 38558, "wasser": 48309, "wat": 44824, "Ġà¦Ĩà¦¬à¦Ĺ": 15219, "water": 8002, "waukee": 34243, "wave": 35461, "way": 676, "ways": 942, "waÄĩ": 25234, "waÅ¼": 27111, "waÅĤ": 44603, "wd": 43778, "we": 826, "wealth": 29988, "à¦·à¦£à¦¬": 15087, "wechsel": 26934, "wed": 26896, "weder": 49070, "Ġà¦ħà¦ĩà§Ł": 21272, "week": 23188, "ween": 1259, "Ġà¦Ĩà¦°": 10354, "à¦Ĩà¦°à¦¬": 12517, "à¦¤à¦°à¦«": 13683, "wegs": 32793, "weh": 40630, "wehr": 35601, "à¦¸à¦®à¦®": 17849, "à§¦à§Ń": 12329, "weile": 35076, "weis": 35033, "Ġà¦¯à¦ķ": 13109, "weisen": 40196, "weit": 28019, "wel": 45512, "well": 6326, "welling": 34034, "welt": 33458, "à¦¬à¦¤à¦¶": 15615, "à¦Łà¦°à¦¨": 20128, "went": 34798, "wer": 1554, "werk": 26833, "wers": 5364, "wert": 26521, "west": 8750, "wh": 1363, "what": 5479, "Ġà¦ĩà¦ķà¦¨à¦®": 17098, "wheel": 22830, "whel": 8746, "Ġà¦Ĩà¦ĸà¦ļ": 18822, "where": 1992, "Ġà§§à§¬à§«": 13690, "while": 7723, "whistle": 46435, "white": 28865, "à¦®à¦¦à¦®": 13506, "why": 22628, "wi": 6253, "wiad": 32997, "wic": 22295, "wich": 9669, "à¦ĩà¦Łà¦°": 16038, "Ġà¦¤à¦°à¦ľà¦®": 17697, "wide": 7990, "à¦ĩà¦Ĺà¦¨": 21271, "wie": 8699, "wiek": 44674, "wier": 40717, "wiet": 39083, "wife": 32779, "wig": 33313, "wij": 36652, "Ġà¦°à¦ĵà¦ľ": 17044, "win": 9136, "Ġà¦īà¦ªà¦®à¦¹": 12199, "wing": 7904, "winning": 32960, "wir": 43327, "wire": 42689, "wirtschaft": 38877, "wise": 3711, "Ġà¦Ĩà¦Łà¦Ł": 11820, "wives": 48882, "Ġà§ªà§Ńà§®": 18234, "wiÄħz": 22620, "wiÄĻ": 22423, "Ġà§¨à§®à§§": 15979, "wl": 39192, "wn": 895, "à¦®à§Łà¦ķ": 14215, "à¦ĩà¦¡à¦¨": 19969, "à¦Ĩà¦ľà¦¬": 20944, "wny": 43682, "wo": 6120, "wohl": 33849, "wol": 48481, "wolf": 34763, "à¦Ńà¦¨à¦ķ": 18339, "Ġà§ªà§¨à§¦": 14693, "Ġà¦ĸà¦¬à¦°à¦ķ": 17607, "wood": 6092, "wor": 28321, "word": 7462, "Ġà¦Ĩà¦ĩà¦ı": 13832, "work": 1902, "worker": 49402, "workers": 37101, "working": 22475, "Ġà§¯à§¨à§¯": 18357, "à¦łà¦®": 13217, "worm": 30917, "Ġà¦«à¦£": 13802, "Ġà¦ıà¦ķà¦ľ": 13136, "worthy": 23727, "would": 43815, "wow": 34354, "woÅĽci": 36476, "woÅĽÄĩ": 48847, "wr": 7449, "wright": 37752, "à¦·à¦¦à¦ĵ": 21561, "writer": 23681, "à§ľà¦¯à¦¨": 19868, "written": 26859, "Ġà¦¬à¦ľà¦°": 14358, "wszy": 30012, "wu": 30627, "wurf": 31515, "ww": 4979, "Ġà§«à§©à§§": 17919, "wwww": 31234, "wy": 9726, "wydd": 49671, "wyn": 28284, "x": 87, "xa": 36852, "xe": 36949, "xes": 47047, "xi": 27579, "xic": 47228, "xico": 24829, "xide": 34454, "xim": 3081, "xis": 39637, "xit": 22037, "xo": 49050, "xt": 734, "xter": 36671, "xton": 44798, "xture": 8890, "xtures": 37610, "à¦ĵà¦²à¦ľ": 13418, "xus": 32618, "xx": 30569, "Ġà¦ıà¦¸à¦¡": 12876, "y": 88, "ya": 3016, "yah": 42534, "yal": 7265, "yan": 6277, "yang": 23594, "yani": 49812, "Ġà¦Ĺà¦¹à¦¨": 13862, "yards": 48905, "yas": 39472, "yba": 28375, "Ġà¦īà¦¤à¦¸": 16384, "Ġà§ªà§®à§§": 17466, "yd": 6655, "ydd": 34871, "ydi": 49484, "ydia": 37622, "ye": 1200, "à¦Ĩà¦ľà¦¹": 19650, "year": 5294, "years": 34569, "yect": 22680, "yelling": 42983, "Ġà¦Ĺà¦¨à¦®": 16580, "Ġà¦®à¦¤à¦ª": 13842, "Ġà¦ıà¦¤à¦ľà¦¨": 18122, "yer": 7224, "Ġà¦Ĺà¦²à¦«": 13917, "yes": 2346, "yet": 37180, "yez": 45577, "Ġà§ªà§¬à§©": 18103, "ygen": 8647, "ygusal": 47668, "yi": 8461, "Ġà¦Ľà¦®à¦Ľà¦®": 17998, "yin": 30354, "ying": 1840, "yk": 46127, "yl": 5088, "ylan": 24691, "yle": 2072, "ylene": 46830, "ylie": 34579, "yll": 34353, "ylon": 34926, "ylum": 27512, "ym": 4199, "ymm": 32497, "ymph": 25161, "ympt": 34029, "yn": 2534, "ynam": 5216, "ynasty": 22181, "ync": 34015, "ynchron": 36420, "ynen": 48318, "ynn": 48959, "Ġà§®à§®à§«": 18656, "ynthesis": 45601, "ynthia": 35933, "ynÄ±": 25681, "yo": 8308, "Ġà¦¤à¦¦à¦¸": 20808, "yond": 4063, "yor": 2454, "à¦ĩà¦®à¦¦": 21338, "yorum": 5826, "you": 5616, "young": 29696, "your": 23093, "yr": 6016, "à¦°à¦§à¦°": 11381, "ys": 749, "yscy": 38966, "yse": 36843, "ysical": 36280, "ysics": 41732, "ysis": 4642, "yson": 28194, "yss": 31059, "yst": 38593, "ystem": 9321, "à¦ªà¦°à¦¨": 20589, "ysÅĤ": 39508, "yt": 4328, "ytes": 43673, "ytic": 43658, "ytt": 29475, "yty": 41944, "Ġà¦ĺà¦·à¦¤": 17623, "Ġà¦ĵà¦°à¦ĩ": 21505, "yw": 27112, "Ġà§«à§§à§¨": 15630, "yz": 37433, "z": 89, "za": 2394, "zag": 43886, "zahl": 39670, "zam": 28915, "à¦ĵà§Łà¦¤": 21238, "zar": 26236, "zas": 24561, "zaÄĩ": 35873, "zcz": 43771, "zd": 31278, "ze": 1381, "à¦Īà§Ł": 19439, "Ġà¦ªà¦°à¦ĵ": 11312, "zego": 27725, "zeich": 32338, "zeigt": 39869, "à¦īà¦ĸ": 13712, "zeitig": 32075, "Ġà¦ıà¦¨à¦ľà§Ł": 16920, "à¦Ĩà¦ĩà¦ĩà¦īà¦¸": 19878, "Ġà¦ħà¦°à¦£": 12971, "zelf": 34686, "zem": 24313, "zen": 2904, "zeni": 42124, "à¦¤à¦°à¦ŀ": 14320, "à¦ĺà¦²à¦¦": 16778, "zeniu": 39651, "Ġà¦¸à¦īà¦¦": 16515, "à¦Ĺà¦¤à¦¤": 14185, "zep": 46342, "zept": 32082, "zer": 4527, "zero": 32226, "zers": 41698, "à§Łà¦¦à¦°": 12214, "zess": 37575, "zet": 40399, "Ġà¦Ĩà§Łà¦°": 19303, "zew": 43551, "zeÅĦ": 49689, "zh": 41032, "zhou": 37874, "zi": 3992, "zia": 40395, "Ġà¦ıà¦ľà¦¹": 17787, "ziaÅĤ": 43070, "zie": 3283, "zieh": 28213, "ziehen": 28768, "à¦Łà¦Ńà¦ķ": 19554, "ziel": 42280, "zier": 33352, "ziest": 37567, "Ġà¦ıà¦ķà¦¦à¦¶à¦ķ": 21214, "zig": 36168, "zil": 8790, "zilla": 26403, "zin": 23584, "zing": 8781, "zinho": 31282, "à¦ľà§Łà¦°": 19706, "zip": 27268, "ziÄĩ": 28496, "à¦¸à¦¦à¦¨": 16706, "ziÄĻk": 25446, "ziÄĻki": 34546, "ziÄĻkujÄĻ": 29769, "zk": 30154, "Ġà§Ńà§§à§«": 16813, "zn": 22672, "zna": 35458, "zne": 43077, "zo": 4765, "zogen": 42120, "zon": 35296, "Ġà¦ıà¦ķà¦°à¦ķà¦®": 13383, "à¦²à¦Ĺà¦£": 16896, "zony": 44479, "zos": 27681, "zt": 2682, "zte": 45127, "à¦²à¦¥": 11728, "zub": 40566, "zuf": 39467, "zug": 29742, "zuge": 46285, "zuk": 43994, "zung": 27667, "zur": 50210, "Ġà¦ıà¦ĩà¦ļà¦Ĩà¦°": 16236, "zusagen": 32868, "zust": 37677, "Ġà¦ħà¦ĺ": 14406, "zwischen": 47115, "zy": 1229, "zych": 28051, "zyka": 40940, "zym": 26681, "zyst": 36049, "zysta": 49590, "zyÄĩ": 27150, "zz": 4313, "zza": 26786, "zzarella": 38808, "zzle": 9260, "zzo": 35130, "zÃ¤h": 23242, "zÄħ": 8925, "zÄħd": 23876, "Ġà§§à§¯à§¯à§": 11052, "{": 90, "{\\": 35000, "|": 91, "}": 92, "}}": 29464, "~": 93, "Ġà¦ħà¦¬à¦°": 11394, "~!!": 45361, "~\"": 47014, "~)": 25010, "~?": 26931, "~]": 27456, "~~": 5990, "à¦ķà¦ªà¦¤": 20409, "~~~~": 29026, "¡": 94, "¡°": 6010, "¡Ģ": 42229, "¡Į": 5475, "¡ľ": 1955, "Ġà¦¹à¦ĩ": 11737, "à¦§à¦ªà¦¥": 19332, "¡Ń": 42087, "¢": 95, "¢ÙĨ": 48506, "£": 96, "Ġà¦¨à¦ĸ": 13033, "£¨ë": 29693, "à¦¨à¦¸à¦¹": 11372, "£¼ë": 47412, "Ġà¦Ĩà¦®à¦²à¦Ĺ": 21305, "£ł": 24037, "¤": 97, "¤ë": 2990, "¤ë¡ľ": 38214, "¤ë¥¼": 38309, "¤í": 4644, "¤íĬ¸": 41914, "¤íĶ": 35219, "¥": 98, "¥´": 9956, "¥´ê²Į": 39930, "¥´ê³ł": 39949, "¥´ë": 22702, "¥´ë©´": 43486, "¥´ëĬĶ": 39402, "¥´ì": 41390, "Ġà¦ħà¦²": 10798, "¥¼": 2429, "¥ĺ": 46014, "¦": 99, "¦¬": 2250, "¦¬ê°Ģ": 27116, "¦¬ê²łìĬµëĭĪëĭ¤": 46560, "¦¬ê³ł": 7290, "¦¬ë": 7134, "Ġà¦Łà¦¹à¦²à¦¦à¦²": 18167, "¦¬ë©´": 40093, "à¦¨à¦¡à¦¨": 20896, "à¦ļà¦¤à¦°": 12811, "à¦¦à¦°à¦¨à¦Ĺà¦°": 15389, "à§§à§§à§¨": 15773, "Ġà¦ıà¦¨à¦ıà¦¸à¦ľ": 18306, "¦½ëĭĪëĭ¤": 34328, "¦¿": 44293, "à¦Ļà¦°": 13488, "¦Ń": 32903, "§": 100, "Ġà¦Ĩà¦ĩà§Ł": 11898, "§¤": 28728, "Ġà¦¸à¦ł": 11061, "§Ģë": 28719, "§ģ": 25787, "§Ħ": 30216, "§Ī": 8667, "§Īë": 44636, "§Īëĭ¤": 45408, "§ī": 47422, "§Į": 6478, "§Ĳ": 39122, "à¦¤à¦®à§Ł": 15407, "¨": 101, "à¦īà¦¡à¦¸": 17817, "¨¸ëĭĪ": 46355, "¨¹": 26741, "¨¼": 48150, "¨ë": 3891, "Ġà¦¤à¦®à¦¦": 19407, "©": 102, "Ġà¦īà¦ĩà¦°": 21077, "Ġà§Ńà§¦à§®": 18095, "©´": 2708, "©´ì": 41735, "©´ìĦľ": 9332, "©ëĭĪëĭ¤": 6665, "©Ķë": 29698, "ª": 103, "à§§à§¯à§®à§¨": 16838, "ª¨ë": 40025, "ª©": 27523, "ª»": 33411, "ª½": 9397, "ªħ": 8792, "«": 104, "¬": 105, "Ġà§®à§®à§®": 18129, "Ġà¦¸à¦¨à¦ķ": 21046, "¬¸": 8357, "à¦Ĩà¦ĩà¦¨": 11825, "¬ë": 1698, "¬ë¥¼": 43773, "¬ìĺģ": 26157, "®": 106, "¯": 107, "¯¤": 46652, "¯¸": 6587, "¯¸ë": 35605, "¯¼": 9609, "¯¼ë": 41267, "°": 108, "°¥": 45582, "Ġà§¬à§¨à§¨": 17027, "°°": 30141, "°±": 36922, "°ë": 2004, "°ë¥¼": 38220, "°ë¦¬": 7078, "Ġà¦ıà¦®à¦ıà¦®": 14494, "°ëıĦ": 41931, "°Į": 28627, "°Ķ": 27344, "à¦īà¦¥à¦ĸ": 21697, "°ĸìĹĲ": 46902, "°ĺ": 22196, "Ġà¦īà§İà¦¸à¦Ĺ": 17248, "±": 109, "±°": 2442, "²": 110, "²½": 36547, "à¦¬à¦¸à¦Ĺ": 17910, "²Ħë": 24410, "²Ī": 5166, "²Ķ": 38700, "²ķ": 30610, "³": 111, "³´": 7062, "³´ê²łìĬµëĭĪëĭ¤": 44246, "³´ê³ł": 34400, "Ġà¦Ŀà¦°à¦¤": 17420, "³´ë©´": 47601, "³´ëĭ¤": 27655, "³´ëıĦë¡Ŀ": 46799, "à¦Ĩà¦ªà¦¤": 20107, "³´ìĦ¸ìļĶ": 47326, "³´ìŀĲ": 47952, "³µ": 32635, "à¦·à§Łà¦ª": 18588, "Ġà¦Ŀà§ľà¦Ł": 17194, "³¼ê²ĮìļĶ": 30060, "³Ð¾": 1444, "³Ģ": 43858, "³ĳ": 44504, "´": 112, "´¤": 23560, "´ë": 1327, "´ë¥¼": 35101, "à¦ĩà¦ĵà¦°": 16775, "´ëıĦ": 48157, "´ëıĻ": 30580, "´ì": 1041, "´ì§Ģ": 24289, "´ìĦľ": 4555, "Ġà§ªà§«à§§": 17058, "´ìĭ¬": 28569, "´ìĭ¬íŀĪ": 30879, "´ìĭľ": 46312, "à¦łà¦¸à¦¹": 19086, "´ìĹĲìĦľ": 42659, "´ìĺ": 42978, "´ìŀ": 28364, "´ìŀ¥": 47992, "´ìł": 23140, "´ìłģ": 38430, "´ìłĦ": 47595, "´ī": 44753, "à¦§à¦°à¦¤": 16808, "µ": 113, "Ġà¦Ĩà¦īà§ľ": 19728, "¶": 114, "¶Ģ": 6301, "Ġà§Ńà§¨à§¨": 17981, "¶Ģë¶Ħ": 49288, "à¦ļà§Łà¦ªà¦¤": 12130, "Ġà§«à§§à§¯": 18879, "¶Ħ": 6072, "¶Ħë": 31480, "à¦¬à¦¬à¦¨": 18912, "¶Ħëĵ¤ìĿ´": 40389, "Ġà¦ıà¦¨à¦ıà¦¸à¦ĵ": 20026, "à¦ªà¦¦à¦ĩ": 20353, "·": 115, "·¨": 24435, "·°": 33067, "¸": 116, "¸ë": 1397, "Ġà¦īà¦Łà¦ª": 16270, "à¦īà¦ĩà¦²": 14981, "Ġà¦°à¦ľà¦®": 21934, "¸Įë": 44787, "¸Ķ": 48411, "¹": 117, "¹Ħ": 9790, "¹Ħë": 49116, "à¦¯à¦¤à¦Ł": 19211, "º": 118, "»": 119, "»Ĳ": 37191, "¼": 120, "¼ë": 1870, "¼ë¡ľ": 33628, "½": 121, "¾": 122, "¿": 123, "À": 124, "Á": 125, "Â": 126, "Â¡": 24364, "Â«": 36784, "Â®": 35333, "à§¨à§©": 11782, "Â²": 27643, "Â´": 6945, "Ġà¦¸à¦¬à¦¦": 14259, "Â·Â·": 44409, "Âº": 27244, "Â»": 5933, "à§Łà¦Ĺà¦£": 21606, "Ġà¦ķà¦¨à¦Ń": 12513, "Â¿": 25073, "ÂŃ": 47781, "Ã": 127, "Ã¡": 842, "Ã¡b": 27879, "à§ľà¦ķà¦°à¦£": 21563, "Ã¡ch": 39569, "Ã¡d": 32512, "Ã¡fic": 23858, "Ġà§§à§©à§§à§ª": 21099, "Ã¡gina": 36493, "Ã¡i": 28249, "Ã¡is": 32133, "Ã¡k": 37165, "Ġà¦°à¦¹à¦¸": 11447, "Ġà§®à§Ńà§§": 19524, "Ã¡n": 7200, "Ġà¦ĺà¦¨à¦ķ": 18606, "Ã¡ng": 30344, "Ã¡nh": 33434, "Ã¡nt": 27525, "Ã¡o": 45202, "à¦¶à¦¬à¦°": 15059, "à¦®à¦«à¦¨": 20335, "à§¨à§¬": 11758, "Ã¡ria": 31861, "Ã¡rias": 24952, "à¦Łà¦ľ": 12657, "Ġà¦ıà¦ĩà¦ľà¦¨": 15644, "Ã¡s": 2490, "Ã¡st": 25952, "Ã¡stico": 44855, "Ã¡t": 7656, "Ã¡tica": 23432, "Ã¡ticas": 44997, "Ã¡tico": 28234, "Ã¡veis": 42530, "à¦Ĺà¦°à¦¸à¦¹": 20224, "Ã¡z": 42970, "Ã¢": 3201, "Ã¢ce": 27988, "Ã¢l": 40106, "Ã¢m": 24484, "Ã¢n": 9667, "Ã¢ncia": 25677, "Ã¢nd": 45840, "Ã¢r": 42648, "Ã¢t": 29190, "Ã¢te": 33680, "Ã¢u": 24325, "Ġà¦Ľà¦¤": 12108, "Ã£": 1046, "Ã£o": 1076, "Ã£os": 46550, "Ã£y": 49205, "Ã¤": 737, "Ã¤ch": 10168, "Ã¤che": 32664, "Ã¤chen": 45118, "à¦°à¦Ńà¦°": 18195, "Ã¤chst": 28679, "Ġà§©à§«à§¦à§¦": 16837, "Ġà§¯à§¨à§ª": 19210, "Ã¤g": 50041, "Ã¤h": 6860, "Ã¤hlt": 43376, "à¦°à¦°à¦«": 12021, "Ã¤hrt": 37458, "Ã¤hÃ¤n": 24965, "Ã¤ischen": 43599, "Ã¤l": 9063, "Ã¤ll": 10053, "Ã¤lle": 31447, "Ã¤llen": 46181, "Ã¤llet": 44535, "Ã¤llt": 25333, "Ġà¦Ńà¦°à¦¦": 15510, "Ã¤m": 9559, "à§Łà¦Ĺà¦¤": 20962, "Ã¤mÃ¤n": 41409, "Ã¤n": 4029, "Ã¤nd": 5524, "Ã¤nde": 26973, "à¦¯à§Łà¦Ń": 16082, "Ã¤ndern": 28856, "Ã¤ndert": 34945, "Ã¤ndig": 38861, "Ã¤ng": 9935, "Ã¤nge": 29091, "Ã¤ngen": 43921, "Ã¤nger": 35174, "Ã¤ngt": 29670, "Ã¤nn": 24507, "Ã¤nner": 24403, "Ã¤r": 2713, "Ġà¦ªà¦°à¦ķ": 12277, "Ġà¦°à¦Łà¦¤": 21465, "Ã¤rke": 37355, "Ã¤rt": 24802, "à¦¯à§Łà¦¬à¦¹": 13555, "Ã¤sident": 22216, "Ã¤ss": 49045, "Ã¤t": 3628, "à¦²à§Łà¦°": 20230, "à¦¯à¦Ń": 11567, "Ã¤tta": 34802, "Ã¤tte": 34229, "Ã¤tter": 41033, "Ã¤ttre": 44225, "Ã¤tz": 39983, "Ã¤tze": 30179, "Ã¤tzen": 45721, "Ã¤tzlich": 33373, "Ã¤us": 31611, "Ã¤v": 35585, "Ã¤Ã¤": 8942, "Ġà¦ĩà¦«à¦¤": 11718, "Ã¥": 1330, "à¦¶à¦¨à¦Ĺà¦ŀ": 16906, "Ã¥r": 6057, "Ã¥rt": 45287, "Ã¥t": 45845, "Ã¦": 7303, "Ã¦r": 32011, "Ã§": 1138, "Ã§a": 5297, "Ã§ar": 26378, "Ġà¦¬à¦¸à¦Ĺ": 20016, "Ã§e": 32115, "à¦²à¦¨à¦¬": 19088, "Ã§i": 45860, "Ã§o": 8560, "Ġà¦ĩà¦īà¦ıà¦¸à¦ıà¦¸": 17134, "Ã§ons": 40946, "Ã§os": 26828, "Ã§u": 35708, "Ã§Ã£o": 2917, "Ã§Ãµes": 8001, "Ã¨": 1462, "Ã¨ce": 30236, "Ã¨ces": 44778, "Ã¨g": 30370, "Ã¨ge": 44924, "Ã¨le": 29844, "Ã¨me": 8433, "Ã¨mes": 27164, "à§Łà¦®à¦Ńà¦Ļ": 20917, "Ã¨ncia": 28917, "à¦Ĺà§İ": 18832, "Ã¨re": 4212, "à¦Ĩà¦¹": 13927, "Ã¨s": 3645, "Ã¨se": 45238, "Ġà§«à§§à§®": 18177, "Ã¨te": 22279, "Ã¨tement": 27236, "Ã¨tres": 36506, "Ã¨ve": 31397, "Ã©": 526, "Ã©c": 9062, "Ã©ch": 30606, "Ã©cole": 42415, "Ã©d": 7811, "Ã©e": 3856, "Ã©es": 6836, "Ã©f": 38821, "Ã©g": 9095, "Ã©ger": 41461, "à¦ľà¦²à¦ķ": 15064, "Ã©k": 44879, "Ã©l": 8025, "Ã©lior": 44795, "à¦°à¦£à¦¬à¦¶à¦¤": 19559, "Ã©m": 4011, "Ã©ma": 50201, "à¦°à¦ķà¦Ĺ": 17595, "Ã©mie": 44809, "Ġà¦Ĩà¦ĩà¦ıà¦ĩ": 18039, "Ã©n": 3516, "Ã©nd": 34577, "Ã©ner": 29535, "Ã©nergie": 44154, "Ã©nom": 46247, "Ã©nt": 37239, "Ã©o": 45805, "à¦¹à¦¨à¦Ĺ": 16171, "Ã©poque": 35580, "Ġà¦ıà¦¬à¦Ľà¦°à¦ĩ": 20183, "Ã©r": 4198, "Ã©ra": 28199, "à¦¹à¦¸à¦ĵ": 20596, "Ã©ration": 27901, "Ã©rcito": 48723, "Ã©rence": 41635, "Ġà¦Ĩà¦«à¦®": 21824, "Ġà¦ħà¦®à¦°": 12052, "Ã©ric": 27578, "Ã©rica": 32716, "à¦Ĺà¦¬à¦¨": 10746, "Ã©rience": 35627, "Ã©rieur": 24608, "Ã©rio": 37237, "Ã©rique": 36232, "Ã©ro": 26913, "Ã©rt": 33672, "Ã©rÃ©": 29071, "Ã©rÃªt": 44791, "Ã©s": 2191, "Ã©st": 49180, "Ã©sus": 49776, "Ã©sz": 47411, "Ã©t": 4051, "Ġà§®à§Ńà§«": 17902, "Ã©tais": 22824, "Ã©tait": 9743, "Ã©tat": 49073, "Ã©tica": 37272, "Ã©tico": 39958, "Ã©tique": 42379, "à¦ıà¦®à¦ıà¦¬": 21210, "Ã©v": 26375, "Ãª": 1307, "à¦¨à¦Ĺà¦¤": 13213, "Ãªme": 5069, "Ãªmement": 37540, "Ãªmes": 31145, "Ãªn": 5050, "Ãªncia": 9322, "Ãªncias": 32715, "Ãªnio": 39266, "à¦°à¦ķà¦°": 11987, "à¦§à¦¸à¦®": 15519, "à¦Ĺà¦²à¦ķ": 12943, "Ãªter": 37754, "Ãªtes": 38262, "Ãªtre": 9498, "Ãªts": 44309, "Ãªu": 28310, "Ġà¦ĺà¦¨à¦¬à¦¸à¦¤": 15101, "Ã«l": 36343, "Ã¬": 4749, "Ã¬n": 41320, "Ã¬nh": 10116, "Ã®": 7517, "Ã®ne": 24741, "à¦°à¦¡à¦®": 20028, "Ã®tre": 25011, "Ġà§§à§¯à§¦à§©": 15487, "Ã°": 23436, "Ã±": 2791, "à¦¬à¦¨à¦ķ": 12150, "Ã±ana": 31823, "Ã±as": 32448, "Ã±o": 7716, "Ã±os": 8242, "Ã²": 4293, "Ã²n": 23329, "Ã²ng": 36782, "Ã³": 812, "à¦ķà¦°à¦ª": 14216, "Ã³c": 40993, "Ġà§ªà§¦à§Ń": 17081, "Ġà¦ıà¦®à¦Ń": 14047, "à¦¶à¦ªà¦°": 18999, "à§İà¦¦": 15741, "Ã³le": 28287, "Ã³m": 23818, "à¦®à¦¨à¦ĵ": 20436, "Ã³n": 1801, "Ã³p": 47773, "Ġà§ªà§§à§¦": 15614, "Ġà§¨à§¨à§§": 15250, "Ã³rio": 35052, "Ġà¦¥à¦®": 12994, "Ã³st": 45052, "Ã³t": 34712, "Ã³w": 3901, "Ġà§ªà§¯à§¦": 16181, "Ã´": 2851, "Ġà¦Ĺà¦£à¦ªà¦°": 12213, "Ã´le": 22313, "Ã´m": 25670, "Ġà§«à§§à§©": 17140, "Ã´ng": 8217, "Ã´t": 8775, "Ãµ": 5536, "Ãµes": 6036, "Ã¶": 973, "Ã¶d": 29747, "Ã¶ff": 30453, "Ã¶g": 50023, "à¦Ķ": 16277, "Ã¶h": 23817, "Ã¶k": 23581, "Ġà¦¬à¦Ľà¦°à¦Ĺ": 13072, "Ã¶lker": 40268, "Ã¶ll": 27765, "Ã¶llig": 34528, "Ã¶m": 32374, "Ã¶n": 3239, "Ã¶r": 2311, "Ã¶ren": 26377, "Ã¶rper": 25533, "à¦¹à¦«": 11454, "Ã¶rung": 46676, "à¦¨à¦ľà¦¨": 11310, "Ã¶st": 36995, "à¦ªà¦Łà¦ª": 12082, "Ã¶tt": 41871, "Ã¶tzlich": 44638, "Ã¶yle": 6348, "Ã¶z": 26698, "Ġà¦īà¦Ńà§Łà¦Ł": 18595, "Ã¸": 6715, "à¦Ŀà¦¨": 15499, "Ã¸re": 35435, "Ã¹": 5035, "Ã¹ng": 27065, "Ãº": 2481, "Ãºa": 46362, "à¦ĺà§ľ": 12715, "Ãºblica": 36638, "Ãºc": 31585, "Ãºcar": 37774, "Ãºde": 34458, "Ãºlt": 43447, "Ãºn": 9453, "Ġà¦¬à¦¦à¦¹à¦ľà¦®": 16926, "Ãºp": 44492, "Ãºs": 10227, "Ġà¦ħà¦ķà¦ªà¦Ł": 14372, "Ãºt": 32852, "Ã»": 8879, "Ã»t": 30692, "Ã¼": 774, "à¦®à§Łà¦®à¦¨à¦¸": 12670, "Ã¼cht": 36458, "Ã¼ck": 6536, "Ã¼cke": 37383, "Ã¼cken": 26037, "Ã¼cklich": 38483, "Ã¼cks": 41687, "Ã¼ckt": 37532, "Ã¼d": 47731, "Ã¼f": 39733, "Ã¼g": 25644, "Ã¼gen": 45336, "Ã¼h": 7254, "Ã¼her": 27775, "Ġà¦§à¦¨à¦ķà¦°": 21692, "à¦Ĩà¦ĩà§Ł": 11986, "Ã¼hren": 29540, "Ġà§¨à§©à§¦à§¦": 19647, "Ã¼k": 8370, "Ġà¦«à¦²": 10548, "Ã¼ler": 29297, "Ã¼ll": 32385, "Ã¼llt": 49976, "Ã¼lme": 38050, "Ã¼m": 8966, "Ã¼man": 48585, "Ã¼mÃ¼": 48326, "Ã¼mÃ¼z": 42909, "Ã¼n": 3412, "Ã¼nd": 9541, "Ã¼nde": 25596, "Ã¼nden": 27687, "à¦¬à¦ĩà¦²": 21148, "Ã¼nf": 26292, "Ã¼ng": 36216, "à¦·à¦ķà¦²": 14402, "Ġà¦®à¦ĺ": 18351, "Ã¼nst": 36656, "Ã¼nÃ¼": 29598, "Ã¼nÃ¼z": 38740, "Ã¼p": 42693, "Ã¼r": 1655, "Ã¼rd": 39717, "Ã¼re": 39951, "Ã¼rlich": 7963, "Ã¼rÃ¼": 26481, "à¦¨à¦ĩà¦īà¦°": 16608, "Ã¼ss": 35207, "Ã¼ssel": 37838, "Ã¼st": 44244, "Ã¼t": 7695, "Ã¼tfen": 38655, "Ã¼tzen": 42049, "Ã¼tÃ¼n": 22153, "à¦¸à¦¸à¦¹": 12494, "à¦Ĩà¦²à¦¤": 18644, "Ã¼yorsun": 41353, "Ã¼yorum": 33332, "Ã¼z": 4934, "à¦¬à¦¨à¦Ĺà¦°": 13130, "Ġà¦ªà¦¦à¦ķ": 10920, "Ã¼ÄŁ": 22719, "Ã¼ÅŁ": 8743, "Ġà¦¨à¦ķ": 11822, "Ã½ch": 41845, "Ġà¦¦à¦ĸà¦²à¦¬": 18798, "à¦¬à§ľà¦²": 19551, "Ã¿Ã¿Ã¿Ã¿": 31607, "Ã¿Ã¿Ã¿Ã¿Ã¿Ã¿Ã¿Ã¿": 49951, "Ãģ": 32172, "Ãĥ": 49126, "Ãĩ": 27707, "à§¬à§ª": 14891, "Ãį": 33662, "Ãĳ": 35763, "Ãĵ": 42672, "Ãĸ": 25719, "ÃĹ": 37550, "Ãļ": 42635, "Ġà¦ĩà¦¨à¦ķ": 12272, "ÃľND": 23195, "ÃľNDNIS": 23222, "ÃŁ": 2536, "Ġà¦ľà¦Ĺà¦¤": 11451, "ÃŁen": 8989, "ÃŁer": 30369, "ÃŁerdem": 35957, "Ãł": 1467, "Ãłcies": 40875, "Ġà¦ıà¦ıà¦¨à¦Ĩà¦ĩà§Ł": 21971, "Ãłn": 22476, "Ãłng": 26653, "Ãłnh": 24449, "à¦Ĺà¦¨à¦ĵ": 20807, "Ãłs": 32620, "Ãły": 9524, "ÃŃ": 870, "ÃŃa": 2686, "Ġà§©à§¬à§ª": 16275, "à¦ĩà¦¦": 11084, "ÃŃas": 10025, "ÃŃb": 49662, "ÃŃch": 30839, "ÃŃcia": 30050, "ÃŃcio": 26162, "ÃŃcios": 49564, "Ġà¦ıà¦¸à¦ıà¦¸": 15304, "ÃŃculo": 34365, "ÃŃculos": 48229, "ÃŃd": 24455, "ÃŃda": 39080, "ÃŃdo": 28470, "ÃŃem": 45278, "à¦²à¦¤à¦°": 18869, "ÃŃgen": 36492, "ÃŃlia": 23392, "ÃŃll": 40641, "à¦¯à¦ªà¦Ł": 14569, "Ġà¦īà¦ªà¦²à¦ķ": 10973, "ÃŃna": 42279, "ÃŃnh": 26994, "Ġà¦¸à¦ķà¦°": 20492, "ÃŃp": 28236, "ÃŃr": 31338, "ÃŃre": 26591, "ÃŃs": 5113, "ÃŃsimo": 49889, "ÃŃss": 36375, "à¦ĩà¦ªà¦¸": 19512, "ÃŃt": 6712, "ÃŃtulo": 30389, "ÃŃv": 45096, "ÃŃve": 38059, "ÃŃveis": 34934, "à§ĥà¦Ĥ": 13185, "ÃŃz": 44551, "Ä": 128, "Ä©": 28490, "à¦ıà¦¸à¦ĩà¦¤": 13679, "Ġà¦Ŀà¦ª": 20320, "Ä±": 699, "Ä±k": 4157, "Ä±kt": 25207, "Ä±l": 5492, "Ä±lan": 50095, "Ä±lar": 24121, "Ġà¦ıà¦®à¦¨à¦¤": 21473, "Ä±ldÄ±": 46767, "Ä±ll": 37652, "Ä±lmÄ±ÅŁ": 48871, "Ä±lÄ±": 41039, "Ä±m": 2648, "Ä±ma": 37722, "Ä±mÄ±": 22569, "à¦Īà¦²": 13990, "Ä±mÄ±zÄ±": 48119, "Ä±n": 2263, "Ä±na": 9236, "Ä±nd": 6208, "Ä±nda": 8431, "Ä±ndaki": 47028, "Ġà¦¨à¦¶": 16293, "Ä±nt": 42234, "Ä±nÄ±": 7760, "Ġà¦¬à¦¸à¦«à¦°": 21006, "Ġà¦ķà¦ķà¦Ł": 13277, "à¦®à¦ĺà¦£": 17091, "Ä±r": 3702, "Ä±rd": 43983, "Ä±rÄ±m": 36053, "à§¨à§¦à§¨à§¦": 12871, "Ä±sÄ±": 28495, "Ä±t": 44610, "Ä±y": 8472, "Ä±yla": 25077, "Ä±yor": 7618, "Ä±yorlar": 35974, "à¦·à¦°à¦Ĺ": 17520, "à¦Ńà¦²à¦ªà¦®": 15230, "Ä±yoruz": 24459, "Ä±yÄ±": 48684, "Ä±z": 4041, "Ä±Ä±": 35734, "Ä±ÄŁ": 7366, "Ġà¦ıà¦ĩà¦¸à¦®à§Ł": 15977, "Ä±ÄŁÄ±m": 24006, "Ä±ÄŁÄ±mÄ±z": 35385, "Ä±ÄŁÄ±n": 39710, "Ä±ÄŁÄ±nÄ±": 33007, "Ä±ÅŁ": 4951, "Ä¾": 46634, "Äģ": 5610, "Äģh": 32121, "Äģm": 43642, "Äģn": 42223, "Äĥ": 4089, "à¦Ŀà¦Ĺà§ľ": 21434, "Äĥn": 49214, "Äĥng": 34705, "Äħ": 1611, "à¦¯à§Łà¦¸": 18962, "Äħda": 26398, "Äħt": 23430, "ÄħÄĩ": 36374, "ÄħÅ¼": 27242, "Äĩ": 2162, "Äį": 10236, "Äı": 45907, "Ġà¦¸à¦²à¦¤": 19222, "ÄĹ": 22029, "ÄĻ": 1274, "ÄĻd": 6298, "ÄĻdzie": 42643, "ÄĻdzy": 33779, "Ġà§¯à§®à§®": 18085, "ÄĻt": 46788, "ÄĽ": 9648, "ÄŁ": 1640, "ÄŁa": 38004, "ÄŁan": 43588, "Ġà¦ıà¦ķà¦Ŀà¦²à¦ķ": 19119, "à¦ħà¦¬à¦¸": 12498, "ÄŁim": 9272, "ÄŁimiz": 31930, "ÄŁin": 31955, "ÄŁini": 37312, "Ġà¦ĵà¦¸à¦¬": 14142, "ÄŁlu": 47644, "Ġà¦Łà¦²à¦¤": 19943, "ÄŁu": 39800, "à¦®à¦¤à¦ĵ": 17404, "Å": 129, "Å¡": 7891, "Å¡e": 42717, "Å¡ÃŃ": 48651, "Å¥": 27101, "Ġà§¯à§¨à§®": 19056, "Å¯": 23241, "Å±": 33150, "Å³": 28102, "à¦§à¦¬": 10659, "Åºniej": 33405, "Å¼": 1427, "Å¼a": 35075, "Å¼e": 2875, "Å¼ej": 38493, "Ġà¦ıà¦¸à¦ĩ": 17175, "Å¼en": 24930, "Å¼enia": 48830, "Å¼enie": 41118, "Å¼y": 7735, "Å¼yÄĩ": 39687, "Å¾": 9159, "Å¾e": 29913, "ÅĤ": 1221, "ÅĤa": 5024, "Ġà¦¡": 10358, "ÅĤada": 46217, "à¦ľà¦¨à¦¸à¦¨": 20177, "ÅĤby": 34635, "ÅĤbym": 43579, "à¦°à¦ªà§Ł": 19827, "ÅĤec": 33560, "Ġà¦°à¦¸": 11126, "ÅĤo": 5249, "ÅĤos": 48584, "ÅĤoÅĽci": 35059, "ÅĤoÅĽÄĩ": 44742, "ÅĤu": 24066, "ÅĤug": 34077, "ÅĤum": 49166, "ÅĤy": 6825, "ÅĤych": 47655, "Ġà¦īà¦ĩà¦ľ": 15926, "ÅĤÄħcz": 43558, "ÅĤÄĻ": 46564, "ÅĦ": 5248, "ÅĦsk": 27125, "Ġà¦¡à¦¬": 12229, "ÅĨ": 43657, "Åį": 27243, "Ġà¦Ńà¦°à¦¤": 12511, "Åĳl": 45490, "Åĵ": 34073, "à¦¦à¦¸à¦ĩ": 15781, "ÅĽ": 1788, "ÅĽci": 6199, "ÅĽcie": 9815, "ÅĽciÄħ": 50227, "Ġà¦ªà¦¥à¦ĺ": 19212, "Ġà¦ľà§Łà¦²à¦²": 15350, "ÅĽlÄĻ": 28749, "à¦²à¦¬": 10513, "Ġà¦¹à¦Ł": 12221, "ÅĽniej": 37511, "ÅĽwiad": 37750, "ÅĽÄĩ": 7753, "Åŀ": 28705, "ÅŁ": 1165, "ÅŁa": 31067, "ÅŁallah": 34870, "ÅŁam": 40839, "ÅŁekkÃ¼r": 32429, "Æ": 130, "Æ¡": 9621, "Ġà¦¹à¦Łà¦¨": 21537, "Æ¡n": 23513, "Æ°": 4228, "Æ°a": 27060, "Æ°ng": 42509, "Æ°Æ¡": 24416, "Æ°Æ¡ng": 24605, "Æ°á»": 5829, "Ġà§§à§¯à§®à§¬": 12725, "à¦¥à¦¬à¦¹": 14737, "Æ°á»£ng": 47001, "Ġà§©à§®à§Ń": 17059, "à¦ĸà¦¹": 19578, "Æ°á»Ŀ": 23648, "Ġà¦ªà¦łà¦¨": 14531, "Æ°á»Ŀng": 24280, "Æ°á»Ł": 48443, "Æ°á»Łng": 49301, "Ç": 131, "È": 132, "à¦¾à¦ģ": 10355, "à¦¬à¦°à¦¸à¦¹": 15918, "à§§à§¨à§¦à§¨à§§": 19999, "É": 133, "ÉĻ": 7250, "ÉĻn": 36769, "ÉĻr": 33145, "Ê": 134, "Ë": 135, "Ì": 136, "Ìģ": 32797, "Í": 137, "Î": 138, "Î¬": 3849, "Î¬Î»": 39650, "à¦°à¦Ĩà¦ª": 16636, "Î®": 7068, "Î®ÏĤ": 42647, "Î®Ïĥ": 28299, "Î¯": 3721, "à¦ļà¦¤à¦²": 13316, "Î¯Î±ÏĤ": 45281, "Î¯Î¶": 43805, "Ġà¦ĺà¦Ł": 10605, "à¦ħà¦·": 14738, "Î¯Î¿": 49669, "Î±": 1529, "Î±Î¹": 5074, "Ġà¦®à¦¨à¦¬": 17928, "à¦¦à¦īà¦¦": 15857, "Ġà¦Ĩà¦¦à¦®à¦¦": 14836, "Î²Î±": 48298, "Î³": 6744, "Î³Î¬": 46446, "Î³Î±": 40691, "Î³Î¿": 40761, "Î´": 8385, "Î´Î®": 47186, "Î´Î±": 40409, "Î´Ïİ": 38022, "Îµ": 2080, "à§Ńà§ª": 15903, "ÎµÎ¹": 6452, "ÎµÎ¹Î±": 41198, "Ġà¦Ĺà¦¹à¦¬à¦°": 21878, "Ġà¦ıà¦®à¦ĵ": 16430, "Ġà¦Łà¦Ĺà¦°": 16946, "ÎµÏĦÎ±Î¹": 39686, "ÎµÏĦÎµ": 47440, "à¦¦à¦¨à¦Ĺ": 16008, "Î·": 3835, "Î·Î½": 39452, "Î¸": 9440, "Î¸Îµ": 32815, "Î¸Î·": 40939, "Î¹": 1835, "Î¹Î¬": 26855, "Î¹Î±": 8311, "Î¹Îº": 10073, "Î¹ÎºÎ¬": 35085, "Î¹ÎºÎ®": 35490, "Î¹ÎºÏĮ": 37789, "Î¹Î¿": 26330, "Î¹Ïĥ": 36876, "Îº": 4915, "ÎºÎ±": 31714, "ÎºÎµ": 29846, "ÎºÎ¹": 39328, "Î»": 3659, "Î»Î¬": 30717, "à¦®à¦Ĺà¦¬": 20511, "Î»Îµ": 26589, "Î»Î·": 26836, "Î»Î¹": 48253, "à¦ĸà¦¸à¦¹": 14870, "Î»Î»Î¬": 29523, "Î»Î¿": 32043, "Î»ÎŃ": 35780, "Î¼": 4043, "Î¼Î¬": 34079, "Ġà¦¶à¦°à¦£": 11656, "Î¼Î±Î¹": 47861, "Î¼Î±ÏĦÎ±": 40370, "Î¼Îµ": 9104, "Î¼Î·": 48775, "Î¼Î¿": 31188, "Î¼ÎŃ": 27683, "Î½": 2254, "Ġà¦¤à¦®": 11658, "Î½Îµ": 33642, "Î½Î·": 32927, "Ġà§Ńà§§à§Ń": 17444, "Ġà¦¸à¦®à¦®à¦¨": 16134, "Î¿": 1800, "à¦Ĺà¦ľà¦Ĺ": 19264, "Î¿Î¹ÏĢÏĮÎ½": 48322, "Ġà¦®à¦¨à¦Ń": 19357, "Ġà§§à§¨à§©à§ª": 21731, "Î¿ÏĤ": 22281, "Î¿Ïħ": 4486, "à¦¦à¦®à¦¨": 16301, "Ġà¦ĸà¦°à¦ļà¦¸à¦¹": 20867, "Î¿ÏħÏĤ": 29395, "à§¬à§®": 14940, "Î¿ÏįÎ¼Îµ": 43106, "ÎŃ": 5554, "ÎŃÎ»": 33694, "ÎŃÏģ": 40810, "ÎŃÏĤ": 24949, "Ï": 139, "ÏĢ": 4339, "ÏĢÎ¬": 38460, "ÏĢÎ±": 32578, "ÏĢÎµ": 36445, "ÏĢÎµÎ¹": 39533, "Ġà¦īà¦ªà¦¨": 11188, "ÏĢÎ¿Î¹": 39348, "ÏĢÎ¿Ïħ": 49434, "ÏĢÏīÏĤ": 47785, "Ġà¦¤à¦Ľà¦¨": 14220, "ÏĢÏĮÎ½": 47657, "Ïģ": 2805, "à¦¹à¦ķà¦¸": 17750, "ÏģÎ¯": 24296, "ÏģÎ±": 9903, "ÏģÎ³": 32300, "ÏģÎµ": 27672, "ÏģÎµÎ¯": 42470, "ÏģÎ·": 33281, "Ġà¦ıà¦ĩà¦°à¦ķà¦®": 13477, "à¦¦à¦ªà¦¤": 11904, "ÏģÎ¿Ïį": 43103, "ÏģÎŃ": 28788, "ÏģÏĩ": 30332, "ÏģÏī": 28684, "à¦ıà¦¸à¦Ĩà¦°à¦ıà¦«": 21457, "ÏģÏİ": 28758, "ÏĤ": 3371, "Ïĥ": 3786, "ÏĥÎ±": 23791, "ÏĥÎµ": 25573, "ÏĥÎµÎ¹": 39320, "à¦Ĩà¦²à¦ľ": 17688, "ÏĥÎ¹": 29756, "ÏĥÏĦ": 22156, "ÏĥÏĦÎµ": 29333, "ÏĥÏī": 43326, "ÏĦ": 1781, "Ġà¦¹à¦īà¦¨": 19389, "ÏĦÎ¯": 30393, "ÏĦÎ±": 9213, "ÏĦÎ±Î¹": 23259, "ÏĦÎ±Î½": 26263, "ÏĦÎµ": 9137, "à¦ĩà¦ªà¦°": 12942, "Ġà§ªà§«à§¦": 13580, "ÏĦÎ¹Îº": 25733, "à§ģà¦ģ": 10600, "ÏĦÎ¿Ïį": 47249, "ÏĦÎŃ": 49306, "ÏĦÏĮ": 49778, "Ïħ": 3226, "à¦ªà¦ķà¦¤": 15009, "ÏħÏĩ": 43557, "à¦·à¦¦à¦°": 12015, "ÏĨÎ¿": 46002, "Ïĩ": 7597, "ÏĪ": 34169, "Ïī": 5733, "Ġà¦¬à§ľà¦Ł": 19851, "ÏīÏĤ": 22788, "ÏĮ": 4826, "ÏĮÏĤ": 30599, "ÏĮÏĥ": 41292, "ÏĮÏĦÎµ": 48545, "Ïį": 6956, "Ïİ": 8828, "ÏİÎ½": 31195, "ÏİÏģÎ±": 44352, "ÏİÏĤ": 40635, "Ð": 140, "Ð¡": 8068, "Ð¡Ð¢": 40752, "Ð¡Ð¿": 47306, "Ð¢": 8556, "Ð¢Ð°Ðº": 39005, "Ð¢Ñĭ": 37206, "à¦²à¦¹": 11887, "Ð¤": 35753, "Ð¥": 24665, "Ġà¦¨à¦¦à¦¨à¦¦": 17519, "Ð§ÑĤÐ¾": 35569, "Ð¨": 26541, "Ð¨ÐĲ": 34943, "Ġà¦īà¦ĩà¦¸à¦ķà¦¨à¦¸": 16214, "Ð¬": 37796, "Ġà¦ľà¦°": 10741, "Ð°": 386, "Ð°Ð": 549, "Ð°Ð±": 3771, "Ð°Ð±Ð°ÑĤ": 42304, "Ð°Ð±Ð¾ÑĤ": 7237, "Ð°Ð²": 1828, "Ð°Ð²Ð°Ð¹": 46745, "Ð°Ð²Ð°ÑĤÑĮ": 38945, "Ð°Ð²Ð»Ð¸Ð²": 41479, "Ð°Ð²Ð½Ð¾": 40394, "Ð°Ð³": 5583, "Ð°Ð³Ð¾": 33747, "Ð°Ð´": 2601, "Ð°Ð´Ð°": 44660, "à¦¬à¦ķà¦ĩ": 18389, "Ð°Ð´Ð½Ð¾": 27225, "Ð°Ð´ÑĨ": 42208, "Ð°ÐµÐ¼": 7906, "Ð°ÐµÐ¼ÑģÑı": 43768, "Ð°ÐµÑĤ": 3310, "à¦¹à¦²à¦ķ": 17670, "Ð°ÐµÑĤÑģÑı": 6970, "Ġà§ªà§©à§¨": 17266, "Ð°Ð¶": 3234, "à¦Ĺà¦Ĺ": 11413, "Ð°Ð¶Ðµ": 9475, "Ð°Ð¶Ð¸": 43862, "Ð°Ð¶Ñĥ": 29294, "Ð°Ð·": 1990, "Ð°Ð·Ð´": 48799, "à¦¯à¦ķ": 10442, "Ð°Ð¹": 3183, "Ð°Ð¹Ð½": 32920, "Ð°Ð¹ÑĤ": 23055, "à¦«": 10330, "Ð°Ð¹ÑĤÐµÑģÑĮ": 30100, "Ð°Ðº": 1272, "Ð°ÐºÐ°": 39558, "Ð°ÐºÐ¸": 48877, "Ð°ÐºÐ¾Ð²": 34119, "Ð°ÐºÑģ": 23289, "Ð°ÐºÑģÐ¸Ð¼": 28630, "Ð°ÐºÑĤÐµÑĢ": 38659, "à¦«à¦£": 20035, "Ð°Ð»": 1218, "Ð°Ð»Ð°": 6232, "à¦®à¦¨à¦¡": 19711, "à¦¤à¦ķà¦¨": 21134, "Ð°Ð»Ð¸": 4071, "Ð°Ð»Ð¸Ð·": 28105, "Ð°Ð»Ð¸ÑģÑĤ": 36948, "Ġà¦ªà¦¤à¦Ļ": 15020, "Ġà¦¹à¦ľà¦°à¦¤": 12441, "Ð°Ð»Ð¾Ð³": 49895, "Ġà¦¬à§ľà¦¶": 16122, "Ġà§¯à§¯à§¯": 13340, "Ð°Ð»Ñĭ": 49193, "Ð°Ð»ÑĮ": 3842, "Ð°Ð»ÑĮÐ½Ð°Ñı": 32016, "à¦Łà¦®": 10986, "Ð°Ð»ÑĮÐ½Ð¾Ð³Ð¾": 31227, "Ð°Ð»ÑĮÐ½Ð¾Ðµ": 33322, "Ð°Ð»ÑĮÐ½Ð¾Ð¹": 27749, "Ð°Ð»ÑĮÐ½Ð¾Ð¼": 49980, "Ð°Ð»ÑĮÐ½ÑĥÑİ": 48062, "Ð°Ð»ÑĮÐ½ÑĭÐµ": 25967, "Ð°Ð»ÑĮÐ½ÑĭÐ¹": 23393, "Ð°Ð»ÑĮÐ½ÑĭÐ¼": 45384, "Ð°Ð»ÑĮÐ½ÑĭÑħ": 30834, "Ð°Ð¼": 1685, "Ð°Ð¼Ð°": 27250, "Ð°Ð¼ÐµÐ½": 44873, "Ð°Ð¼Ð¸": 5150, "Ð°Ð½": 1416, "à¦£à¦ªà¦£": 15253, "Ġà§§à§¯à§¯à§¨": 12551, "Ð°Ð½Ðµ": 32456, "Ð°Ð½Ð¸": 3733, "Ð°Ð½Ð¸Ðµ": 9633, "Ð°Ð½Ð¸ÐµÐ¼": 32861, "Ð°Ð½Ð¸Ð·": 27068, "Ġà§§à§®à§Ńà§®": 16426, "Ð°Ð½Ð¸Ð¹": 28204, "Ð°Ð½Ð¸Ñĩ": 44819, "Ð°Ð½Ð¸Ñİ": 34537, "Ð°Ð½Ð¸Ñı": 8831, "Ð°Ð½Ð½ÑĭÐµ": 40194, "Ð°Ð½Ð½ÑĭÐ¹": 39058, "Ð°Ð½Ð½Ñı": 23521, "Ġà¦īà¦ĩà¦²à¦ķ": 19545, "Ġà¦Ĺà¦£à¦®": 11114, "à¦Ĺà¦£à¦¸": 15720, "à¦°à¦Ĩ": 15073, "Ð°Ð½ÑĤÐ¸": 47483, "Ġà¦ķà¦°à¦£à¦¦": 18368, "Ð°Ð½ÑĮ": 23340, "Ð°Ð½ÑĮÑĪÐµ": 35159, "Ð°Ð¿": 4219, "Ð°ÑĢ": 2222, "Ð°ÑĢÐ°": 29522, "Ð°ÑĢÐ´": 49009, "à¦¯à¦²à§Ł": 16370, "Ð°ÑĢÐ¸Ñī": 43028, "Ð°ÑĢÐ¾Ð²": 48708, "Ð°ÑĢÑĤ": 27419, "Ð°ÑĢÑĭ": 48632, "Ð°Ñģ": 2019, "à¦¤à¦¬à¦°à¦£": 18305, "Ġà¦¦à¦ĸà¦²à¦¦": 12886, "Ð°ÑģÑĤ": 9941, "Ð°ÑģÑĤÐ²": 47541, "Ð°ÑģÑĤÐ¸": 36245, "Ð°ÑģÑĤÑĮ": 31789, "Ġà¦ı": 10285, "Ð°ÑĤ": 2134, "à¦¨à¦Ĺà¦°à¦¬": 19808, "Ð°ÑĤÐµ": 49370, "Ð°ÑĤÐµÐ»ÐµÐ¹": 47573, "Ð°ÑĤÐµÐ»Ð¸": 43512, "Ġà¦ķ": 10272, "Ġà¦ıà¦ķà¦ľà¦¨à¦¸à¦¹": 20279, "Ð°ÑĤÐµÐ»Ñı": 41330, "Ð°ÑĤÐ¸": 9585, "Ð°ÑĤÐ¸Ð²": 30875, "Ð°ÑĤÐ¾": 38224, "Ð°ÑĤÐ¾Ð²": 48885, "Ð°ÑĤÑĥ": 29771, "Ð°ÑĤÑĭ": 32014, "Ð°ÑĤÑĮ": 2209, "Ð°ÑĤÑĮÑģÑı": 8525, "Ð°ÑĦ": 41232, "Ð°Ñħ": 7004, "Ð°ÑĨ": 32507, "Ð°ÑĨÐ¸": 8392, "Ġà¦ıà¦¸à¦ľ": 16715, "Ð°ÑĨÐ¸Ð¾Ð½": 44379, "Ð°ÑĨÐ¸Ñİ": 28254, "Ġà¦īà¦¨à¦¤": 21235, "Ð°Ñĩ": 8314, "Ð°ÑĩÐµ": 24923, "Ð°ÑĪ": 6835, "Ð°ÑĪÐ°": 34461, "Ð°Ñİ": 3776, "Ð°ÑİÑģÑĮ": 33963, "Ð°ÑİÑĤ": 6406, "Ġà¦¨à§Łà¦ĩ": 15955, "Ð°ÑİÑĤÑĮ": 40381, "Ġà¦°à¦£à¦¨": 18718, "Ð°Ñı": 4251, "Ð°ÑıÐ²": 36933, "à¦¹à¦ĭà¦£": 19408, "Ð±": 1552, "Ð±Ð°": 29788, "Ð±Ð¸": 34843, "Ġà¦¹à¦ķà¦ļà¦ķ": 18670, "Ð±Ñĥ": 33567, "Ð±Ñĭ": 25477, "Ð²": 859, "Ġà¦¯à¦¤à¦¸à¦¬": 20635, "Ð²Ð°Ð»": 39451, "Ð²Ð°Ð½": 45593, "à¦ħà¦²à¦°": 21291, "Ġà¦īà¦ĩà§Ł": 18928, "Ð²Ðµ": 41455, "Ð²ÐµÐ´": 32965, "Ġà¦ĩ": 10327, "Ð²ÐµÑĢÐ¶": 42421, "Ġà¦¶à¦¹": 10828, "Ð²Ð¸": 43726, "Ð²Ð¸Ð³": 49405, "Ð²Ð¸Ð´": 42172, "Ð²Ð¸Ð½": 36823, "à¦°à¦¥à¦®à¦¤": 12707, "Ġà¦Łà¦ªà¦¸": 17533, "Ð²Ð¾Ð¹": 37325, "à¦ıà¦ĩà¦ļà¦ıà¦²": 20143, "Ð²Ð¾Ð½": 39672, "à¦·à§Łà¦¬": 21087, "Ð³": 1906, "à¦¬à¦¹à¦Ń": 18706, "Ð³Ðµ": 47849, "à¦ĩà¦Ŀ": 15599, "Ð³Ð»Ð¸": 34220, "Ð³Ð»Ð¸Ð¹": 43249, "Ġà¦Ĺà¦ľà¦°": 18720, "Ð³Ð»ÑıÐ´": 22232, "Ð³Ð¾": 4567, "Ð³Ð¾Ð²": 27531, "Ð³Ð¾ÑĢ": 45628, "Ð³Ð¾ÑĤÐ¾Ð²": 25965, "Ð³ÑĢ": 7786, "Ð³Ñĥ": 28264, "Ð´": 856, "Ð´Ð°": 3444, "Ð´Ðµ": 6790, "Ð´ÐµÐ»": 7946, "Ð´ÐµÑĢÐ¶": 24304, "Ð´Ð¶": 29181, "à§©à§¯": 14016, "Ð´Ð¾": 36091, "Ð´Ñĥ": 9031, "Ð´Ñĭ": 33275, "Ðµ": 387, "ÐµÐ": 615, "ÐµÐ±": 3749, "ÐµÐ²": 3515, "ÐµÐ²Ð°": 35946, "ÐµÐ²Ð¸Ð´": 44278, "ÐµÐ²Ð¸Ñĩ": 42110, "ÐµÐ²Ð¾Ð¹": 42308, "ÐµÐ³": 4953, "Ġà§ªà§Ńà§¬": 17540, "ÐµÐ³Ð¾": 4353, "Ġà¦¨à§Łà¦ľà¦¨": 13709, "à¦ıà¦ĩà¦ļà¦¸": 14044, "ÐµÐ´": 2229, "ÐµÐ´Ð¸": 31960, "ÐµÐ´Ð¸Ð½": 30741, "à¦¯à¦®à¦¸à¦¹": 16878, "ÐµÐµ": 7752, "ÐµÐ¶": 6029, "ÐµÐ¶Ð´": 41979, "ÐµÐ¶Ð´Ðµ": 48013, "à¦Łà¦Ĺà¦®": 21207, "ÐµÐ·": 3634, "ÐµÐ·Ð´": 26510, "ÐµÐ·Ð´Ðµ": 46683, "ÐµÐ·Ð¶": 32682, "ÐµÐ¹": 2345, "Ġà§§à§¬à§§": 14377, "ÐµÐ¹ÑĩÐ°Ñģ": 8427, "ÐµÐº": 2872, "ÐµÐºÐ°": 36502, "Ġà¦ħà¦¨à¦¶à¦¨à¦°à¦¤": 18848, "ÐµÐºÐ¾ÑĤÐ¾ÑĢ": 23961, "ÐµÐºÑģ": 38269, "ÐµÐºÑģÑĤ": 34879, "ÐµÐºÑĤ": 9822, "ÐµÐºÑĤÐ¸Ð²": 31316, "ÐµÐºÑĤÐ¾ÑĢ": 39867, "ÐµÐ»": 1414, "à¦¹à¦¨à¦²": 19097, "ÐµÐ»Ðµ": 45230, "Ġà¦Ĩà¦¸à¦¨à¦ĩ": 19695, "Ġà¦Ŀà¦ķà¦®à¦ķ": 21180, "ÐµÐ»Ð¸": 8334, "ÐµÐ»Ð¸Ñĩ": 37712, "ÐµÐ»Ð¾": 24846, "ÐµÐ»Ð¾Ð²": 9294, "ÐµÐ»ÑĮ": 3908, "ÐµÐ»ÑĮÐ·Ñı": 31240, "ÐµÐ»Ñİ": 34791, "Ġà§¨à§©à§¬": 15292, "ÐµÐ¼": 1504, "ÐµÐ¼Ð¾Ð½": 35786, "ÐµÐ¼ÑģÑı": 40811, "ÐµÐ¼Ñĥ": 8339, "ÐµÐ½": 1008, "Ġà¦ķà¦°à¦¦": 13362, "ÐµÐ½Ð´": 23769, "ÐµÐ½ÐµÑĢ": 41758, "ÐµÐ½Ð¸": 2495, "ÐµÐ½Ð¸Ðµ": 5627, "Ġà¦Ĩà¦ĩà¦ıà¦¨à¦ıà¦ķ": 21297, "Ġà¦Ĩà¦¨à¦®à¦¨": 15573, "Ġà¦īà¦¡à¦¸": 17271, "ÐµÐ½Ð¸ÑĤÑĮ": 44436, "à§Łà¦°à¦¸à¦¹": 18830, "ÐµÐ½Ð¸Ñı": 5332, "ÐµÐ½ÐºÐ¾": 37794, "ÐµÐ½Ð½Ð°Ñı": 41994, "ÐµÐ½Ð½Ð¾": 6855, "ÐµÐ½Ð½Ð¾Ð³Ð¾": 44620, "ÐµÐ½Ð½Ð¾Ðµ": 48061, "ÐµÐ½Ð½Ð¾Ð¹": 36203, "ÐµÐ½Ð½ÑĭÐµ": 29643, "ÐµÐ½Ð½ÑĭÐ¹": 28488, "ÐµÐ½Ð½ÑĭÐ¼": 50106, "ÐµÐ½Ð½ÑĭÑħ": 32236, "ÐµÐ½Ð½Ñı": 25568, "ÐµÐ½Ð¾": 23512, "ÐµÐ½Ñģ": 35964, "ÐµÐ½ÑĤ": 5243, "ÐµÐ½ÑĤÐ°": 31985, "ÐµÐ½ÑĤÐ¸": 50091, "ÐµÐ½ÑĤÐ¾Ð²": 31028, "ÐµÐ½ÑĤÑĭ": 30762, "Ġà¦¬à¦ĩà¦ª": 16148, "ÐµÐ½ÑĮ": 3888, "ÐµÐ½Ñı": 30710, "ÐµÐ¿": 5018, "à¦ıà¦¸à¦ıà¦¸": 12429, "ÐµÑĢ": 1135, "Ġà¦ĩà¦ĩà¦ī": 13126, "ÐµÑĢÐ±": 41934, "ÐµÑĢÐ²": 36441, "Ġà§¯à§ªà§©": 19480, "ÐµÑĢÐµ": 23498, "à¦¬à¦®": 11306, "à¦¬à¦ķà¦ĵ": 18019, "ÐµÑĢÐ¼": 49483, "à¦ıà¦¸à¦ıà¦®à¦ıà¦¸": 21146, "ÐµÑĢÐ¾Ð²": 33985, "ÐµÑĢÐ¾Ð¼": 33370, "à§İà¦¸à¦ĩ": 21768, "ÐµÑĢÑĤÐ²": 46023, "ÐµÑĢÑĥ": 29894, "ÐµÑĢÑħ": 26937, "Ġà¦Ķà¦°à¦¸": 19465, "ÐµÑĢÑĭ": 24626, "ÐµÑĢÑĮ": 9352, "ÐµÑģ": 2292, "Ġà¦¤à¦ķà¦¦": 21186, "à¦Ĺà¦®à¦ķ": 13254, "ÐµÑģÑĤ": 5740, "ÐµÑģÑĤÐµ": 24076, "à¦¦à¦¤à¦ķ": 19154, "ÐµÑģÑĤÐ½Ð¾": 28779, "Ġà§ªà§®à§©": 17561, "ÐµÑģÑĤÑĮ": 30704, "ÐµÑģÑĮ": 5647, "Ġà¦¶à§Łà¦¨à¦ķà¦ķ": 17615, "ÐµÑĤ": 1094, "à¦ıà¦²à¦ıà¦¸": 20513, "Ġà§Ń": 10524, "ÐµÑĤÐ¸": 42378, "ÐµÑĤÑĢ": 42850, "ÐµÑĤÑĢÐ¾Ð²": 35852, "ÐµÑĤÑģÑı": 7299, "ÐµÑĤÑĥ": 48007, "Ġà¦²à¦Łà¦ķà¦¨": 18810, "ÐµÑĤÑĮ": 9108, "ÐµÑĦ": 23854, "ÐµÑħ": 8008, "à¦°à¦ķà¦®": 10935, "ÐµÑĨÐ¸": 23931, "ÐµÑĩ": 4310, "ÐµÑĩÐ°ÑĤ": 35534, "ÐµÑĩÐµÐ½Ð¸Ðµ": 44274, "Ġà¦°à¦¨": 11693, "ÐµÑĩÑĮ": 36111, "ÐµÑĪ": 4433, "ÐµÑĪÐµ": 42169, "ÐµÑĪÑĮ": 7815, "Ġà¦ħà¦¬à¦²": 12932, "ÐµÑİÑģÑĮ": 39007, "Ð¶": 1820, "Ð¶Ðµ": 4757, "Ð·": 1544, "Ġà§¯à§®à§«": 18598, "Ð·Ð´": 36871, "Ð·Ñĭ": 23787, "Ð·Ñı": 29471, "Ð¸": 435, "Ð¸Ð±": 9772, "à¦īà¦¨à¦Ĺ": 17597, "Ð¸Ð²": 2739, "Ð¸Ð²Ð°ÐµÐ¼": 33395, "Ð¸Ð²Ð°ÐµÑĤ": 25337, "Ð¸Ð²Ð°ÐµÑĤÑģÑı": 39864, "Ð¸Ð²Ð°Ð»": 47586, "Ġà¦¶à¦¶à¦§à¦°": 20566, "Ð¸Ð²Ð°ÑİÑĤ": 36603, "Ð¸Ð²ÐµÑĤ": 31259, "Ġà¦¸à¦¦": 11294, "Ð¸Ð³ÑĢ": 35600, "Ð¸Ð´": 3586, "Ð¸Ðµ": 5299, "Ð¸ÐµÐ¹": 48580, "Ġà¦¬à¦Ľà¦°à¦¬": 15270, "Ð¸Ð¶Ñĥ": 36986, "Ð¸Ð·": 5572, "Ð¸Ð·Ð½ÐµÑģ": 43635, "Ð¸Ð¸": 7347, "Ð¸Ð¹": 6251, "Ð¸Ðº": 3605, "Ġà§Ńà§Ńà§¦": 17286, "Ð¸ÐºÐµ": 34154, "Ġà¦¹à¦²à¦Ł": 15562, "Ð¸ÐºÐ¾Ð²": 31041, "Ð¸ÐºÐ¾Ð¼": 48740, "Ð¸ÐºÑģ": 36326, "Ð¸ÐºÑĥ": 35353, "Ð¸Ð»": 2338, "à¦°à¦Ń": 10578, "Ġà¦Ĩà¦ĩà¦ıà¦¸à¦Ĩà¦ĩà§Ł": 19522, "Ð¸Ð»Ð¸": 5435, "à¦ķà¦²à¦¨à¦Ł": 19285, "Ð¸Ð»Ð»Ð¸": 22578, "Ð¸Ð»Ð¾": 22201, "Ġà§ªà§©à§ª": 16773, "Ġà¦¤à¦Ľà¦¨à¦Ľ": 14260, "Ð¸Ð»ÑĮ": 7094, "à§§à§§à§¨à§¦": 18693, "Ð¸Ð»Ñı": 50211, "Ð¸Ð¼": 2165, "Ġà¦ħà¦ªà¦°à¦¦": 12170, "Ġà¦®à¦¶": 11426, "à¦¹à¦¯à¦°à¦¤": 14365, "Ð¸Ð¼Ð¾ÑģÑĤÐ¸": 48417, "Ð¸Ð¼Ð¾ÑģÑĤÑĮ": 49514, "Ð¸Ð¼ÑģÑı": 32455, "Ð¸Ð½": 2599, "Ð¸Ð½Ð°": 7861, "Ð¸Ð½Ð³": 33177, "Ġà¦°à¦Ĺà§ľ": 20998, "à¦¸à¦¬à¦°": 20303, "Ð¸Ð½ÐºÐ¸": 47667, "Ð¸Ð½Ð¾": 31486, "Ð¸Ð½Ð¾Ð²": 27499, "Ð¸Ð½Ð¾Ð¹": 30933, "à¦°à¦ĩà¦¨": 15387, "Ġà¦ĺà¦¸": 18835, "Ð¸Ð¾Ð½": 26875, "à¦ıà¦¨à¦ıà¦¸": 13306, "Ð¸ÑĢ": 4490, "Ð¸ÑĢÐ°": 22204, "Ð¸ÑĢÐ¾Ð²": 10214, "Ð¸ÑĢÐ¾Ð²Ð°Ð½": 48317, "Ð¸ÑĢÐ¾Ð²Ð°ÑĤÑĮ": 26411, "à¦¨à¦¦à¦°": 20517, "Ð¸Ñģ": 3323, "Ð¸ÑģÐ°": 50019, "Ð¸ÑģÐ»": 47105, "Ð¸ÑģÑģ": 31632, "Ð¸ÑģÑĤ": 9330, "à¦ªà¦°": 10363, "Ð¸ÑĤ": 1635, "Ð¸ÑĤÐ°": 30816, "Ð¸ÑĤÐ°Ð¹": 46996, "Ð¸ÑĤÐ°Ð½": 48809, "Ð¸ÑĤÐµ": 5878, "Ð¸ÑĤÐµÐ»": 40334, "Ð¸ÑĤÐµÐ»ÐµÐ¹": 29952, "Ð¸ÑĤÐµÐ»Ð¸": 29084, "Ð¸ÑĤÐµÐ»ÑĮ": 7809, "Ġà¦ĸà§ľà¦ķ": 15884, "Ð¸ÑĤÐµÐ»Ñı": 36491, "Ð¸ÑĤÐµÑģÑĮ": 35334, "Ġà§«à§ªà§Ń": 18686, "Ð¸ÑĤÑģÑı": 8254, "Ġà¦ıà¦¬à¦¨": 21239, "Ð¸ÑĤÑĭ": 43608, "Ð¸ÑĤÑĮ": 3258, "Ġà¦®à¦«": 12306, "Ð¸ÑĦ": 30307, "Ð¸Ñħ": 4165, "Ð¸ÑħÐ¾Ð´": 23947, "Ð¸ÑĨ": 27403, "Ð¸ÑĨÐ¸": 30321, "Ð¸Ñĩ": 3903, "Ð¸ÑĩÐµ": 23468, "à¦ľà¦ľ": 14636, "Ð¸ÑĩÐµÑģ": 9347, "Ð¸ÑĩÐµÑģÐºÐ°Ñı": 49221, "Ð¸ÑĩÐµÑģÐºÐ¸": 38187, "Ð¸ÑĩÐµÑģÐºÐ¸Ðµ": 38578, "Ð¸ÑĩÐµÑģÐºÐ¸Ð¹": 36811, "Ð¸ÑĩÐµÑģÐºÐ¸Ñħ": 38911, "Ð¸ÑĩÐµÑģÐºÐ¾Ð³Ð¾": 47988, "Ð¸ÑĩÐµÑģÐºÐ¾Ð¹": 38349, "Ð¸ÑĩÐ½Ð¾": 40680, "Ð¸ÑĪ": 9919, "Ġà§§à§®à§«à§¬": 17860, "Ð¸Ñī": 22280, "Ġà§¬à§®à§§": 17023, "Ð¸Ñı": 7409, "Ð¸ÑıÑħ": 32176, "Ð¹": 1644, "Ðº": 755, "ÐºÐ°": 2833, "ÐºÐ°Ð¼": 38708, "ÐºÐ°Ð¼Ð¸": 22379, "Ġà¦°à¦¤à¦¨à¦ķ": 18366, "à¦ħà¦¦": 14801, "ÐºÐ²": 27828, "ÐºÐµ": 8222, "ÐºÐ¸": 2241, "ÐºÐ¸Ð²": 48338, "Ġà¦®à¦¤à¦ĩ": 12338, "ÐºÐ¸Ð¹": 8583, "ÐºÐ¸Ð¼": 30884, "ÐºÐ¸Ð¼Ð¸": 44130, "à§İà¦ªà¦°à¦¤": 11855, "ÐºÐ»Ð°Ð´": 41634, "à¦ªà¦Łà¦Ł": 20299, "ÐºÐ¾": 3752, "ÐºÐ¾Ð²": 7718, "à¦¦à¦ļà¦¶à¦®": 21113, "ÐºÐ¾Ðµ": 22128, "à¦Ĺà¦¤à¦ķ": 11565, "ÐºÐ¾Ð»": 24899, "ÐºÐ¾Ð»ÑĮ": 35724, "ÐºÐ¾Ð»ÑĮÐºÑĥ": 43010, "Ġà§¨à§§à§§": 14937, "ÐºÐ¾Ð½": 33687, "ÐºÐ¾ÑĹ": 48939, "ÐºÑĢ": 22274, "Ġà¦®à¦Ĺà¦§": 17364, "ÐºÑĢÐ°ÑĹ": 25433, "ÐºÑĢÐµÑĤ": 48503, "ÐºÑĤ": 42964, "ÐºÑĥ": 4401, "ÐºÑĥÑģ": 24306, "ÐºÑĥÑİ": 35119, "ÐºÑĸ": 43649, "Ð»": 693, "Ð»Ð°": 4989, "Ð»Ð°Ð²": 22810, "Ð»Ð°Ð³": 25464, "Ġà¦¸à¦¬": 10396, "Ð»Ð°Ð¼": 35768, "Ð»Ð°Ð½": 41915, "Ð»Ð°ÑĢ": 23988, "Ð»Ð°Ñģ": 23511, "Ð»Ð°ÑģÑĤ": 32465, "Ð»Ð°ÑģÑĤÐ¸": 33513, "Ð»Ð°ÑĤ": 25834, "Ð»Ðµ": 7635, "Ð»ÐµÐ³": 36446, "à¦ĵà¦°": 11112, "Ð»ÐµÐ¹": 24698, "à¦²à¦ĸà¦¨": 16170, "Ð»ÐµÐºÑģ": 24065, "à¦ķà¦ħ": 21579, "à¦ĩà¦Ńà¦¸": 14885, "Ġà¦Ĩà¦ĩà¦¨à¦¶": 11586, "Ð»ÐµÐ½Ð°": 44402, "à¦ļà¦¨à¦ĩ": 17943, "à¦Łà¦¨à¦Ł": 17881, "Ð»ÐµÑĢ": 45629, "Ð»ÐµÑĤ": 24997, "Ð»Ð¸": 1675, "Ġà¦¬à¦²à¦ª": 15054, "Ð»Ð¸Ð²Ð¾": 36719, "Ð»Ð¸Ð·": 41610, "Ð»Ð¸Ð½": 25958, "Ð»Ð¸ÑģÑĮ": 31524, "Ġà¦ļà¦°à¦ª": 15362, "Ð»Ð¸ÑĩÐ½Ð¾": 40955, "Ð»Ð¸ÑĪ": 35893, "Ð»Ð¸ÑĪÐºÐ¾Ð¼": 38638, "Ð»Ð¾": 4610, "à§Łà¦¤à¦¸à¦®": 21650, "Ð»Ð¾Ð¶": 24522, "Ð»Ð¾Ð¼": 28209, "Ð»Ð¾Ð½": 31058, "Ð»Ð¾ÑģÑĮ": 37233, "Ð»Ð¾Ñħ": 45104, "Ð»Ñĥ": 39852, "Ð»ÑĥÑĩ": 41497, "Ð»ÑĥÑĪ": 25372, "Ð»ÑĥÑĪÐ°Ð¹": 43689, "Ð»Ñĭ": 30975, "Ð»ÑĮ": 6762, "Ð»Ñİ": 6578, "Ð»ÑİÐ´": 31179, "Ð»ÑİÑģ": 36467, "à¦¬à¦¨à¦¯": 11833, "Ð»Ñı": 2873, "Ġà¦Ĩà¦¯à¦®à¦ķ": 21336, "Ð»ÑıÑĤÑĮ": 38955, "Ð»ÑıÑİÑĤÑģÑı": 47310, "Ð¼": 919, "Ġà¦¨à¦«à¦²": 14229, "Ð¼Ð°Ð½": 35968, "Ð¼Ð°ÑĤ": 34476, "Ð¼Ðµ": 30522, "Ġà¦Łà¦¹à¦²à¦°à¦¤": 17859, "Ġà¦«à¦¸à¦²à¦¹": 20213, "à¦¦à¦¹": 12676, "Ð¼ÐµÑĢÐ¸Ðº": 27502, "Ð¼ÐµÑĤ": 23218, "Ð¼Ð¸": 6293, "Ġà¦®à¦°à¦£à¦«": 20455, "Ð¼Ð¾Ð²": 43632, "Ð¼Ð¾Ñģ": 40807, "à¦Ĩà¦°à¦ĵ": 11128, "Ð¼Ð¾ÑĤÑĢÐ¸": 44443, "Ð¼Ð¾ÑĤÑĢÐ¸ÑĤÐµ": 36469, "Ð¼Ð¾ÑĤÑĢÑı": 45753, "Ġà¦ĵà¦·": 11147, "Ð¼Ñĭ": 25592, "Ð½": 489, "Ð½Ð°": 1931, "à¦°à¦¤à¦ļà¦¨": 20623, "Ð½Ð°ÐºÐ¾": 32088, "Ð½Ð°ÐºÐ¾Ð¼": 45051, "Ð½Ð°Ð»": 35168, "Ð½Ð°Ð»Ð¸": 47704, "Ð½Ð°ÑĢÑĥÐ¶": 42286, "à¦ĩà¦¨à¦°": 14272, "Ð½Ð°ÑĩÐ°Ð»Ð°": 33755, "Ð½Ð°Ñı": 6323, "Ð½Ð´": 43485, "Ð½Ðµ": 4677, "Ð½ÐµÐ²": 31725, "Ð½ÐµÐ³Ð¾": 33727, "à¦¸à¦Łà¦¨": 15627, "Ġà¦°à¦ľà¦¤": 14418, "Ð½ÐµÐ¼": 23977, "Ð½ÐµÐ½Ð¸Ñı": 47819, "Ð½ÐµÑģ": 28302, "Ð½ÐµÑĤ": 27021, "Ð½Ð¸": 1903, "Ð½Ð¸Ð±": 23302, "Ð½Ð¸Ð±ÑĥÐ´ÑĮ": 23561, "Ð½Ð¸Ðµ": 30923, "Ð½Ð¸Ð·": 29951, "à¦®à¦¤à¦Ń": 15199, "Ð½Ð¸Ðº": 9715, "Ġà¦ĩà¦°à¦®": 19411, "Ġà§ªà§Ńà§¯": 18994, "Ð½Ð¸ÐºÐ¾Ð²": 22122, "Ð½Ð¸ÐºÐ¾Ð¼": 43882, "Ð½Ð¸Ð¼": 8444, "Ð½Ð¸ÑĤ": 47264, "Ð½Ð¸ÑĤÐµ": 38066, "Ð½Ð¸ÑĤÑĮ": 31087, "à¦Łà§Łà¦²": 21070, "Ð½Ð¸ÑĨ": 36787, "Ð½Ð¸ÑĨÐ°": 37267, "Ð½Ð¸ÑĨÑĥ": 49343, "Ð½Ð¸ÑĨÑĭ": 48902, "Ð½Ð¸Ñĩ": 27996, "Ð½Ð¾": 1234, "Ð½Ð¾Ð²": 8766, "Ð½Ð¾Ð²Ð°": 30742, "Ð½Ð¾Ð³": 50237, "Ð½Ð¾Ð³Ð¾": 4699, "Ð½Ð¾Ðµ": 6126, "Ð½Ð¾Ð¶": 27143, "Ð½Ð¾Ð·": 46773, "Ð½Ð¾Ð¹": 5007, "Ð½Ð¾Ðº": 48717, "Ð½Ð¾Ð»Ð¾Ð³": 38925, "Ð½Ð¾Ð¼": 9950, "à¦¥à¦®à¦ķ": 20109, "Ð½Ð¾Ð¿": 35026, "Ð½Ð¾Ñģ": 32472, "Ð½Ð¾ÑģÑĤ": 34383, "à¦¨à¦¶à¦Ł": 13975, "Ð½Ð¾ÑģÑĤÑĮ": 9930, "Ð½Ð¾ÑģÑĤÑĮÑİ": 24517, "Ð½Ñĥ": 7537, "Ð½ÑĥÐ»": 26198, "Ð½ÑĥÑĤ": 35643, "Ð½ÑĥÑĤÑĮ": 23431, "Ð½ÑĥÑĤÑĮÑģÑı": 49826, "Ð½ÑĥÑİ": 9882, "Ð½Ñĭ": 1834, "Ð½ÑĭÐµ": 4970, "Ð½ÑĭÐ¹": 4441, "Ð½ÑĭÐ¼": 8412, "Ġà¦¤à¦®à¦²": 15076, "Ð½ÑĭÑħ": 5783, "à¦°à¦¤à¦Ń": 18399, "Ġà¦®à§Łà¦¶": 18672, "Ð½Ñı": 5151, "Ð½ÑıÑĤÑĮ": 35824, "Ð½ÑıÑı": 41884, "Ġà¦¨à¦¬": 10793, "Ð¾": 354, "Ð¾Ð": 464, "Ð¾Ð±": 2061, "Ð¾Ð±Ð¾Ð´": 32218, "Ġà§§à§«à§¬": 13829, "Ð¾Ð±ÑĢÐ°Ð¶": 37176, "Ð¾Ð±ÑĢÐ°Ð·": 38613, "Ð¾Ð±Ñī": 32977, "à¦ĩà¦¨à¦®": 12605, "Ð¾Ð±Ñĭ": 6379, "Ð¾Ð±ÑĭÑĤÐ¸": 41527, "Ð¾Ð²": 1055, "Ġà¦ĵà¦¤": 13978, "Ð¾Ð²Ð°Ð»": 31731, "Ð¾Ð²Ð°Ð»Ð¸": 37651, "Ð¾Ð²Ð°Ð½": 44967, "Ð¾Ð²Ð°Ð½Ð¸Ðµ": 36136, "Ð¾Ð²Ð°Ð½Ð¸Ñı": 30821, "à¦·à¦£à¦ĩ": 14069, "Ð¾Ð²Ð¾Ð¹": 29825, "Ð¾Ð²Ð¾ÑĢ": 6362, "Ð¾Ð²ÑĭÐµ": 44238, "Ð¾Ð²ÑĭÑħ": 49204, "Ð¾Ð³": 2353, "Ð¾Ð³Ð´Ð°": 5590, "Ð¾Ð³Ð¾": 2350, "Ð¾Ð³Ð¾Ð´": 46928, "Ð¾Ð³ÑĢÐ°ÑĦ": 29046, "Ð¾Ð´": 1435, "Ð¾Ð´Ð°": 22758, "Ð¾Ð´Ð°ÑĢ": 28221, "Ð¾Ð´Ðµ": 44156, "Ð¾Ð´Ð½Ð¾": 44356, "Ð¾Ð´Ñĥ": 35749, "Ð¾Ð´Ñĭ": 40445, "Ð¾Ðµ": 5805, "Ð¾Ð¶": 2161, "Ġà¦Łà¦ķà¦¦": 18327, "Ð¾Ð¶Ð°Ð»ÑĥÐ¹": 24752, "Ð¾Ð¶Ð°Ð»ÑĥÐ¹ÑģÑĤÐ°": 27315, "à¦īà¦ĩà¦¸": 20037, "Ð¾Ð¶Ð´ÐµÐ½Ð¸Ñı": 46945, "Ð¾Ð¶Ðµ": 9292, "Ð¾Ð¶ÐµÑĤ": 22180, "à¦ıà¦¨à¦ı": 12311, "Ð¾Ð¶Ñĥ": 45621, "Ð¾Ð·": 3434, "Ð¾Ð·Ð´": 46004, "Ð¾Ð·Ð¸": 50226, "Ð¾Ð·Ð¼": 29977, "Ð¾Ð·Ð¼Ð¾Ð¶Ð½Ð¾": 33968, "Ð¾Ð·Ñı": 43734, "Ð¾Ð¹": 1700, "à¦ļà¦ĸ": 19955, "Ð¾Ð¹ÑĤÐ¸": 44213, "Ð¾Ðº": 2637, "à¦¦à¦°à¦¨": 20296, "Ð¾ÐºÐ¸": 48110, "Ð¾ÐºÐ¾": 32622, "Ð¾ÐºÐ¾Ð¹": 29667, "Ð¾Ð»": 1227, "Ð¾Ð»Ð°": 44342, "Ð¾Ð»ÐµÑĤ": 37083, "à§§à§¨à§©": 21403, "à¦Ŀà¦¨à¦¦": 20470, "Ð¾Ð»Ð¾": 33087, "Ð¾Ð»Ð¾Ð²": 34293, "à¦ıà¦ĩà¦ļà¦ĩà¦ī": 18347, "à¦¨à¦ķà¦¶": 16574, "Ð¾Ð»Ð¾ÑĤ": 49652, "Ð¾Ð»ÑĮ": 2765, "Ġà¦ļà¦®à§İà¦ķ": 11692, "Ð¾Ð»ÑĮÐºÐ¾": 5737, "Ð¾Ð»ÑĮÐ½Ð¾": 26454, "Ð¾Ð»ÑĮÑĪ": 24110, "Ð¾Ð»ÑĮÑĪÐµ": 48272, "Ð¾Ð»Ñı": 41332, "Ð¾Ð¼": 1253, "Ð¾Ð¼Ðµ": 45540, "Ð¾Ð¼Ð¸Ð½Ð°": 40983, "Ð¾Ð¼Ñĥ": 4161, "Ð¾Ð½": 1784, "Ġà§§à§¯à§¦à§«": 14411, "Ð¾Ð½Ð´": 47720, "Ð¾Ð½Ðµ": 25561, "Ð¾Ð½ÐµÑĨ": 38944, "Ġà¦Ĩà¦ĩà¦ĩà¦īà¦Ł": 21869, "Ð¾Ð½Ð¾Ð²": 28137, "Ð¾Ð½Ð¾Ð¼": 22563, "Ð¾Ð½Ñĩ": 48446, "Ð¾Ð½Ñĭ": 34829, "Ð¾Ð½ÑĮ": 48325, "Ð¾Ð¿": 3762, "Ð¾Ð¿Ð°Ñģ": 41196, "Ġà¦ĩà¦īà¦ıà¦ĩ": 16307, "Ð¾ÑĢ": 1717, "Ð¾ÑĢÐ°": 22889, "Ð¾ÑĢÐ´": 41412, "Ð¾ÑĢÐµ": 38939, "Ð¾ÑĢÐ¼": 9167, "à¦¨à¦¬à¦Ĺ": 19716, "Ð¾ÑĢÐ¾Ð½": 48040, "Ð¾ÑĢÐ¾ÑĤ": 37040, "Ð¾ÑĢÐ¾ÑĪ": 9247, "Ð¾ÑĢÐ¾ÑĪÐ¾": 29931, "Ġà¦ıà¦¸à¦ĩà¦¸": 20040, "Ð¾ÑĢÑĭ": 42342, "Ð¾Ñģ": 1885, "à¦°à¦®à¦£à¦¸": 21393, "à¦¯à¦¬à¦¸à¦¹": 15770, "à¦ªà¦¦à¦Ł": 16543, "Ð¾ÑģÑĤÐ¸": 28969, "Ð¾ÑģÑĤÐ¾": 6378, "Ð¾ÑģÑĤÑĮ": 25437, "Ð¾ÑģÑĮ": 8049, "Ð¾ÑĤ": 1631, "Ð¾ÑĤÐ°": 26808, "Ð¾ÑĤÐ²ÐµÑĤ": 31751, "Ð¾ÑĤÐ¸Ð²": 37324, "Ð¾ÑĤÐ¾": 44241, "Ð¾ÑĤÑĢ": 7954, "Ð¾ÑĤÑĢÐ¸": 30936, "Ð¾ÑĤÑĥ": 44570, "Ð¾ÑĤÑĭ": 41399, "Ð¾ÑĤÑĮ": 32040, "Ð¾ÑĦ": 48645, "à¦·à¦£à¦°à¦¤": 20976, "Ð¾Ñĩ": 4492, "Ð¾ÑĩÐµ": 39649, "Ð¾ÑĩÐµÐ¼Ñĥ": 28807, "Ð¾ÑĩÐºÐ°": 29576, "Ð¾ÑĩÐºÐ¸": 32775, "Ð¾ÑĩÐºÑĥ": 39116, "Ð¾ÑĩÐ½Ð¾": 47083, "Ð¾ÑĩÑĮ": 27497, "Ð¾ÑĪ": 6824, "Ġà¦ªà¦¦à¦¨": 19937, "Ð¾Ñİ": 30815, "Ð¾ÑĹ": 49065, "Ð¿": 1354, "Ð¿Ð°": 40024, "Ð¿Ð°ÑĢ": 44934, "à¦¸à¦¦à¦¦": 14566, "Ð¿ÐµÑĢÐ²": 44488, "Ð¿ÐµÑĢÐ²ÑĭÑħ": 48395, "Ġà¦¦à¦¹à¦Ĺ": 19730, "Ð¿Ð¾Ð²": 35723, "Ð¿Ð¾Ð´": 40245, "Ġà¦ĩà¦īà¦ıà¦¨à¦ĵà¦°": 14539, "Ð¿Ð¾Ð»Ð½Ðµ": 43968, "Ð¿Ð¾Ð»Ð¾Ð¶": 37251, "Ð¿Ð¾Ð½": 44986, "Ð¿ÑĢ": 39263, "Ð¿ÑĢÐ¸": 48462, "ÐĲ": 5594, "Ġà¦®à§ľà¦ķ": 18172, "ÐĴ": 8578, "ÐĴÐ¾ÑĤ": 42262, "ÐĴÐŀ": 40311, "ÐĴÑĭ": 42392, "Ġà¦®à¦¤à¦¦": 20784, "ÐĶ": 8442, "à¦¦à¦ļ": 15839, "Ðķ": 10156, "ÐķÐ¢": 47865, "ÐķÐĿ": 41682, "Ðĸ": 28308, "Ġà¦¸à¦®à¦¤à¦²": 12694, "ÐĹÐ«": 24582, "ÐĹÐ«ÐļÐĲ": 24974, "ÐĹÐ´": 43310, "Ġà¦ª": 10276, "ÐĻ": 37123, "Ðļ": 8169, "ÐļÐ°Ðº": 35065, "Ġà§¦à§«à§¦": 20869, "Ġà¦īà¦¥": 14854, "à¦¸à¦ķ": 10626, "ÐľÑĭ": 49064, "ÐĿ": 6371, "ÐĿÐµ": 32297, "ÐĿÐµÑĤ": 37473, "ÐĿÐĲ": 23413, "ÐĿÐĲÐ¯": 28729, "Ġà¦ļà¦°à¦ľ": 20058, "Ðŀ": 7876, "ÐŁ": 9223, "ÐŁÑĢ": 43971, "à¦Łà¦¸à¦®": 11179, "ÐłÐķ": 42447, "ÐłÐĺ": 45683, "ÐŃ": 22757, "ÐŃÑĤÐ¾": 29355, "Ñ": 141, "ÑĢ": 481, "ÑĢÐ°": 3580, "ÑĢÐ°Ð±Ð¾ÑĤ": 40410, "ÑĢÐ°Ð²": 5608, "ÑĢÐ°Ð²Ð»Ñı": 26086, "ÑĢÐ°Ð²ÑģÑĤÐ²": 33186, "ÑĢÐ°Ð²ÑģÑĤÐ²ÑĥÐ¹ÑĤÐµ": 36359, "ÑĢÐ°Ð¶": 24270, "ÑĢÐ°Ð·": 8421, "à¦¬à¦ľà¦¨à¦¹": 19365, "ÑĢÐ°Ð»": 45463, "à¦ıà¦¨à¦ıà¦²": 15837, "ÑĢÐ°Ð½": 8575, "à¦¹à¦°à¦¤": 17184, "ÑĢÐ°ÑģÑĤ": 46300, "à¦¦à§Ł": 11157, "ÑĢÐ°ÑĤÑĮ": 30260, "Ġà§®à§¨à§§": 19092, "ÑĢÐ°Ñħ": 25689, "ÑĢÐ°Ñĩ": 29983, "à¦Ĺà¦°à¦¸": 21635, "à¦¸à¦ķà¦¦à¦²à¦ķ": 18747, "à¦°à¦¹à¦£à¦¸à¦¹": 17066, "ÑĢÐµÐ²": 25510, "à§ĭ": 10278, "ÑĢÐµÐ·": 27675, "ÑĢÐµÐ¹": 42578, "ÑĢÐµÐ¼": 7049, "ÑĢÐµÐ½": 29428, "ÑĢÐµÑĤ": 31242, "ÑĢÐ¸": 4679, "ÑĢÐ¸Ð³": 41187, "ÑĢÐ¸Ð·": 40250, "ÑĢÐ¸Ð¹": 50161, "ÑĢÐ¸Ð¼": 42200, "ÑĢÐ¸Ð¿": 50125, "ÑĢÐ¸ÑģÑĤ": 39085, "ÑĢÐ¾": 9938, "Ġà§¨à§¦à§¨à§¬": 17129, "ÑĢÐ¾Ð²": 6680, "ÑĢÐ¾Ð´": 10004, "ÑĢÐ¾Ð´Ðµ": 35381, "ÑĢÐ¾Ðº": 32948, "Ġà¦°à¦ĸ": 21503, "ÑĢÐ¾Ð½": 23753, "ÑĢÐ¾Ð¿": 26090, "ÑĢÐ¾Ñģ": 9225, "ÑĢÐ¾ÑģÑĤ": 46155, "ÑĢÑĥ": 2711, "ÑĢÑĥÐ³": 6621, "ÑĢÑĥÐ³Ð¾": 48573, "Ġà¦¸à¦¦à¦Ĺ": 20736, "Ġà§¨à§ªà§§": 15449, "Ġà§¯à§¯à§¦": 15072, "Ġà¦¸à¦®à¦®à¦°": 17451, "ÑĢÑĥÑĤ": 47220, "ÑĢÑĥÑĪ": 28841, "à¦ªà¦ķ": 10461, "Ġà¦Ĩà¦¨à¦ª": 17702, "ÑĢÑĮ": 28659, "ÑĢÑı": 22533, "ÑĢÑıÐ´": 44447, "Ñģ": 461, "ÑģÐ°": 22568, "ÑģÐµ": 28340, "ÑģÐµÐ¼": 24879, "ÑģÐº": 4218, "ÑģÐºÐ°Ñı": 28794, "ÑģÐºÐ¸": 47399, "ÑģÐºÐ¸Ðµ": 25254, "Ġà¦¬à¦²à¦¬à¦¨": 17146, "ÑģÐºÐ¸Ð¼": 43743, "ÑģÐºÐ¸Ñħ": 25698, "Ġà§¬à§Ńà§Ń": 19398, "ÑģÐºÐ¾Ðµ": 47266, "à¦¬à¦²à¦¹": 17360, "à¦ļà¦ķà¦¬": 18471, "ÑģÐºÐ¾Ð¼": 29166, "ÑģÐºÑĥÑİ": 43159, "Ġà¦ĩà¦¹à¦¸": 14393, "ÑģÐ»ÐµÐ´": 35637, "ÑģÐ»Ð¸": 5734, "ÑģÐ¾Ð»": 27335, "ÑģÐ¾Ð»ÑİÑĤ": 29419, "ÑģÐ¾Ð½": 25932, "ÑģÐ¿": 6461, "ÑģÑĤ": 982, "à¦ıà¦¨à¦¬": 11459, "ÑģÑĤÐ°Ð²": 6938, "à¦°à¦ľà¦¨à¦ĩ": 17560, "ÑģÑĤÐ°Ð½Ð¾Ð²": 39834, "ÑģÑĤÐ°ÑĤÐ¸": 23173, "ÑģÑĤÐ°ÑĤÐ¾ÑĩÐ½Ð¾": 25273, "ÑģÑĤÐ²": 2981, "Ġà¦ıà¦¨à¦¸": 12115, "ÑģÑĤÐ²Ðµ": 24966, "Ġà¦Ĩà¦¹à¦¤à¦¦": 12134, "Ġà¦ıà¦°à¦°": 17125, "ÑģÑĤÐ²ÐµÐ½Ð½ÑĭÐ¹": 39343, "ÑģÑĤÐ²Ð¸Ðµ": 38185, "ÑģÑĤÐ²Ð¾": 9631, "ÑģÑĤÐ²Ð¾Ð¼": 38450, "ÑģÑĤÐ²Ñĥ": 42104, "ÑģÑĤÐµ": 27492, "ÑģÑĤÐ¸": 4756, "ÑģÑĤÑĢ": 5530, "ÑģÑĤÑĢÐ°": 40871, "ÑģÑĤÑĢÐ°Ð½": 28484, "Ġà¦ľà¦¨à¦ķà¦²": 14086, "ÑģÑĤÑĢÐ¾Ð¹": 26467, "ÑģÑĤÑĢÑĥ": 23462, "ÑģÑĤÑĢÑĥÐº": 36526, "ÑģÑĤÑĢÑĥÐ¼ÐµÐ½ÑĤ": 42412, "Ġà¦«à§ľ": 14474, "ÑģÑĤÑĮ": 3167, "ÑģÑĥÐ´": 36460, "ÑģÑĥÐ´Ð°ÑĢ": 42384, "ÑģÑĭ": 48271, "ÑģÑĭÐ»": 35762, "ÑģÑĮ": 6131, "ÑģÑı": 1679, "ÑģÑıÑĤ": 41020, "Ġà¦ľà¦łà¦°": 21719, "ÑĤ": 403, "à¦Ĺà¦¨": 10788, "à¦¨à¦¬à¦ª": 13721, "ÑĤÐ°ÐºÐ¸": 27430, "ÑĤÐµ": 5863, "ÑĤÐµÑĢ": 8187, "ÑĤÐµÑĢÐµÑģ": 45453, "ÑĤÐµÑģÑĮ": 48430, "ÑĤÐ¸": 3396, "ÑĤÐ¸Ð²": 22325, "ÑĤÐ¸ÑĢÐ¾Ð²": 34996, "ÑĤÐ¾": 860, "ÑĤÐ¾Ð±": 34096, "ÑĤÐ¾Ð±Ñĭ": 7331, "ÑĤÐ¾Ð²": 8642, "à¦Łà¦ĺ": 17804, "ÑĤÐ¾ÑĢ": 2542, "ÑĤÐ¾ÑĢÐ°": 26250, "ÑĤÐ¾ÑĢÐ¸Ð¸": 47772, "ÑĤÐ¾ÑĢÐ¾Ð²": 45961, "ÑĤÐ¾ÑĢÑĭ": 38749, "Ġà¦Ĺà¦ľà¦Ĺà¦ľ": 20483, "ÑĤÐ¾ÑĩÐ½Ð¾": 24840, "ÑĤÐ¾ÑıÑī": 29132, "à¦ħà¦Ĺ": 13981, "ÑĤÑĢÐ°": 37397, "à¦ħà¦®": 13549, "à¦ıà¦ıà¦¸à¦ª": 16759, "ÑĤÑĮ": 1283, "à¦ļà¦¦à¦¶": 14706, "ÑĤÑı": 35151, "Ñĥ": 585, "ÑĥÐ±": 8893, "ÑĥÐ±Ð»Ð¸": 37412, "ÑĥÐ²": 9748, "ÑĥÐ²Ð°ÑĤÐ¸": 36303, "ÑĥÐ³": 22638, "ÑĥÐ´": 2955, "Ġà¦ĩà¦¨à¦Ń": 12248, "ÑĥÐ´Ð¸": 45462, "à¦¬à¦²à¦Ł": 17332, "ÑĥÐµÐ¼": 33096, "à¦¥à¦°à¦Ĺ": 17781, "ÑĥÐµÑĤÑģÑı": 37479, "ÑĥÐ¶": 5726, "ÑĥÐ¶Ð´": 37044, "ÑĥÐ¶Ðµ": 28285, "Ġà¦Ĺà¦£à¦§": 15687, "à¦°à¦¨à¦¤": 13514, "ÑĥÐ¹ÑĤÐµ": 28732, "à§Ģ": 10282, "ÑĥÐºÐ°": 38394, "ÑĥÐºÐ¸": 43188, "ÑĥÐ»": 23412, "ÑĥÐ»Ð¸": 28646, "à¦°à¦ķà¦¨": 13618, "Ġà¦¨à§Łà¦¶": 19615, "ÑĥÐ»ÑĮÑĤÐ°ÑĤ": 27248, "à¦Łà¦«à¦²": 20427, "ÑĥÐ»ÑıÑĢ": 35215, "ÑĥÐ¼": 5525, "Ġà¦Łà¦¸": 12161, "ÑĥÐ½Ð´": 40278, "ÑĥÐ½Ðº": 26533, "ÑĥÐ¿": 6907, "ÑĥÑĢ": 7489, "ÑĥÑĢÐ°": 49305, "ÑĥÑĢÑĭ": 36106, "ÑĥÑģ": 7071, "ÑĥÑģÐ°": 45735, "à¦ľà¦ļà¦¨": 21303, "ÑĥÑģÐºÐ°": 33101, "ÑĥÑģÐ¾Ð²": 48346, "à¦£à¦¯": 15028, "ÑĥÑģÑĤÐ¸ÑĤÑĮ": 46937, "ÑĥÑĤ": 3767, "ÑĥÑĤÑģÑĤÐ²": 47565, "Ġà¦Ĺà§ľà¦¬": 13967, "Ġà¦¹à¦¯à¦°à¦¤": 11576, "ÑĥÑĩ": 4187, "ÑĥÑĪ": 8288, "ÑĥÑĪÐºÐ°": 34187, "ÑĥÑĪÐºÐ¸": 41760, "Ġà§«à§¯à§«": 17263, "ÑĥÑİ": 3924, "ÑĥÑİÑĤ": 23588, "Ġà§¬à§¦à§¬": 17249, "ÑĥÑĶ": 36382, "ÑĦ": 3619, "Ġà¦ĩà¦£": 18190, "ÑĦÑĦ": 24988, "Ñħ": 1157, "ÑħÐ°": 36869, "ÑħÐ¾Ð´": 5280, "Ġà¦Ĩà¦¸à¦¨à¦Ĺ": 16106, "ÑĨ": 1814, "à¦īà¦ĩ": 11530, "Ġà¦¬à¦¦à¦®": 15524, "ÑĨÐµÐ²": 22898, "ÑĨÐµÐ½": 23447, "ÑĨÐ¸": 3706, "à¦¯à¦ļ": 12502, "ÑĨÐ¸Ð¹": 42495, "à¦®à¦®à¦®à¦®": 21964, "ÑĨÐ¸Ð¿": 27663, "ÑĨÐ¸Ñİ": 24718, "Ġà§«à§§à§Ń": 17651, "ÑĨÐ¾": 44569, "ÑĨÑĥ": 22542, "Ġà¦¸à¦ĩà¦¤": 14180, "à§§à§¯à§¬": 12857, "ÑĨÑĸÑĹ": 34780, "Ñĩ": 753, "ÑĩÐ°Ñģ": 8089, "ÑĩÐµ": 32595, "à¦īà§İà¦¸": 16565, "ÑĩÐµÑģÐºÐ¸": 28647, "ÑĩÐ¸": 37602, "ÑĩÐ¸Ð²": 28373, "Ġà¦Ĩà¦¬à¦¬": 19536, "ÑĩÐ¸ÐºÐ¸": 41978, "ÑĩÐ¸ÑĤ": 9607, "Ġà¦ĩà¦īà¦¨": 10542, "ÑĩÑĤÐ¾": 45984, "ÑĪ": 1198, "ÑĪÐ°": 47247, "ÑĪÐ°Ñı": 48769, "ÑĪÐµ": 5246, "ÑĪÐµÐ³Ð¾": 41047, "ÑĪÐµÐµ": 46384, "ÑĪÐµÐ¹": 43201, "ÑĪÐ¸Ð±": 37782, "ÑĪÐ¸Ðµ": 35202, "ÑĪÐ¸Ð¹": 24958, "ÑĪÐ¸Ñħ": 29024, "ÑĪÑĤ": 43428, "à¦īà¦¯": 18263, "Ñī": 2000, "ÑīÐµ": 4805, "ÑīÐµÐµ": 30145, "ÑīÐµÑģÑĤÐ²": 22470, "ÑīÐ¾": 32709, "Ġà¦¦à¦¸": 12534, "ÑĬ": 8515, "Ñĭ": 698, "ÑĭÐ²": 4655, "ÑĭÐ²Ð°ÐµÐ¼": 39276, "ÑĭÐ²Ð°ÐµÑĤ": 29277, "ÑĭÐ²Ð°Ð¹ÑĤÐµÑģÑĮ": 46944, "ÑĭÐ²Ð°ÑĤÑĮ": 25265, "ÑĭÐ²Ð°ÑİÑĤ": 41495, "ÑĭÐµ": 5312, "ÑĭÐ¹": 4851, "à¦Ĩà¦°à¦Ĩà¦°": 18125, "Ġà¦°à¦¹": 11250, "ÑĭÐ¼Ð¸": 24670, "ÑĭÐ¿": 43708, "ÑĭÑģ": 29476, "Ġà¦ľà¦¨à¦®à¦¨": 14043, "ÑĭÑħ": 7205, "Ġà¦Ĩà¦ĩà¦¸à¦¬": 21097, "ÑĭÑĩÐ½Ð¾": 35214, "Ġà¦¸à¦¬à¦¥": 12533, "ÑĮ": 678, "ÑĮÐµ": 46176, "ÑĮÐ¾Ð³Ð¾": 40977, "ÑĮÑĤÐµ": 30802, "Ġà¦Ĩà¦ĩà¦Ľ": 15616, "ÑĮÑİÑĤ": 38934, "à¦¨à¦§à¦°": 14195, "Ñį": 7570, "à¦Ĺà¦ªà¦¤": 11967, "Ġà§§à§¯à§¬à§¨": 12920, "Ñİ": 1148, "ÑİÐ´Ð°": 42875, "ÑİÑģÑĮ": 24551, "ÑİÑĤ": 7329, "à¦¶à¦ķà¦¹": 21816, "ÑİÑĤÑĮ": 47469, "ÑİÑī": 24219, "Ñı": 681, "à¦¦à¦ķà¦°": 12998, "ÑıÐ³": 25217, "Ġà¦Ľà¦²": 12825, "ÑıÐµÑĤ": 27516, "à¦¤à¦°à¦£à¦¸à¦¹": 18233, "à¦²à¦ľ": 11124, "à¦ľà¦¸à¦Ń": 16065, "ÑıÐ»Ð°": 37394, "ÑıÐ»Ð¸": 24559, "Ġà§§à§¯à§": 10531, "ÑıÐ¼Ð¸": 31215, "Ġà§©à§¨à§©": 15737, "Ġà¦ĵà§Łà¦°": 21311, "à¦Ĺà¦ľà¦Ł": 15293, "ÑıÑĤ": 4558, "ÑıÑĤÐ°": 25741, "ÑıÑĤÐµÐ»ÑĮ": 37764, "à¦¥à¦¨à¦ĩ": 21689, "à¦°à¦£à¦¦": 19005, "ÑıÑĤÑģÑı": 23418, "ÑıÑĤÑĮ": 8773, "ÑıÑĤÑĮÑģÑı": 40986, "ÑıÑħ": 24725, "ÑıÑĩ": 47832, "Ġà¦®à¦¦à¦¨à¦ª": 16076, "ÑıÑİÑĤ": 48891, "Ñĳ": 2882, "ÑĳÐ·": 50124, "ÑĳÐ»": 24180, "à¦ļà¦²à¦Ł": 12868, "ÑĳÐ½": 22212, "ÑĳÑĢ": 24134, "Ġà¦Ĺà¦ľ": 11950, "ÑĳÑĤÑģÑı": 36651, "ÑĶ": 8403, "Ñĸ": 1827, "ÑĸÐ±": 42732, "ÑĸÐ²": 9718, "ÑĸÐ´": 9554, "ÑĸÐ·": 28933, "Ġà¦ĺà¦°à¦ķ": 16471, "ÑĸÐ¹ÑģÑĮ": 44269, "ÑĸÐº": 27281, "ÑĸÐ»": 35432, "à¦²à¦¨à¦ķà¦¶": 16651, "ÑĸÐ»ÑĮÐºÐ¸": 45642, "ÑĸÐ¼": 28198, "à¦ĩà¦°à¦¶": 17113, "ÑĸÑĢ": 36154, "ÑĸÑģ": 32738, "ÑĸÑĤ": 24947, "ÑĸÑĤÐ¸": 45844, "ÑĸÑĤÑĮ": 49852, "ÑĸÑĩ": 33702, "ÑĸÑĪ": 39011, "ÑĸÑı": 34299, "ÑĸÑĶ": 46592, "ÑĸÑĹ": 29536, "ÑĹ": 8045, "Ò": 142, "ÒĽ": 49964, "Ó": 143, "Ô": 144, "Õ": 145, "Ġà§Ńà§¯à§®": 19091, "Õ¡Õ": 23279, "Õ¥": 29092, "Õ¥Õ": 46349, "Õ«": 35188, "Õ¶": 29295, "Õ¸": 30165, "Õ¸ÖĤ": 43080, "Ö": 146, "ÖĢ": 25119, "ÖĤ": 38565, "×": 147, "à¦°à¦¹à¦°": 11996, "×¢": 7924, "×¢×ľ": 46818, "×¢×Ŀ": 49661, "×£": 38261, "×¤": 9730, "×¤×¨": 32029, "×¥": 45966, "à¦¤à¦ĵ": 11968, "×¦×Ŀ": 47239, "×§": 8573, "×¨": 2986, "×¨×ª": 40831, "×¨×Ĳ": 26412, "×¨×Ĳ×ľ": 40783, "×¨×ĳ": 42062, "×¨×Ĵ": 45965, "×¨×Ķ": 36279, "×¨×ĺ": 46323, "×¨×Ļ": 38339, "×¨×Ļ×Ŀ": 28096, "×¨×ļ": 48214, "×¨×Ľ": 44121, "×©": 5365, "×©×¨": 30040,
[...]
